{
  "version": "1.0",
  "truncation": null,
  "padding": null,
  "added_tokens": [
    {
      "id": 0,
      "content": "<unk>",
      "single_word": false,
      "lstrip": false,
      "rstrip": false,
      "normalized": false,
      "special": true
    },
    {
      "id": 1,
      "content": "<s>",
      "single_word": false,
      "lstrip": false,
      "rstrip": false,
      "normalized": false,
      "special": true
    },
    {
      "id": 2,
      "content": "</s>",
      "single_word": false,
      "lstrip": false,
      "rstrip": false,
      "normalized": false,
      "special": true
    },
    {
      "id": 3,
      "content": "<|im_start|>",
      "single_word": false,
      "lstrip": false,
      "rstrip": false,
      "normalized": false,
      "special": true
    },
    {
      "id": 4,
      "content": "<|im_end|>",
      "single_word": false,
      "lstrip": false,
      "rstrip": false,
      "normalized": false,
      "special": true
    },
    {
      "id": 5,
      "content": "<|pad|>",
      "single_word": false,
      "lstrip": false,
      "rstrip": false,
      "normalized": false,
      "special": true
    },
    {
      "id": 6,
      "content": "<mask>",
      "single_word": false,
      "lstrip": false,
      "rstrip": false,
      "normalized": false,
      "special": true
    },
    {
      "id": 7,
      "content": "<|system|>",
      "single_word": false,
      "lstrip": false,
      "rstrip": false,
      "normalized": false,
      "special": true
    },
    {
      "id": 8,
      "content": "<|user|>",
      "single_word": false,
      "lstrip": false,
      "rstrip": false,
      "normalized": false,
      "special": true
    },
    {
      "id": 9,
      "content": "<|assistant|>",
      "single_word": false,
      "lstrip": false,
      "rstrip": false,
      "normalized": false,
      "special": true
    },
    {
      "id": 10,
      "content": "<|tool|>",
      "single_word": false,
      "lstrip": false,
      "rstrip": false,
      "normalized": false,
      "special": true
    },
    {
      "id": 11,
      "content": "<|function|>",
      "single_word": false,
      "lstrip": false,
      "rstrip": false,
      "normalized": false,
      "special": true
    },
    {
      "id": 12,
      "content": "<|observation|>",
      "single_word": false,
      "lstrip": false,
      "rstrip": false,
      "normalized": false,
      "special": true
    },
    {
      "id": 13,
      "content": "<|unknown|>",
      "single_word": false,
      "lstrip": false,
      "rstrip": false,
      "normalized": false,
      "special": true
    },
    {
      "id": 14,
      "content": "<|safe|>",
      "single_word": false,
      "lstrip": false,
      "rstrip": false,
      "normalized": false,
      "special": true
    },
    {
      "id": 15,
      "content": "<|unsafe|>",
      "single_word": false,
      "lstrip": false,
      "rstrip": false,
      "normalized": false,
      "special": true
    }
  ],
  "normalizer": {
    "type": "Sequence",
    "normalizers": [
      {
        "type": "NFC"
      },
      {
        "type": "Replace",
        "pattern": {
          "Regex": "\\r\\n?"
        },
        "content": "\n"
      },
      {
        "type": "Replace",
        "pattern": {
          "Regex": "[\\u0000-\\u0008\\u000B\\u000C\\u000E-\\u001F\\u007F]"
        },
        "content": ""
      },
      {
        "type": "Replace",
        "pattern": {
          "Regex": "[\\u2066-\\u2069]"
        },
        "content": ""
      },
      {
        "type": "Replace",
        "pattern": {
          "Regex": "[\\u3000\\u00A0\\u2007\\u202F]"
        },
        "content": " "
      },
      {
        "type": "Replace",
        "pattern": {
          "Regex": "[ ]{2,}"
        },
        "content": " "
      },
      {
        "type": "Replace",
        "pattern": {
          "Regex": "\\n{3,}"
        },
        "content": "\n\n"
      },
      {
        "type": "Replace",
        "pattern": {
          "Regex": "^[ \\t]+"
        },
        "content": ""
      },
      {
        "type": "Replace",
        "pattern": {
          "Regex": "[ \\t]+$"
        },
        "content": ""
      }
    ]
  },
  "pre_tokenizer": {
    "type": "Sequence",
    "pretokenizers": [
      {
        "type": "Split",
        "pattern": {
          "Regex": "([rubf]*(['\\\"]{3}.*?['\\\"]{3}|['\\\"].*?['\\\"]))"
        },
        "behavior": "Isolated",
        "invert": false
      },
      {
        "type": "Split",
        "pattern": {
          "Regex": "(#.*|//.*|/\\*[\\s\\S]*?\\*/)"
        },
        "behavior": "Isolated",
        "invert": false
      },
      {
        "type": "Split",
        "pattern": {
          "Regex": "https?://[^\\s]+"
        },
        "behavior": "Isolated",
        "invert": false
      },
      {
        "type": "Split",
        "pattern": {
          "Regex": "\\d+([._]\\d+)*([eE][+-]?\\d+)?"
        },
        "behavior": "Isolated",
        "invert": false
      },
      {
        "type": "Split",
        "pattern": {
          "Regex": "(===|!==|==|!=|<=|>=|\\+\\+|--|&&|\\|\\||->|=>|::|\\?\\?|\\.?)"
        },
        "behavior": "Isolated",
        "invert": false
      },
      {
        "type": "Punctuation",
        "behavior": "Isolated"
      },
      {
        "type": "Split",
        "pattern": {
          "Regex": "(\\p{Extended_Pictographic}(?:\\u200D\\p{Extended_Pictographic})*)"
        },
        "behavior": "Isolated",
        "invert": false
      },
      {
        "type": "Split",
        "pattern": {
          "Regex": "[\\p{L}_][\\p{L}\\p{N}_]*"
        },
        "behavior": "Isolated",
        "invert": false
      },
      {
        "type": "UnicodeScripts"
      },
      {
        "type": "ByteLevel",
        "add_prefix_space": false,
        "trim_offsets": true,
        "use_regex": true
      }
    ]
  },
  "post_processor": {
    "type": "TemplateProcessing",
    "single": [
      {
        "Sequence": {
          "id": "A",
          "type_id": 0
        }
      }
    ],
    "pair": [
      {
        "Sequence": {
          "id": "A",
          "type_id": 0
        }
      },
      {
        "Sequence": {
          "id": "B",
          "type_id": 0
        }
      }
    ],
    "special_tokens": {
      "</s>": {
        "id": "</s>",
        "ids": [
          2
        ],
        "tokens": [
          "</s>"
        ]
      },
      "<mask>": {
        "id": "<mask>",
        "ids": [
          6
        ],
        "tokens": [
          "<mask>"
        ]
      },
      "<s>": {
        "id": "<s>",
        "ids": [
          1
        ],
        "tokens": [
          "<s>"
        ]
      },
      "<unk>": {
        "id": "<unk>",
        "ids": [
          0
        ],
        "tokens": [
          "<unk>"
        ]
      },
      "<|assistant|>": {
        "id": "<|assistant|>",
        "ids": [
          9
        ],
        "tokens": [
          "<|assistant|>"
        ]
      },
      "<|function|>": {
        "id": "<|function|>",
        "ids": [
          11
        ],
        "tokens": [
          "<|function|>"
        ]
      },
      "<|im_end|>": {
        "id": "<|im_end|>",
        "ids": [
          4
        ],
        "tokens": [
          "<|im_end|>"
        ]
      },
      "<|im_start|>": {
        "id": "<|im_start|>",
        "ids": [
          3
        ],
        "tokens": [
          "<|im_start|>"
        ]
      },
      "<|observation|>": {
        "id": "<|observation|>",
        "ids": [
          12
        ],
        "tokens": [
          "<|observation|>"
        ]
      },
      "<|pad|>": {
        "id": "<|pad|>",
        "ids": [
          5
        ],
        "tokens": [
          "<|pad|>"
        ]
      },
      "<|safe|>": {
        "id": "<|safe|>",
        "ids": [
          14
        ],
        "tokens": [
          "<|safe|>"
        ]
      },
      "<|system|>": {
        "id": "<|system|>",
        "ids": [
          7
        ],
        "tokens": [
          "<|system|>"
        ]
      },
      "<|tool|>": {
        "id": "<|tool|>",
        "ids": [
          10
        ],
        "tokens": [
          "<|tool|>"
        ]
      },
      "<|unknown|>": {
        "id": "<|unknown|>",
        "ids": [
          13
        ],
        "tokens": [
          "<|unknown|>"
        ]
      },
      "<|unsafe|>": {
        "id": "<|unsafe|>",
        "ids": [
          15
        ],
        "tokens": [
          "<|unsafe|>"
        ]
      },
      "<|user|>": {
        "id": "<|user|>",
        "ids": [
          8
        ],
        "tokens": [
          "<|user|>"
        ]
      }
    }
  },
  "decoder": {
    "type": "ByteLevel",
    "add_prefix_space": true,
    "trim_offsets": true,
    "use_regex": true
  },
  "model": {
    "type": "BPE",
    "dropout": null,
    "unk_token": "<unk>",
    "continuing_subword_prefix": "",
    "end_of_word_suffix": "",
    "fuse_unk": true,
    "byte_fallback": true,
    "ignore_merges": false,
    "vocab": {
      "<unk>": 0,
      "<s>": 1,
      "</s>": 2,
      "<|im_start|>": 3,
      "<|im_end|>": 4,
      "<|pad|>": 5,
      "<mask>": 6,
      "<|system|>": 7,
      "<|user|>": 8,
      "<|assistant|>": 9,
      "<|tool|>": 10,
      "<|function|>": 11,
      "<|observation|>": 12,
      "<|unknown|>": 13,
      "<|safe|>": 14,
      "<|unsafe|>": 15,
      "!": 16,
      "\"": 17,
      "#": 18,
      "$": 19,
      "%": 20,
      "&": 21,
      "'": 22,
      "(": 23,
      ")": 24,
      "*": 25,
      "+": 26,
      ",": 27,
      "-": 28,
      ".": 29,
      "/": 30,
      "0": 31,
      "1": 32,
      "2": 33,
      "3": 34,
      "4": 35,
      "5": 36,
      "6": 37,
      "7": 38,
      "8": 39,
      "9": 40,
      ":": 41,
      ";": 42,
      "<": 43,
      "=": 44,
      ">": 45,
      "?": 46,
      "@": 47,
      "A": 48,
      "B": 49,
      "C": 50,
      "D": 51,
      "E": 52,
      "F": 53,
      "G": 54,
      "H": 55,
      "I": 56,
      "J": 57,
      "K": 58,
      "L": 59,
      "M": 60,
      "N": 61,
      "O": 62,
      "P": 63,
      "Q": 64,
      "R": 65,
      "S": 66,
      "T": 67,
      "U": 68,
      "V": 69,
      "W": 70,
      "X": 71,
      "Y": 72,
      "Z": 73,
      "[": 74,
      "\\": 75,
      "]": 76,
      "^": 77,
      "_": 78,
      "`": 79,
      "a": 80,
      "b": 81,
      "c": 82,
      "d": 83,
      "e": 84,
      "f": 85,
      "g": 86,
      "h": 87,
      "i": 88,
      "j": 89,
      "k": 90,
      "l": 91,
      "m": 92,
      "n": 93,
      "o": 94,
      "p": 95,
      "q": 96,
      "r": 97,
      "s": 98,
      "t": 99,
      "u": 100,
      "v": 101,
      "w": 102,
      "x": 103,
      "y": 104,
      "z": 105,
      "{": 106,
      "|": 107,
      "}": 108,
      "~": 109,
      "¡": 110,
      "¢": 111,
      "£": 112,
      "¤": 113,
      "¥": 114,
      "¦": 115,
      "§": 116,
      "¨": 117,
      "©": 118,
      "ª": 119,
      "«": 120,
      "¬": 121,
      "®": 122,
      "¯": 123,
      "°": 124,
      "±": 125,
      "²": 126,
      "³": 127,
      "´": 128,
      "µ": 129,
      "¶": 130,
      "·": 131,
      "¸": 132,
      "¹": 133,
      "º": 134,
      "»": 135,
      "¼": 136,
      "½": 137,
      "¾": 138,
      "¿": 139,
      "À": 140,
      "Á": 141,
      "Â": 142,
      "Ã": 143,
      "Ä": 144,
      "Å": 145,
      "Æ": 146,
      "Ç": 147,
      "È": 148,
      "É": 149,
      "Ê": 150,
      "Ë": 151,
      "Ì": 152,
      "Í": 153,
      "Î": 154,
      "Ï": 155,
      "Ð": 156,
      "Ñ": 157,
      "Ò": 158,
      "Ó": 159,
      "Ô": 160,
      "Õ": 161,
      "Ö": 162,
      "×": 163,
      "Ø": 164,
      "Ù": 165,
      "Ú": 166,
      "Û": 167,
      "Ü": 168,
      "Ý": 169,
      "Þ": 170,
      "ß": 171,
      "à": 172,
      "á": 173,
      "â": 174,
      "ã": 175,
      "ä": 176,
      "å": 177,
      "æ": 178,
      "ç": 179,
      "è": 180,
      "é": 181,
      "ê": 182,
      "ë": 183,
      "ì": 184,
      "í": 185,
      "î": 186,
      "ï": 187,
      "ð": 188,
      "ñ": 189,
      "ò": 190,
      "ó": 191,
      "ô": 192,
      "õ": 193,
      "ö": 194,
      "÷": 195,
      "ø": 196,
      "ù": 197,
      "ú": 198,
      "û": 199,
      "ü": 200,
      "ý": 201,
      "þ": 202,
      "ÿ": 203,
      "Ā": 204,
      "ā": 205,
      "Ă": 206,
      "ă": 207,
      "Ą": 208,
      "ą": 209,
      "Ć": 210,
      "ć": 211,
      "Ĉ": 212,
      "ĉ": 213,
      "Ċ": 214,
      "ċ": 215,
      "Č": 216,
      "č": 217,
      "Ď": 218,
      "ď": 219,
      "Đ": 220,
      "đ": 221,
      "Ē": 222,
      "ē": 223,
      "Ĕ": 224,
      "ĕ": 225,
      "Ė": 226,
      "ė": 227,
      "Ę": 228,
      "ę": 229,
      "Ě": 230,
      "ě": 231,
      "Ĝ": 232,
      "ĝ": 233,
      "Ğ": 234,
      "ğ": 235,
      "Ġ": 236,
      "ġ": 237,
      "Ģ": 238,
      "ģ": 239,
      "Ĥ": 240,
      "ĥ": 241,
      "Ħ": 242,
      "ħ": 243,
      "Ĩ": 244,
      "ĩ": 245,
      "Ī": 246,
      "ī": 247,
      "Ĭ": 248,
      "ĭ": 249,
      "Į": 250,
      "į": 251,
      "İ": 252,
      "ı": 253,
      "Ĳ": 254,
      "ĳ": 255,
      "Ĵ": 256,
      "ĵ": 257,
      "Ķ": 258,
      "ķ": 259,
      "ĸ": 260,
      "Ĺ": 261,
      "ĺ": 262,
      "Ļ": 263,
      "ļ": 264,
      "Ľ": 265,
      "ľ": 266,
      "Ŀ": 267,
      "ŀ": 268,
      "Ł": 269,
      "ł": 270,
      "Ń": 271,
      "ä¸": 272,
      "ï¼": 273,
      "çļ": 274,
      "çļĦ": 275,
      "ï¼Į": 276,
      "ãĢ": 277,
      "ãĢĤ": 278,
      "äº": 279,
      "ä»": 280,
      "åı": 281,
      "æľ": 282,
      "è¿": 283,
      "æĪ": 284,
      "åħ": 285,
      "ä½": 286,
      "æĺ": 287,
      "å¤": 288,
      "è¯": 289,
      "ä¸Ģ": 290,
      "æĸ": 291,
      "å®": 292,
      "çĶ": 293,
      "åĪ": 294,
      "åĴ": 295,
      "åľ": 296,
      "åĴĮ": 297,
      "åĲ": 298,
      "åĬ": 299,
      "ç»": 300,
      "ä¹": 301,
      "æĺ¯": 302,
      "å°": 303,
      "åŃ": 304,
      "ä¸ª": 305,
      "ä»¥": 306,
      "è®": 307,
      "ãĢģ": 308,
      "æĪĳ": 309,
      "åľ¨": 310,
      "äºº": 311,
      "ĥ½": 312,
      "æľī": 313,
      "æĹ": 314,
      "ï¼ļ": 315,
      "äºĨ": 316,
      "åı¯": 317,
      "è¿Ļ": 318,
      "æĿ": 319,
      "åĽ": 320,
      "åº": 321,
      "éĩ": 322,
      "å¹": 323,
      "å¸": 324,
      "ä¸Ń": 325,
      "ä¼": 326,
      "éĢ": 327,
      "èĥ½": 328,
      "è¡": 329,
      "åĩ": 330,
      "å·": 331,
      "æĸĩ": 332,
      "åĮ": 333,
      "è¦": 334,
      "è¦ģ": 335,
      "é¢": 336,
      "å¯": 337,
      "å¾": 338,
      "åĨ": 339,
      "æķ": 340,
      "ä¸º": 341,
      "è§": 342,
      "å¥": 343,
      "çī": 344,
      "ç§": 345,
      "ä»¬": 346,
      "éĹ": 347,
      "çİ": 348,
      "æĢ": 349,
      "ä¸į": 350,
      "å¼": 351,
      "çĶ¨": 352,
      "æī": 353,
      "æŀ": 354,
      "æŃ": 355,
      "èĢ": 356,
      "æı": 357,
      "å½": 358,
      "çĶŁ": 359,
      "çŃ": 360,
      "æĬ": 361,
      "æł": 362,
      "éĿ": 363,
      "åį": 364,
      "ä¿": 365,
      "æĦ": 366,
      "æ³": 367,
      "æĥ": 368,
      "âĢ": 369,
      "çĽ": 370,
      "æĿ¥": 371,
      "èĩ": 372,
      "æ°": 373,
      "åĵ": 374,
      "å¦": 375,
      "ä¸ĭ": 376,
      "çĲ": 377,
      "æĻ": 378,
      "æĪĲ": 379,
      "åİ": 380,
      "æıĲ": 381,
      "æĽ": 382,
      "åĪ°": 383,
      "ä»ĸ": 384,
      "åŃ¦": 385,
      "å¦Ĥ": 386,
      "æİ": 387,
      "è¡Į": 388,
      "å¿": 389,
      "åĩº": 390,
      "åĳ": 391,
      "æĭ": 392,
      "æĹ¶": 393,
      "å¯¹": 394,
      "ä½ł": 395,
      "æĶ": 396,
      "åŃĲ": 397,
      "ä¾": 398,
      "äºİ": 399,
      "åľ°": 400,
      "ä¸Ĭ": 401,
      "é¢ĺ": 402,
      "ç«": 403,
      "å°ı": 404,
      "æµ": 405,
      "è´": 406,
      "å¥½": 407,
      "æ¯": 408,
      "ä¼ļ": 409,
      "çŃī": 410,
      "æĸ¹": 411,
      "æľ¬": 412,
      "æĽ´": 413,
      "èĩª": 414,
      "åĪĨ": 415,
      "äºĽ": 416,
      "å¤ļ": 417,
      "èµ": 418,
      "å¤§": 419,
      "å±": 420,
      "æį": 421,
      "åĬ¨": 422,
      "ï¼Ł": 423,
      "ä½ľ": 424,
      "æĮ": 425,
      "çī©": 426,
      "å·¥": 427,
      "çº": 428,
      "åħ³": 429,
      "è¾": 430,
      "å¹¶": 431,
      "åıĳ": 432,
      "ç®": 433,
      "æ´": 434,
      "ç±": 435,
      "é£": 436,
      "éľ": 437,
      "éĿ¢": 438,
      "æŀľ": 439,
      "æ¸": 440,
      "å®ļ": 441,
      "æľĢ": 442,
      "åħ¶": 443,
      "æ¬": 444,
      "åŁ": 445,
      "ç§į": 446,
      "æ²": 447,
      "æ³ķ": 448,
      "çİ°": 449,
      "è¿Ľ": 450,
      "éĻ": 451,
      "æĤ": 452,
      "è¿ĩ": 453,
      "éĹ®": 454,
      "åģ": 455,
      "ä½ĵ": 456,
      "å¤©": 457,
      "å®ĥ": 458,
      "èī": 459,
      "æį®": 460,
      "ç»Ļ": 461,
      "åĬĽ": 462,
      "çĲĨ": 463,
      "éľĢ": 464,
      "æĺİ": 465,
      "å°Ĩ": 466,
      "æĢ§": 467,
      "åºĶ": 468,
      "åĬł": 469,
      "çľ": 470,
      "ç±»": 471,
      "æĦŁ": 472,
      "çĤ": 473,
      "æĸ°": 474,
      "æķ°": 475,
      "æĥħ": 476,
      "éģ": 477,
      "åĮĸ": 478,
      "çĦ": 479,
      "åĲĮ": 480,
      "é«": 481,
      "ä½¿": 482,
      "æĪĸ": 483,
      "åĽł": 484,
      "éĩį": 485,
      "å¸¸": 486,
      "ä¿Ŀ": 487,
      "åı¥": 488,
      "é«ĺ": 489,
      "æ±": 490,
      "è½": 491,
      "ä¹Ł": 492,
      "æĬĢ": 493,
      "å®¶": 494,
      "æľº": 495,
      "è¶": 496,
      "å½±": 497,
      "ä¸»": 498,
      "éĶ": 499,
      "éĺ": 500,
      "è¯Ń": 501,
      "ç³": 502,
      "çĦ¶": 503,
      "ç«ł": 504,
      "âĢĿ": 505,
      "æĻº": 506,
      "å¾Ĺ": 507,
      "éĢļ": 508,
      "çŁ": 509,
      "âĢľ": 510,
      "åĵģ": 511,
      "ç¾": 512,
      "çĶµ": 513,
      "è°": 514,
      "è§£": 515,
      "ä¹ĭ": 516,
      "ä¹Ī": 517,
      "æģ": 518,
      "åº¦": 519,
      "çĿ": 520,
      "æĤ¨": 521,
      "èĢĮ": 522,
      "è¡¨": 523,
      "åī": 524,
      "ç¤": 525,
      "ç»ı": 526,
      "è¯·": 527,
      "æĦı": 528,
      "å¾Ī": 529,
      "éĹ´": 530,
      "ç©": 531,
      "æŃ¤": 532,
      "èĬ": 533,
      "åĸ": 534,
      "æ°Ķ": 535,
      "å¢": 536,
      "åħ¬": 537,
      "çĤ¹": 538,
      "éĩı": 539,
      "åĽ½": 540,
      "æľ¯": 541,
      "èī²": 542,
      "ç¨": 543,
      "èĤ": 544,
      "è¯į": 545,
      "èĢħ": 546,
      "å¹´": 547,
      "å»": 548,
      "å®ŀ": 549,
      "ç¾İ": 550,
      "åĢ": 551,
      "åıĸ": 552,
      "å¿ĥ": 553,
      "ä¿¡": 554,
      "ä¹ł": 555,
      "æ®": 556,
      "åĲį": 557,
      "ä½Ĩ": 558,
      "çĸ": 559,
      "åĲĪ": 560,
      "æīĢ": 561,
      "è¯¥": 562,
      "ä¸ļ": 563,
      "ä¾Ľ": 564,
      "ç¡": 565,
      "è®¡": 566,
      "æ´»": 567,
      "åĲİ": 568,
      "éĤ": 569,
      "äºĭ": 570,
      "ä»İ": 571,
      "å»º": 572,
      "è¿ĺ": 573,
      "çĽ¸": 574,
      "çĿĢ": 575,
      "çĲĥ": 576,
      "éĥ½": 577,
      "æŁ": 578,
      "æ°´": 579,
      "ç½": 580,
      "åĮħ": 581,
      "æł¹": 582,
      "ä¸İ": 583,
      "æĥ³": 584,
      "æ®µ": 585,
      "é£Ł": 586,
      "å¼ı": 587,
      "çķ": 588,
      "ç´": 589,
      "åħ¥": 590,
      "åħ¨": 591,
      "è¿°": 592,
      "å±ķ": 593,
      "éĩĮ": 594,
      "æ¯Ķ": 595,
      "æ·": 596,
      "é¡": 597,
      "å¤ĸ": 598,
      "æŃ£": 599,
      "çİ¯": 600,
      "çī¹": 601,
      "èĲ": 602,
      "é¦": 603,
      "ç¯": 604,
      "éĿŀ": 605,
      "æ¡": 606,
      "åĨħ": 607,
      "åİ»": 608,
      "å¼Ģ": 609,
      "å½ĵ": 610,
      "è¢": 611,
      "éķ": 612,
      "éļ": 613,
      "åĨĻ": 614,
      "åıĺ": 615,
      "ç¨ĭ": 616,
      "æģ¯": 617,
      "ç³»": 618,
      "çĥ": 619,
      "åŀ": 620,
      "éĥ": 621,
      "ç¡®": 622,
      "è·": 623,
      "è¯´": 624,
      "èģ": 625,
      "åĬ©": 626,
      "ç¼": 627,
      "åħ·": 628,
      "åĪ¶": 629,
      "ç¬": 630,
      "è®©": 631,
      "çľĭ": 632,
      "ä»Ģ": 633,
      "å¸Ĥ": 634,
      "æĮģ": 635,
      "éĽ": 636,
      "éģĵ": 637,
      "åĿ": 638,
      "ç¯ĩ": 639,
      "çĭ": 640,
      "äº§": 641,
      "çł": 642,
      "èµ·": 643,
      "ç»ĵ": 644,
      "åķ": 645,
      "å¸®": 646,
      "èº": 647,
      "æ¯ı": 648,
      "åıĬ": 649,
      "è¯Ŀ": 650,
      "éĥ¨": 651,
      "éĤ£": 652,
      "çĽ®": 653,
      "èĭ": 654,
      "ä½ķ": 655,
      "éķ¿": 656,
      "èį": 657,
      "çĪ": 658,
      "ç®Ĺ": 659,
      "åĬ¡": 660,
      "èº«": 661,
      "åģ¥": 662,
      "åĻ": 663,
      "è¢«": 664,
      "å·±": 665,
      "æĹ¥": 666,
      "å°ĳ": 667,
      "ç§ĳ": 668,
      "éĢĤ": 669,
      "åīį": 670,
      "éħ": 671,
      "æĭ¬": 672,
      "åĸľ": 673,
      "åľº": 674,
      "åıĹ": 675,
      "å®¹": 676,
      "æĹł": 677,
      "æ¬¢": 678,
      "åĽŀ": 679,
      "åĻ¨": 680,
      "æ¶": 681,
      "éĢī": 682,
      "æīĭ": 683,
      "åĮ»": 684,
      "äº¤": 685,
      "æłĩ": 686,
      "ä»£": 687,
      "åŀĭ": 688,
      "çĹ": 689,
      "åĪ«": 690,
      "èĻ": 691,
      "é¢Ĩ": 692,
      "å¤Ħ": 693,
      "é¥": 694,
      "éª": 695,
      "æ»": 696,
      "çŃĶ": 697,
      "è¨": 698,
      "åĪ©": 699,
      "è´¨": 700,
      "ä½į": 701,
      "æ¡Ī": 702,
      "è®®": 703,
      "ä¸¤": 704,
      "å¢ĥ": 705,
      "å¹³": 706,
      "é£İ": 707,
      "æĳ": 708,
      "çģ": 709,
      "æİ¨": 710,
      "å§": 711,
      "ä¾ĭ": 712,
      "çĻ": 713,
      "ä»»": 714,
      "éŁ": 715,
      "æ¸¸": 716,
      "åĵį": 717,
      "çŁ¥": 718,
      "ä»¶": 719,
      "æµ·": 720,
      "è®º": 721,
      "æĢ»": 722,
      "ç¤¾": 723,
      "åŃĹ": 724,
      "æıı": 725,
      "æĶ¹": 726,
      "ç¥": 727,
      "åŁŁ": 728,
      "åı¸": 729,
      "è¨Ģ": 730,
      "å°±": 731,
      "æķĪ": 732,
      "æ±Ĥ": 733,
      "æĶ¾": 734,
      "æ²¡": 735,
      "åįķ": 736,
      "ç®Ģ": 737,
      "åĪĽ": 738,
      "è§Ĥ": 739,
      "åĨ³": 740,
      "èĪ": 741,
      "è®¾": 742,
      "æ¨": 743,
      "åıª": 744,
      "æľª": 745,
      "ä¸ī": 746,
      "åº·": 747,
      "æ¼": 748,
      "ç»Ł": 749,
      "å£": 750,
      "æº": 751,
      "é»": 752,
      "æľŁ": 753,
      "è¯Ĩ": 754,
      "ä¹Ĳ": 755,
      "èĬĤ": 756,
      "æ³¨": 757,
      "æ·±": 758,
      "æŃ¥": 759,
      "å¤Ł": 760,
      "æĻ¯": 761,
      "å¼º": 762,
      "èĥ": 763,
      "æĸŃ": 764,
      "æŀģ": 765,
      "åĩı": 766,
      "æł·": 767,
      "æµģ": 768,
      "å®ī": 769,
      "ç²": 770,
      "è¾¾": 771,
      "çĶ±": 772,
      "çĸĹ": 773,
      "æľį": 774,
      "èĦ": 775,
      "æĺŁ": 776,
      "çĮ": 777,
      "å¤ª": 778,
      "è±": 779,
      "éŁ³": 780,
      "é©": 781,
      "å½¢": 782,
      "åİŁ": 783,
      "æ¨¡": 784,
      "åģļ": 785,
      "ä¸ĸ": 786,
      "å·²": 787,
      "èİ": 788,
      "åıĭ": 789,
      "æ¬¡": 790,
      "å¸¦": 791,
      "æĮĩ": 792,
      "è½¦": 793,
      "æĪ·": 794,
      "è¿Ĳ": 795,
      "çĪ±": 796,
      "å¯¼": 797,
      "èı": 798,
      "çłĶ": 799,
      "åĳĺ": 800,
      "éĴ": 801,
      "æĸĻ": 802,
      "æĢĿ": 803,
      "éĶ®": 804,
      "è¯ķ": 805,
      "æī¾": 806,
      "åŁº": 807,
      "ç©º": 808,
      "è®¤": 809,
      "ãĢĭ": 810,
      "ãĢĬ": 811,
      "åİĨ": 812,
      "ä¹ī": 813,
      "å¥¹": 814,
      "æºĲ": 815,
      "åŁİ": 816,
      "ç½ĳ": 817,
      "åĲĦ": 818,
      "ä¼ł": 819,
      "æĬ¤": 820,
      "çĬ": 821,
      "æł¼": 822,
      "ç¤º": 823,
      "ç»Ħ": 824,
      "åħī": 825,
      "çķĮ": 826,
      "æĭ©": 827,
      "éĢł": 828,
      "åĲĳ": 829,
      "æĹħ": 830,
      "è¿ĳ": 831,
      "èĲ½": 832,
      "çĹħ": 833,
      "è°ĥ": 834,
      "ç©¶": 835,
      "è£": 836,
      "åı£": 837,
      "è§Ĩ": 838,
      "åĳ³": 839,
      "ï¼Ľ": 840,
      "çº¢": 841,
      "åĮº": 842,
      "èĢĥ": 843,
      "ä»·": 844,
      "åĲĹ": 845,
      "çŁŃ": 846,
      "èĬ±": 847,
      "é¤": 848,
      "åĳĬ": 849,
      "ç¦": 850,
      "ç®¡": 851,
      "é¤Ĳ": 852,
      "å¿«": 853,
      "ï¼ī": 854,
      "æ£": 855,
      "å¹¿": 856,
      "æ¸ħ": 857,
      "éªĮ": 858,
      "é¢Ħ": 859,
      "å¢ŀ": 860,
      "åĩĨ": 861,
      "å®Į": 862,
      "ä¸Ķ": 863,
      "åķĨ": 864,
      "é¦ĸ": 865,
      "æ¸©": 866,
      "ä¹¦": 867,
      "åĩł": 868,
      "éĶĻ": 869,
      "éĵ": 870,
      "å®¢": 871,
      "é¡¹": 872,
      "æķĻ": 873,
      "æļ": 874,
      "ä¼ĺ": 875,
      "è¶Ĭ": 876,
      "æĢģ": 877,
      "è¯Ħ": 878,
      "ç´ł": 879,
      "é¸": 880,
      "å¼ķ": 881,
      "éĩĳ": 882,
      "åĬŁ": 883,
      "è®¸": 884,
      "åħĪ": 885,
      "å¤ĩ": 886,
      "æķħ": 887,
      "æİ¥": 888,
      "ç¼ĸ": 889,
      "æĶ¯": 890,
      "è½»": 891,
      "ç¬¬": 892,
      "è§ī": 893,
      "ï¼Ī": 894,
      "åĪĹ": 895,
      "è¯»": 896,
      "èµĦ": 897,
      "å§ĭ": 898,
      "éĺ³": 899,
      "ä»Ĭ": 900,
      "èĮ": 901,
      "æµĭ": 902,
      "æĪĺ": 903,
      "ç³ĸ": 904,
      "èĩ´": 905,
      "æĳĺ": 906,
      "åŃĺ": 907,
      "åĵª": 908,
      "ç»Ń": 909,
      "åĢĻ": 910,
      "æľĭ": 911,
      "æŀĲ": 912,
      "ï¼ģ": 913,
      "èıľ": 914,
      "åĲ«": 915,
      "åħ±": 916,
      "æľĪ": 917,
      "ç¥ŀ": 918,
      "ç§¯": 919,
      "çº¦": 920,
      "åħĭ": 921,
      "æķ´": 922,
      "ç«ĭ": 923,
      "çİĩ": 924,
      "ç»Ĩ": 925,
      "çľŁ": 926,
      "åı²": 927,
      "çĭĹ": 928,
      "æİ¢": 929,
      "æ»¡": 930,
      "çĥŃ": 931,
      "è¶³": 932,
      "è±¡": 933,
      "å±±": 934,
      "å¤į": 935,
      "åĲ¦": 936,
      "åĪĻ": 937,
      "ç¿": 938,
      "åĨµ": 939,
      "çħ": 940,
      "é¥®": 941,
      "åħĥ": 942,
      "æİĴ": 943,
      "èĳ": 944,
      "åĥ": 945,
      "è§Ĵ": 946,
      "æľĽ": 947,
      "æĬ¥": 948,
      "åıį": 949,
      "éĩĩ": 950,
      "èĢģ": 951,
      "çº¿": 952,
      "åĪĴ": 953,
      "è°¢": 954,
      "æ¼Ķ": 955,
      "è¾ĵ": 956,
      "è§Ħ": 957,
      "éĢŁ": 958,
      "å¥³": 959,
      "å°½": 960,
      "çĻ½": 961,
      "è·¯": 962,
      "åĶ": 963,
      "èģĶ": 964,
      "éĻ©": 965,
      "åĲĥ": 966,
      "è¶£": 967,
      "åıĤ": 968,
      "è¥": 969,
      "ç²¾": 970,
      "ä»½": 971,
      "æĺĵ": 972,
      "çĽ´": 973,
      "æĸ¯": 974,
      "å¤´": 975,
      "è¥¿": 976,
      "æĲ": 977,
      "åĢ¼": 978,
      "åĨį": 979,
      "Â·": 980,
      "æ¦": 981,
      "æĸ½": 982,
      "åĥı": 983,
      "ä»ĭ": 984,
      "æ¶Ī": 985,
      "ä¾¿": 986,
      "åĽ¾": 987,
      "æ²»": 988,
      "çĬ¶": 989,
      "æŀĦ": 990,
      "ä¹°": 991,
      "æĶ¶": 992,
      "æŃĮ": 993,
      "å²": 994,
      "éļ¾": 995,
      "åĳ¨": 996,
      "æĿ¡": 997,
      "æŁ¥": 998,
      "æ¢": 999,
      "èİ·": 1000,
      "è¾ĥ": 1001,
      "è§ģ": 1002,
      "åĲ¬": 1003,
      "æ¤": 1004,
      "èĻĳ": 1005,
      "èĩ³": 1006,
      "æĶ¿": 1007,
      "è¯Ĺ": 1008,
      "æīĵ": 1009,
      "çīĩ": 1010,
      "çĮ«": 1011,
      "éħį": 1012,
      "éļı": 1013,
      "åºı": 1014,
      "æħ": 1015,
      "ç»ĥ": 1016,
      "çı": 1017,
      "å¼ł": 1018,
      "ç´¢": 1019,
      "åĳ½": 1020,
      "èĤ²": 1021,
      "çĭ¬": 1022,
      "ç¢": 1023,
      "äº«": 1024,
      "æĬĬ": 1025,
      "ä¸½": 1026,
      "åħħ": 1027,
      "è®°": 1028,
      "èĭ¹": 1029,
      "æ¬¾": 1030,
      "äºĮ": 1031,
      "åı¤": 1032,
      "åĲ¸": 1033,
      "å¡": 1034,
      "åĽŃ": 1035,
      "çŃĸ": 1036,
      "éĺŁ": 1037,
      "ä½İ": 1038,
      "éĹ¨": 1039,
      "åħ´": 1040,
      "å¤±": 1041,
      "è´Ń": 1042,
      "å¸Ī": 1043,
      "ç»´": 1044,
      "æīį": 1045,
      "åį³": 1046,
      "éĹ»": 1047,
      "ç§°": 1048,
      "å¸ĥ": 1049,
      "èįĲ": 1050,
      "äºĴ": 1051,
      "éĩĬ": 1052,
      "è¯ī": 1053,
      "åħį": 1054,
      "æĿĲ": 1055,
      "åĭ": 1056,
      "å°Ŀ": 1057,
      "æ¦Ĥ": 1058,
      "èĲ¥": 1059,
      "ç»į": 1060,
      "æĿ¾": 1061,
      "åŃ£": 1062,
      "èĽ": 1063,
      "éĽĨ": 1064,
      "å¿ħ": 1065,
      "å¨": 1066,
      "å¯Į": 1067,
      "è¯¯": 1068,
      "çĶ·": 1069,
      "èĭ±": 1070,
      "è½¬": 1071,
      "åı·": 1072,
      "é¦Ļ": 1073,
      "éĻ¤": 1074,
      "åįĩ": 1075,
      "èµĽ": 1076,
      "è®¨": 1077,
      "èĤī": 1078,
      "åİĭ": 1079,
      "æ°ĳ": 1080,
      "æĻļ": 1081,
      "è®²": 1082,
      "æĿİ": 1083,
      "é»ĳ": 1084,
      "ä¸ĵ": 1085,
      "é²": 1086,
      "åĬ¿": 1087,
      "ä¿®": 1088,
      "éĶĢ": 1089,
      "çª": 1090,
      "åĮĹ": 1091,
      "æĪı": 1092,
      "è¯ģ": 1093,
      "æĮĳ": 1094,
      "åįģ": 1095,
      "è´¹": 1096,
      "åįİ": 1097,
      "æİ§": 1098,
      "åħ»": 1099,
      "è£ħ": 1100,
      "æŁĵ": 1101,
      "ç¦»": 1102,
      "æŁĲ": 1103,
      "èħ": 1104,
      "åĽ´": 1105,
      "åĸĦ": 1106,
      "é©¬": 1107,
      "å¤ı": 1108,
      "ç»Ī": 1109,
      "å¯»": 1110,
      "èīº": 1111,
      "éĻħ": 1112,
      "å¸Į": 1113,
      "å¾ĭ": 1114,
      "åĽĽ": 1115,
      "èĳĹ": 1116,
      "éĺ²": 1117,
      "æŀĹ": 1118,
      "è¶ħ": 1119,
      "è¿ľ": 1120,
      "åŃ©": 1121,
      "æİª": 1122,
      "æĴ": 1123,
      "çħ§": 1124,
      "æ³Ľ": 1125,
      "å£°": 1126,
      "çģ«": 1127,
      "å°Ķ": 1128,
      "å·§": 1129,
      "ç½®": 1130,
      "å£«": 1131,
      "èµ°": 1132,
      "æĭī": 1133,
      "åı¦": 1134,
      "åĳ¢": 1135,
      "ä»ħ": 1136,
      "çĨ": 1137,
      "åİħ": 1138,
      "èģĮ": 1139,
      "è´Ł": 1140,
      "åįĹ": 1141,
      "å¾·": 1142,
      "èĽĭ": 1143,
      "è¾¹": 1144,
      "éĻį": 1145,
      "æĹ©": 1146,
      "æĺ¾": 1147,
      "åĦ": 1148,
      "æĪ¿": 1149,
      "è¾ĳ": 1150,
      "ä¸ľ": 1151,
      "æ½": 1152,
      "ä¼¼": 1153,
      "å¯Ĩ": 1154,
      "èŀ": 1155,
      "ç±³": 1156,
      "äºĶ": 1157,
      "æ¿": 1158,
      "çİ©": 1159,
      "æĵ": 1160,
      "æļĸ": 1161,
      "æĭ¥": 1162,
      "è®Ń": 1163,
      "çĶ»": 1164,
      "åĴĸ": 1165,
      "éģ¿": 1166,
      "çİĭ": 1167,
      "å®³": 1168,
      "å¿µ": 1169,
      "ä¼ģ": 1170,
      "åı°": 1171,
      "åķ¡": 1172,
      "æµİ": 1173,
      "åĽ¢": 1174,
      "äºļ": 1175,
      "æį¢": 1176,
      "ç»ľ": 1177,
      "äº¬": 1178,
      "èįī": 1179,
      "éĽ¨": 1180,
      "æ´ģ": 1181,
      "éĻĲ": 1182,
      "èŀį": 1183,
      "æ©": 1184,
      "å·´": 1185,
      "æĢİ": 1186,
      "åł": 1187,
      "æ±¡": 1188,
      "å®¤": 1189,
      "å¹²": 1190,
      "åĦ¿": 1191,
      "æłĳ": 1192,
      "æ¤į": 1193,
      "é»Ħ": 1194,
      "ç©¿": 1195,
      "éħĴ": 1196,
      "æĬķ": 1197,
      "è¡£": 1198,
      "é£ŀ": 1199,
      "æ¿Ģ": 1200,
      "çīĽ": 1201,
      "ä¼Ĺ": 1202,
      "å¾ģ": 1203,
      "å¾Ģ": 1204,
      "éĺħ": 1205,
      "å±ŀ": 1206,
      "åºĹ": 1207,
      "åºŃ": 1208,
      "çĳ": 1209,
      "çĸ¾": 1210,
      "æ²¹": 1211,
      "åĿĩ": 1212,
      "æ¹": 1213,
      "éº": 1214,
      "ä»¤": 1215,
      "å±ħ": 1216,
      "çīĮ": 1217,
      "äºī": 1218,
      "å¾®": 1219,
      "åī§": 1220,
      "åª": 1221,
      "é±": 1222,
      "ç«Ļ": 1223,
      "æ²Ļ": 1224,
      "ä¸ĩ": 1225,
      "é±¼": 1226,
      "çĽĬ": 1227,
      "ç»¿": 1228,
      "èī¯": 1229,
      "é¼": 1230,
      "ç¬¦": 1231,
      "åĪ¤": 1232,
      "åĪĩ": 1233,
      "é¾": 1234,
      "èĵ": 1235,
      "æķ£": 1236,
      "å¤ľ": 1237,
      "å®Ŀ": 1238,
      "å¾ħ": 1239,
      "ç¿»": 1240,
      "å¥¶": 1241,
      "ç»ĩ": 1242,
      "è¯Ĭ": 1243,
      "çº§": 1244,
      "å¥ĩ": 1245,
      "æĺ¥": 1246,
      "åıĪ": 1247,
      "éģĩ": 1248,
      "åĬª": 1249,
      "é¦Ĩ": 1250,
      "æ£Ģ": 1251,
      "åĿĹ": 1252,
      "é¢ľ": 1253,
      "æĻ®": 1254,
      "è¿ŀ": 1255,
      "é¸¡": 1256,
      "èĪĴ": 1257,
      "ä¸¾": 1258,
      "åºľ": 1259,
      "ä¸°": 1260,
      "åĪ»": 1261,
      "è½¯": 1262,
      "çĿ¡": 1263,
      "èĻ½": 1264,
      "èį¯": 1265,
      "éĿĻ": 1266,
      "èĦĳ": 1267,
      "åĶ®": 1268,
      "æµª": 1269,
      "çĥ¤": 1270,
      "è¿½": 1271,
      "çŁ³": 1272,
      "æ±½": 1273,
      "éŃ": 1274,
      "ç§ĭ": 1275,
      "èŃ": 1276,
      "ç¼º": 1277,
      "ä¸¥": 1278,
      "æĤ£": 1279,
      "é¸Ł": 1280,
      "åħ¸": 1281,
      "å±Ĥ": 1282,
      "å½Ĵ": 1283,
      "èĶ": 1284,
      "äºĳ": 1285,
      "åģĩ": 1286,
      "æĿĤ": 1287,
      "æĽ²": 1288,
      "è¯¦": 1289,
      "ç¬Ķ": 1290,
      "ç¦ı": 1291,
      "èĮĥ": 1292,
      "çĵ": 1293,
      "æĿ¯": 1294,
      "æĮī": 1295,
      "éĻ¢": 1296,
      "é²ľ": 1297,
      "éĨ": 1298,
      "æ¥": 1299,
      "æ´ĭ": 1300,
      "æł¡": 1301,
      "åªĴ": 1302,
      "çķ¥": 1303,
      "åĨ°": 1304,
      "æ¢¦": 1305,
      "ä¸´": 1306,
      "èĥĮ": 1307,
      "è·ĳ": 1308,
      "çľ¼": 1309,
      "åĽ°": 1310,
      "å½©": 1311,
      "åı¶": 1312,
      "çªģ": 1313,
      "æ³¢": 1314,
      "æĿĥ": 1315,
      "åĿļ": 1316,
      "çģµ": 1317,
      "èĵĿ": 1318,
      "äº²": 1319,
      "åĳ¼": 1320,
      "çĻ¾": 1321,
      "åį¡": 1322,
      "çł´": 1323,
      "èľ": 1324,
      "çĽĳ": 1325,
      "æĹı": 1326,
      "èĴ": 1327,
      "æĳĦ": 1328,
      "å³": 1329,
      "ä¿ĥ": 1330,
      "ç¼ĵ": 1331,
      "åĬŀ": 1332,
      "ä½ı": 1333,
      "çķĻ": 1334,
      "çĸ«": 1335,
      "éĴŁ": 1336,
      "ç´§": 1337,
      "çłģ": 1338,
      "é¢Ĺ": 1339,
      "æ¯į": 1340,
      "éĿĴ": 1341,
      "äº®": 1342,
      "è¿İ": 1343,
      "ç½Ĺ": 1344,
      "è¡¡": 1345,
      "çĹĩ": 1346,
      "å°¼": 1347,
      "æĭŁ": 1348,
      "åĤ": 1349,
      "çĤ¼": 1350,
      "ç¾¤": 1351,
      "æľ¨": 1352,
      "å¼Ĥ": 1353,
      "é¡»": 1354,
      "æ´²": 1355,
      "çļ®": 1356,
      "è´£": 1357,
      "å¨ģ": 1358,
      "æĽ¿": 1359,
      "åĲ§": 1360,
      "è¯ĳ": 1361,
      "çĩ": 1362,
      "æ²³": 1363,
      "ä¼¤": 1364,
      "èĶ¬": 1365,
      "æ»©": 1366,
      "æ¼«": 1367,
      "åľŁ": 1368,
      "ä»į": 1369,
      "åľ¾": 1370,
      "åŀĥ": 1371,
      "æħ¢": 1372,
      "éĺ¿": 1373,
      "éĩİ": 1374,
      "éĤ®": 1375,
      "ç§ĺ": 1376,
      "èĥľ": 1377,
      "çŃĳ": 1378,
      "åĩ»": 1379,
      "åº§": 1380,
      "è¯¢": 1381,
      "æ°§": 1382,
      "å·¨": 1383,
      "éĢĲ": 1384,
      "çľł": 1385,
      "è¶ĭ": 1386,
      "å·ŀ": 1387,
      "ç¤¼": 1388,
      "éĢģ": 1389,
      "èģĬ": 1390,
      "ä¼ĳ": 1391,
      "å½ķ": 1392,
      "èŃ¦": 1393,
      "æĩ": 1394,
      "æŃ¢": 1395,
      "å·®": 1396,
      "ä½³": 1397,
      "åĨĽ": 1398,
      "éļĲ": 1399,
      "å°Ĭ": 1400,
      "æ¸Ĳ": 1401,
      "åį°": 1402,
      "é©¶": 1403,
      "éĶ»": 1404,
      "åī©": 1405,
      "çºª": 1406,
      "æĺ¨": 1407,
      "åįı": 1408,
      "é¢ĳ": 1409,
      "æĲŃ": 1410,
      "éĴ±": 1411,
      "ç§ģ": 1412,
      "ç¬ĳ": 1413,
      "é©¾": 1414,
      "ç»ª": 1415,
      "æĥĬ": 1416,
      "çĸĳ": 1417,
      "åĵĪ": 1418,
      "èª": 1419,
      "æĿ¿": 1420,
      "ç²ī": 1421,
      "åĪĿ": 1422,
      "æ¯Ľ": 1423,
      "åĬ±": 1424,
      "åĨľ": 1425,
      "åį«": 1426,
      "æł¸": 1427,
      "æ¶ī": 1428,
      "æĥ¯": 1429,
      "ç¹": 1430,
      "èĹ": 1431,
      "ä¾Ŀ": 1432,
      "å¿Ĺ": 1433,
      "åºķ": 1434,
      "ä¼¦": 1435,
      "æ·»": 1436,
      "åĨ·": 1437,
      "éĴĪ": 1438,
      "è¡Ģ": 1439,
      "å°ļ": 1440,
      "æ½ľ": 1441,
      "è´¢": 1442,
      "æ±ĩ": 1443,
      "æĭħ": 1444,
      "çĽĸ": 1445,
      "çīĪ": 1446,
      "å²ģ": 1447,
      "æ©Ļ": 1448,
      "ç§»": 1449,
      "ç»§": 1450,
      "å©": 1451,
      "ç¥¨": 1452,
      "åıĮ": 1453,
      "å°Ħ": 1454,
      "ç¡Ģ": 1455,
      "åĪļ": 1456,
      "âĢĶ": 1457,
      "åįļ": 1458,
      "æĹ¨": 1459,
      "èĪŀ": 1460,
      "èĻļ": 1461,
      "å¹¸": 1462,
      "æī§": 1463,
      "çĦ¦": 1464,
      "å®ĩ": 1465,
      "åį´": 1466,
      "éĵģ": 1467,
      "å±Ģ": 1468,
      "èĮ¶": 1469,
      "å¡ĳ": 1470,
      "åįĪ": 1471,
      "åį±": 1472,
      "å¯Ł": 1473,
      "é¥Ń": 1474,
      "å¹»": 1475,
      "æ¯Ĵ": 1476,
      "éŀ": 1477,
      "æĦ¿": 1478,
      "åįĥ": 1479,
      "æĬ½": 1480,
      "åĸĿ": 1481,
      "ç«ŀ": 1482,
      "åı«": 1483,
      "è±Ĩ": 1484,
      "çģ¾": 1485,
      "åķĬ": 1486,
      "å®£": 1487,
      "èķ": 1488,
      "ç«¯": 1489,
      "å³°": 1490,
      "ç»Ŀ": 1491,
      "è¯¾": 1492,
      "çº³": 1493,
      "ç¹ģ": 1494,
      "å¥¥": 1495,
      "åĿĲ": 1496,
      "ä»ĺ": 1497,
      "èģļ": 1498,
      "èĸ": 1499,
      "æĲľ": 1500,
      "çıŃ": 1501,
      "ç¨³": 1502,
      "ç¢³": 1503,
      "éĢı": 1504,
      "è·Ł": 1505,
      "é¡º": 1506,
      "ä¹ħ": 1507,
      "æ´ŀ": 1508,
      "çĮ®": 1509,
      "æ£®": 1510,
      "ä½Ļ": 1511,
      "èĪª": 1512,
      "é¹": 1513,
      "çĥĪ": 1514,
      "æĭ¿": 1515,
      "æķĳ": 1516,
      "èĪ¬": 1517,
      "åįĬ": 1518,
      "é¾Ļ": 1519,
      "çİĽ": 1520,
      "åĨ¬": 1521,
      "é¼ĵ": 1522,
      "æŁĶ": 1523,
      "éŀĭ": 1524,
      "éĵ¶": 1525,
      "éĵ¾": 1526,
      "æĦī": 1527,
      "å®ł": 1528,
      "ä¼´": 1529,
      "çĨŁ": 1530,
      "æĬ±": 1531,
      "é¢Ŀ": 1532,
      "æ´Ĺ": 1533,
      "å®ĺ": 1534,
      "èĲ¨": 1535,
      "åħ°": 1536,
      "éª¤": 1537,
      "é¡¾": 1538,
      "æ²ī": 1539,
      "è¿·": 1540,
      "æľ«": 1541,
      "åŃ¤": 1542,
      "åĭĩ": 1543,
      "æ³³": 1544,
      "æŃ»": 1545,
      "çľģ": 1546,
      "æĽ¾": 1547,
      "ä¼°": 1548,
      "æĵį": 1549,
      "è¸": 1550,
      "çºł": 1551,
      "åĢĭ": 1552,
      "åģı": 1553,
      "éĽª": 1554,
      "èµı": 1555,
      "åĿı": 1556,
      "çķħ": 1557,
      "æľĹ": 1558,
      "éŃĶ": 1559,
      "æĭ¼": 1560,
      "éĻĪ": 1561,
      "çĨĬ": 1562,
      "æ··": 1563,
      "çģ¯": 1564,
      "æ¬§": 1565,
      "è°Ī": 1566,
      "æİĮ": 1567,
      "è´µ": 1568,
      "æ²Ł": 1569,
      "ç³ķ": 1570,
      "è·Ŀ": 1571,
      "éĢĶ": 1572,
      "åģľ": 1573,
      "é¥°": 1574,
      "èĤ¡": 1575,
      "è°ģ": 1576,
      "éħ¸": 1577,
      "æī¿": 1578,
      "éħ±": 1579,
      "çĶľ": 1580,
      "æ±ī": 1581,
      "æĴŃ": 1582,
      "éľ²": 1583,
      "ç£": 1584,
      "ä¼½": 1585,
      "å¿ĺ": 1586,
      "å®Ļ": 1587,
      "èĨ": 1588,
      "å§Ĩ": 1589,
      "å²Ľ": 1590,
      "å¥ĸ": 1591,
      "åŁ¹": 1592,
      "æĻ°": 1593,
      "å¤«": 1594,
      "è´§": 1595,
      "éĿł": 1596,
      "æļ´": 1597,
      "éĿ©": 1598,
      "çĳľ": 1599,
      "å¿Ĩ": 1600,
      "å¥Ĺ": 1601,
      "æµĵ": 1602,
      "çĹĽ": 1603,
      "ä¹³": 1604,
      "æ¥¼": 1605,
      "çĻ»": 1606,
      "æļĹ": 1607,
      "çº½": 1608,
      "æĬĹ": 1609,
      "éģĹ": 1610,
      "æĬĺ": 1611,
      "åĢĴ": 1612,
      "çĬ¯": 1613,
      "åĨĴ": 1614,
      "æ±Ł": 1615,
      "æı¡": 1616,
      "æ£Ĵ": 1617,
      "åºĬ": 1618,
      "è·³": 1619,
      "èĹı": 1620,
      "å®Ī": 1621,
      "ç§Ģ": 1622,
      "å·¦": 1623,
      "æ±¤": 1624,
      "æŃ§": 1625,
      "æįŁ": 1626,
      "åı³": 1627,
      "éĨĴ": 1628,
      "æľĿ": 1629,
      "è¢ĭ": 1630,
      "éļľ": 1631,
      "æ¹ĸ": 1632,
      "é¡¿": 1633,
      "å°ģ": 1634,
      "æĮ¥": 1635,
      "æ½®": 1636,
      "ç®±": 1637,
      "åĹ": 1638,
      "èĢĲ": 1639,
      "ç¥Ŀ": 1640,
      "è¡Ĺ": 1641,
      "èĦĤ": 1642,
      "åľĨ": 1643,
      "åĺ": 1644,
      "ç¯®": 1645,
      "çħ®": 1646,
      "å¡Ķ": 1647,
      "æ¬£": 1648,
      "è£¤": 1649,
      "æ°¸": 1650,
      "åĨ²": 1651,
      "èĦļ": 1652,
      "ä¹İ": 1653,
      "ç«¥": 1654,
      "éĶħ": 1655,
      "é»İ": 1656,
      "éĹ²": 1657,
      "ç±į": 1658,
      "çº¸": 1659,
      "èĿ": 1660,
      "æģĲ": 1661,
      "è´¡": 1662,
      "çĽĲ": 1663,
      "æī©": 1664,
      "æĶ»": 1665,
      "è¾Ĩ": 1666,
      "è°·": 1667,
      "èĤ¤": 1668,
      "ä¸Ŀ": 1669,
      "æ±ł": 1670,
      "çĩĥ": 1671,
      "çĤº": 1672,
      "ç½ª": 1673,
      "æ±ģ": 1674,
      "æģ¶": 1675,
      "ä»¿": 1676,
      "éĵħ": 1677,
      "æ»ĳ": 1678,
      "éĸ": 1679,
      "åĢĳ": 1680,
      "ç»¼": 1681,
      "æĿĳ": 1682,
      "å¸ģ": 1683,
      "èµŀ": 1684,
      "è²": 1685,
      "å¥ĭ": 1686,
      "å¿Ļ": 1687,
      "å®«": 1688,
      "åĤ¨": 1689,
      "ç¼©": 1690,
      "ä¹ĺ": 1691,
      "æ´¾": 1692,
      "åħŃ": 1693,
      "åĬ³": 1694,
      "çĽĺ": 1695,
      "çĥ§": 1696,
      "å¾Ħ": 1697,
      "åİļ": 1698,
      "çĤĴ": 1699,
      "æĺł": 1700,
      "æŀ¶": 1701,
      "çıį": 1702,
      "åĲ¯": 1703,
      "å°į": 1704,
      "åĩī": 1705,
      "éģį": 1706,
      "åĨł": 1707,
      "æĿ°": 1708,
      "éĻĦ": 1709,
      "éĢĻ": 1710,
      "æŃī": 1711,
      "æĸĹ": 1712,
      "æĢ¥": 1713,
      "åĪº": 1714,
      "éº¦": 1715,
      "åĳĪ": 1716,
      "å®½": 1717,
      "çİī": 1718,
      "å¯Ĵ": 1719,
      "åĽº": 1720,
      "çĪ¶": 1721,
      "å¦Ī": 1722,
      "çŃ¾": 1723,
      "æ°Ľ": 1724,
      "ç»©": 1725,
      "æĤ¦": 1726,
      "æ¶¦": 1727,
      "é¥¼": 1728,
      "éĽħ": 1729,
      "æĿŁ": 1730,
      "è®¢": 1731,
      "ä½Ľ": 1732,
      "èĤ¥": 1733,
      "éªĳ": 1734,
      "æ¤Ĵ": 1735,
      "çīĻ": 1736,
      "æİī": 1737,
      "çĽĽ": 1738,
      "å°¤": 1739,
      "åºŁ": 1740,
      "éľĩ": 1741,
      "æ¹¿": 1742,
      "åºĵ": 1743,
      "çµ": 1744,
      "æĢĢ": 1745,
      "åĶ±": 1746,
      "å¨±": 1747,
      "ç»ĺ": 1748,
      "èĭ¦": 1749,
      "æĬ«": 1750,
      "æ³¡": 1751,
      "èĤĮ": 1752,
      "å¾ª": 1753,
      "å¹ħ": 1754,
      "çıł": 1755,
      "çĥŁ": 1756,
      "èĥ¡": 1757,
      "å¼ĥ": 1758,
      "å°¾": 1759,
      "æ¶²": 1760,
      "è©": 1761,
      "éĢ»": 1762,
      "èĭı": 1763,
      "è®¿": 1764,
      "è·µ": 1765,
      "ç¿°": 1766,
      "ä¾Ĩ": 1767,
      "åĵ¥": 1768,
      "åĿ¦": 1769,
      "èĪ¹": 1770,
      "çĶļ": 1771,
      "é¾Ħ": 1772,
      "è¯ļ": 1773,
      "æķ¬": 1774,
      "è°±": 1775,
      "èĥģ": 1776,
      "æľµ": 1777,
      "å®ľ": 1778,
      "å©ļ": 1779,
      "å¥ı": 1780,
      "åĵº": 1781,
      "æ³°": 1782,
      "è¾£": 1783,
      "éĽ¶": 1784,
      "çĬ¬": 1785,
      "å¦Ļ": 1786,
      "åŃ¸": 1787,
      "æĭį": 1788,
      "çĤİ": 1789,
      "æĭĽ": 1790,
      "å´": 1791,
      "èķī": 1792,
      "éĹŃ": 1793,
      "éģµ": 1794,
      "è´Ŀ": 1795,
      "æ¡Į": 1796,
      "è¡¥": 1797,
      "åĩĢ": 1798,
      "åĢ¾": 1799,
      "èĦ±": 1800,
      "äº¡": 1801,
      "èĤ¯": 1802,
      "è½®": 1803,
      "çĴ": 1804,
      "ä¹¡": 1805,
      "èľľ": 1806,
      "æĩĤ": 1807,
      "åľ£": 1808,
      "è´¥": 1809,
      "éº¼": 1810,
      "åħ«": 1811,
      "çĶ³": 1812,
      "ç¶": 1813,
      "åį·": 1814,
      "æ¾": 1815,
      "èİĵ": 1816,
      "å«": 1817,
      "ç¡¬": 1818,
      "èªī": 1819,
      "å»¶": 1820,
      "éĥģ": 1821,
      "è¿¹": 1822,
      "çĻĮ": 1823,
      "éª¨": 1824,
      "åºĨ": 1825,
      "è§¦": 1826,
      "æķı": 1827,
      "éķĩ": 1828,
      "åĨ¥": 1829,
      "å¯¿": 1830,
      "è³": 1831,
      "çªĹ": 1832,
      "æħ§": 1833,
      "åīĤ": 1834,
      "æĹ§": 1835,
      "å®Ĺ": 1836,
      "ä¹ı": 1837,
      "æŃ¦": 1838,
      "èĭĹ": 1839,
      "ä¸ĥ": 1840,
      "äº¿": 1841,
      "å®ģ": 1842,
      "åĮĢ": 1843,
      "å£®": 1844,
      "è½½": 1845,
      "èģª": 1846,
      "èĢ³": 1847,
      "é¼ł": 1848,
      "çķª": 1849,
      "æĹĭ": 1850,
      "æĿĢ": 1851,
      "é»ĺ": 1852,
      "èļ": 1853,
      "å½¼": 1854,
      "èĤª": 1855,
      "æĭĮ": 1856,
      "çĵľ": 1857,
      "è¿ª": 1858,
      "ä¹Ŀ": 1859,
      "å¸Ŀ": 1860,
      "åłĤ": 1861,
      "åĢŁ": 1862,
      "èĦı": 1863,
      "å®¾": 1864,
      "è°ĵ": 1865,
      "æ¼Ĥ": 1866,
      "èĮĦ": 1867,
      "æ®Ĭ": 1868,
      "è¯º": 1869,
      "èĳ±": 1870,
      "è¹": 1871,
      "éĢĢ": 1872,
      "æľĥ": 1873,
      "å·Ŀ": 1874,
      "çĸ²": 1875,
      "æĹ¢": 1876,
      "é¡¶": 1877,
      "ç»ķ": 1878,
      "è¿ħ": 1879,
      "è§Ī": 1880,
      "åĴ¨": 1881,
      "çĵ¶": 1882,
      "éĢĴ": 1883,
      "æģĴ": 1884,
      "èĢĹ": 1885,
      "è¾ħ": 1886,
      "çŀ": 1887,
      "éĺ¶": 1888,
      "æķ¢": 1889,
      "æī¹": 1890,
      "æģ©": 1891,
      "æĥł": 1892,
      "æĻ¨": 1893,
      "è¸ª": 1894,
      "æµ®": 1895,
      "éķľ": 1896,
      "éº»": 1897,
      "çĺ": 1898,
      "èį£": 1899,
      "é½": 1900,
      "å¼¹": 1901,
      "åĵ²": 1902,
      "çº¯": 1903,
      "çĻ¼": 1904,
      "æ·¡": 1905,
      "éĽ·": 1906,
      "çĥ¹": 1907,
      "èĻ«": 1908,
      "æĤ²": 1909,
      "éĴ¢": 1910,
      "çĪĨ": 1911,
      "éĻĨ": 1912,
      "èī¾": 1913,
      "å¡«": 1914,
      "çĶ²": 1915,
      "å®¡": 1916,
      "å±ĭ": 1917,
      "åı¹": 1918,
      "èħ¿": 1919,
      "æį·": 1920,
      "æ´Ľ": 1921,
      "èĦ¸": 1922,
      "çĶ°": 1923,
      "æĻĤ": 1924,
      "å¹ķ": 1925,
      "æ¡¥": 1926,
      "èĥŀ": 1927,
      "âĢ¦": 1928,
      "åĶĲ": 1929,
      "éĹª": 1930,
      "è¿Ŀ": 1931,
      "åł¡": 1932,
      "çĿĽ": 1933,
      "éŁ©": 1934,
      "æīĺ": 1935,
      "æĻ´": 1936,
      "å¡ŀ": 1937,
      "æ¶µ": 1938,
      "èµ¢": 1939,
      "æ·ĭ": 1940,
      "æª": 1941,
      "åįĸ": 1942,
      "ä»Ķ": 1943,
      "å°º": 1944,
      "åįł": 1945,
      "äºĪ": 1946,
      "ç´¯": 1947,
      "æĸ¼": 1948,
      "æ¸¯": 1949,
      "åĲī": 1950,
      "éĢĥ": 1951,
      "é¦Ī": 1952,
      "çĿ£": 1953,
      "å¼±": 1954,
      "èĭ¥": 1955,
      "èĤº": 1956,
      "æĪ´": 1957,
      "æĢķ": 1958,
      "èľĤ": 1959,
      "åī¯": 1960,
      "ä¼Ĭ": 1961,
      "åĲ¹": 1962,
      "çĤ¸": 1963,
      "æ¡£": 1964,
      "å²¸": 1965,
      "èĸĦ": 1966,
      "åŁĥ": 1967,
      "ä»°": 1968,
      "æįķ": 1969,
      "éĽĦ": 1970,
      "åĵ¦": 1971,
      "åİ¨": 1972,
      "ç¦ģ": 1973,
      "é£ĺ": 1974,
      "å§ĵ": 1975,
      "ç²Ĵ": 1976,
      "èİ«": 1977,
      "æ°ı": 1978,
      "æĤł": 1979,
      "çı¾": 1980,
      "éļĶ": 1981,
      "çĪ¬": 1982,
      "å¿§": 1983,
      "åħĶ": 1984,
      "èµĸ": 1985,
      "èĳ¡": 1986,
      "èĦī": 1987,
      "éĺ´": 1988,
      "ç´«": 1989,
      "èĲĦ": 1990,
      "çĪ½": 1991,
      "æķ¦": 1992,
      "ä¼Ł": 1993,
      "ç¾Ĭ": 1994,
      "æĤ¬": 1995,
      "çº·": 1996,
      "æĲħ": 1997,
      "åĶ¯": 1998,
      "çļĩ": 1999,
      "æ¬²": 2000,
      "èı²": 2001,
      "çģŃ": 2002,
      "é¥ª": 2003,
      "çĮİ": 2004,
      "æī¬": 2005,
      "æī°": 2006,
      "å¿ł": 2007,
      "ä¹±": 2008,
      "çĽĴ": 2009,
      "å¢Ļ": 2010,
      "éģŃ": 2011,
      "ç¨İ": 2012,
      "è·¨": 2013,
      "è¢ĸ": 2014,
      "è¿Ķ": 2015,
      "èĲĿ": 2016,
      "è´´": 2017,
      "ä¹Ķ": 2018,
      "åħµ": 2019,
      "èĤ´": 2020,
      "æī®": 2021,
      "åĭķ": 2022,
      "è¦Ĩ": 2023,
      "çģ°": 2024,
      "ç¢İ": 2025,
      "å¿½": 2026,
      "èİī": 2027,
      "è²Į": 2028,
      "èĬ³": 2029,
      "èĴ¸": 2030,
      "ç£¨": 2031,
      "åĴª": 2032,
      "æĳ©": 2033,
      "æĴ°": 2034,
      "æİĪ": 2035,
      "èĮ¨": 2036,
      "çĲ´": 2037,
      "åĸ»": 2038,
      "æĽ¼": 2039,
      "æ¯ķ": 2040,
      "ä¾µ": 2041,
      "çº¤": 2042,
      "é¡µ": 2043,
      "æģĭ": 2044,
      "è´¦": 2045,
      "æŀĿ": 2046,
      "æĭĵ": 2047,
      "æ²¿": 2048,
      "çĳŀ": 2049,
      "éĺµ": 2050,
      "çĽ¾": 2051,
      "éł": 2052,
      "èį·": 2053,
      "èĢį": 2054,
      "æ¢ħ": 2055,
      "èģĺ": 2056,
      "æĳĨ": 2057,
      "èıĮ": 2058,
      "çŁ¿": 2059,
      "éĢ²": 2060,
      "çĶĺ": 2061,
      "æĢª": 2062,
      "éĺ»": 2063,
      "æ£ī": 2064,
      "åĲĽ": 2065,
      "Ã·": 2066,
      "è£Ļ": 2067,
      "æĻĴ": 2068,
      "åĩ½": 2069,
      "è±ª": 2070,
      "æİĺ": 2071,
      "çĭ®": 2072,
      "èĻİ": 2073,
      "çº¹": 2074,
      "ä¼¯": 2075,
      "éĻ·": 2076,
      "è¯¸": 2077,
      "åĩ¡": 2078,
      "å§Ķ": 2079,
      "æĳĩ": 2080,
      "ä¼Ļ": 2081,
      "çŁĽ": 2082,
      "æŁł": 2083,
      "åľĪ": 2084,
      "å¹½": 2085,
      "ä»ª": 2086,
      "è¡«": 2087,
      "åİĺ": 2088,
      "èĬĿ": 2089,
      "åīª": 2090,
      "æ¥ļ": 2091,
      "ç¢į": 2092,
      "é¸£": 2093,
      "å²©": 2094,
      "èĴľ": 2095,
      "æģ¢": 2096,
      "éĢĬ": 2097,
      "éŃħ": 2098,
      "å±ı": 2099,
      "æĭĶ": 2100,
      "å§¿": 2101,
      "æª¬": 2102,
      "èħĲ": 2103,
      "ç©Ĩ": 2104,
      "ä¿Ĺ": 2105,
      "èİ±": 2106,
      "éĤĢ": 2107,
      "è£ģ": 2108,
      "åį§": 2109,
      "éĺĶ": 2110,
      "é²ģ": 2111,
      "è°Ĳ": 2112,
      "èĴĤ": 2113,
      "åĿĢ": 2114,
      "è°Ĭ": 2115,
      "ç«¹": 2116,
      "çĽŁ": 2117,
      "å¤®": 2118,
      "åĮ¹": 2119,
      "ç§Ł": 2120,
      "ä¸ģ": 2121,
      "é²¸": 2122,
      "å°¿": 2123,
      "æĬĳ": 2124,
      "çĩķ": 2125,
      "å¢¨": 2126,
      "æ´ª": 2127,
      "è¿«": 2128,
      "åĪĺ": 2129,
      "é¸Ń": 2130,
      "æ¡ĥ": 2131,
      "è·ĥ": 2132,
      "æĲº": 2133,
      "æıŃ": 2134,
      "æ®ĸ": 2135,
      "èĤł": 2136,
      "åĪł": 2137,
      "æĭľ": 2138,
      "ä»Ļ": 2139,
      "å¾Ĵ": 2140,
      "çĥ¦": 2141,
      "æĮĤ": 2142,
      "æ®ĭ": 2143,
      "éľľ": 2144,
      "æĤī": 2145,
      "å¦ĩ": 2146,
      "éĨī": 2147,
      "èĤĸ": 2148,
      "èİİ": 2149,
      "èĬĴ": 2150,
      "è¿Ł": 2151,
      "çĭĤ": 2152,
      "çĮª": 2153,
      "æ·ĩ": 2154,
      "å£¤": 2155,
      "è´¸": 2156,
      "çĬ¹": 2157,
      "æĬĵ": 2158,
      "èĢĢ": 2159,
      "æĥľ": 2160,
      "èĥ¸": 2161,
      "ç¾½": 2162,
      "åĢį": 2163,
      "èĴĻ": 2164,
      "ç£ģ": 2165,
      "éģİ": 2166,
      "å¼Ł": 2167,
      "åĪĢ": 2168,
      "éĻª": 2169,
      "æıĴ": 2170,
      "åĭĴ": 2171,
      "éĺĲ": 2172,
      "æ¶Ĥ": 2173,
      "åįľ": 2174,
      "ä¸§": 2175,
      "çĽĹ": 2176,
      "æ³Ĭ": 2177,
      "ä¸²": 2178,
      "æı´": 2179,
      "å¥Ķ": 2180,
      "æĩī": 2181,
      "åħļ": 2182,
      "å«Į": 2183,
      "å®¿": 2184,
      "é¬": 2185,
      "ç¨®": 2186,
      "æ¯«": 2187,
      "åĭ¤": 2188,
      "ç½ļ": 2189,
      "å°ĺ": 2190,
      "ä¸¦": 2191,
      "å¯¸": 2192,
      "å¯Ĥ": 2193,
      "è½¨": 2194,
      "åĪ·": 2195,
      "å¼Ĺ": 2196,
      "ç¢Ĺ": 2197,
      "ä¾§": 2198,
      "æĵİ": 2199,
      "æ¤ħ": 2200,
      "æĹģ": 2201,
      "éħª": 2202,
      "æ»¤": 2203,
      "æī£": 2204,
      "èĺ": 2205,
      "åºĦ": 2206,
      "ç¶ĵ": 2207,
      "æµ¸": 2208,
      "å£ģ": 2209,
      "æĬµ": 2210,
      "ä¼¸": 2211,
      "é¦¨": 2212,
      "åŃĶ": 2213,
      "è´¯": 2214,
      "èį¡": 2215,
      "é³": 2216,
      "é«Ķ": 2217,
      "ä¹Į": 2218,
      "è¾ŀ": 2219,
      "ç¼ĺ": 2220,
      "ãĢį": 2221,
      "åģ·": 2222,
      "ãĢĮ": 2223,
      "æĴŀ": 2224,
      "åłµ": 2225,
      "è¡¬": 2226,
      "æłĸ": 2227,
      "åİĤ": 2228,
      "èĬ¬": 2229,
      "è´«": 2230,
      "æĮĸ": 2231,
      "åİ¿": 2232,
      "é©±": 2233,
      "çĪ¸": 2234,
      "æ¼ı": 2235,
      "å¸Ń": 2236,
      "èħ»": 2237,
      "èµĭ": 2238,
      "èĪĩ": 2239,
      "å¸½": 2240,
      "éŁµ": 2241,
      "å¦¹": 2242,
      "æĴĴ": 2243,
      "éĸĭ": 2244,
      "ä¸¹": 2245,
      "çħİ": 2246,
      "è¹Ī": 2247,
      "åģ¶": 2248,
      "ç»Ĵ": 2249,
      "è®¯": 2250,
      "æļĤ": 2251,
      "åªļ": 2252,
      "æħĪ": 2253,
      "èĿ¶": 2254,
      "æĵħ": 2255,
      "æĭĤ": 2256,
      "æ¼ł": 2257,
      "åĩĿ": 2258,
      "é½Ĳ": 2259,
      "éĸĵ": 2260,
      "è¡ĵ": 2261,
      "æ»´": 2262,
      "åĩ¯": 2263,
      "çĳ°": 2264,
      "èįĴ": 2265,
      "ç¿ħ": 2266,
      "éĹľ": 2267,
      "è°¨": 2268,
      "æ©ĺ": 2269,
      "æµħ": 2270,
      "ç½©": 2271,
      "èıĩ": 2272,
      "éĶģ": 2273,
      "çĮľ": 2274,
      "æ³ī": 2275,
      "éĢĹ": 2276,
      "æ¬º": 2277,
      "é¢Ī": 2278,
      "æķĮ": 2279,
      "æħİ": 2280,
      "ç¥ĸ": 2281,
      "èķ´": 2282,
      "ç©·": 2283,
      "è°ľ": 2284,
      "è£Ĥ": 2285,
      "ç¨į": 2286,
      "ç¨¿": 2287,
      "è¼": 2288,
      "åį¢": 2289,
      "éĵº": 2290,
      "æĢĸ": 2291,
      "åĹ¯": 2292,
      "çĸ¼": 2293,
      "æ¶¯": 2294,
      "é¹ħ": 2295,
      "éģ¥": 2296,
      "ä»ģ": 2297,
      "èĦĨ": 2298,
      "çİ»": 2299,
      "éĻ¶": 2300,
      "èī³": 2301,
      "ä½©": 2302,
      "çĭ¼": 2303,
      "æ¢°": 2304,
      "æ£ĭ": 2305,
      "æ³¥": 2306,
      "éī": 2307,
      "ä¾£": 2308,
      "å¨ľ": 2309,
      "çĴĥ": 2310,
      "èµİ": 2311,
      "åŃĻ": 2312,
      "å¤¹": 2313,
      "æĦĪ": 2314,
      "æĻ¶": 2315,
      "åłĨ": 2316,
      "å¦Ĩ": 2317,
      "æĴĳ": 2318,
      "ç·": 2319,
      "æī«": 2320,
      "æ¯ģ": 2321,
      "åįĵ": 2322,
      "æ¡Ĩ": 2323,
      "éī´": 2324,
      "åľĭ": 2325,
      "åħģ": 2326,
      "æ³ª": 2327,
      "æ³Ħ": 2328,
      "èµ¶": 2329,
      "çĽĪ": 2330,
      "å¤·": 2331,
      "æĭĸ": 2332,
      "å§Ĳ": 2333,
      "æ©Ħ": 2334,
      "æ¢¨": 2335,
      "çĥĤ": 2336,
      "é¼»": 2337,
      "è«": 2338,
      "äº¦": 2339,
      "æĶĢ": 2340,
      "æ¦Ħ": 2341,
      "é¹¿": 2342,
      "æ¥Ń": 2343,
      "èħ°": 2344,
      "ä¼ı": 2345,
      "åĬ£": 2346,
      "ä¼ŀ": 2347,
      "æĸĳ": 2348,
      "è¾Ľ": 2349,
      "æĸľ": 2350,
      "éĻĮ": 2351,
      "å¯º": 2352,
      "è³ĩ": 2353,
      "é¥±": 2354,
      "åıł": 2355,
      "ä¹Ļ": 2356,
      "æµ´": 2357,
      "éĽ¾": 2358,
      "æ§": 2359,
      "æ©Ł": 2360,
      "è®ĵ": 2361,
      "çĽĨ": 2362,
      "ç³Ĭ": 2363,
      "å¤º": 2364,
      "æĹ±": 2365,
      "éĢĨ": 2366,
      "æĨ": 2367,
      "æŁ¿": 2368,
      "æ¸´": 2369,
      "éĤ¦": 2370,
      "æ³½": 2371,
      "æĮ¯": 2372,
      "éľį": 2373,
      "å¤ķ": 2374,
      "çĩ¥": 2375,
      "åıĻ": 2376,
      "åļ": 2377,
      "å°ĸ": 2378,
      "æĥ§": 2379,
      "ç«Ł": 2380,
      "æºª": 2381,
      "åī²": 2382,
      "æ»ļ": 2383,
      "å¼¦": 2384,
      "çŀ¬": 2385,
      "å¯ĵ": 2386,
      "åĸ·": 2387,
      "ä¿Ħ": 2388,
      "è´¾": 2389,
      "é¡Į": 2390,
      "æĺĨ": 2391,
      "èĨľ": 2392,
      "æĿ¨": 2393,
      "å£³": 2394,
      "æ°¢": 2395,
      "å°ĩ": 2396,
      "éªĹ": 2397,
      "æĿī": 2398,
      "éŃĤ": 2399,
      "èĸ¯": 2400,
      "æĭĴ": 2401,
      "ç»³": 2402,
      "åĲģ": 2403,
      "æŁľ": 2404,
      "æ¶¨": 2405,
      "âĦ": 2406,
      "è°ĭ": 2407,
      "åĪĳ": 2408,
      "å¦»": 2409,
      "ç²®": 2410,
      "å©´": 2411,
      "çĭ±": 2412,
      "åĭĥ": 2413,
      "âĦĥ": 2414,
      "æ¾³": 2415,
      "è¿Ī": 2416,
      "æīİ": 2417,
      "çİ«": 2418,
      "èī°": 2419,
      "èĺĳ": 2420,
      "æ´Ĵ": 2421,
      "ç¢ĳ": 2422,
      "å¹¼": 2423,
      "ç¿Ķ": 2424,
      "èĿ´": 2425,
      "æ¸ł": 2426,
      "å¾Į": 2427,
      "çŃĽ": 2428,
      "æ¢ģ": 2429,
      "ä¼Ĳ": 2430,
      "çĤī": 2431,
      "æ²ĥ": 2432,
      "åŀĤ": 2433,
      "åł´": 2434,
      "æĵ¦": 2435,
      "æĪª": 2436,
      "æĥĳ": 2437,
      "ï¼ħ": 2438,
      "èĻ¾": 2439,
      "èħ¾": 2440,
      "èĥĥ": 2441,
      "çĺ¦": 2442,
      "è¤": 2443,
      "æ»ĭ": 2444,
      "é½¿": 2445,
      "æģ°": 2446,
      "çŁ¶": 2447,
      "æĦģ": 2448,
      "ç§Ĵ": 2449,
      "åºĻ": 2450,
      "å½»": 2451,
      "èĥĸ": 2452,
      "åħ½": 2453,
      "çĶ¢": 2454,
      "éĽķ": 2455,
      "æĺĤ": 2456,
      "çĸı": 2457,
      "çį": 2458,
      "éĤ»": 2459,
      "éŁ§": 2460,
      "èĨĢ": 2461,
      "æº¯": 2462,
      "åŀ«": 2463,
      "èħ¹": 2464,
      "å§ľ": 2465,
      "ç³Ł": 2466,
      "è¯Ī": 2467,
      "åīĳ": 2468,
      "èħĬ": 2469,
      "å¾¡": 2470,
      "åĻª": 2471,
      "å·¾": 2472,
      "æĮº": 2473,
      "æ¶Į": 2474,
      "è¸ı": 2475,
      "èĪį": 2476,
      "åķı": 2477,
      "ä¼į": 2478,
      "å²Ĺ": 2479,
      "èĥ¶": 2480,
      "ðŁ": 2481,
      "å¿į": 2482,
      "èĮ«": 2483,
      "çĵ¦": 2484,
      "æ¨ª": 2485,
      "æ¡¶": 2486,
      "çĮ´": 2487,
      "è¿ģ": 2488,
      "èĤ©": 2489,
      "åĺ´": 2490,
      "æĮ«": 2491,
      "å¯Ħ": 2492,
      "æĢĴ": 2493,
      "èĥĨ": 2494,
      "ç»µ": 2495,
      "ç¿ł": 2496,
      "è¡°": 2497,
      "åĩĮ": 2498,
      "ç¿Ĵ": 2499,
      "çĭĲ": 2500,
      "åĪ¸": 2501,
      "åĳĢ": 2502,
      "æµĨ": 2503,
      "å®´": 2504,
      "ä»ĩ": 2505,
      "éļĨ": 2506,
      "è¢Ń": 2507,
      "åķ¦": 2508,
      "æ±Ĺ": 2509,
      "ç½²": 2510,
      "ä¿±": 2511,
      "åĨĮ": 2512,
      "çĥĺ": 2513,
      "åħ¼": 2514,
      "æŀļ": 2515,
      "å¼¯": 2516,
      "èĤĿ": 2517,
      "éĽĩ": 2518,
      "å¸ħ": 2519,
      "é»Ľ": 2520,
      "ç°": 2521,
      "æĿľ": 2522,
      "æ¹¾": 2523,
      "çĲ³": 2524,
      "æĹĹ": 2525,
      "æħ°": 2526,
      "çıĬ": 2527,
      "æ°£": 2528,
      "éĹ¹": 2529,
      "ç¢°": 2530,
      "åĢ¡": 2531,
      "éŁ¿": 2532,
      "åĿ¡": 2533,
      "çģ£": 2534,
      "æ¯ħ": 2535,
      "çķ¶": 2536,
      "ç¢§": 2537,
      "éĢĽ": 2538,
      "éĨĭ": 2539,
      "æĬ¹": 2540,
      "è¾Ĳ": 2541,
      "è´·": 2542,
      "çĳŁ": 2543,
      "çµ±": 2544,
      "åĮĻ": 2545,
      "æ¨£": 2546,
      "æ£ķ": 2547,
      "çªĥ": 2548,
      "æĭ¯": 2549,
      "å¯¦": 2550,
      "åıī": 2551,
      "è£¡": 2552,
      "èĽĩ": 2553,
      "æĤŁ": 2554,
      "ç®Ń": 2555,
      "æľ±": 2556,
      "æķ¸": 2557,
      "åİ¦": 2558,
      "åĲĲ": 2559,
      "æ¢¯": 2560,
      "ç¨Ģ": 2561,
      "è·Į": 2562,
      "åĲ´": 2563,
      "æļĳ": 2564,
      "æ²®": 2565,
      "éĴĵ": 2566,
      "èĤ¿": 2567,
      "è¨Ń": 2568,
      "æĬ¢": 2569,
      "è¨Ī": 2570,
      "éħ·": 2571,
      "çĵ·": 2572,
      "ç¿¼": 2573,
      "åĿĽ": 2574,
      "å®ĭ": 2575,
      "å¾ŀ": 2576,
      "æĩĴ": 2577,
      "æģ¨": 2578,
      "ç¬¼": 2579,
      "æĪĴ": 2580,
      "éĵĥ": 2581,
      "æĹ¦": 2582,
      "è¾¨": 2583,
      "çĮĽ": 2584,
      "å®ı": 2585,
      "çĴ°": 2586,
      "æĵļ": 2587,
      "èµ«": 2588,
      "å±Ĭ": 2589,
      "æ·Ģ": 2590,
      "æº¶": 2591,
      "éĢĿ": 2592,
      "çĵ£": 2593,
      "èĥİ": 2594,
      "æŁ³": 2595,
      "è±¹": 2596,
      "ç²Ĺ": 2597,
      "éĨĩ": 2598,
      "æĽ°": 2599,
      "æµı": 2600,
      "æĻĭ": 2601,
      "é¬¼": 2602,
      "åı¬": 2603,
      "çĢ": 2604,
      "èµł": 2605,
      "èµµ": 2606,
      "å«©": 2607,
      "èıł": 2608,
      "æ²¸": 2609,
      "æ»¨": 2610,
      "èªª": 2611,
      "æŀª": 2612,
      "åĭĻ": 2613,
      "è¯ŀ": 2614,
      "å§»": 2615,
      "ä¸Ľ": 2616,
      "çĭ¸": 2617,
      "åĮĨ": 2618,
      "èĸª": 2619,
      "çļĨ": 2620,
      "è»": 2621,
      "å£¶": 2622,
      "æĭĨ": 2623,
      "è®Ĭ": 2624,
      "åĩŃ": 2625,
      "å¼¥": 2626,
      "éģ®": 2627,
      "æĺı": 2628,
      "éĥİ": 2629,
      "åħĦ": 2630,
      "çī§": 2631,
      "è¾ī": 2632,
      "ãĢĲ": 2633,
      "ãĢĳ": 2634,
      "å¨ĺ": 2635,
      "æįī": 2636,
      "æľ´": 2637,
      "éĻµ": 2638,
      "éĽ»": 2639,
      "æŀ¯": 2640,
      "éĤĦ": 2641,
      "æģ¤": 2642,
      "çŁ©": 2643,
      "åºŀ": 2644,
      "æ±º": 2645,
      "èĤ¢": 2646,
      "æŀ«": 2647,
      "éĴ»": 2648,
      "ç§¦": 2649,
      "åłª": 2650,
      "åĢº": 2651,
      "éĤª": 2652,
      "èħº": 2653,
      "èĻ¹": 2654,
      "å´ĩ": 2655,
      "éĵľ": 2656,
      "æĥ«": 2657,
      "æĩĪ": 2658,
      "é¹°": 2659,
      "é¢¨": 2660,
      "èŁ": 2661,
      "æĮ¤": 2662,
      "åĴ³": 2663,
      "æ©¡": 2664,
      "ä¸¢": 2665,
      "ä¾ł": 2666,
      "èĲ§": 2667,
      "è©²": 2668,
      "ç¿©": 2669,
      "ä¸ĺ": 2670,
      "æĳ¸": 2671,
      "èĪŁ": 2672,
      "åĤ³": 2673,
      "æģ¼": 2674,
      "èĩĤ": 2675,
      "åŃķ": 2676,
      "çºµ": 2677,
      "æ·ĺ": 2678,
      "å»·": 2679,
      "äºķ": 2680,
      "éĴ¥": 2681,
      "åĵŃ": 2682,
      "æĻĵ": 2683,
      "é»ŀ": 2684,
      "å¦®": 2685,
      "çĪ·": 2686,
      "çµĲ": 2687,
      "æ¡Ĥ": 2688,
      "å¼·": 2689,
      "éĶ¦": 2690,
      "æĲŀ": 2691,
      "æĢ¨": 2692,
      "âĢĻ": 2693,
      "åĸĤ": 2694,
      "èĭį": 2695,
      "çīµ": 2696,
      "è©¹": 2697,
      "âĢĺ": 2698,
      "ç¢º": 2699,
      "åģ¿": 2700,
      "éĶĲ": 2701,
      "æ¹Ľ": 2702,
      "æ®¿": 2703,
      "åĤ¬": 2704,
      "èĩ£": 2705,
      "èĦĬ": 2706,
      "èĬ¯": 2707,
      "åİī": 2708,
      "æīĳ": 2709,
      "æĥ©": 2710,
      "æ¡ĳ": 2711,
      "æº¢": 2712,
      "ç¼Ŀ": 2713,
      "èĨ³": 2714,
      "æīĩ": 2715,
      "èļģ": 2716,
      "åĺī": 2717,
      "åħ¹": 2718,
      "ÃĹ": 2719,
      "ç¢Į": 2720,
      "é¢ĸ": 2721,
      "é¾Ł": 2722,
      "åįī": 2723,
      "åĩĳ": 2724,
      "æħ¨": 2725,
      "å¾Ĳ": 2726,
      "åįĢ": 2727,
      "çĽ²": 2728,
      "ç¶²": 2729,
      "åħ§": 2730,
      "å¸ķ": 2731,
      "å®ħ": 2732,
      "åĶ¤": 2733,
      "è³ª": 2734,
      "è¾©": 2735,
      "å¤¸": 2736,
      "æ¸¡": 2737,
      "éĢ¼": 2738,
      "éķ·": 2739,
      "è½´": 2740,
      "æĬļ": 2741,
      "æ¾Ī": 2742,
      "çĪª": 2743,
      "éħµ": 2744,
      "çĺ¤": 2745,
      "åĵĩ": 2746,
      "èµ¤": 2747,
      "è£Ķ": 2748,
      "æĸ¤": 2749,
      "ç²ĺ": 2750,
      "ç¼Ģ": 2751,
      "åİĮ": 2752,
      "å³¡": 2753,
      "å»ī": 2754,
      "åķ¤": 2755,
      "éĶĭ": 2756,
      "èİ²": 2757,
      "åĤ²": 2758,
      "æī¶": 2759,
      "å¸¶": 2760,
      "æĬ¼": 2761,
      "ä¿¯": 2762,
      "æŁ±": 2763,
      "æĪ°": 2764,
      "èħĶ": 2765,
      "æ¨±": 2766,
      "æ£µ": 2767,
      "åĵĢ": 2768,
      "çķı": 2769,
      "ä¹ĥ": 2770,
      "æ´¥": 2771,
      "é²¨": 2772,
      "éĹ·": 2773,
      "æµĩ": 2774,
      "è£¹": 2775,
      "çłį": 2776,
      "èĻķ": 2777,
      "å´©": 2778,
      "èĥĢ": 2779,
      "å¥Ī": 2780,
      "æĿĨ": 2781,
      "å©Ĩ": 2782,
      "æĽ¹": 2783,
      "å¤ł": 2784,
      "å¨ĥ": 2785,
      "çĦ¡": 2786,
      "éľŀ": 2787,
      "æįĲ": 2788,
      "å½°": 2789,
      "åĴ¬": 2790,
      "é¥²": 2791,
      "é¥¿": 2792,
      "çķĶ": 2793,
      "æ¤İ": 2794,
      "æĴ¼": 2795,
      "åĩ¤": 2796,
      "æ²«": 2797,
      "å¥ī": 2798,
      "éľ¸": 2799,
      "èŃ°": 2800,
      "ç¢±": 2801,
      "æħķ": 2802,
      "æ»¿": 2803,
      "åĲ¾": 2804,
      "çıĤ": 2805,
      "æ¨Ĥ": 2806,
      "æ¸Ķ": 2807,
      "å±¿": 2808,
      "åĳĨ": 2809,
      "çĳļ": 2810,
      "èº²": 2811,
      "åīĬ": 2812,
      "ç¸": 2813,
      "èĮĤ": 2814,
      "å¼Ħ": 2815,
      "ç©´": 2816,
      "éĢ¢": 2817,
      "æ¼Ĩ": 2818,
      "è§Ģ": 2819,
      "é¡ŀ": 2820,
      "èºº": 2821,
      "åĢ¦": 2822,
      "èķ¾": 2823,
      "çī¢": 2824,
      "å½¹": 2825,
      "æĤĦ": 2826,
      "ç¼ł": 2827,
      "åĨ»": 2828,
      "æŀķ": 2829,
      "çľī": 2830,
      "æŁı": 2831,
      "è±«": 2832,
      "ç¥Ī": 2833,
      "æĦ¤": 2834,
      "ä¾¦": 2835,
      "çĸ¯": 2836,
      "å·¢": 2837,
      "èªŀ": 2838,
      "çĥģ": 2839,
      "ï¼Ĳ": 2840,
      "åĲŀ": 2841,
      "éģĭ": 2842,
      "å¸Ĩ": 2843,
      "èĪĮ": 2844,
      "çĦĻ": 2845,
      "è¯±": 2846,
      "èŀº": 2847,
      "ï¼ĳ": 2848,
      "ç»½": 2849,
      "åĹ½": 2850,
      "æĲ¬": 2851,
      "æ³¼": 2852,
      "å·«": 2853,
      "ç½Ĳ": 2854,
      "å¥ĳ": 2855,
      "çŃĴ": 2856,
      "è®¶": 2857,
      "æĮļ": 2858,
      "éĥĬ": 2859,
      "æ»¥": 2860,
      "åµ": 2861,
      "å§ĳ": 2862,
      "å¼Ĭ": 2863,
      "çº²": 2864,
      "å±Ī": 2865,
      "åĵ¡": 2866,
      "ä¸ĳ": 2867,
      "æĥķ": 2868,
      "èļĤ": 2869,
      "æĺĶ": 2870,
      "æµ¦": 2871,
      "çĹķ": 2872,
      "æ¦ľ": 2873,
      "Â°": 2874,
      "ä¼ª": 2875,
      "åĸī": 2876,
      "æĮ¡": 2877,
      "å¸ĺ": 2878,
      "èŃ·": 2879,
      "èµĶ": 2880,
      "çłĤ": 2881,
      "èĳ£": 2882,
      "åĬ«": 2883,
      "çĪµ": 2884,
      "åĬ²": 2885,
      "çĢĳ": 2886,
      "ç¥¥": 2887,
      "å¸Ĳ": 2888,
      "æĿı": 2889,
      "æļ®": 2890,
      "æµ©": 2891,
      "è±ļ": 2892,
      "åŃŁ": 2893,
      "èļĬ": 2894,
      "æºĥ": 2895,
      "åĩ¸": 2896,
      "èµļ": 2897,
      "è¸¢": 2898,
      "åĳµ": 2899,
      "æ½º": 2900,
      "æĭ³": 2901,
      "åĹ¨": 2902,
      "åĭº": 2903,
      "æ¯¯": 2904,
      "å¢ĵ": 2905,
      "å³»": 2906,
      "å°İ": 2907,
      "åĲĬ": 2908,
      "æĪ¶": 2909,
      "éļĬ": 2910,
      "èĵ¬": 2911,
      "å¯ŀ": 2912,
      "æ¤°": 2913,
      "èīĺ": 2914,
      "è«ĸ": 2915,
      "çİĦ": 2916,
      "ç²¥": 2917,
      "åĩ¶": 2918,
      "é¢ł": 2919,
      "å¸ĸ": 2920,
      "å±¥": 2921,
      "çģĮ": 2922,
      "èīĩ": 2923,
      "éģ£": 2924,
      "èĬ¹": 2925,
      "æī¼": 2926,
      "çŁ®": 2927,
      "åľ³": 2928,
      "æ¶Ľ": 2929,
      "çĭ©": 2930,
      "éĽĢ": 2931,
      "åĴ¸": 2932,
      "é¥¥": 2933,
      "ç¤ģ": 2934,
      "æł½": 2935,
      "ç»£": 2936,
      "æ¢µ": 2937,
      "æ²Ĵ": 2938,
      "é©Ĺ": 2939,
      "èĽĻ": 2940,
      "æĤļ": 2941,
      "é£ĵ": 2942,
      "åĲ¨": 2943,
      "éħ¥": 2944,
      "æİ©": 2945,
      "æĢ¡": 2946,
      "æłı": 2947,
      "éĴ®": 2948,
      "æ¢³": 2949,
      "æĬĽ": 2950,
      "åīµ": 2951,
      "åıĶ": 2952,
      "è´ª": 2953,
      "åıĥ": 2954,
      "ç¥Ń": 2955,
      "æŃĩ": 2956,
      "çĨ¬": 2957,
      "è¡·": 2958,
      "æĻķ": 2959,
      "èĬ½": 2960,
      "äºŃ": 2961,
      "ä»ĵ": 2962,
      "çŃ¹": 2963,
      "è´º": 2964,
      "æ¾¡": 2965,
      "çĲĲ": 2966,
      "åĲŁ": 2967,
      "å¡ĺ": 2968,
      "éª¼": 2969,
      "å¬": 2970,
      "éĶĪ": 2971,
      "ç¥¸": 2972,
      "æ°®": 2973,
      "é¢ģ": 2974,
      "æĿŃ": 2975,
      "çĮ©": 2976,
      "æīŃ": 2977,
      "ç¿ģ": 2978,
      "åĸ§": 2979,
      "èĨ¨": 2980,
      "çģ¿": 2981,
      "å¥¢": 2982,
      "è®¼": 2983,
      "éģĶ": 2984,
      "å¦¥": 2985,
      "åĸĬ": 2986,
      "éĢ¸": 2987,
      "çħ¤": 2988,
      "ç¨»": 2989,
      "æŁ¯": 2990,
      "æĬ¬": 2991,
      "æĤĶ": 2992,
      "èģ²": 2993,
      "è«ĭ": 2994,
      "éļª": 2995,
      "æįŀ": 2996,
      "èĤĥ": 2997,
      "é²į": 2998,
      "çĨ±": 2999,
      "å¦¨": 3000,
      "èŃĺ": 3001,
      "è³½": 3002,
      "ç«Ń": 3003,
      "åĹħ": 3004,
      "éĺģ": 3005,
      "èĽĽ": 3006,
      "èª¿": 3007,
      "åĦĴ": 3008,
      "æ¸¬": 3009,
      "éŁ¦": 3010,
      "æĳ§": 3011,
      "æ¸Ĺ": 3012,
      "æĹº": 3013,
      "ä¸Ī": 3014,
      "åıĽ": 3015,
      "ä¾¯": 3016,
      "èľ¡": 3017,
      "æĸ·": 3018,
      "çĥĽ": 3019,
      "è¨±": 3020,
      "åķ¸": 3021,
      "è°£": 3022,
      "åĵĳ": 3023,
      "è¬": 3024,
      "æ¥µ": 3025,
      "åĭ¾": 3026,
      "æķŀ": 3027,
      "èĨı": 3028,
      "å»Ĭ": 3029,
      "åĿª": 3030,
      "å··": 3031,
      "çĤĸ": 3032,
      "æ¨Ļ": 3033,
      "æŁ´": 3034,
      "é³Ħ": 3035,
      "èĲĮ": 3036,
      "æĸ¥": 3037,
      "ç¯Ģ": 3038,
      "æ¢Ĺ": 3039,
      "æķ²": 3040,
      "åĺ¿": 3041,
      "è¿Ń": 3042,
      "åĪ¥": 3043,
      "åĦª": 3044,
      "æĢľ": 3045,
      "æĳĶ": 3046,
      "è¼ķ": 3047,
      "å·¡": 3048,
      "å¡Į": 3049,
      "çµ¦": 3050,
      "åĽĬ": 3051,
      "çĦ°": 3052,
      "æĹ·": 3053,
      "è¦ĸ": 3054,
      "æ¿Ĵ": 3055,
      "åħ©": 3056,
      "å¹«": 3057,
      "åŁĭ": 3058,
      "é¹¤": 3059,
      "âĢ¢": 3060,
      "çº±": 3061,
      "èıĬ": 3062,
      "æŃ·": 3063,
      "ç½ķ": 3064,
      "åĿł": 3065,
      "çŃĭ": 3066,
      "å²Ĥ": 3067,
      "å²Ń": 3068,
      "æīĶ": 3069,
      "èĩŃ": 3070,
      "ç»ļ": 3071,
      "éŃı": 3072,
      "æ²Ĳ": 3073,
      "æ³Į": 3074,
      "é¥º": 3075,
      "è©¦": 3076,
      "çºĮ": 3077,
      "åĲĵ": 3078,
      "è©±": 3079,
      "æ±ª": 3080,
      "é©°": 3081,
      "éłĺ": 3082,
      "æħĮ": 3083,
      "èĮ¸": 3084,
      "å¬ī": 3085,
      "å¥ł": 3086,
      "éĥĳ": 3087,
      "åĥ¹": 3088,
      "ç¾©": 3089,
      "èľĺ": 3090,
      "æĦĽ": 3091,
      "çĹ´": 3092,
      "èªį": 3093,
      "åĶĩ": 3094,
      "çªĿ": 3095,
      "æĽĿ": 3096,
      "çĤŃ": 3097,
      "éĴĻ": 3098,
      "èĳĽ": 3099,
      "è¾Ī": 3100,
      "éģ¸": 3101,
      "èĤ¾": 3102,
      "èĬ¦": 3103,
      "æĬĴ": 3104,
      "è´¤": 3105,
      "è´¼": 3106,
      "èµ´": 3107,
      "ç§©": 3108,
      "éģĬ": 3109,
      "èį«": 3110,
      "æµĻ": 3111,
      "éĽģ": 3112,
      "æĭ¨": 3113,
      "æ¢Ń": 3114,
      "åĥ§": 3115,
      "çłĸ": 3116,
      "æ§ĭ": 3117,
      "åŃĿ": 3118,
      "é¦ħ": 3119,
      "åĤį": 3120,
      "éĸĢ": 3121,
      "èħĮ": 3122,
      "éģ©": 3123,
      "ç¡ħ": 3124,
      "å¯¡": 3125,
      "è¾°": 3126,
      "æ¿Ł": 3127,
      "èļĢ": 3128,
      "å®ª": 3129,
      "æĴ¤": 3130,
      "åĲµ": 3131,
      "ç»ĳ": 3132,
      "ä½Ĳ": 3133,
      "åµĮ": 3134,
      "èĵĦ": 3135,
      "åĤĻ": 3136,
      "éĥŃ": 3137,
      "éĴł": 3138,
      "ä»²": 3139,
      "èĢ¶": 3140,
      "è¡į": 3141,
      "æĭ¾": 3142,
      "ï¼Ĵ": 3143,
      "çĥ·": 3144,
      "æħĭ": 3145,
      "åĪĬ": 3146,
      "æłĭ": 3147,
      "æĮ£": 3148,
      "ä¹Ĵ": 3149,
      "çī²": 3150,
      "å¾½": 3151,
      "åĿĳ": 3152,
      "é©»": 3153,
      "çİ²": 3154,
      "èµĲ": 3155,
      "å²³": 3156,
      "ç¡«": 3157,
      "æĮ½": 3158,
      "èĸĽ": 3159,
      "æĺĮ": 3160,
      "æĵĬ": 3161,
      "åĴĻ": 3162,
      "ç¦½": 3163,
      "çĶ«": 3164,
      "æĪĪ": 3165,
      "èĨĿ": 3166,
      "æ·Į": 3167,
      "èĶĵ": 3168,
      "æĽ³": 3169,
      "åīĩ": 3170,
      "åį¿": 3171,
      "è°§": 3172,
      "èĤļ": 3173,
      "èĢķ": 3174,
      "åī¥": 3175,
      "ç¯¡": 3176,
      "å´ĸ": 3177,
      "çŃĿ": 3178,
      "æ¤Ń": 3179,
      "ç¸½": 3180,
      "è¯Ģ": 3181,
      "å®µ": 3182,
      "ä¹ĵ": 3183,
      "çħĮ": 3184,
      "çħ¸": 3185,
      "åĮł": 3186,
      "èŁ¹": 3187,
      "éħ¬": 3188,
      "é¦Ģ": 3189,
      "çºº": 3190,
      "è¹²": 3191,
      "éĿ´": 3192,
      "é¢ĩ": 3193,
      "æ°¨": 3194,
      "æīģ": 3195,
      "åĨĹ": 3196,
      "èģĨ": 3197,
      "åįĳ": 3198,
      "æĦļ": 3199,
      "åĢļ": 3200,
      "ç¶Ń": 3201,
      "å¥´": 3202,
      "é¸¿": 3203,
      "èĿī": 3204,
      "åĸ±": 3205,
      "æ¸Ľ": 3206,
      "æĨ¾": 3207,
      "æĥ¨": 3208,
      "éħ¶": 3209,
      "èªĵ": 3210,
      "åļ£": 3211,
      "æĬĸ": 3212,
      "å´Ľ": 3213,
      "åķ¼": 3214,
      "çķ´": 3215,
      "éªĦ": 3216,
      "å§¬": 3217,
      "æĭĺ": 3218,
      "å°ĭ": 3219,
      "çĤ®": 3220,
      "é¸¦": 3221,
      "æĲı": 3222,
      "æħ·": 3223,
      "èĹĿ": 3224,
      "æ³ģ": 3225,
      "ä¿Ĭ": 3226,
      "èĪ°": 3227,
      "åĭ¿": 3228,
      "ç´°": 3229,
      "åľĸ": 3230,
      "æ²Ī": 3231,
      "åįµ": 3232,
      "çľ¾": 3233,
      "æºĸ": 3234,
      "èĳµ": 3235,
      "æŁļ": 3236,
      "å½Ĺ": 3237,
      "æ¢Ŀ": 3238,
      "éĵŃ": 3239,
      "èĸĩ": 3240,
      "åĻ¬": 3241,
      "ç£ħ": 3242,
      "å·ħ": 3243,
      "éĥ¡": 3244,
      "çĺ¾": 3245,
      "æ¬ł": 3246,
      "è°İ": 3247,
      "èĿł": 3248,
      "çį²": 3249,
      "éĢ®": 3250,
      "ç»¸": 3251,
      "èł": 3252,
      "è¦ı": 3253,
      "è²»": 3254,
      "æŃ¡": 3255,
      "èĹ¤": 3256,
      "è»Ĭ": 3257,
      "å¯¨": 3258,
      "éĹ°": 3259,
      "ç¦ħ": 3260,
      "æĽ¸": 3261,
      "éĤĥ": 3262,
      "çĥ«": 3263,
      "çĭŃ": 3264,
      "è¦º": 3265,
      "çµĤ": 3266,
      "æłª": 3267,
      "å¨ĩ": 3268,
      "ä¿©": 3269,
      "åĽļ": 3270,
      "æ¬Ĭ": 3271,
      "ï½": 3272,
      "çīº": 3273,
      "ç¼ļ": 3274,
      "ç²¹": 3275,
      "åĲ»": 3276,
      "æ²¥": 3277,
      "æĻĸ": 3278,
      "åħ®": 3279,
      "æ°¯": 3280,
      "ä¾į": 3281,
      "ç½¢": 3282,
      "åĪ¹": 3283,
      "åĸ®": 3284,
      "ä½£": 3285,
      "å©ī": 3286,
      "å°Ī": 3287,
      "å»ĵ": 3288,
      "æ§½": 3289,
      "è¼ĥ": 3290,
      "éĬ": 3291,
      "èĿĻ": 3292,
      "çŀ©": 3293,
      "å´½": 3294,
      "éĵĿ": 3295,
      "æĻĥ": 3296,
      "æ·¹": 3297,
      "ç¡ķ": 3298,
      "èĢ¸": 3299,
      "éłŃ": 3300,
      "åĿĬ": 3301,
      "å¸«": 3302,
      "å°¸": 3303,
      "åĮ¿": 3304,
      "æĿĸ": 3305,
      "éłħ": 3306,
      "éļĻ": 3307,
      "ç¨ł": 3308,
      "åĿİ": 3309,
      "å¼µ": 3310,
      "å¿Į": 3311,
      "é³ŀ": 3312,
      "çĽİ": 3313,
      "å»£": 3314,
      "è°¦": 3315,
      "è¦ĭ": 3316,
      "è¡Ķ": 3317,
      "ç¾ŀ": 3318,
      "çĨĻ": 3319,
      "ç³¯": 3320,
      "çĻĤ": 3321,
      "æ¶¤": 3322,
      "åº¸": 3323,
      "é¸¥": 3324,
      "éļ¨": 3325,
      "èĻĲ": 3326,
      "æ³£": 3327,
      "æĳĬ": 3328,
      "åĭŁ": 3329,
      "çµĦ": 3330,
      "éĤĵ": 3331,
      "çĽ¼": 3332,
      "æģŃ": 3333,
      "ç¯·": 3334,
      "è¸©": 3335,
      "èµĮ": 3336,
      "æ½ĺ": 3337,
      "ç°¡": 3338,
      "åĺĽ": 3339,
      "éĴ©": 3340,
      "åį¸": 3341,
      "æ¶©": 3342,
      "ç·ļ": 3343,
      "çļ±": 3344,
      "æ¹ĺ": 3345,
      "åĪ®": 3346,
      "åĬį": 3347,
      "èĮħ": 3348,
      "é¹¦": 3349,
      "æ»ŀ": 3350,
      "çŁ£": 3351,
      "è½ī": 3352,
      "èĮİ": 3353,
      "å¯«": 3354,
      "æį§": 3355,
      "ç³Ļ": 3356,
      "åĩĭ": 3357,
      "èĵī": 3358,
      "è¨İ": 3359,
      "æ¸Ĭ": 3360,
      "åĸĺ": 3361,
      "æ¼¾": 3362,
      "çį¨": 3363,
      "é¢Ĥ": 3364,
      "èĤĨ": 3365,
      "éĮ": 3366,
      "åĬĿ": 3367,
      "æĥŁ": 3368,
      "é¹ī": 3369,
      "æĬĦ": 3370,
      "é¸½": 3371,
      "åĩĦ": 3372,
      "åīĸ": 3373,
      "çĨĶ": 3374,
      "æ£ĺ": 3375,
      "éĦ": 3376,
      "å®Ľ": 3377,
      "æºľ": 3378,
      "çĲ¼": 3379,
      "åļ¼": 3380,
      "è¶Ł": 3381,
      "èĪ±": 3382,
      "åĿŀ": 3383,
      "èĹ»": 3384,
      "èºģ": 3385,
      "èĦ¾": 3386,
      "æĵģ": 3387,
      "è®½": 3388,
      "æĿ±": 3389,
      "é©¯": 3390,
      "éŃĦ": 3391,
      "åĭ¢": 3392,
      "éĽ£": 3393,
      "ç¼¤": 3394,
      "å¦ĸ": 3395,
      "æ·®": 3396,
      "æ²§": 3397,
      "å·©": 3398,
      "çķ°": 3399,
      "ç·´": 3400,
      "æĥ¬": 3401,
      "è½¿": 3402,
      "çĸĨ": 3403,
      "é©³": 3404,
      "éĹ¯": 3405,
      "çĴ¨": 3406,
      "ç©į": 3407,
      "åĬĥ": 3408,
      "çĴĢ": 3409,
      "æİł": 3410,
      "èĭĶ": 3411,
      "è£ķ": 3412,
      "ç¼¸": 3413,
      "ç£·": 3414,
      "çļĤ": 3415,
      "é¢Ĳ": 3416,
      "æį¡": 3417,
      "æ£į": 3418,
      "ä¸Ļ": 3419,
      "å¼§": 3420,
      "æµĳ": 3421,
      "åł±": 3422,
      "èĩº": 3423,
      "çĭĢ": 3424,
      "è£Ŀ": 3425,
      "çªĦ": 3426,
      "å±¤": 3427,
      "æŁĦ": 3428,
      "åĥħ": 3429,
      "å³¦": 3430,
      "èģŀ": 3431,
      "ç¬Ľ": 3432,
      "ç´Ħ": 3433,
      "æ±Ģ": 3434,
      "éłĲ": 3435,
      "ç¼´": 3436,
      "æĪ²": 3437,
      "åįĶ": 3438,
      "éĶ¡": 3439,
      "è©ķ": 3440,
      "éļ§": 3441,
      "è§ħ": 3442,
      "éĨ«": 3443,
      "æ³»": 3444,
      "åĸµ": 3445,
      "è´©": 3446,
      "åľĴ": 3447,
      "èĶ½": 3448,
      "ç»İ": 3449,
      "è½°": 3450,
      "èģ¯": 3451,
      "æ¶¡": 3452,
      "å£ĵ": 3453,
      "è°ļ": 3454,
      "çģ¶": 3455,
      "éĴŀ": 3456,
      "è¯ı": 3457,
      "å±ĳ": 3458,
      "éĻ½": 3459,
      "æ¾Ħ": 3460,
      "æŁĳ": 3461,
      "é¡¯": 3462,
      "è¢į": 3463,
      "âĳ": 3464,
      "æĸĲ": 3465,
      "èĪĨ": 3466,
      "è»į": 3467,
      "ä»Ĺ": 3468,
      "æº«": 3469,
      "çķľ": 3470,
      "æª¢": 3471,
      "éģı": 3472,
      "ç¼ķ": 3473,
      "éģĤ": 3474,
      "åºĲ": 3475,
      "äºı": 3476,
      "åĵİ": 3477,
      "ä¿Ĥ": 3478,
      "éħ¿": 3479,
      "è©ŀ": 3480,
      "åķ¥": 3481,
      "å¾Ļ": 3482,
      "è¨ĺ": 3483,
      "è¾½": 3484,
      "åį»": 3485,
      "å³Ń": 3486,
      "ä¹¾": 3487,
      "è¨Ĭ": 3488,
      "æ²¾": 3489,
      "ä¸¸": 3490,
      "éĶ¤": 3491,
      "éĻķ": 3492,
      "é«ĵ": 3493,
      "éĴ¦": 3494,
      "åĴĴ": 3495,
      "éĴĹ": 3496,
      "çĪŃ": 3497,
      "çĳ¶": 3498,
      "èľĹ": 3499,
      "éļĽ": 3500,
      "åĨĪ": 3501,
      "åĤħ": 3502,
      "æĺŃ": 3503,
      "å®°": 3504,
      "èµģ": 3505,
      "å¢ħ": 3506,
      "æıī": 3507,
      "æĺ¼": 3508,
      "æŀ£": 3509,
      "æĻ¤": 3510,
      "èŃī": 3511,
      "æĥ°": 3512,
      "åĵ®": 3513,
      "ï½ŀ": 3514,
      "éªļ": 3515,
      "éĿľ": 3516,
      "å¼ĵ": 3517,
      "æĵĩ": 3518,
      "åĲı": 3519,
      "è±Ĳ": 3520,
      "çĤ«": 3521,
      "èįĨ": 3522,
      "è¤Ĳ": 3523,
      "ä»ĳ": 3524,
      "éĸĴ": 3525,
      "è²¬": 3526,
      "è½©": 3527,
      "èİº": 3528,
      "è£½": 3529,
      "æĴ©": 3530,
      "ï¼ĵ": 3531,
      "èĲİ": 3532,
      "è¼¸": 3533,
      "ï¼İ": 3534,
      "é¼İ": 3535,
      "åľį": 3536,
      "å°¬": 3537,
      "è¾±": 3538,
      "æļĩ": 3539,
      "æ¸º": 3540,
      "é¡½": 3541,
      "âĨ": 3542,
      "åĴı": 3543,
      "æ¸£": 3544,
      "èģ½": 3545,
      "çĮ¿": 3546,
      "éĤĬ": 3547,
      "èĦĸ": 3548,
      "Â²": 3549,
      "èĬĻ": 3550,
      "åļ´": 3551,
      "èı¯": 3552,
      "éļ¶": 3553,
      "æŀ¢": 3554,
      "æ°¦": 3555,
      "è¤ĩ": 3556,
      "çµ¡": 3557,
      "è°ħ": 3558,
      "éĺ±": 3559,
      "éľ¾": 3560,
      "å°´": 3561,
      "æĭŃ": 3562,
      "è°Ľ": 3563,
      "èĮµ": 3564,
      "æĸ©": 3565,
      "æĸĵ": 3566,
      "æĮª": 3567,
      "åīĶ": 3568,
      "çħ²": 3569,
      "æ²Ľ": 3570,
      "éĴ¾": 3571,
      "è¯µ": 3572,
      "å¾Ĭ": 3573,
      "çĥ¯": 3574,
      "æ¸į": 3575,
      "çķ«": 3576,
      "ï¼ķ": 3577,
      "æĪļ": 3578,
      "ç¾¡": 3579,
      "éĽ¢": 3580,
      "éģł": 3581,
      "èĥ°": 3582,
      "èĸ°": 3583,
      "èª°": 3584,
      "åĮª": 3585,
      "èĶļ": 3586,
      "ðŁĮ": 3587,
      "è¾ĸ": 3588,
      "ç¿±": 3589,
      "è®Ģ": 3590,
      "èĪĪ": 3591,
      "åĴ½": 3592,
      "åĨ¯": 3593,
      "çº¬": 3594,
      "æĦ§": 3595,
      "æ¼¸": 3596,
      "éłĪ": 3597,
      "çĦķ": 3598,
      "èľĢ": 3599,
      "éĴī": 3600,
      "å«ģ": 3601,
      "çĽı": 3602,
      "æ±Ŀ": 3603,
      "äº©": 3604,
      "åľĺ": 3605,
      "å¾ĺ": 3606,
      "ç´ħ": 3607,
      "åĥµ": 3608,
      "äºŀ": 3609,
      "ç©©": 3610,
      "è¥Ł": 3611,
      "èĥº": 3612,
      "æĴķ": 3613,
      "èħķ": 3614,
      "åİķ": 3615,
      "ç¥ī": 3616,
      "è´¬": 3617,
      "æ¦¨": 3618,
      "åĤ»": 3619,
      "éĩĭ": 3620,
      "èĳ¬": 3621,
      "è²ł": 3622,
      "åĳķ": 3623,
      "éŀŃ": 3624,
      "ï¼Ļ": 3625,
      "èĴ²": 3626,
      "ç·Ĭ": 3627,
      "å¾µ": 3628,
      "è¶ģ": 3629,
      "åŀĴ": 3630,
      "åĲķ": 3631,
      "ç§ī": 3632,
      "âĨĴ": 3633,
      "åĴ±": 3634,
      "è¤ª": 3635,
      "éĽľ": 3636,
      "åįĴ": 3637,
      "æħ®": 3638,
      "è¾Ł": 3639,
      "é»ı": 3640,
      "åĴķ": 3641,
      "çĭĦ": 3642,
      "åĵŁ": 3643,
      "ç«ĸ": 3644,
      "æĮł": 3645,
      "èĬŃ": 3646,
      "é¬ĵ": 3647,
      "ä¹ŀ": 3648,
      "æ¼ĵ": 3649,
      "èĶ¡": 3650,
      "éºĹ": 3651,
      "ç¹Ķ": 3652,
      "æ¦´": 3653,
      "ç¯ī": 3654,
      "ðŁĺ": 3655,
      "åħĨ": 3656,
      "å¼ĺ": 3657,
      "æĻ¾": 3658,
      "è¹Ħ": 3659,
      "èĹī": 3660,
      "ç²¼": 3661,
      "ç±½": 3662,
      "æ±°": 3663,
      "éĻ³": 3664,
      "æ¶Ŀ": 3665,
      "æ±²": 3666,
      "éĺ®": 3667,
      "ç¢Ł": 3668,
      "éĢ¾": 3669,
      "çŀ°": 3670,
      "æĭ±": 3671,
      "çĨı": 3672,
      "çĩŁ": 3673,
      "è°´": 3674,
      "æİ¡": 3675,
      "åĿį": 3676,
      "è¨ĵ": 3677,
      "è¢ľ": 3678,
      "æİ·": 3679,
      "è¹¦": 3680,
      "æ¡Ĳ": 3681,
      "æ¶Ł": 3682,
      "éľī": 3683,
      "ç¼ħ": 3684,
      "åĺĪ": 3685,
      "åĺ²": 3686,
      "èĪī": 3687,
      "çĿĲ": 3688,
      "ç¶ł": 3689,
      "åİĦ": 3690,
      "æ¢§": 3691,
      "èĽ®": 3692,
      "åŀ¢": 3693,
      "æĹ¬": 3694,
      "é¢¤": 3695,
      "éĿĪ": 3696,
      "èİ¹": 3697,
      "æĿł": 3698,
      "âĢĭ": 3699,
      "èľ¥": 3700,
      "æĽ¦": 3701,
      "æķĽ": 3702,
      "æłĪ": 3703,
      "ï¼Ķ": 3704,
      "æ¨¹": 3705,
      "åĩ³": 3706,
      "éĵ¸": 3707,
      "è¬Ŀ": 3708,
      "éĶ¥": 3709,
      "é¾į": 3710,
      "é©¼": 3711,
      "å³¨": 3712,
      "éªĤ": 3713,
      "å¦ĥ": 3714,
      "é©ļ": 3715,
      "è¯ł": 3716,
      "åĭĺ": 3717,
      "é¸¢": 3718,
      "æ½Ń": 3719,
      "éį": 3720,
      "åĨ¤": 3721,
      "èĩĢ": 3722,
      "ç¥Ģ": 3723,
      "å©·": 3724,
      "åĩ°": 3725,
      "å½Ń": 3726,
      "ç°ĩ": 3727,
      "æĭ¦": 3728,
      "äº¨": 3729,
      "çĬĢ": 3730,
      "éľĦ": 3731,
      "ç¬¨": 3732,
      "ç¬ĭ": 3733,
      "åĹ¡": 3734,
      "åħĳ": 3735,
      "èĬ¥": 3736,
      "èģ·": 3737,
      "æĸĭ": 3738,
      "èį§": 3739,
      "åľŃ": 3740,
      "èĩ¨": 3741,
      "éħ¯": 3742,
      "çĹĺ": 3743,
      "éħļ": 3744,
      "åł¤": 3745,
      "çĳķ": 3746,
      "èł¢": 3747,
      "æ¡Ķ": 3748,
      "ç»ħ": 3749,
      "ç¾ģ": 3750,
      "è¾ľ": 3751,
      "æ¶ķ": 3752,
      "å´İ": 3753,
      "åŃµ": 3754,
      "é£Ľ": 3755,
      "ÏĢ": 3756,
      "çĦļ": 3757,
      "éĽĮ": 3758,
      "æ¢¢": 3759,
      "æĢħ": 3760,
      "ä¾Ī": 3761,
      "çªŁ": 3762,
      "å¹¾": 3763,
      "æĭĲ": 3764,
      "è¢ģ": 3765,
      "æ¼±": 3766,
      "ç²¤": 3767,
      "èĹ¥": 3768,
      "èĭ¯": 3769,
      "åĬĩ": 3770,
      "åĭĭ": 3771,
      "æ·Ĩ": 3772,
      "æ½ĩ": 3773,
      "å§ļ": 3774,
      "éĵ²": 3775,
      "å¯¥": 3776,
      "åİ¢": 3777,
      "çĢļ": 3778,
      "çĦ¯": 3779,
      "ç¼Ĩ": 3780,
      "çŃ·": 3781,
      "çĦī": 3782,
      "æºī": 3783,
      "åı®": 3784,
      "çŁ«": 3785,
      "éĺĳ": 3786,
      "é²ĳ": 3787,
      "çĶ¸": 3788,
      "è¯¡": 3789,
      "åĺ»": 3790,
      "éĻ¨": 3791,
      "å§¨": 3792,
      "é¤Ĭ": 3793,
      "éŃģ": 3794,
      "åĹİ": 3795,
      "æ±¹": 3796,
      "è°į": 3797,
      "çĿ¹": 3798,
      "æīī": 3799,
      "å®ķ": 3800,
      "åĪĥ": 3801,
      "æİĢ": 3802,
      "éĻĭ": 3803,
      "é¸µ": 3804,
      "éģĽ": 3805,
      "åĥ»": 3806,
      "åĵī": 3807,
      "å±¡": 3808,
      "çŀ»": 3809,
      "æĵĢ": 3810,
      "æłĹ": 3811,
      "è±ģ": 3812,
      "èĳ«": 3813,
      "ï¼Ĥ": 3814,
      "ç¹¼": 3815,
      "æ¼ª": 3816,
      "è´ŀ": 3817,
      "é²Ī": 3818,
      "ç¨½": 3819,
      "æµĬ": 3820,
      "åīĥ": 3821,
      "åłķ": 3822,
      "åĿ¤": 3823,
      "è£³": 3824,
      "ç¼Ń": 3825,
      "éĽĻ": 3826,
      "çĽ¯": 3827,
      "å±ī": 3828,
      "æ¶İ": 3829,
      "çĹ°": 3830,
      "çĨł": 3831,
      "æªĲ": 3832,
      "å±¯": 3833,
      "çľ¸": 3834,
      "åĿĿ": 3835,
      "æŀī": 3836,
      "éĻ¡": 3837,
      "åĩ¹": 3838,
      "çľº": 3839,
      "å½¦": 3840,
      "è¶¾": 3841,
      "é§": 3842,
      "éĿ¡": 3843,
      "éĻĢ": 3844,
      "åĭĿ": 3845,
      "åĹĵ": 3846,
      "çĭł": 3847,
      "ä»Ĩ": 3848,
      "çĲª": 3849,
      "æľ½": 3850,
      "æī¯": 3851,
      "é«¦": 3852,
      "ç¯±": 3853,
      "è¢¤": 3854,
      "è³¼": 3855,
      "è¿Ħ": 3856,
      "é¢Ĭ": 3857,
      "å±¬": 3858,
      "æ¸²": 3859,
      "çĽ£": 3860,
      "æĲį": 3861,
      "ç¨±": 3862,
      "å¤¢": 3863,
      "æľĶ": 3864,
      "ç´ļ": 3865,
      "è°¬": 3866,
      "èħ¥": 3867,
      "æ³µ": 3868,
      "èĬľ": 3869,
      "å¼Ľ": 3870,
      "éİ": 3871,
      "æ©±": 3872,
      "æĵĶ": 3873,
      "éľĵ": 3874,
      "éĨĽ": 3875,
      "çĽĶ": 3876,
      "æģį": 3877,
      "ï¼ĸ": 3878,
      "èĭĳ": 3879,
      "åłħ": 3880,
      "æħµ": 3881,
      "é¹ı": 3882,
      "å°ī": 3883,
      "èĲ¦": 3884,
      "ä¹ĸ": 3885,
      "ä¿ı": 3886,
      "çĽ¡": 3887,
      "å´Ń": 3888,
      "è´¿": 3889,
      "çĸ¹": 3890,
      "åĭī": 3891,
      "çĹĴ": 3892,
      "æºħ": 3893,
      "èľ´": 3894,
      "èķĥ": 3895,
      "åĺ±": 3896,
      "æľ¦": 3897,
      "å±ł": 3898,
      "çĪ¾": 3899,
      "åºĩ": 3900,
      "æĶĺ": 3901,
      "ç«¶": 3902,
      "æ²ģ": 3903,
      "çªį": 3904,
      "åĴĢ": 3905,
      "çª¥": 3906,
      "å´Ķ": 3907,
      "è¦ª": 3908,
      "ç´¹": 3909,
      "æķµ": 3910,
      "èº¯": 3911,
      "è»Ł": 3912,
      "åĭµ": 3913,
      "ç¡Ŀ": 3914,
      "ç¥·": 3915,
      "èħ¦": 3916,
      "å¯Ĳ": 3917,
      "æł©": 3918,
      "éĶĮ": 3919,
      "æ®·": 3920,
      "çıĢ": 3921,
      "çµ®": 3922,
      "è©©": 3923,
      "çī¡": 3924,
      "èĪĶ": 3925,
      "æĭĻ": 3926,
      "æ¦»": 3927,
      "åŀł": 3928,
      "çĨµ": 3929,
      "å¯¶": 3930,
      "éĺĻ": 3931,
      "æ¡©": 3932,
      "åĤ·": 3933,
      "âĹ": 3934,
      "æ±Ĳ": 3935,
      "å¦Ħ": 3936,
      "é©Ń": 3937,
      "èĢ»": 3938,
      "éħĮ": 3939,
      "è¨´": 3940,
      "ä¸ŀ": 3941,
      "èļķ": 3942,
      "ðŁĳ": 3943,
      "éħ®": 3944,
      "æĥ¹": 3945,
      "é²¤": 3946,
      "çĤ½": 3947,
      "åŃľ": 3948,
      "å¾©": 3949,
      "ç¦Ħ": 3950,
      "èĻŁ": 3951,
      "çļİ": 3952,
      "æį£": 3953,
      "è¾²": 3954,
      "åŀĦ": 3955,
      "éªĨ": 3956,
      "æ§Ľ": 3957,
      "æ¸ļ": 3958,
      "è¾¦": 3959,
      "å¢Ł": 3960,
      "æ¶ħ": 3961,
      "èĥ§": 3962,
      "çļĳ": 3963,
      "éĿĸ": 3964,
      "æ²¼": 3965,
      "é¥¶": 3966,
      "ç·Ĵ": 3967,
      "ç·¨": 3968,
      "æ´½": 3969,
      "ç¯Ŀ": 3970,
      "éĩĿ": 3971,
      "å¶": 3972,
      "å¦Ĵ": 3973,
      "èª²": 3974,
      "é¬¥": 3975,
      "æ°Ł": 3976,
      "èĪ¶": 3977,
      "åĹŁ": 3978,
      "ï¼ĺ": 3979,
      "ä½¼": 3980,
      "èĭ·": 3981,
      "é¡·": 3982,
      "ä¿ĳ": 3983,
      "çĤĻ": 3984,
      "åĳ¤": 3985,
      "è¤¶": 3986,
      "éĶĤ": 3987,
      "ç¯Ħ": 3988,
      "ç©Ĺ": 3989,
      "éĲ": 3990,
      "æĸ§": 3991,
      "ä¹į": 3992,
      "é£²": 3993,
      "çł¸": 3994,
      "åĹľ": 3995,
      "åĺĮ": 3996,
      "æĨ§": 3997,
      "âĪ": 3998,
      "ï¼į": 3999,
      "åĩ¿": 4000,
      "æķĹ": 4001,
      "å½·": 4002,
      "èĲ¬": 4003,
      "é¦¬": 4004,
      "çĭ¡": 4005,
      "è²·": 4006,
      "è¢ħ": 4007,
      "å¨ħ": 4008,
      "éķģ": 4009,
      "æı®": 4010,
      "èĲ¤": 4011,
      "æ¨½": 4012,
      "åĲł": 4013,
      "ç£Ĭ": 4014,
      "æĨ¬": 4015,
      "å©ª": 4016,
      "éºŁ": 4017,
      "æįı": 4018,
      "èĲĥ": 4019,
      "éĬ·": 4020,
      "ï¼Ĺ": 4021,
      "å¨¥": 4022,
      "æķ·": 4023,
      "çŀª": 4024,
      "åĵ¨": 4025,
      "åħĴ": 4026,
      "å·į": 4027,
      "ç«¿": 4028,
      "ç©¹": 4029,
      "é©´": 4030,
      "ç¤İ": 4031,
      "åĿ·": 4032,
      "æ¶§": 4033,
      "èįĶ": 4034,
      "èĴĭ": 4035,
      "åĺ¶": 4036,
      "éĢ£": 4037,
      "ç»·": 4038,
      "æĬī": 4039,
      "é¦Ĵ": 4040,
      "æ»Ķ": 4041,
      "é¤¨": 4042,
      "èĿĩ": 4043,
      "éĤĳ": 4044,
      "çį»": 4045,
      "çĲħ": 4046,
      "æĶĿ": 4047,
      "çģ¼": 4048,
      "é¬Ĩ": 4049,
      "å°¹": 4050,
      "åĻ¢": 4051,
      "å£ĳ": 4052,
      "æ£ļ": 4053,
      "çĨĦ": 4054,
      "è·¤": 4055,
      "æ¾İ": 4056,
      "âĢĵ": 4057,
      "æıĽ": 4058,
      "âĸ": 4059,
      "åĨķ": 4060,
      "æĤį": 4061,
      "ç¿ĺ": 4062,
      "å¨Ł": 4063,
      "çľ·": 4064,
      "èĻŀ": 4065,
      "æ¾ľ": 4066,
      "æī³": 4067,
      "ç´Ĭ": 4068,
      "éªı": 4069,
      "éĩī": 4070,
      "èĤĺ": 4071,
      "æĲĵ": 4072,
      "éª¸": 4073,
      "çĮķ": 4074,
      "æ¨ĵ": 4075,
      "è¤Ĵ": 4076,
      "åĵĹ": 4077,
      "æĶĴ": 4078,
      "çĺ«": 4079,
      "è±Į": 4080,
      "ç·©": 4081,
      "åĨ¶": 4082,
      "éĻĽ": 4083,
      "å»³": 4084,
      "çŁ¢": 4085,
      "æ²ª": 4086,
      "è¡Ľ": 4087,
      "éĽ²": 4088,
      "é»¯": 4089,
      "æºº": 4090,
      "èı±": 4091,
      "æĤĸ": 4092,
      "æĿŀ": 4093,
      "æĲģ": 4094,
      "å¦į": 4095,
      "æĵ¬": 4096,
      "ç°§": 4097,
      "çº¶": 4098,
      "çĿ¦": 4099,
      "åĸĢ": 4100,
      "çĦĸ": 4101,
      "ç»®": 4102,
      "åĸĩ": 4103,
      "åķ¶": 4104,
      "éĬĢ": 4105,
      "è²¡": 4106,
      "è¶´": 4107,
      "ç½¹": 4108,
      "åĲ¼": 4109,
      "èĢ½": 4110,
      "æĻ¦": 4111,
      "åĶ¾": 4112,
      "æ£±": 4113,
      "æģ¬": 4114,
      "ç´Ģ": 4115,
      "éĽį": 4116,
      "é¸¾": 4117,
      "é³ķ": 4118,
      "é£Ļ": 4119,
      "å¯Ŀ": 4120,
      "èĤ½": 4121,
      "ç¥ł": 4122,
      "éĸĥ": 4123,
      "èĢ¦": 4124,
      "éĶ¯": 4125,
      "èģĭ": 4126,
      "éįµ": 4127,
      "å¼Ī": 4128,
      "èĭĽ": 4129,
      "èŀĥ": 4130,
      "ç¢¼": 4131,
      "æ½Ľ": 4132,
      "éĸ±": 4133,
      "æ´¼": 4134,
      "åĴ¯": 4135,
      "çľ©": 4136,
      "èı©": 4137,
      "æĪ³": 4138,
      "éķ¶": 4139,
      "éĴĽ": 4140,
      "çª¦": 4141,
      "æ²¦": 4142,
      "éĺĢ": 4143,
      "æĥŃ": 4144,
      "æĤ¼": 4145,
      "çĸµ": 4146,
      "èİ½": 4147,
      "è¥Ħ": 4148,
      "éı": 4149,
      "åĴĨ": 4150,
      "éĢį": 4151,
      "èĤĭ": 4152,
      "çģ¸": 4153,
      "åŁ·": 4154,
      "çĦĹ": 4155,
      "èĲį": 4156,
      "åĮĪ": 4157,
      "è´±": 4158,
      "åĻľ": 4159,
      "ãĥ": 4160,
      "äºŁ": 4161,
      "æĢ¯": 4162,
      "ç¦®": 4163,
      "çŀ³": 4164,
      "é»ĥ": 4165,
      "æ¹ĥ": 4166,
      "èľ¿": 4167,
      "æĨ¶": 4168,
      "âī": 4169,
      "æĭ¢": 4170,
      "çĮ¾": 4171,
      "éļ±": 4172,
      "çµ²": 4173,
      "ãĢİ": 4174,
      "éģĲ": 4175,
      "çĦĬ": 4176,
      "èľĴ": 4177,
      "å¸ľ": 4178,
      "åĩĽ": 4179,
      "åĳĲ": 4180,
      "èĮģ": 4181,
      "åĺ§": 4182,
      "ç¼ª": 4183,
      "è²´": 4184,
      "è¿¢": 4185,
      "é¢ħ": 4186,
      "è£¸": 4187,
      "é¹Ń": 4188,
      "éĮ¯": 4189,
      "å¹Ĥ": 4190,
      "é®": 4191,
      "åıŃ": 4192,
      "åĨī": 4193,
      "åĸ³": 4194,
      "æ¼©": 4195,
      "é¹Ĭ": 4196,
      "é³į": 4197,
      "åĸĻ": 4198,
      "é¨": 4199,
      "ãĢı": 4200,
      "å¥ķ": 4201,
      "æµĴ": 4202,
      "èĹį": 4203,
      "åĺĹ": 4204,
      "åĲĴ": 4205,
      "å²ļ": 4206,
      "é¦ı": 4207,
      "çģ½": 4208,
      "çŃĲ": 4209,
      "æĥĨ": 4210,
      "é³Ĺ": 4211,
      "é©¿": 4212,
      "æ£ł": 4213,
      "å«ī": 4214,
      "åį¦": 4215,
      "è¬Ľ": 4216,
      "éĹº": 4217,
      "çĿģ": 4218,
      "æĩ·": 4219,
      "åį¤": 4220,
      "çĲī": 4221,
      "çµķ": 4222,
      "åºļ": 4223,
      "ä¾ı": 4224,
      "å¾ľ": 4225,
      "éĻ°": 4226,
      "è½¼": 4227,
      "éĺª": 4228,
      "æ¼ī": 4229,
      "èĺ¸": 4230,
      "ä¾¬": 4231,
      "æĤ¸": 4232,
      "èĳī": 4233,
      "ç¹«": 4234,
      "å¾ī": 4235,
      "è²¢": 4236,
      "è©³": 4237,
      "çŀĴ": 4238,
      "âĸ¡": 4239,
      "ä¿Ń": 4240,
      "èĭŁ": 4241,
      "æħ£": 4242,
      "éĿ¶": 4243,
      "éģº": 4244,
      "ç¥ĩ": 4245,
      "éİ®": 4246,
      "èĮı": 4247,
      "æĵ´": 4248,
      "èĺŃ": 4249,
      "å¯ĩ": 4250,
      "éĻ£": 4251,
      "å£ŀ": 4252,
      "é¹ĥ": 4253,
      "è°Ń": 4254,
      "èĲ¼": 4255,
      "æºĿ": 4256,
      "æĪİ": 4257,
      "æĹŃ": 4258,
      "æŀ¸": 4259,
      "æ·ĳ": 4260,
      "ï¸": 4261,
      "å®¦": 4262,
      "å¥¸": 4263,
      "çĤĬ": 4264,
      "ç¾ļ": 4265,
      "èĻı": 4266,
      "éĳ": 4267,
      "åķ¾": 4268,
      "åķŁ": 4269,
      "æ¿ĥ": 4270,
      "éĭ": 4271,
      "æĽĻ": 4272,
      "çıĳ": 4273,
      "ðŁį": 4274,
      "åģİ": 4275,
      "çĤ¬": 4276,
      "å¹¢": 4277,
      "åĨĢ": 4278,
      "ç±ĥ": 4279,
      "é¸³": 4280,
      "ç¿¡": 4281,
      "çĶĦ": 4282,
      "çĿ¿": 4283,
      "éķĳ": 4284,
      "ç¦¹": 4285,
      "åİ¥": 4286,
      "è°ı": 4287,
      "èĶ·": 4288,
      "èĿİ": 4289,
      "åºµ": 4290,
      "å¸·": 4291,
      "èľ»": 4292,
      "æİı": 4293,
      "èľĵ": 4294,
      "åļı": 4295,
      "ãģ": 4296,
      "åº¶": 4297,
      "ç§¤": 4298,
      "è·ĭ": 4299,
      "èĽ¤": 4300,
      "æĺ§": 4301,
      "å°§": 4302,
      "æµ£": 4303,
      "éĮĦ": 4304,
      "åĳľ": 4305,
      "æ·³": 4306,
      "éŁ¶": 4307,
      "ï¸ı": 4308,
      "éĴ³": 4309,
      "åĮ®": 4310,
      "ç®«": 4311,
      "å²ĸ": 4312,
      "é®®": 4313,
      "è¡Ŀ": 4314,
      "çĲ¢": 4315,
      "æ²ĵ": 4316,
      "éĽı": 4317,
      "é¢ĵ": 4318,
      "çĸ®": 4319,
      "çĹª": 4320,
      "éĿĵ": 4321,
      "åīģ": 4322,
      "è§ŀ": 4323,
      "èĤĩ": 4324,
      "æ¦Ĩ": 4325,
      "èµĺ": 4326,
      "çķ¸": 4327,
      "å¨ĳ": 4328,
      "æ½Ķ": 4329,
      "åĦ²": 4330,
      "éº¸": 4331,
      "åĹ£": 4332,
      "åĸĥ": 4333,
      "æģ³": 4334,
      "è¢Ĥ": 4335,
      "éħĹ": 4336,
      "æ¦Ī": 4337,
      "çŀŃ": 4338,
      "æ¶£": 4339,
      "éķĤ": 4340,
      "åĶ§": 4341,
      "å³¶": 4342,
      "å¥®": 4343,
      "åĢ©": 4344,
      "ðŁĴ": 4345,
      "å¥İ": 4346,
      "ç¨ļ": 4347,
      "è³ŀ": 4348,
      "æŁ¬": 4349,
      "çĸ¡": 4350,
      "èº¬": 4351,
      "æªĢ": 4352,
      "è¶¨": 4353,
      "å¯ħ": 4354,
      "èĢ¿": 4355,
      "èĩī": 4356,
      "åº«": 4357,
      "å±İ": 4358,
      "è¨ª": 4359,
      "æ¦Ń": 4360,
      "éŀį": 4361,
      "è²¨": 4362,
      "æ¸¤": 4363,
      "ç¨¼": 4364,
      "ç¦¾": 4365,
      "éķĢ": 4366,
      "éļĭ": 4367,
      "éĽĸ": 4368,
      "ç¼İ": 4369,
      "èĥļ": 4370,
      "è²Ĥ": 4371,
      "ç±ģ": 4372,
      "ç´Ľ": 4373,
      "èłķ": 4374,
      "è¿¥": 4375,
      "è´®": 4376,
      "ç¼Ķ": 4377,
      "æĨİ": 4378,
      "çĶ©": 4379,
      "èµ¦": 4380,
      "é©Ł": 4381,
      "æı½": 4382,
      "è·ª": 4383,
      "è¯«": 4384,
      "åŁĶ": 4385,
      "çĹŀ": 4386,
      "åħĢ": 4387,
      "è¯Ľ": 4388,
      "ä¾®": 4389,
      "é¡§": 4390,
      "çĻ«": 4391,
      "åĥļ": 4392,
      "èľ·": 4393,
      "é³ĥ": 4394,
      "éģķ": 4395,
      "çĿ«": 4396,
      "æ§Ł": 4397,
      "åĿŁ": 4398,
      "æĭĩ": 4399,
      "æ¯ĭ": 4400,
      "ç¬Ļ": 4401,
      "éħĭ": 4402,
      "è£ĺ": 4403,
      "ä»ķ": 4404,
      "æĺĬ": 4405,
      "éĢħ": 4406,
      "è¸Ŀ": 4407,
      "æ²Į": 4408,
      "çĸļ": 4409,
      "ç²ª": 4410,
      "æ£Ħ": 4411,
      "ç°¿": 4412,
      "ä¿ĺ": 4413,
      "èĽ¾": 4414,
      "âĳł": 4415,
      "è´ı": 4416,
      "éĤĤ": 4417,
      "éĽ¯": 4418,
      "å¡Ĭ": 4419,
      "ç»Ľ": 4420,
      "æĹĮ": 4421,
      "æŃĲ": 4422,
      "èĦħ": 4423,
      "èķ¨": 4424,
      "çŀĦ": 4425,
      "éĻ¸": 4426,
      "ç´į": 4427,
      "åħľ": 4428,
      "æłĵ": 4429,
      "èĪħ": 4430,
      "è£´": 4431,
      "äº¢": 4432,
      "æĸŁ": 4433,
      "åŀ¦": 4434,
      "å«¦": 4435,
      "éĦĻ": 4436,
      "ä¸Ĳ": 4437,
      "æŃ¸": 4438,
      "åĵĴ": 4439,
      "çĩĪ": 4440,
      "èª¤": 4441,
      "èĹķ": 4442,
      "æłħ": 4443,
      "æ´±": 4444,
      "æĤ´": 4445,
      "é¸¯": 4446,
      "äº¥": 4447,
      "æ¡ĵ": 4448,
      "ç²½": 4449,
      "ä½Ī": 4450,
      "è¯£": 4451,
      "åĦĢ": 4452,
      "èĵĭ": 4453,
      "åĬī": 4454,
      "å¾¨": 4455,
      "æĥ¡": 4456,
      "èķĬ": 4457,
      "ç¶ľ": 4458,
      "åµ©": 4459,
      "æļ¹": 4460,
      "å¨¶": 4461,
      "çĴ§": 4462,
      "æı£": 4463,
      "çŃĨ": 4464,
      "ç²Ł": 4465,
      "çĲ¦": 4466,
      "èµĤ": 4467,
      "èĮľ": 4468,
      "æ¦®": 4469,
      "èħ³": 4470,
      "éł»": 4471,
      "æ¹į": 4472,
      "èŁĴ": 4473,
      "çĥ½": 4474,
      "ç»ŀ": 4475,
      "å¦¾": 4476,
      "è¼ī": 4477,
      "ç¾Ķ": 4478,
      "çłĮ": 4479,
      "ç¥Ľ": 4480,
      "æ·ħ": 4481,
      "éĽ¹": 4482,
      "é¢Į": 4483,
      "æĻı": 4484,
      "éĺĪ": 4485,
      "ç¾ħ": 4486,
      "çĥ©": 4487,
      "çĹ«": 4488,
      "é¹³": 4489,
      "ç¸¾": 4490,
      "èĶ¼": 4491,
      "èĬ¸": 4492,
      "èĲĭ": 4493,
      "çĵ¢": 4494,
      "éĹ¸": 4495,
      "æįį": 4496,
      "âĳ¡": 4497,
      "å½¬": 4498,
      "æ¶ĵ": 4499,
      "çįİ": 4500,
      "çŀİ": 4501,
      "çĺŁ": 4502,
      "ç°ª": 4503,
      "æįĨ": 4504,
      "å²Ĳ": 4505,
      "éłĨ": 4506,
      "ðŁİ": 4507,
      "åĴİ": 4508,
      "èĻĽ": 4509,
      "æĴĩ": 4510,
      "è¹¬": 4511,
      "è¯ħ": 4512,
      "ç»Ĭ": 4513,
      "éĻĩ": 4514,
      "åĳĥ": 4515,
      "çªĴ": 4516,
      "ä½ĳ": 4517,
      "éħ£": 4518,
      "æ¿Ľ": 4519,
      "åĲ±": 4520,
      "çĽ¹": 4521,
      "åĳ¦": 4522,
      "ä¾ĥ": 4523,
      "éļį": 4524,
      "èįŁ": 4525,
      "é¥µ": 4526,
      "è¨º": 4527,
      "æ¨µ": 4528,
      "å®®": 4529,
      "è§¸": 4530,
      "ä¾Ħ": 4531,
      "ç¼®": 4532,
      "åĴļ": 4533,
      "æĮ¨": 4534,
      "åķ®": 4535,
      "åĻ©": 4536,
      "éŃļ": 4537,
      "æĨĶ": 4538,
      "åĵĦ": 4539,
      "ç¾¹": 4540,
      "åķĥ": 4541,
      "éĹ½": 4542,
      "çĺĢ": 4543,
      "è¢Ħ": 4544,
      "åŀ®": 4545,
      "èĭĴ": 4546,
      "âĹĩ": 4547,
      "å¾ĳ": 4548,
      "æ½¦": 4549,
      "èªł": 4550,
      "ç¹ª": 4551,
      "èĹ©": 4552,
      "è©¢": 4553,
      "è«ĩ": 4554,
      "çĸŁ": 4555,
      "çħ¦": 4556,
      "èħĳ": 4557,
      "èŃ¬": 4558,
      "æĪį": 4559,
      "åľĥ": 4560,
      "æ¼¢": 4561,
      "å¹Ķ": 4562,
      "çŃµ": 4563,
      "çł§": 4564,
      "èĭĩ": 4565,
      "éħ°": 4566,
      "æ¦Ľ": 4567,
      "è¼¯": 4568,
      "æĨĤ": 4569,
      "çļĵ": 4570,
      "åĢ«": 4571,
      "éªĩ": 4572,
      "ç¬ł": 4573,
      "ç§ĥ": 4574,
      "éľĨ": 4575,
      "ç¼ī": 4576,
      "èĮī": 4577,
      "çħ½": 4578,
      "çªĳ": 4579,
      "èį¤": 4580,
      "èįĢ": 4581,
      "åĺİ": 4582,
      "åĢĺ": 4583,
      "éķį": 4584,
      "æ¾¹": 4585,
      "çłº": 4586,
      "èĶ»": 4587,
      "é§ķ": 4588,
      "æŃª": 4589,
      "æ¯Ĺ": 4590,
      "éĴĿ": 4591,
      "é¬ĥ": 4592,
      "ç»°": 4593,
      "çĪ¹": 4594,
      "è¨Ĥ": 4595,
      "éĲµ": 4596,
      "åį¯": 4597,
      "éĶļ": 4598,
      "ç¾Į": 4599,
      "åķĦ": 4600,
      "æ¥·": 4601,
      "è¹¤": 4602,
      "æŃ²": 4603,
      "æĭ§": 4604,
      "æ¶®": 4605,
      "éĮ¢": 4606,
      "æĸĮ": 4607,
      "æĿ³": 4608,
      "å½¤": 4609,
      "çľ¶": 4610,
      "éĤµ": 4611,
      "èįı": 4612,
      "åĺŁ": 4613,
      "æĢł": 4614,
      "é£¾": 4615,
      "æģķ": 4616,
      "åŀ£": 4617,
      "åĵ©": 4618,
      "åĵ¼": 4619,
      "åķ°": 4620,
      "èĶĹ": 4621,
      "ä½¬": 4622,
      "éłĤ": 4623,
      "ç°¸": 4624,
      "å¹£": 4625,
      "ç¤´": 4626,
      "æļĿ": 4627,
      "èĺĭ": 4628,
      "åı½": 4629,
      "åģķ": 4630,
      "èĪľ": 4631,
      "ç¦§": 4632,
      "èĽŁ": 4633,
      "èļĵ": 4634,
      "é³¥": 4635,
      "åĬĳ": 4636,
      "åŃ°": 4637,
      "æ¸Ń": 4638,
      "æ»ķ": 4639,
      "ç²±": 4640,
      "æħ¶": 4641,
      "éºĵ": 4642,
      "æĩ¦": 4643,
      "ä¼«": 4644,
      "åĮ¡": 4645,
      "ç¾²": 4646,
      "é¡ĺ": 4647,
      "éļ»": 4648,
      "èļĿ": 4649,
      "æĪŁ": 4650,
      "ä¿ļ": 4651,
      "å±ģ": 4652,
      "æ¸Ŀ": 4653,
      "èģĸ": 4654,
      "èĮĹ": 4655,
      "èŁ¾": 4656,
      "æĪĬ": 4657,
      "ä½Ķ": 4658,
      "éĤ±": 4659,
      "æ£¹": 4660,
      "æ¢ĵ": 4661,
      "éĪ": 4662,
      "éĴ§": 4663,
      "æ§Ĳ": 4664,
      "å½Ļ": 4665,
      "é§Ľ": 4666,
      "çīł": 4667,
      "çĲ¶": 4668,
      "éľģ": 4669,
      "éĶĦ": 4670,
      "çªľ": 4671,
      "æ©ĩ": 4672,
      "éŀł": 4673,
      "ä»Ħ": 4674,
      "æŃ¹": 4675,
      "é¡ı": 4676,
      "çª®": 4677,
      "èĴ¿": 4678,
      "è¹Ń": 4679,
      "æĨ¨": 4680,
      "åĴĭ": 4681,
      "è®³": 4682,
      "æ·«": 4683,
      "éŁŃ": 4684,
      "éľı": 4685,
      "éĺĤ": 4686,
      "åĭŀ": 4687,
      "åĺĺ": 4688,
      "èļ¯": 4689,
      "Ã©": 4690,
      "åı¨": 4691,
      "è¾Ħ": 4692,
      "çľ¨": 4693,
      "ç¼¥": 4694,
      "è¯²": 4695,
      "çŁĹ": 4696,
      "ç¬º": 4697,
      "ï¿": 4698,
      "çļĭ": 4699,
      "æİº": 4700,
      "æ®´": 4701,
      "å§¥": 4702,
      "å¨Ľ": 4703,
      "éľŃ": 4704,
      "å¥Ĥ": 4705,
      "åĳĹ": 4706,
      "ä¾¨": 4707,
      "å±¹": 4708,
      "åīĽ": 4709,
      "èĬĭ": 4710,
      "èĳ©": 4711,
      "è¹´": 4712,
      "æĨ©": 4713,
      "è¦½": 4714,
      "çĤ¯": 4715,
      "åĸĶ": 4716,
      "æ®Ĩ": 4717,
      "é±¿": 4718,
      "è£ľ": 4719,
      "ðŁĳį": 4720,
      "Î²": 4721,
      "éĤ¸": 4722,
      "èĹĵ": 4723,
      "åĨ½": 4724,
      "è¾Ļ": 4725,
      "è°Ķ": 4726,
      "å¢©": 4727,
      "æ¨Ĭ": 4728,
      "ä¼¶": 4729,
      "æļ¨": 4730,
      "å²ĳ": 4731,
      "åĬ¾": 4732,
      "éľĸ": 4733,
      "èĬª": 4734,
      "ç£ĭ": 4735,
      "å¥§": 4736,
      "æ±¶": 4737,
      "ï¼ı": 4738,
      "æ¡¨": 4739,
      "ç¢¾": 4740,
      "è¸Ĳ": 4741,
      "åĹ¦": 4742,
      "âīĪ": 4743,
      "èĻĶ": 4744,
      "åĶī": 4745,
      "èĹľ": 4746,
      "è²¿": 4747,
      "çĲµ": 4748,
      "æĴ®": 4749,
      "æ©ĭ": 4750,
      "æĩĬ": 4751,
      "ðŁĲ": 4752,
      "ãĥ»": 4753,
      "åı©": 4754,
      "å·³": 4755,
      "è½§": 4756,
      "ç´Ķ": 4757,
      "ç¯Ĩ": 4758,
      "èĨº": 4759,
      "ä¿Ĳ": 4760,
      "è¾Ĺ": 4761,
      "éĲĺ": 4762,
      "åļİ": 4763,
      "æľŃ": 4764,
      "çŁľ": 4765,
      "çĳª": 4766,
      "åŃ¢": 4767,
      "æ²½": 4768,
      "èĲ±": 4769,
      "éķĸ": 4770,
      "èħ®": 4771,
      "èŀĤ": 4772,
      "æªĶ": 4773,
      "å¨´": 4774,
      "éĹ¾": 4775,
      "éĺľ": 4776,
      "æģ£": 4777,
      "æ·º": 4778,
      "éłģ": 4779,
      "å¶Ĥ": 4780,
      "çº«": 4781,
      "éģģ": 4782,
      "èĦ«": 4783,
      "æ½¢": 4784,
      "å¿ı": 4785,
      "æĮİ": 4786,
      "ç¼Ī": 4787,
      "çŀ§": 4788,
      "ðŁĮ¹": 4789,
      "âĺ": 4790,
      "æĥ¶": 4791,
      "æ·¤": 4792,
      "é¡į": 4793,
      "åŀ©": 4794,
      "æ®º": 4795,
      "éļħ": 4796,
      "æĳĴ": 4797,
      "çħŀ": 4798,
      "è¼Ľ": 4799,
      "çį¸": 4800,
      "âħ": 4801,
      "æĪĽ": 4802,
      "çīĨ": 4803,
      "ç®Ķ": 4804,
      "å£¯": 4805,
      "è£ı": 4806,
      "æ¥ł": 4807,
      "éłĵ": 4808,
      "æĩ¼": 4809,
      "æ¯¡": 4810,
      "ç¥ģ": 4811,
      "èĪĬ": 4812,
      "å£¬": 4813,
      "éºĴ": 4814,
      "åĬĪ": 4815,
      "æķķ": 4816,
      "æĮŁ": 4817,
      "é£Ĵ": 4818,
      "éĵĽ": 4819,
      "è²ĵ": 4820,
      "ç¸®": 4821,
      "æ³ł": 4822,
      "æ±ķ": 4823,
      "æģĻ": 4824,
      "è·¹": 4825,
      "éªĭ": 4826,
      "çĤ³": 4827,
      "éºµ": 4828,
      "æ«": 4829,
      "åģĥ": 4830,
      "è°¤": 4831,
      "çĥĥ": 4832,
      "èĭŀ": 4833,
      "çħĻ": 4834,
      "å»¢": 4835,
      "éºĭ": 4836,
      "åªĽ": 4837,
      "éĩľ": 4838,
      "ä¼İ": 4839,
      "éļİ": 4840,
      "éļĺ": 4841,
      "åĮ£": 4842,
      "éª°": 4843,
      "å½Ŀ": 4844,
      "æį²": 4845,
      "èĦĪ": 4846,
      "èĮ§": 4847,
      "èĨĬ": 4848,
      "ä¸«": 4849,
      "æľķ": 4850,
      "åģī": 4851,
      "çĻ¸": 4852,
      "âĪ¶": 4853,
      "å¸§": 4854,
      "æģĨ": 4855,
      "èĪµ": 4856,
      "åıŁ": 4857,
      "è¯Ļ": 4858,
      "å¸Ľ": 4859,
      "å¼¼": 4860,
      "éĤ¹": 4861,
      "è¬Ģ": 4862,
      "æĪĢ": 4863,
      "æ¸¥": 4864,
      "èİ´": 4865,
      "æĲĸ": 4866,
      "çĨ¨": 4867,
      "çĨ¹": 4868,
      "ç»¢": 4869,
      "é»į": 4870,
      "æ¿ķ": 4871,
      "ç»¯": 4872,
      "å¯©": 4873,
      "å¦Ĭ": 4874,
      "ç¨·": 4875,
      "èĵĳ": 4876,
      "ç°½": 4877,
      "ä¿ł": 4878,
      "åĵĨ": 4879,
      "å»ł": 4880,
      "éķŃ": 4881,
      "çĩĴ": 4882,
      "èĸ¦": 4883,
      "âĶ": 4884,
      "èıģ": 4885,
      "æ¿¡": 4886,
      "ãĤ": 4887,
      "æ¯Ĥ": 4888,
      "è°Ĵ": 4889,
      "é¦¥": 4890,
      "èİŀ": 4891,
      "èıĸ": 4892,
      "é¸ł": 4893,
      "å¨ł": 4894,
      "æĵĴ": 4895,
      "é¾ļ": 4896,
      "âĿ": 4897,
      "çļ¿": 4898,
      "å¯§": 4899,
      "æīĴ": 4900,
      "å¦©": 4901,
      "è°Ļ": 4902,
      "èªĩ": 4903,
      "éĦĤ": 4904,
      "è¿¦": 4905,
      "éĢ±": 4906,
      "éĶ°": 4907,
      "çł¾": 4908,
      "é¥¯": 4909,
      "èİĬ": 4910,
      "å«£": 4911,
      "èŁł": 4912,
      "âĳ¢": 4913,
      "åĴ«": 4914,
      "å¥ļ": 4915,
      "çīŁ": 4916,
      "èĬ·": 4917,
      "èĺĩ": 4918,
      "ä»ŀ": 4919,
      "çĲ¥": 4920,
      "æĶ¸": 4921,
      "æĮŀ": 4922,
      "å£¹": 4923,
      "æĵ¾": 4924,
      "åª³": 4925,
      "èĿĮ": 4926,
      "èĤ±": 4927,
      "ç¡¼": 4928,
      "æ¶¼": 4929,
      "å©¿": 4930,
      "åĹ·": 4931,
      "æĪ®": 4932,
      "éħī": 4933,
      "èĥ³": 4934,
      "é©¹": 4935,
      "åĦĺ": 4936,
      "èŀ¨": 4937,
      "äºĤ": 4938,
      "è®ļ": 4939,
      "åĨ¢": 4940,
      "éķ¯": 4941,
      "çĥĻ": 4942,
      "æ¨Ł": 4943,
      "çĬģ": 4944,
      "çĢĽ": 4945,
      "èļ¤": 4946,
      "ä¿ŀ": 4947,
      "æĥĺ": 4948,
      "éĶ£": 4949,
      "åĢª": 4950,
      "èĥ±": 4951,
      "åļ·": 4952,
      "éĦī": 4953,
      "çĲĽ": 4954,
      "çľ¯": 4955,
      "ç¬ĥ": 4956,
      "æļ¢": 4957,
      "åĺĨ": 4958,
      "éıĪ": 4959,
      "è°ķ": 4960,
      "è·¡": 4961,
      "åķģ": 4962,
      "è±º": 4963,
      "è³´": 4964,
      "ðŁı": 4965,
      "æĬ¨": 4966,
      "æ±´": 4967,
      "ç¦Ģ": 4968,
      "æ£º": 4969,
      "èļª": 4970,
      "çĺĻ": 4971,
      "æĭİ": 4972,
      "æ¯Ļ": 4973,
      "é¦į": 4974,
      "ç¼±": 4975,
      "çł¥": 4976,
      "çĹĬ": 4977,
      "èĥ¥": 4978,
      "è¯ĥ": 4979,
      "éĹµ": 4980,
      "èĦĵ": 4981,
      "é¨İ": 4982,
      "çļĻ": 4983,
      "å¤Ļ": 4984,
      "è¯¬": 4985,
      "å§Ĭ": 4986,
      "æ¹¯": 4987,
      "åª²": 4988,
      "é¬§": 4989,
      "ç¾Ł": 4990,
      "è°©": 4991,
      "ç´ĭ": 4992,
      "éŁ¬": 4993,
      "è¿¸": 4994,
      "ç»»": 4995,
      "éĢŀ": 4996,
      "æĭ·": 4997,
      "èµĥ": 4998,
      "çĸ¤": 4999,
      "çĹ¹": 5000,
      "é»Ķ": 5001,
      "èŃ¯": 5002,
      "èŃ½": 5003,
      "çĴĭ": 5004,
      "âĪļ": 5005,
      "Î±": 5006,
      "å¤¥": 5007,
      "åĪ¨": 5008,
      "å½Ī": 5009,
      "éģŀ": 5010,
      "èºį": 5011,
      "é¾Ī": 5012,
      "ç£º": 5013,
      "âĢį": 5014,
      "çĽ¤": 5015,
      "è°Ł": 5016,
      "è¢Ĵ": 5017,
      "èĭ£": 5018,
      "å³Ļ": 5019,
      "èŁ²": 5020,
      "åħ¢": 5021,
      "æĸĽ": 5022,
      "æ³ŀ": 5023,
      "ç´¡": 5024,
      "éª¥": 5025,
      "æ»ĩ": 5026,
      "èĽ¹": 5027,
      "é¾ĭ": 5028,
      "èĨĽ": 5029,
      "æĪĮ": 5030,
      "åĴ§": 5031,
      "åĩ±": 5032,
      "çİº": 5033,
      "è´»": 5034,
      "å±Ĳ": 5035,
      "çĥ¬": 5036,
      "ç²²": 5037,
      "ç¢ĺ": 5038,
      "çĵ®": 5039,
      "å³¥": 5040,
      "ç¹ŀ": 5041,
      "å©Ģ": 5042,
      "è¸µ": 5043,
      "èĿĹ": 5044,
      "å¤Ń": 5045,
      "æķĿ": 5046,
      "ç®į": 5047,
      "åķª": 5048,
      "æĩµ": 5049,
      "âĹı": 5050,
      "ä¼º": 5051,
      "æĤ¯": 5052,
      "æºŁ": 5053,
      "èĸ©": 5054,
      "é¹«": 5055,
      "è«§": 5056,
      "èŁĢ": 5057,
      "èĢĺ": 5058,
      "çŃı": 5059,
      "ä¿¨": 5060,
      "æ±ŀ": 5061,
      "ç´Ļ": 5062,
      "è¥²": 5063,
      "æ¿¯": 5064,
      "èľĬ": 5065,
      "èŁĭ": 5066,
      "ï¿½": 5067,
      "è¡ħ": 5068,
      "åĳ±": 5069,
      "éĤ¢": 5070,
      "éĸī": 5071,
      "éı¡": 5072,
      "âĶĢ": 5073,
      "âĿ¤": 5074,
      "åº¾": 5075,
      "ç§§": 5076,
      "èĩĥ": 5077,
      "å¿±": 5078,
      "æ»ħ": 5079,
      "åª½": 5080,
      "èľķ": 5081,
      "æĩ¿": 5082,
      "å©µ": 5083,
      "æĺµ": 5084,
      "æĦ£": 5085,
      "ç¨ħ": 5086,
      "æ·Ļ": 5087,
      "é¡Ĩ": 5088,
      "åĿĤ": 5089,
      "èĦį": 5090,
      "åĶĳ": 5091,
      "æħĳ": 5092,
      "æĥ®": 5093,
      "è¾į": 5094,
      "è½¶": 5095,
      "ç½Ħ": 5096,
      "çłļ": 5097,
      "èķĻ": 5098,
      "è²§": 5099,
      "çŀĮ": 5100,
      "é³Į": 5101,
      "éĳ«": 5102,
      "åĲĿ": 5103,
      "å¼©": 5104,
      "æµļ": 5105,
      "éģ·": 5106,
      "ç¼¨": 5107,
      "èį¼": 5108,
      "é¥ķ": 5109,
      "èŃľ": 5110,
      "æ§İ": 5111,
      "èŁĳ": 5112,
      "äºĺ": 5113,
      "è¡®": 5114,
      "è§ĳ": 5115,
      "æĢ¦": 5116,
      "é¤ĺ": 5117,
      "éĵĢ": 5118,
      "åĦŁ": 5119,
      "åĴĶ": 5120,
      "å½ª": 5121,
      "ç¨£": 5122,
      "ç´Ĳ": 5123,
      "èĭľ": 5124,
      "å²Į": 5125,
      "å²Ķ": 5126,
      "é¹½": 5127,
      "Â¥": 5128,
      "åľĵ": 5129,
      "åĽ§": 5130,
      "æįĤ": 5131,
      "ç¤Ļ": 5132,
      "æ§ĥ": 5133,
      "åĮķ": 5134,
      "è¾ķ": 5135,
      "ç¤¦": 5136,
      "å¨Ħ": 5137,
      "é¹Ĥ": 5138,
      "è³£": 5139,
      "è¿Ĥ": 5140,
      "é£¯": 5141,
      "é¦ģ": 5142,
      "éŃ¯": 5143,
      "èĨł": 5144,
      "ç¸£": 5145,
      "è®µ": 5146,
      "è¡¾": 5147,
      "æ³¾": 5148,
      "æİ¬": 5149,
      "æĭ£": 5150,
      "éģ½": 5151,
      "éĤ¯": 5152,
      "éķ°": 5153,
      "èĦ¯": 5154,
      "é³´": 5155,
      "çĶº": 5156,
      "æĥ¦": 5157,
      "ç®ķ": 5158,
      "ç³ľ": 5159,
      "éĵĤ": 5160,
      "å¨ĵ": 5161,
      "é¬±": 5162,
      "æĺķ": 5163,
      "éĶµ": 5164,
      "æģª": 5165,
      "æģĥ": 5166,
      "èĬ¡": 5167,
      "éĥĿ": 5168,
      "çģĺ": 5169,
      "å²«": 5170,
      "é´": 5171,
      "è¡¢": 5172,
      "æĤħ": 5173,
      "èĬ®": 5174,
      "èģ°": 5175,
      "çĮ¶": 5176,
      "ðŁĮº": 5177,
      "ç¼ľ": 5178,
      "èĴ¼": 5179,
      "æĨĭ": 5180,
      "åĩ«": 5181,
      "èĩŁ": 5182,
      "çĮ¬": 5183,
      "èħ©": 5184,
      "æĵº": 5185,
      "çĺł": 5186,
      "é³ĸ": 5187,
      "è¤Ĥ": 5188,
      "æĥļ": 5189,
      "æ²Ĥ": 5190,
      "é«®": 5191,
      "å»¿": 5192,
      "å»ĸ": 5193,
      "çĻĸ": 5194,
      "ç¿Ł": 5195,
      "æĲĶ": 5196,
      "çªĺ": 5197,
      "éº¾": 5198,
      "æ¥Ĭ": 5199,
      "çįµ": 5200,
      "ç°Į": 5201,
      "ç»¶": 5202,
      "å¸³": 5203,
      "å¸ļ": 5204,
      "å¯¬": 5205,
      "æĢĨ": 5206,
      "é«»": 5207,
      "è¶ķ": 5208,
      "ç³ł": 5209,
      "æģ»": 5210,
      "èĬį": 5211,
      "æĩ¸": 5212,
      "ç£ķ": 5213,
      "çŀ¥": 5214,
      "è«¾": 5215,
      "èŁĨ": 5216,
      "ç¥Ĺ": 5217,
      "æļ«": 5218,
      "è¼ª": 5219,
      "åŃª": 5220,
      "æĭĪ": 5221,
      "èĦĲ": 5222,
      "å¨©": 5223,
      "é½¡": 5224,
      "é½Ĭ": 5225,
      "æıļ": 5226,
      "æĽī": 5227,
      "å¿Ĵ": 5228,
      "æ¯Ģ": 5229,
      "éĺİ": 5230,
      "æģº": 5231,
      "èĤ®": 5232,
      "åĢĶ": 5233,
      "èģĤ": 5234,
      "ç¬Ĩ": 5235,
      "èĨļ": 5236,
      "å«Ĥ": 5237,
      "æĥĭ": 5238,
      "çĪº": 5239,
      "èĮ¹": 5240,
      "çªĪ": 5241,
      "åł°": 5242,
      "å®¸": 5243,
      "å¯°": 5244,
      "æĽľ": 5245,
      "éģ¨": 5246,
      "åĢı": 5247,
      "é¥ĭ": 5248,
      "éĵµ": 5249,
      "çĴŀ": 5250,
      "åĪį": 5251,
      "åĴ¿": 5252,
      "æīĽ": 5253,
      "çĹĶ": 5254,
      "æ»Ł": 5255,
      "çħī": 5256,
      "é¼¹": 5257,
      "çĺ´": 5258,
      "èī®": 5259,
      "èī±": 5260,
      "éŁĵ": 5261,
      "éĴµ": 5262,
      "èĽĢ": 5263,
      "é²«": 5264,
      "å©¦": 5265,
      "ç£¬": 5266,
      "è¬Ĥ": 5267,
      "é·": 5268,
      "æŀ·": 5269,
      "ä¿İ": 5270,
      "æĦ«": 5271,
      "åİ®": 5272,
      "è°ª": 5273,
      "è¹ĳ": 5274,
      "ç»¥": 5275,
      "æĭ½": 5276,
      "ç½°": 5277,
      "è£¨": 5278,
      "è²¼": 5279,
      "çĴĩ": 5280,
      "éĦŃ": 5281,
      "éĺĸ": 5282,
      "çĪ²": 5283,
      "ç¶µ": 5284,
      "è³ł": 5285,
      "ãĢĪ": 5286,
      "ãĢī": 5287,
      "è¾«": 5288,
      "åģĪ": 5289,
      "å»Ł": 5290,
      "æ¶¸": 5291,
      "ç¦¦": 5292,
      "åĶ¬": 5293,
      "çĳĻ": 5294,
      "éĨ¬": 5295,
      "æªĦ": 5296,
      "åĽ¤": 5297,
      "çºĤ": 5298,
      "ç±ł": 5299,
      "è·İ": 5300,
      "æĴ¬": 5301,
      "éĨº": 5302,
      "åŃ½": 5303,
      "è®¥": 5304,
      "ç§½": 5305,
      "çĽľ": 5306,
      "é£Ħ": 5307,
      "æ±¾": 5308,
      "èĦ©": 5309,
      "çĴĲ": 5310,
      "è¹ī": 5311,
      "é¬Ł": 5312,
      "å¥ª": 5313,
      "éĻĤ": 5314,
      "ç¥º": 5315,
      "æ¦ķ": 5316,
      "è³¦": 5317,
      "è¹ĩ": 5318,
      "âĻ": 5319,
      "å½¿": 5320,
      "ç«£": 5321,
      "æ¼³": 5322,
      "æļ§": 5323,
      "ðŁĻ": 5324,
      "åĴĲ": 5325,
      "è®´": 5326,
      "ç§Ĩ": 5327,
      "èĩĨ": 5328,
      "éĥµ": 5329,
      "éĴ´": 5330,
      "ç¿³": 5331,
      "æ¥«": 5332,
      "é¢ļ": 5333,
      "èµ£": 5334,
      "æ·¨": 5335,
      "è·»": 5336,
      "çĮĸ": 5337,
      "æ½¤": 5338,
      "æ¹§": 5339,
      "èĶĳ": 5340,
      "èľĥ": 5341,
      "èĩ»": 5342,
      "èµħ": 5343,
      "æ²±": 5344,
      "é«¯": 5345,
      "ç³į": 5346,
      "åīĮ": 5347,
      "ç¥Ł": 5348,
      "æ¥Ĥ": 5349,
      "èĨ½": 5350,
      "éĦ±": 5351,
      "å¿¡": 5352,
      "çº¾": 5353,
      "ç½Ķ": 5354,
      "éĥ¢": 5355,
      "éħĿ": 5356,
      "èĮ±": 5357,
      "èĮĮ": 5358,
      "åĶĶ": 5359,
      "é¹Ħ": 5360,
      "åĹĿ": 5361,
      "è¯½": 5362,
      "è¡Ļ": 5363,
      "æ¡¦": 5364,
      "çĭĻ": 5365,
      "èħĭ": 5366,
      "çĳ©": 5367,
      "èĵŁ": 5368,
      "æ¥Ķ": 5369,
      "èªĮ": 5370,
      "çįħ": 5371,
      "æ°ĵ": 5372,
      "æ®ĺ": 5373,
      "éĽŀ": 5374,
      "èĭĵ": 5375,
      "é³³": 5376,
      "éİĸ": 5377,
      "ðŁİī": 5378,
      "å¹Į": 5379,
      "åĮ¯": 5380,
      "æķĸ": 5381,
      "èĩ¾": 5382,
      "ç«º": 5383,
      "ç¼Ħ": 5384,
      "çĻľ": 5385,
      "æļĦ": 5386,
      "åĶł": 5387,
      "èĵ®": 5388,
      "èª¼": 5389,
      "åĴĦ": 5390,
      "èµĬ": 5391,
      "æ±Ľ": 5392,
      "ç¾¯": 5393,
      "éªģ": 5394,
      "èĪĢ": 5395,
      "èĽ°": 5396,
      "åĺ¹": 5397,
      "é¬£": 5398,
      "éĭ¼": 5399,
      "æĺĻ": 5400,
      "ç»¡": 5401,
      "èĩ¼": 5402,
      "æ°²": 5403,
      "è¾Ķ": 5404,
      "éķ«": 5405,
      "éĽī": 5406,
      "çĬĬ": 5407,
      "éĵł": 5408,
      "èĸı": 5409,
      "èĢĨ": 5410,
      "æıĸ": 5411,
      "æ³¸": 5412,
      "æĻĹ": 5413,
      "è°¥": 5414,
      "é¦Ħ": 5415,
      "åķ¬": 5416,
      "å£ĩ": 5417,
      "é©ħ": 5418,
      "çĳ¾": 5419,
      "åĤ¾": 5420,
      "âĳ£": 5421,
      "ï¼£": 5422,
      "åŃº": 5423,
      "æ°©": 5424,
      "ä¾¥": 5425,
      "çº¨": 5426,
      "æ²ĸ": 5427,
      "æ®¡": 5428,
      "çĪį": 5429,
      "é¥¨": 5430,
      "éĵ¬": 5431,
      "å²±": 5432,
      "æĵ¢": 5433,
      "åŃļ": 5434,
      "è¾ĩ": 5435,
      "åģ´": 5436,
      "åī½": 5437,
      "åĸļ": 5438,
      "å»Ī": 5439,
      "æ»Ĥ": 5440,
      "éĵĨ": 5441,
      "éº¥": 5442,
      "éŀĺ": 5443,
      "è¸Ĭ": 5444,
      "è¸ŀ": 5445,
      "åĹĴ": 5446,
      "åĹĶ": 5447,
      "è²Ŀ": 5448,
      "åµĺ": 5449,
      "è¯§": 5450,
      "çīĸ": 5451,
      "æŀŃ": 5452,
      "æįħ": 5453,
      "ç©«": 5454,
      "æ®ĩ": 5455,
      "å¹¡": 5456,
      "éĹĬ": 5457,
      "æ°¤": 5458,
      "éĤĪ": 5459,
      "è·¶": 5460,
      "çł·": 5461,
      "è±¬": 5462,
      "é¸ª": 5463,
      "æ¹Ħ": 5464,
      "èĵĵ": 5465,
      "èļĮ": 5466,
      "è¤¥": 5467,
      "å¤Ķ": 5468,
      "ä¿º": 5469,
      "æ³Ĺ": 5470,
      "æİĽ": 5471,
      "èĬĬ": 5472,
      "çĸ±": 5473,
      "è¨Ŀ": 5474,
      "çħ©": 5475,
      "èĳŃ": 5476,
      "å©§": 5477,
      "è¿©": 5478,
      "åĴ²": 5479,
      "ç©İ": 5480,
      "æ»¾": 5481,
      "ç¥¢": 5482,
      "ç²ĳ": 5483,
      "æĲĲ": 5484,
      "æĵĺ": 5485,
      "å³¤": 5486,
      "ï¼°": 5487,
      "è¯ĭ": 5488,
      "è®ª": 5489,
      "æİĸ": 5490,
      "åĳĽ": 5491,
      "èµ¡": 5492,
      "é¦ĭ": 5493,
      "èįŀ": 5494,
      "éªĬ": 5495,
      "æ¼ķ": 5496,
      "é¤®": 5497,
      "åĤ¥": 5498,
      "åĺĢ": 5499,
      "èł¹": 5500,
      "éĬ®": 5501,
      "ï¼¡": 5502,
      "ç§¸": 5503,
      "ä¿¾": 5504,
      "æ³ĵ": 5505,
      "è´Ĭ": 5506,
      "ç¡Ĵ": 5507,
      "èĲ¸": 5508,
      "è··": 5509,
      "ç¬³": 5510,
      "è£¾": 5511,
      "é¤ħ": 5512,
      "èĮ´": 5513,
      "çªķ": 5514,
      "âĹĭ": 5515,
      "é¢±": 5516,
      "é¢į": 5517,
      "æĮĽ": 5518,
      "éľ¹": 5519,
      "çĹī": 5520,
      "éĵ¿": 5521,
      "æ©«": 5522,
      "éº½": 5523,
      "èĵ¦": 5524,
      "é¹§": 5525,
      "è¬¹": 5526,
      "ç»«": 5527,
      "éĢµ": 5528,
      "å¼ĭ": 5529,
      "ä¿¦": 5530,
      "ä¿Ł": 5531,
      "çĲı": 5532,
      "æ¸İ": 5533,
      "çĿĳ": 5534,
      "çĥĬ": 5535,
      "çĬ·": 5536,
      "çĵ¯": 5537,
      "èĸľ": 5538,
      "æĨĳ": 5539,
      "åĽ±": 5540,
      "åĮĿ": 5541,
      "é¢¦": 5542,
      "æ°°": 5543,
      "æĭĦ": 5544,
      "é£ķ": 5545,
      "éľ§": 5546,
      "ç½¡": 5547,
      "åĿ¯": 5548,
      "æĳ¹": 5549,
      "éĴĭ": 5550,
      "åĥĸ": 5551,
      "èľĪ": 5552,
      "å©¢": 5553,
      "è¹Ĭ": 5554,
      "çįĴ": 5555,
      "è¬İ": 5556,
      "ðŁĺĬ": 5557,
      "Äģ": 5558,
      "çŃł": 5559,
      "ä¿¸": 5560,
      "å±¦": 5561,
      "éģĻ": 5562,
      "ç¾§": 5563,
      "æ®ī": 5564,
      "çķ¦": 5565,
      "èĻ¬": 5566,
      "æ£²": 5567,
      "æ¤¿": 5568,
      "å³ª": 5569,
      "éļ¼": 5570,
      "é¥·": 5571,
      "éªĪ": 5572,
      "è¨»": 5573,
      "èĥĦ": 5574,
      "éĵİ": 5575,
      "æĲĤ": 5576,
      "æĵĭ": 5577,
      "éºĿ": 5578,
      "çºĸ": 5579,
      "è°ĳ": 5580,
      "æ¡Ģ": 5581,
      "çĭĴ": 5582,
      "åķľ": 5583,
      "èĥŃ": 5584,
      "èĽ©": 5585,
      "éĨª": 5586,
      "äºµ": 5587,
      "åı±": 5588,
      "æŃ¼": 5589,
      "æģģ": 5590,
      "éĤº": 5591,
      "çķ¢": 5592,
      "æ·ļ": 5593,
      "é¦Ķ": 5594,
      "æĴĲ": 5595,
      "å¹¹": 5596,
      "åĨĬ": 5597,
      "åį®": 5598,
      "éĺ¡": 5599,
      "éĽ³": 5600,
      "éª¢": 5601,
      "åĶı": 5602,
      "èħ¸": 5603,
      "åĤĳ": 5604,
      "æ§ģ": 5605,
      "åļĩ": 5606,
      "ç°Ł": 5607,
      "ç¸±": 5608,
      "æ«»": 5609,
      "ÃŃ": 5610,
      "éµ": 5611,
      "æĶ¤": 5612,
      "æ±Ļ": 5613,
      "çĸ½": 5614,
      "èĪ«": 5615,
      "éĴ¨": 5616,
      "ç¿İ": 5617,
      "èŀ¯": 5618,
      "èľį": 5619,
      "å©¶": 5620,
      "é¹ľ": 5621,
      "ç·»": 5622,
      "Î¸": 5623,
      "è¯¶": 5624,
      "è®¹": 5625,
      "æĿµ": 5626,
      "èĩ§": 5627,
      "åĸ½": 5628,
      "ç¥Ĳ": 5629,
      "é©·": 5630,
      "çıĲ": 5631,
      "æĴ·": 5632,
      "å´§": 5633,
      "è¼Ŀ": 5634,
      "åļĲ": 5635,
      "è»Ĵ": 5636,
      "Ã¡": 5637,
      "Î¼": 5638,
      "æį»": 5639,
      "è¾ĺ": 5640,
      "çķ¿": 5641,
      "ç´Ĺ": 5642,
      "åķŃ": 5643,
      "èľĩ": 5644,
      "ç·£": 5645,
      "ï¼¤": 5646,
      "è¯°": 5647,
      "åĴ¦": 5648,
      "éĹ±": 5649,
      "æīª": 5650,
      "æĥº": 5651,
      "æİĥ": 5652,
      "è·Ĩ": 5653,
      "æ¦«": 5654,
      "åłĳ": 5655,
      "æ§į": 5656,
      "è»Į": 5657,
      "ðŁĳı": 5658,
      "Ã¨": 5659,
      "Ãł": 5660,
      "æķĺ": 5661,
      "éĿĽ": 5662,
      "æĻŁ": 5663,
      "æĭĹ": 5664,
      "çº¡": 5665,
      "è½Ń": 5666,
      "éĥ¸": 5667,
      "çĪĽ": 5668,
      "æº´": 5669,
      "èĥ¤": 5670,
      "èħ±": 5671,
      "æ¿ĳ": 5672,
      "ç£Ĳ": 5673,
      "èĨ©": 5674,
      "åĺŀ": 5675,
      "ðŁĻı": 5676,
      "åı¢": 5677,
      "æĪ¾": 5678,
      "è¯ĺ": 5679,
      "å¿ĳ": 5680,
      "çĸ¸": 5681,
      "éļ½": 5682,
      "ç¥ļ": 5683,
      "å£½": 5684,
      "é»ľ": 5685,
      "çĮ¥": 5686,
      "èĽİ": 5687,
      "åĹĸ": 5688,
      "é½Ĵ": 5689,
      "é³ħ": 5690,
      "è¼Ķ": 5691,
      "âĨĵ": 5692,
      "è¿¤": 5693,
      "æĸ¬": 5694,
      "åŃ«": 5695,
      "åĳ·": 5696,
      "éĻŁ": 5697,
      "éģĳ": 5698,
      "ç¯ģ": 5699,
      "éķī": 5700,
      "çĭĪ": 5701,
      "åĤµ": 5702,
      "è¹Ł": 5703,
      "è«¸": 5704,
      "æĹĨ": 5705,
      "å¿Ĳ": 5706,
      "éģ²": 5707,
      "æ¼ģ": 5708,
      "æ£Ł": 5709,
      "éĵ°": 5710,
      "æĲª": 5711,
      "æ¦Ķ": 5712,
      "å¡µ": 5713,
      "æĵĤ": 5714,
      "è¤ļ": 5715,
      "ï¼ĭ": 5716,
      "æĹĸ": 5717,
      "å¾ĩ": 5718,
      "æĦķ": 5719,
      "æ³¯": 5720,
      "çĽĤ": 5721,
      "å¦ĵ": 5722,
      "æ¬¹": 5723,
      "éķĮ": 5724,
      "é¸±": 5725,
      "èĵ¿": 5726,
      "çĩİ": 5727,
      "çŀ¿": 5728,
      "é³Ł": 5729,
      "çįĹ": 5730,
      "å¶¼": 5731,
      "âħ¡": 5732,
      "åĲ¡": 5733,
      "è¡²": 5734,
      "æĻģ": 5735,
      "æİ£": 5736,
      "æ½¼": 5737,
      "æĵł": 5738,
      "éŀħ": 5739,
      "é¹ĳ": 5740,
      "å¬Ľ": 5741,
      "éįĬ": 5742,
      "æĬł": 5743,
      "å±Ĩ": 5744,
      "ç®§": 5745,
      "èī¦": 5746,
      "éªĸ": 5747,
      "æ¨ĳ": 5748,
      "é»¨": 5749,
      "éĵ®": 5750,
      "æ¥ŀ": 5751,
      "è³Ĭ": 5752,
      "èļ£": 5753,
      "Â³": 5754,
      "è¿´": 5755,
      "æĺ±": 5756,
      "åĪģ": 5757,
      "å¥ĺ": 5758,
      "èĩĺ": 5759,
      "åİ²": 5760,
      "è´½": 5761,
      "éĶ¢": 5762,
      "èĲĬ": 5763,
      "éķĲ": 5764,
      "çĥ¨": 5765,
      "èĻ±": 5766,
      "æ££": 5767,
      "æ£Ĥ": 5768,
      "éĵ¢": 5769,
      "èķ©": 5770,
      "æ¾¤": 5771,
      "ðŁĺŃ": 5772,
      "ä¸ķ": 5773,
      "å¦ŀ": 5774,
      "æµĥ": 5775,
      "ç®´": 5776,
      "çĸĻ": 5777,
      "è¢±": 5778,
      "èįļ": 5779,
      "æ¨¯": 5780,
      "çħľ": 5781,
      "é¼¾": 5782,
      "âī¥": 5783,
      "ï¼§": 5784,
      "ä½°": 5785,
      "åĮ¾": 5786,
      "çİĳ": 5787,
      "å¿»": 5788,
      "æĮĿ": 5789,
      "ç®¸": 5790,
      "æ±©": 5791,
      "éķķ": 5792,
      "åĿ³": 5793,
      "çĮĿ": 5794,
      "éºĤ": 5795,
      "èķŃ": 5796,
      "åĹ¤": 5797,
      "åĺ¤": 5798,
      "çĴľ": 5799,
      "çĺ©": 5800,
      "éĬħ": 5801,
      "ï¼ľ": 5802,
      "å¥Ħ": 5803,
      "åī¿": 5804,
      "æ¡¡": 5805,
      "èį¨": 5806,
      "æ¼²": 5807,
      "æ¦ī": 5808,
      "åĦĦ": 5809,
      "èĵ¼": 5810,
      "å³½": 5811,
      "è³ĵ": 5812,
      "è¹Ļ": 5813,
      "æĨĬ": 5814,
      "éįĽ": 5815,
      "âī¤": 5816,
      "ðŁįİ": 5817,
      "æĹİ": 5818,
      "âĢķ": 5819,
      "æĻĶ": 5820,
      "æİ°": 5821,
      "æĭ´": 5822,
      "æ¯ĵ": 5823,
      "æĮ¹": 5824,
      "é£¨": 5825,
      "ç¾¸": 5826,
      "è·ļ": 5827,
      "çł°": 5828,
      "èİ¼": 5829,
      "éĴ¿": 5830,
      "ç¿Į": 5831,
      "æĲĢ": 5832,
      "å²ĺ": 5833,
      "æ¿ł": 5834,
      "æ¥¹": 5835,
      "èľļ": 5836,
      "åĤ£": 5837,
      "èĺĬ": 5838,
      "è§Ĳ": 5839,
      "æīĥ": 5840,
      "æİ³": 5841,
      "è´²": 5842,
      "å»ļ": 5843,
      "æ·Ħ": 5844,
      "èºĩ": 5845,
      "ç¿®": 5846,
      "åĶ»": 5847,
      "å¨²": 5848,
      "èħ«": 5849,
      "é¹Ī": 5850,
      "ç£´": 5851,
      "èĿ¦": 5852,
      "ç¶ģ": 5853,
      "ðŁļ": 5854,
      "éĭª": 5855,
      "çī½": 5856,
      "çŃĩ": 5857,
      "æİĲ": 5858,
      "æĭĭ": 5859,
      "çº£": 5860,
      "èıħ": 5861,
      "èĳĨ": 5862,
      "èĴ¹": 5863,
      "è²©": 5864,
      "è²ª": 5865,
      "é¨°": 5866,
      "ãĢĩ": 5867,
      "æĿ²": 5868,
      "å¾¹": 5869,
      "æĭļ": 5870,
      "åģµ": 5871,
      "é«ħ": 5872,
      "è°Ĩ": 5873,
      "çĿ¾": 5874,
      "çĸĩ": 5875,
      "éĤı": 5876,
      "ç¥¯": 5877,
      "ç²³": 5878,
      "èİħ": 5879,
      "è£Ĩ": 5880,
      "é²²": 5881,
      "èŀ³": 5882,
      "åĹª": 5883,
      "Ã¬": 5884,
      "å®¥": 5885,
      "å¹Ħ": 5886,
      "éĹ¡": 5887,
      "èĢĴ": 5888,
      "æĻŀ": 5889,
      "çºŃ": 5890,
      "éľ°": 5891,
      "éľİ": 5892,
      "èĬİ": 5893,
      "éķ³": 5894,
      "ç¬Ī": 5895,
      "éªŀ": 5896,
      "èĦ¹": 5897,
      "éĴ°": 5898,
      "æħĺ": 5899,
      "åĭģ": 5900,
      "çĳĽ": 5901,
      "çįŃ": 5902,
      "ðŁĲ¶": 5903,
      "è®·": 5904,
      "æ°ĸ": 5905,
      "ç³¾": 5906,
      "åĸª": 5907,
      "ç¯ĵ": 5908,
      "æ¡§": 5909,
      "éª·": 5910,
      "èĪ¸": 5911,
      "éĴ¼": 5912,
      "èĽĬ": 5913,
      "åļĵ": 5914,
      "éĦ°": 5915,
      "ä½Ĺ": 5916,
      "å¦³": 5917,
      "çĲĬ": 5918,
      "é«ĭ": 5919,
      "è½²": 5920,
      "è°Ĺ": 5921,
      "çĿ¬": 5922,
      "èį»": 5923,
      "å§£": 5924,
      "éŁ»": 5925,
      "èĪĤ": 5926,
      "çĮ·": 5927,
      "èİĴ": 5928,
      "æ¤½": 5929,
      "é²Ł": 5930,
      "çªĸ": 5931,
      "é¹ķ": 5932,
      "åĹ³": 5933,
      "éĬ³": 5934,
      "ðŁĺĤ": 5935,
      "âĻĢ": 5936,
      "ï¼¯": 5937,
      "å¤¯": 5938,
      "æĤŃ": 5939,
      "æģ¸": 5940,
      "åĢŃ": 5941,
      "éĤķ": 5942,
      "æ·ŀ": 5943,
      "ç¬ı": 5944,
      "èĪĽ": 5945,
      "åłĩ": 5946,
      "æ¹®": 5947,
      "è©Ń": 5948,
      "æĨ²": 5949,
      "ðŁĵ": 5950,
      "èł¡": 5951,
      "ä½¥": 5952,
      "å¢Ģ": 5953,
      "æ·¬": 5954,
      "éªł": 5955,
      "ç¥ķ": 5956,
      "ç¦º": 5957,
      "åĥ®": 5958,
      "æĲ¶": 5959,
      "çĳ¤": 5960,
      "é¹Ĺ": 5961,
      "è¸±": 5962,
      "éł¸": 5963,
      "ðŁįĥ": 5964,
      "âľ": 5965,
      "é¯": 5966,
      "é¢ŀ": 5967,
      "å¼ģ": 5968,
      "æĭ®": 5969,
      "ä¾Ĺ": 5970,
      "è°Ħ": 5971,
      "çĪ°": 5972,
      "çĹ£": 5973,
      "è±ī": 5974,
      "éĵĲ": 5975,
      "é¸®": 5976,
      "æ©¹": 5977,
      "éĨ´": 5978,
      "å©º": 5979,
      "è©Ĳ": 5980,
      "èļ±": 5981,
      "è¹Ĵ": 5982,
      "è»¸": 5983,
      "ç¸«": 5984,
      "ãģ®": 5985,
      "åĴ©": 5986,
      "ç»¾": 5987,
      "å½İ": 5988,
      "è´°": 5989,
      "èĬ«": 5990,
      "æ¶ł": 5991,
      "éª§": 5992,
      "æº¥": 5993,
      "èİĺ": 5994,
      "èĮ¯": 5995,
      "èªķ": 5996,
      "èĨĪ": 5997,
      "è¹ĭ": 5998,
      "å¶Ļ": 5999,
      "Çİ": 6000,
      "åħĸ": 6001,
      "å¸ı": 6002,
      "æłĬ": 6003,
      "è¾Ĭ": 6004,
      "éĺĬ": 6005,
      "æ¡ģ": 6006,
      "èĭķ": 6007,
      "éħ¹": 6008,
      "çĻ£": 6009,
      "èĪĲ": 6010,
      "å²·": 6011,
      "ç¢£": 6012,
      "æ¿«": 6013,
      "é¾Ĳ": 6014,
      "è¹¼": 6015,
      "Ä«": 6016,
      "åĮį": 6017,
      "æī¦": 6018,
      "æĬŁ": 6019,
      "ç±²": 6020,
      "é£ª": 6021,
      "çľĩ": 6022,
      "èį½": 6023,
      "åĻ±": 6024,
      "çĹ¢": 6025,
      "æ¼¿": 6026,
      "çĮŀ": 6027,
      "é²Ľ": 6028,
      "èħ¼": 6029,
      "æ½į": 6030,
      "èĶ¥": 6031,
      "å³ĭ": 6032,
      "çĩ¦": 6033,
      "èª¬": 6034,
      "è¸Į": 6035,
      "å´Ĥ": 6036,
      "ç¶¿": 6037,
      "çĺª": 6038,
      "ï¿¥": 6039,
      "åĮĲ": 6040,
      "å¿¿": 6041,
      "ä¾¶": 6042,
      "æĮĪ": 6043,
      "ç©Ģ": 6044,
      "åŀĨ": 6045,
      "éªħ": 6046,
      "é»Ŀ": 6047,
      "è±Ķ": 6048,
      "èĳļ": 6049,
      "æ½ĭ": 6050,
      "è²Ķ": 6051,
      "é¨Ļ": 6052,
      "éĪ´": 6053,
      "é·¹": 6054,
      "åıĴ": 6055,
      "æĹĦ": 6056,
      "æīĪ": 6057,
      "éĿ¥": 6058,
      "æ³®": 6059,
      "è¾¯": 6060,
      "æ²ħ": 6061,
      "ç³ħ": 6062,
      "ç¡ĥ": 6063,
      "é¡«": 6064,
      "æ¡ī": 6065,
      "çĭİ": 6066,
      "çĹ¤": 6067,
      "å§Ĺ": 6068,
      "é»ł": 6069,
      "èĥ«": 6070,
      "çĮģ": 6071,
      "èħĵ": 6072,
      "æĵŀ": 6073,
      "é¾Ľ": 6074,
      "èķ¤": 6075,
      "éĸ£": 6076,
      "èļľ": 6077,
      "æĨ¤": 6078,
      "ðŁĮŀ": 6079,
      "éįĭ": 6080,
      "ï¼¢": 6081,
      "ï¼³": 6082,
      "çĶ¥": 6083,
      "å¯µ": 6084,
      "å¾¼": 6085,
      "çĽħ": 6086,
      "å¦²": 6087,
      "åİĿ": 6088,
      "èµĪ": 6089,
      "è¾Ń": 6090,
      "çĤĢ": 6091,
      "ç¼°": 6092,
      "çĭŀ": 6093,
      "åĻ¶": 6094,
      "ç²ķ": 6095,
      "éĵĦ": 6096,
      "æĴ«": 6097,
      "èĴ»": 6098,
      "èĴĲ": 6099,
      "èĹ¿": 6100,
      "è¼»": 6101,
      "ðŁĮ³": 6102,
      "âĺħ": 6103,
      "çļĪ": 6104,
      "è¯Ł": 6105,
      "å¸Ļ": 6106,
      "é¢§": 6107,
      "å¯®": 6108,
      "çīį": 6109,
      "åĵĶ": 6110,
      "æĮ²": 6111,
      "çĿ¢": 6112,
      "çĿĩ": 6113,
      "åĸ¬": 6114,
      "æ¡¢": 6115,
      "åĻ´": 6116,
      "èı°": 6117,
      "èĮ¬": 6118,
      "ç¿Ĭ": 6119,
      "ç¿Ľ": 6120,
      "çħĸ": 6121,
      "åĶĨ": 6122,
      "æ½¸": 6123,
      "æ½ŀ": 6124,
      "çĩ®": 6125,
      "åĹĳ": 6126,
      "åĺħ": 6127,
      "è²«": 6128,
      "éĬĺ": 6129,
      "éĭĴ": 6130,
      "Ã¼": 6131,
      "âĤ": 6132,
      "è¯©": 6133,
      "å¿Ŀ": 6134,
      "èµĵ": 6135,
      "è¶Ļ": 6136,
      "éĶŃ": 6137,
      "åĻ¼": 6138,
      "è¨Ĺ": 6139,
      "å£ķ": 6140,
      "ç²µ": 6141,
      "åĶ·": 6142,
      "é¼¬": 6143,
      "æ¥¸": 6144,
      "å´Ĺ": 6145,
      "çŀł": 6146,
      "åµ¬": 6147,
      "éĮ¶": 6148,
      "ðŁĮ¸": 6149,
      "çļĸ": 6150,
      "ä½µ": 6151,
      "æĿ·": 6152,
      "æĻī": 6153,
      "çĸ£": 6154,
      "èİĨ": 6155,
      "çħ¨": 6156,
      "åĥ±": 6157,
      "æ½ĳ": 6158,
      "èĴŁ": 6159,
      "æĩ²": 6160,
      "æ§Į": 6161,
      "è¤Ľ": 6162,
      "éĮ¦": 6163,
      "ï¼´": 6164,
      "ç»Ģ": 6165,
      "æĿª": 6166,
      "å¸¥": 6167,
      "çīĴ": 6168,
      "ä¿ª": 6169,
      "æİ¾": 6170,
      "æµĶ": 6171,
      "åŁł": 6172,
      "èī·": 6173,
      "è°ĺ": 6174,
      "å¢ī": 6175,
      "çĸĬ": 6176,
      "éª¡": 6177,
      "çģĳ": 6178,
      "çģŀ": 6179,
      "é©ķ": 6180,
      "èħ´": 6181,
      "èħĨ": 6182,
      "èħĪ": 6183,
      "æ¿Ĥ": 6184,
      "å«¡": 6185,
      "å«Ķ": 6186,
      "å«ĸ": 6187,
      "âĳ¤": 6188,
      "é¶": 6189,
      "ï¼¥": 6190,
      "çļº": 6191,
      "æĺ¶": 6192,
      "æĺĩ": 6193,
      "åĲ³": 6194,
      "å¥ģ": 6195,
      "çİ®": 6196,
      "æŀĩ": 6197,
      "æıĨ": 6198,
      "å½Į": 6199,
      "æł¾": 6200,
      "çĲ®": 6201,
      "æ´µ": 6202,
      "ç±Į": 6203,
      "æĤ½": 6204,
      "çŁ½": 6205,
      "çĿ½": 6206,
      "èĬ©": 6207,
      "éĤģ": 6208,
      "éĽł": 6209,
      "æ¶ª": 6210,
      "èĦ²": 6211,
      "çıĪ": 6212,
      "å¨¼": 6213,
      "æ¿®": 6214,
      "éĨļ": 6215,
      "åĹ¥": 6216,
      "çĺģ": 6217,
      "çĢı": 6218,
      "å¾Ĥ": 6219,
      "è½¸": 6220,
      "çŁļ": 6221,
      "ç¾¿": 6222,
      "å¢¾": 6223,
      "èºħ": 6224,
      "éħŀ": 6225,
      "èı½": 6226,
      "åĶ³": 6227,
      "èĽĲ": 6228,
      "å¨Ĩ": 6229,
      "èŀŃ": 6230,
      "èĨ»": 6231,
      "ç¶»": 6232,
      "æ§¿": 6233,
      "åı¼": 6234,
      "æĺĢ": 6235,
      "æĸ«": 6236,
      "éĢ¶": 6237,
      "éĢĭ": 6238,
      "éĹĨ": 6239,
      "æ°«": 6240,
      "æĻ·": 6241,
      "åİĵ": 6242,
      "æĽĽ": 6243,
      "æİĩ": 6244,
      "ä¾ª": 6245,
      "æįº": 6246,
      "çĿ¨": 6247,
      "åī¡": 6248,
      "èĤħ": 6249,
      "æ·¼": 6250,
      "ç¯Ļ": 6251,
      "æ¡ħ": 6252,
      "éļĪ": 6253,
      "éĽ©": 6254,
      "çĭ°": 6255,
      "èįł": 6256,
      "åĻİ": 6257,
      "éĴľ": 6258,
      "çĬĴ": 6259,
      "éĵ¨": 6260,
      "æ©Ĳ": 6261,
      "ç¹½": 6262,
      "èĹĲ": 6263,
      "é¹Į": 6264,
      "è¤´": 6265,
      "ï¼Ń": 6266,
      "æĸ¡": 6267,
      "åĲ©": 6268,
      "åºĸ": 6269,
      "é¢¢": 6270,
      "æıª": 6271,
      "æĶľ": 6272,
      "æ¬¤": 6273,
      "éĶĳ": 6274,
      "éĺĨ": 6275,
      "åķ§": 6276,
      "æ¶¿": 6277,
      "èı¸": 6278,
      "åĭ»": 6279,
      "æ¿¾": 6280,
      "åłŀ": 6281,
      "æ¹²": 6282,
      "é¹¢": 6283,
      "å´Ļ": 6284,
      "çŀħ": 6285,
      "åµĩ": 6286,
      "åħĩ": 6287,
      "å¯¤": 6288,
      "ç§£": 6289,
      "âĢ²": 6290,
      "åĵ½": 6291,
      "åİ©": 6292,
      "æį¶": 6293,
      "éĺķ": 6294,
      "æģ¹": 6295,
      "æģĤ": 6296,
      "æ®ĥ": 6297,
      "èģ¿": 6298,
      "çĹĤ": 6299,
      "çĹĪ": 6300,
      "ç¢Ľ": 6301,
      "ç¹³": 6302,
      "è²ħ": 6303,
      "é³Ŀ": 6304,
      "è«®": 6305,
      "âħł": 6306,
      "ï¼»": 6307,
      "ï¼½": 6308,
      "ï¼ŀ": 6309,
      "ä½ļ": 6310,
      "ä½ŀ": 6311,
      "åŃĳ": 6312,
      "ç±¤": 6313,
      "çĤ·": 6314,
      "è°¯": 6315,
      "éĤĽ": 6316,
      "ç½Ĥ": 6317,
      "è·ĸ": 6318,
      "éªİ": 6319,
      "èĦĺ": 6320,
      "èıı": 6321,
      "è£±": 6322,
      "è¥¦": 6323,
      "çı¥": 6324,
      "æ¥ĵ": 6325,
      "è²ī": 6326,
      "è³ĥ": 6327,
      "ï¼¬": 6328,
      "çĶ¾": 6329,
      "åĲŃ": 6330,
      "çİķ": 6331,
      "æıį": 6332,
      "æĽ¬": 6333,
      "æ¬ĸ": 6334,
      "èĬ°": 6335,
      "çĸĿ": 6336,
      "æ·µ": 6337,
      "åĿ¨": 6338,
      "å£ħ": 6339,
      "æ½°": 6340,
      "ðŁ¤": 6341,
      "ðŁĴĶ": 6342,
      "åľľ": 6343,
      "çŃ±": 6344,
      "æłī": 6345,
      "æłİ": 6346,
      "ç®ª": 6347,
      "é£ļ": 6348,
      "éĻ²": 6349,
      "éĶº": 6350,
      "ç¼ģ": 6351,
      "éªĿ": 6352,
      "æĳ¯": 6353,
      "çĮĹ": 6354,
      "è±ķ": 6355,
      "éĴº": 6356,
      "éĴĬ": 6357,
      "çĬ¸": 6358,
      "èŀ¢": 6359,
      "æ¥£": 6360,
      "ç£¯": 6361,
      "èĨ¦": 6362,
      "èļ©": 6363,
      "è¼©": 6364,
      "å¬´": 6365,
      "éĳ°": 6366,
      "ðŁĴĿ": 6367,
      "æ«ĥ": 6368,
      "ÇĴ": 6369,
      "ÎĶ": 6370,
      "åĬŃ": 6371,
      "æĿ¼": 6372,
      "éĩ£": 6373,
      "æĢĤ": 6374,
      "å¼Ń": 6375,
      "æ´®": 6376,
      "æĤ±": 6377,
      "éģľ": 6378,
      "ç³§": 6379,
      "æ¡ł": 6380,
      "éĽİ": 6381,
      "çĭ³": 6382,
      "çłĿ": 6383,
      "çĹ¿": 6384,
      "æ»ĵ": 6385,
      "é©½": 6386,
      "ç¿¥": 6387,
      "æ¦·": 6388,
      "çıŀ": 6389,
      "å¡Ĺ": 6390,
      "é²¶": 6391,
      "çªł": 6392,
      "æĴ²": 6393,
      "èĶŃ": 6394,
      "èĸ¨": 6395,
      "é¹ĵ": 6396,
      "é¹ĺ": 6397,
      "é½ĳ": 6398,
      "ðŁĺĶ": 6399,
      "âģ": 6400,
      "ï¼©": 6401,
      "ï¼Ŀ": 6402,
      "åĴĽ": 6403,
      "æĹ»": 6404,
      "å·ĺ": 6405,
      "è§ļ": 6406,
      "åįŀ": 6407,
      "æĦĶ": 6408,
      "èĩ¥": 6409,
      "æ°µ": 6410,
      "æĶ²": 6411,
      "è¾ĭ": 6412,
      "é£ı": 6413,
      "éĺĹ": 6414,
      "è°¶": 6415,
      "èģĴ": 6416,
      "ç¼Ļ": 6417,
      "æ¨Ĺ": 6418,
      "é©º": 6419,
      "èĳ³": 6420,
      "çıª": 6421,
      "ç¹©": 6422,
      "è©®": 6423,
      "è³¢": 6424,
      "è¹¶": 6425,
      "âĺĢ": 6426,
      "âĺķ": 6427,
      "ä¸Ł": 6428,
      "å¤¾": 6429,
      "çĶ¬": 6430,
      "æĹĤ": 6431,
      "è¡¿": 6432,
      "è¦ĥ": 6433,
      "çĽ±": 6434,
      "æĽ·": 6435,
      "è´Ī": 6436,
      "è¶¼": 6437,
      "æ®¼": 6438,
      "çĥı": 6439,
      "èįĥ": 6440,
      "æ»ģ": 6441,
      "è¨Ł": 6442,
      "å§¹": 6443,
      "éŁĮ": 6444,
      "èĪ·": 6445,
      "éĴ¯": 6446,
      "çĬ°": 6447,
      "éĵ£": 6448,
      "éĵī": 6449,
      "çª£": 6450,
      "çĳĦ": 6451,
      "éºĪ": 6452,
      "é¼į": 6453,
      "çĵĴ": 6454,
      "çĵł": 6455,
      "éĨħ": 6456,
      "èľ¢": 6457,
      "çĩ§": 6458,
      "è¸°": 6459,
      "çĴĺ": 6460,
      "çŀĳ": 6461,
      "çĺĭ": 6462,
      "é¬»": 6463,
      "èĺ§": 6464,
      "èĺ¿": 6465,
      "ðŁĳ©": 6466,
      "éĪķ": 6467,
      "ä½Ł": 6468,
      "åĴ¤": 6469,
      "åŃ±": 6470,
      "åĩį": 6471,
      "è§Ĭ": 6472,
      "çī¦": 6473,
      "çİ·": 6474,
      "æĦĨ": 6475,
      "æ³·": 6476,
      "åĵ§": 6477,
      "å¦Ŀ": 6478,
      "çĲ¬": 6479,
      "æŁĺ": 6480,
      "é¦³": 6481,
      "ç¯ª": 6482,
      "éļĹ": 6483,
      "é¥¬": 6484,
      "éªĽ": 6485,
      "æħ¾": 6486,
      "æĴ¸": 6487,
      "éŃĩ": 6488,
      "èĸ®": 6489,
      "è¸¹": 6490,
      "èĿķ": 6491,
      "éĸŁ": 6492,
      "ç¶¾": 6493,
      "éĳĳ": 6494,
      "Î³": 6495,
      "æĹĥ": 6496,
      "è¡¹": 6497,
      "è§¥": 6498,
      "æŀ³": 6499,
      "æŃĨ": 6500,
      "æŃĻ": 6501,
      "æĦł": 6502,
      "æĥ±": 6503,
      "çºı": 6504,
      "æ´Ħ": 6505,
      "é£§": 6506,
      "æ¸¾": 6507,
      "æ²¤": 6508,
      "æ²ı": 6509,
      "è½Ħ": 6510,
      "åĸĭ": 6511,
      "å¢ľ": 6512,
      "ç¨¹": 6513,
      "æ®Ĵ": 6514,
      "è·Ľ": 6515,
      "åĻ«": 6516,
      "åĻĮ": 6517,
      "çĹ¨": 6518,
      "çĻĴ": 6519,
      "èĪĦ": 6520,
      "ç¹ĩ": 6521,
      "èŁ»": 6522,
      "åµĲ": 6523,
      "ðŁĺĺ": 6524,
      "Ã¹": 6525,
      "æĹĴ": 6526,
      "éĩĲ": 6527,
      "éĢ¡": 6528,
      "ç§¾": 6529,
      "èĢĻ": 6530,
      "åįħ": 6531,
      "ä¿³": 6532,
      "æĶ«": 6533,
      "ä¾ĳ": 6534,
      "æ´©": 6535,
      "æ¬¸": 6536,
      "æ¬Ħ": 6537,
      "æ±İ": 6538,
      "çŁ¾": 6539,
      "çĭ¹": 6540,
      "çł²": 6541,
      "åķī": 6542,
      "èĭĭ": 6543,
      "èįĩ": 6544,
      "æ»¯": 6545,
      "èĥĽ": 6546,
      "æļī": 6547,
      "æĲ´": 6548,
      "ç¢©": 6549,
      "é²¢": 6550,
      "åĦ¡": 6551,
      "æ¹Ł": 6552,
      "åĤĢ": 6553,
      "ðŁĶ": 6554,
      "ÇĲ": 6555,
      "çĶĳ": 6556,
      "åĲ®": 6557,
      "è§Į": 6558,
      "æĢĶ": 6559,
      "æ³«": 6560,
      "å±į": 6561,
      "éľĪ": 6562,
      "éĶ²": 6563,
      "åĸ¹": 6564,
      "éħĬ": 6565,
      "éħĲ": 6566,
      "çĹį": 6567,
      "å§Ŀ": 6568,
      "è±¸": 6569,
      "èĶ«": 6570,
      "å³ĩ": 6571,
      "èķĸ": 6572,
      "è¸Ł": 6573,
      "åĹ¬": 6574,
      "ç°ĭ": 6575,
      "åµ¯": 6576,
      "ðŁĺĦ": 6577,
      "Åį": 6578,
      "Îµ": 6579,
      "ï¼¨": 6580,
      "ä½¯": 6581,
      "ç»Ĥ": 6582,
      "åŃ³": 6583,
      "éĹ«": 6584,
      "éĹ¼": 6585,
      "å¼ĳ": 6586,
      "æ³ļ": 6587,
      "çĲ¨": 6588,
      "ç«Ĭ": 6589,
      "çº¥": 6590,
      "èīĻ": 6591,
      "è¶º": 6592,
      "è°Ģ": 6593,
      "æģ½": 6594,
      "ç©°": 6595,
      "ç¨Ķ": 6596,
      "åĢĸ": 6597,
      "éĤ³": 6598,
      "ç½į": 6599,
      "æ·©": 6600,
      "å£ĺ": 6601,
      "å¡¾": 6602,
      "åĭĸ": 6603,
      "çª¿": 6604,
      "å³£": 6605,
      "çĩŃ": 6606,
      "èªĺ": 6607,
      "åĺ¯": 6608,
      "éĸ©": 6609,
      "æªł": 6610,
      "åļ¨": 6611,
      "åļ¯": 6612,
      "âĦī": 6613,
      "âĸł": 6614,
      "éĭģ": 6615,
      "é¯¨": 6616,
      "Â±": 6617,
      "ä»Ł": 6618,
      "ä½ĥ": 6619,
      "ä½ĺ": 6620,
      "çĶį": 6621,
      "åºł": 6622,
      "çİ³": 6623,
      "æĥĩ": 6624,
      "æĻĮ": 6625,
      "æ±¨": 6626,
      "è°Į": 6627,
      "åĢī": 6628,
      "éĥ«": 6629,
      "èĭ»": 6630,
      "èį¥": 6631,
      "çĪ»": 6632,
      "å£º": 6633,
      "èĥª": 6634,
      "éĴĴ": 6635,
      "å²¬": 6636,
      "åĦĭ": 6637,
      "å³¯": 6638,
      "è³¬": 6639,
      "èĺ¼": 6640,
      "èĺĸ": 6641,
      "çį¾": 6642,
      "ðŁĺģ": 6643,
      "éıĸ": 6644,
      "é·º": 6645,
      "äº¹": 6646,
      "æĪ¢": 6647,
      "æĸĿ": 6648,
      "åĪª": 6649,
      "åĽ¿": 6650,
      "éĢĳ": 6651,
      "é¢ī": 6652,
      "é¢Ķ": 6653,
      "æłĢ": 6654,
      "çĽĥ": 6655,
      "çĽį": 6656,
      "æĽł": 6657,
      "å¿¤": 6658,
      "æĭĬ": 6659,
      "èµŃ": 6660,
      "å±£": 6661,
      "æ¸ĳ": 6662,
      "éģĴ": 6663,
      "è½º": 6664,
      "éĺĥ": 6665,
      "åĸĳ": 6666,
      "å»ª": 6667,
      "æ®ļ": 6668,
      "ç¯©": 6669,
      "èį¦": 6670,
      "çģı": 6671,
      "éĴı": 6672,
      "é¤ļ": 6673,
      "ç¦į": 6674,
      "éĵĮ": 6675,
      "æ¢ı": 6676,
      "åĭ°": 6677,
      "èĽ³": 6678,
      "æ¹«": 6679,
      "é¼Ļ": 6680,
      "èķ²": 6681,
      "èĸ¤": 6682,
      "è¸½": 6683,
      "ç£ļ": 6684,
      "è²¸": 6685,
      "é³Ĳ": 6686,
      "çįł": 6687,
      "ç°¾": 6688,
      "è¬Ĳ": 6689,
      "ï½ħ": 6690,
      "ä»¨": 6691,
      "çİĸ": 6692,
      "æĽĨ": 6693,
      "æįİ": 6694,
      "è¾Ĥ": 6695,
      "åŁĻ": 6696,
      "éĶ¶": 6697,
      "çŁį": 6698,
      "æŁ°": 6699,
      "ç¼ĩ": 6700,
      "èįª": 6701,
      "ç¥İ": 6702,
      "éĵĻ": 6703,
      "æļ¾": 6704,
      "è¥¯": 6705,
      "çıı": 6706,
      "å¨ī": 6707,
      "é²µ": 6708,
      "èŀĪ": 6709,
      "ç¶±": 6710,
      "è¹°": 6711,
      "è¹¿": 6712,
      "æª¸": 6713,
      "è¤²": 6714,
      "ðŁĺį": 6715,
      "éĳ½": 6716,
      "éĭ°": 6717,
      "âĤĤ": 6718,
      "ï¼ĩ": 6719,
      "é¢¡": 6720,
      "å½§": 6721,
      "éĿ³": 6722,
      "çĽª": 6723,
      "çĲļ": 6724,
      "åĳĴ": 6725,
      "æįĭ": 6726,
      "é£½": 6727,
      "çĤķ": 6728,
      "ç©ĳ": 6729,
      "æ¡İ": 6730,
      "åĿ¼": 6731,
      "éªĲ": 6732,
      "çĬ§": 6733,
      "éĵĹ": 6734,
      "èĮ²": 6735,
      "çħħ": 6736,
      "èĳº": 6737,
      "èĹģ": 6738,
      "èĿ¼": 6739,
      "è©Ľ": 6740,
      "çĢ°": 6741,
      "éį¾": 6742,
      "å¶·": 6743,
      "Î»": 6744,
      "ä¸¨": 6745,
      "ï¼¶": 6746,
      "ãĢĶ": 6747,
      "ä»Ŀ": 6748,
      "çİł": 6749,
      "æĢ¼": 6750,
      "æŀ°": 6751,
      "æİĻ": 6752,
      "ç«½": 6753,
      "èµį": 6754,
      "æ´Ļ": 6755,
      "ç±¼": 6756,
      "çľĪ": 6757,
      "éģ¢": 6758,
      "éģ´": 6759,
      "çĦĺ": 6760,
      "è°¡": 6761,
      "åĸĨ": 6762,
      "åĸŁ": 6763,
      "éĤ¨": 6764,
      "ç½ħ": 6765,
      "æ·²": 6766,
      "éĥ¦": 6767,
      "åķĸ": 6768,
      "æ¶´": 6769,
      "çĹ§": 6770,
      "èĪ£": 6771,
      "éĴ¡": 6772,
      "çĬį": 6773,
      "ç¿ķ": 6774,
      "çı°": 6775,
      "é²±": 6776,
      "çĳģ": 6777,
      "èľ±": 6778,
      "å³Ĵ": 6779,
      "è¸¯": 6780,
      "åĺŃ": 6781,
      "æ¾§": 6782,
      "è¹Ĥ": 6783,
      "çįĦ": 6784,
      "ðŁĳ¨": 6785,
      "ðŁĴª": 6786,
      "Äĵ": 6787,
      "ï¼®": 6788,
      "ãĢķ": 6789,
      "é¢Ļ": 6790,
      "ç§ª": 6791,
      "åĵĿ": 6792,
      "å¿ĸ": 6793,
      "çĤľ": 6794,
      "éĶĨ": 6795,
      "éĶĹ": 6796,
      "å»Ľ": 6797,
      "ç¼£": 6798,
      "çĪ¨": 6799,
      "åĻ¤": 6800,
      "èĻ¢": 6801,
      "é¥´": 6802,
      "éªľ": 6803,
      "é©®": 6804,
      "æļĪ": 6805,
      "åĥŃ": 6806,
      "æĲ½": 6807,
      "æ¤¹": 6808,
      "çıī": 6809,
      "çĩĶ": 6810,
      "éŀı": 6811,
      "è¸®": 6812,
      "èĿ¾": 6813,
      "çĴİ": 6814,
      "è³ľ": 6815,
      "èĺħ": 6816,
      "å¬Ĺ": 6817,
      "é§Ń": 6818,
      "å¶Ħ": 6819,
      "éĪī": 6820,
      "âĻĤ": 6821,
      "Ïī": 6822,
      "äº³": 6823,
      "æľħ": 6824,
      "æĢĽ": 6825,
      "çŃ®": 6826,
      "æ³±": 6827,
      "éĻī": 6828,
      "æ±ľ": 6829,
      "è¶¸": 6830,
      "èĬ¾": 6831,
      "éļ°": 6832,
      "çłĢ": 6833,
      "çłŃ": 6834,
      "åķ»": 6835,
      "éħ¤": 6836,
      "ç¥Ĥ": 6837,
      "ç¥ľ": 6838,
      "æº·": 6839,
      "éĴļ": 6840,
      "è£Ł": 6841,
      "ç¿¦": 6842,
      "èĽŀ": 6843,
      "é²·": 6844,
      "é¼ĭ": 6845,
      "ç¹¹": 6846,
      "é¹¬": 6847,
      "èĿĵ": 6848,
      "èļµ": 6849,
      "è¤°": 6850,
      "è¤ĵ": 6851,
      "ç¸Ľ": 6852,
      "ï½ī": 6853,
      "âĳ¥": 6854,
      "ðŁĮ·": 6855,
      "ðŁĮĬ": 6856,
      "âħ¢": 6857,
      "éµ¬": 6858,
      "âľ¨": 6859,
      "ÄĽ": 6860,
      "ï¼«": 6861,
      "æĹ°": 6862,
      "å¼ĩ": 6863,
      "å½Ģ": 6864,
      "çŃĮ": 6865,
      "å¦ª": 6866,
      "çĲ°": 6867,
      "åĳĭ": 6868,
      "ä¾Ķ": 6869,
      "éľħ": 6870,
      "æĤĮ": 6871,
      "æ®ģ": 6872,
      "æŁ©": 6873,
      "æŁģ": 6874,
      "éķĬ": 6875,
      "éĥħ": 6876,
      "ç¬¥": 6877,
      "èĥ¯": 6878,
      "èıĢ": 6879,
      "é²Ķ": 6880,
      "æ¹Ĭ": 6881,
      "åĤ¢": 6882,
      "æĩĭ": 6883,
      "éŀ£": 6884,
      "å´´": 6885,
      "çĴŁ": 6886,
      "ç¶´": 6887,
      "çĺĹ": 6888,
      "é³ľ": 6889,
      "ðŁĺī": 6890,
      "é¨·": 6891,
      "ðŁİĤ": 6892,
      "ãİ": 6893,
      "åĲĨ": 6894,
      "ç»Ĺ": 6895,
      "åŃĽ": 6896,
      "å¹º": 6897,
      "å¸»": 6898,
      "ä¼ī": 6899,
      "å¾ķ": 6900,
      "çİ¥": 6901,
      "å½«": 6902,
      "åįŁ": 6903,
      "æ°Ĳ": 6904,
      "æĻ¡": 6905,
      "è´¶": 6906,
      "çĤĶ": 6907,
      "éĶī": 6908,
      "çĿľ": 6909,
      "ç½´": 6910,
      "è¢Ī": 6911,
      "åŀĽ": 6912,
      "è·Ħ": 6913,
      "éªĢ": 6914,
      "æ¨¸": 6915,
      "ç²¿": 6916,
      "è±³": 6917,
      "é¸°": 6918,
      "èĮĨ": 6919,
      "è¥ģ": 6920,
      "èĽ±": 6921,
      "æĴ¥": 6922,
      "åłĢ": 6923,
      "é¾Ĭ": 6924,
      "åĤĺ": 6925,
      "èĿĪ": 6926,
      "çĢ£": 6927,
      "ç¸»": 6928,
      "è¬Ļ": 6929,
      "ðŁĺļ": 6930,
      "Ã³": 6931,
      "ï¼·": 6932,
      "çļ¤": 6933,
      "å®ĵ": 6934,
      "åŃĢ": 6935,
      "æĿĵ": 6936,
      "éĢ¦": 6937,
      "è¡Ĩ": 6938,
      "éĹĸ": 6939,
      "æĢı": 6940,
      "æĦį": 6941,
      "æ°¡": 6942,
      "æ¯µ": 6943,
      "éĻ¬": 6944,
      "åģ½": 6945,
      "çĥĿ": 6946,
      "åŀĵ": 6947,
      "èģ³": 6948,
      "ç¼Ł": 6949,
      "åĿ°": 6950,
      "èĭ´": 6951,
      "èĭĮ": 6952,
      "çĻ¯": 6953,
      "çĻŀ": 6954,
      "èĥį": 6955,
      "èĥĿ": 6956,
      "çĬĦ": 6957,
      "é²Ļ": 6958,
      "é²Ń": 6959,
      "çª¸": 6960,
      "çĳĭ": 6961,
      "çĵĺ": 6962,
      "éĨį": 6963,
      "åĤŃ": 6964,
      "ç¶¦": 6965,
      "çĺ¿": 6966,
      "ç¸ł": 6967,
      "è¬ł": 6968,
      "Ã¶": 6969,
      "ï¹": 6970,
      "åħķ": 6971,
      "åĴĤ": 6972,
      "å¸¼": 6973,
      "è¡©": 6974,
      "è¡Ħ": 6975,
      "å¾Ń": 6976,
      "ç§«": 6977,
      "çİŁ": 6978,
      "å½Ĭ": 6979,
      "æĬ¿": 6980,
      "æĬĥ": 6981,
      "æĽ©": 6982,
      "æİĤ": 6983,
      "æµ¥": 6984,
      "ç®ĵ": 6985,
      "æ²Ĩ": 6986,
      "åģĮ": 6987,
      "çľ¦": 6988,
      "é«Ģ": 6989,
      "èĬĪ": 6990,
      "ç¼¶": 6991,
      "ç¼ĥ": 6992,
      "ç¬ŀ": 6993,
      "èºı": 6994,
      "åĻ»": 6995,
      "éħ¢": 6996,
      "æ»¦": 6997,
      "æĳħ": 6998,
      "æºı": 6999,
      "ç¦±": 7000,
      "éĵŁ": 7001,
      "æ¦¼": 7002,
      "å²§": 7003,
      "æ¤Ģ": 7004,
      "æ½´": 7005,
      "æ¿±": 7006,
      "éĨĲ": 7007,
      "èĴº": 7008,
      "å©Ĭ": 7009,
      "å©Ń": 7010,
      "èķĪ": 7011,
      "éĸ¤": 7012,
      "è³º": 7013,
      "éłĹ": 7014,
      "è«·": 7015,
      "å¬Į": 7016,
      "ðŁĺİ": 7017,
      "âŀ": 7018,
      "ï¼±": 7019,
      "ï¼¿": 7020,
      "åı»": 7021,
      "å¤¤": 7022,
      "çĶĥ": 7023,
      "æĹ¸": 7024,
      "å·ī": 7025,
      "å·Ķ": 7026,
      "æŀ¥": 7027,
      "åİŃ": 7028,
      "å¿ª": 7029,
      "å±§": 7030,
      "ç®ı": 7031,
      "é£¢": 7032,
      "çľĦ": 7033,
      "è°²": 7034,
      "å¢»": 7035,
      "çĸł": 7036,
      "æŁĿ": 7037,
      "æ·ĸ": 7038,
      "æ¡ĸ": 7039,
      "éķĹ": 7040,
      "èģĥ": 7041,
      "ç¼¬": 7042,
      "ç¼Ĺ": 7043,
      "éħ²": 7044,
      "æ»²": 7045,
      "æĳŀ": 7046,
      "æ¼¯": 7047,
      "èİª": 7048,
      "ç¦Ĭ": 7049,
      "é¸©": 7050,
      "é¸¸": 7051,
      "èĮĶ": 7052,
      "çıĻ": 7053,
      "é¾Į": 7054,
      "éŃĳ": 7055,
      "èĴ¯": 7056,
      "çĩĦ": 7057,
      "å©ķ": 7058,
      "é¹¹": 7059,
      "è³Ī": 7060,
      "çŀĭ": 7061,
      "çĺ¢": 7062,
      "éłĴ": 7063,
      "æ§Ĭ": 7064,
      "éĦ´": 7065,
      "éİĤ": 7066,
      "ãĥ¼": 7067,
      "éĪ£": 7068,
      "Å«": 7069,
      "ÇĶ": 7070,
      "ä»ĥ": 7071,
      "åıµ": 7072,
      "ä½¢": 7073,
      "æĺī": 7074,
      "åĪĪ": 7075,
      "å°·": 7076,
      "åĽ·": 7077,
      "åĽĤ": 7078,
      "å·½": 7079,
      "è§İ": 7080,
      "éĹ³": 7081,
      "èĢĦ": 7082,
      "å½¥": 7083,
      "èĩĬ": 7084,
      "èĩŀ": 7085,
      "æĶ½": 7086,
      "ç®¨": 7087,
      "ç®¬": 7088,
      "æ¸Į": 7089,
      "åŁĴ": 7090,
      "åŁŃ": 7091,
      "è½Ł": 7092,
      "è°ł": 7093,
      "åĢĨ": 7094,
      "æ®¢": 7095,
      "æŁĴ": 7096,
      "æ·Ŀ": 7097,
      "é¦®": 7098,
      "éķĴ": 7099,
      "éĥ´": 7100,
      "çłĴ": 7101,
      "èĭİ": 7102,
      "çĪĲ": 7103,
      "éħ©": 7104,
      "æ»¢": 7105,
      "éŁ«": 7106,
      "æº§": 7107,
      "èİł": 7108,
      "èı¡": 7109,
      "éĴķ": 7110,
      "é¤ĵ": 7111,
      "æ£§": 7112,
      "é²ł": 7113,
      "åªª": 7114,
      "åªµ": 7115,
      "èĶº": 7116,
      "çĺĺ": 7117,
      "èĺĨ": 7118,
      "ï½Ģ": 7119,
      "ï½ģ": 7120,
      "ï½İ": 7121,
      "ï½ı": 7122,
      "éĦĴ": 7123,
      "ðŁĮ´": 7124,
      "ðŁĮ¿": 7125,
      "ðŁĮĪ": 7126,
      "ðŁĮį": 7127,
      "âĸ³": 7128,
      "éĳĦ": 7129,
      "Â£": 7130,
      "åħĹ": 7131,
      "ä½¶": 7132,
      "è¯³": 7133,
      "çĶŃ": 7134,
      "åľ»": 7135,
      "åľĦ": 7136,
      "åľī": 7137,
      "åľŀ": 7138,
      "å°ª": 7139,
      "åĽĶ": 7140,
      "ä¼¥": 7141,
      "å·Ĵ": 7142,
      "æĦ·": 7143,
      "æĥ´": 7144,
      "æ°Ļ": 7145,
      "åĵĻ": 7146,
      "çĲ¯": 7147,
      "ç«¦": 7148,
      "æ¯½": 7149,
      "æ¸¦": 7150,
      "æ²Ķ": 7151,
      "åģ»": 7152,
      "é«Ń": 7153,
      "è½³": 7154,
      "éĶ¹": 7155,
      "æģ¿": 7156,
      "éĤĭ": 7157,
      "çķİ": 7158,
      "èĲĺ": 7159,
      "æ¡Ħ": 7160,
      "éķĥ": 7161,
      "ç¼¢": 7162,
      "åķķ": 7163,
      "èĭģ": 7164,
      "æĳģ": 7165,
      "æ¨ŀ": 7166,
      "é»»": 7167,
      "é»¼": 7168,
      "é¤¡": 7169,
      "éĵ¤": 7170,
      "æ¤Ł": 7171,
      "ç¢ī": 7172,
      "æĴĵ": 7173,
      "åĦĹ": 7174,
      "é¼ķ": 7175,
      "èĵį": 7176,
      "ç¹ĥ": 7177,
      "é¹ĭ": 7178,
      "è¸ī": 7179,
      "çµ¨": 7180,
      "è©ł": 7181,
      "æ¾į": 7182,
      "è¹©": 7183,
      "çŀ½": 7184,
      "é³¢": 7185,
      "ðŁĳ¦": 7186,
      "ãİ¡": 7187,
      "ï¼ĥ": 7188,
      "è¿³": 7189,
      "æĺĥ": 7190,
      "æĿĪ": 7191,
      "åĽĳ": 7192,
      "çŃļ": 7193,
      "æĬ¡": 7194,
      "æ³ĸ": 7195,
      "æį¨": 7196,
      "æ¬·": 7197,
      "æĤ°": 7198,
      "çĤħ": 7199,
      "éĺĩ": 7200,
      "ç³Ĺ": 7201,
      "åĢľ": 7202,
      "çĸ°": 7203,
      "éĤ¬": 7204,
      "çķ¹": 7205,
      "é¡Ľ": 7206,
      "éĥ¯": 7207,
      "çł£": 7208,
      "èĭ§": 7209,
      "èįħ": 7210,
      "çĪĩ": 7211,
      "çĻ®": 7212,
      "æ¨¾": 7213,
      "é©¸": 7214,
      "èİ³": 7215,
      "èıĳ": 7216,
      "éĴ¹": 7217,
      "å¡į": 7218,
      "çĨ¥": 7219,
      "çĨ³": 7220,
      "æ½Ł": 7221,
      "æ¿Ĩ": 7222,
      "çĳŃ": 7223,
      "èĶĶ": 7224,
      "ç¹¡": 7225,
      "ç¹ļ": 7226,
      "å´¤": 7227,
      "è¹ģ": 7228,
      "é½§": 7229,
      "ç·ĭ": 7230,
      "å¬¤": 7231,
      "å¬·": 7232,
      "ðŁĺĥ": 7233,
      "âĪ©": 7234,
      "éĳĴ": 7235,
      "éµĿ": 7236,
      "äº¸": 7237,
      "æĪ¡": 7238,
      "åĪ³": 7239,
      "åľ©": 7240,
      "åĲ½": 7241,
      "ç»¨": 7242,
      "åĽ¹": 7243,
      "éĹĩ": 7244,
      "çİ¦": 7245,
      "æı©": 7246,
      "çĽ¥": 7247,
      "åĵĤ": 7248,
      "æİ¸": 7249,
      "æĶª": 7250,
      "èµī": 7251,
      "çº»": 7252,
      "ç®Ĳ": 7253,
      "é£Ĩ": 7254,
      "é£Ĳ": 7255,
      "åŁķ": 7256,
      "æĤ¶": 7257,
      "é««": 7258,
      "é«Į": 7259,
      "éĶ·": 7260,
      "éĶı": 7261,
      "çĿ¥": 7262,
      "èĬĥ": 7263,
      "å¢Ĭ": 7264,
      "èĤĵ": 7265,
      "çĸ´": 7266,
      "ç½µ": 7267,
      "é¡¼": 7268,
      "èĲı": 7269,
      "æ¡ľ": 7270,
      "éĥĵ": 7271,
      "è·¸": 7272,
      "åķ«": 7273,
      "åĻĹ": 7274,
      "é¥§": 7275,
      "éªĺ": 7276,
      "èĪ»": 7277,
      "æº²": 7278,
      "é»¾": 7279,
      "ç¦Ľ": 7280,
      "éĵ¯": 7281,
      "çħ¥": 7282,
      "æ¤´": 7283,
      "æħĦ": 7284,
      "èħŃ": 7285,
      "åĦĨ": 7286,
      "èŀŁ": 7287,
      "æĵ¿": 7288,
      "é¾ľ": 7289,
      "çĵ¤": 7290,
      "éĨĥ": 7291,
      "æ¥®": 7292,
      "éŀ¯": 7293,
      "éŀĳ": 7294,
      "é¹ª": 7295,
      "é¹¼": 7296,
      "ç£Ķ": 7297,
      "åĺ£": 7298,
      "è³Ģ": 7299,
      "çĺ¸": 7300,
      "è¼¿": 7301,
      "èł²": 7302,
      "âĪŀ": 7303,
      "éıĬ": 7304,
      "ðŁĲ±": 7305,
      "ðŁıĥ": 7306,
      "é´¿": 7307,
      "ðŁļ¶": 7308,
      "ðŁĵļ": 7309,
      "Ø§": 7310,
      "è¯®": 7311,
      "ä¹Ĥ": 7312,
      "éĩŃ": 7313,
      "åĮı": 7314,
      "åĨ¼": 7315,
      "çīĿ": 7316,
      "æĢµ": 7317,
      "âĢ§": 7318,
      "çĽ»": 7319,
      "çĽŀ": 7320,
      "åĵĮ": 7321,
      "å¦£": 7322,
      "èµĢ": 7323,
      "æĮ»": 7324,
      "æĤĽ": 7325,
      "é«ģ": 7326,
      "è¶µ": 7327,
      "éĺį": 7328,
      "çŁ§": 7329,
      "æģ«": 7330,
      "ç½¥": 7331,
      "ç½Ł": 7332,
      "çķļ": 7333,
      "ç¼Ĭ": 7334,
      "èºĶ": 7335,
      "çĹ¼": 7336,
      "é¥«": 7337,
      "é¥Ķ": 7338,
      "éª¶": 7339,
      "æ»Į": 7340,
      "èĪ²": 7341,
      "èĥ¼": 7342,
      "çĮĬ": 7343,
      "éĵĭ": 7344,
      "æļĮ": 7345,
      "èĮķ": 7346,
      "åĭ³": 7347,
      "èĽĶ": 7348,
      "æ¿¤": 7349,
      "éĨĳ": 7350,
      "çĩī": 7351,
      "çĩł": 7352,
      "èª¦": 7353,
      "é¹£": 7354,
      "å´¦": 7355,
      "å´ļ": 7356,
      "æ¾Ģ": 7357,
      "éł«": 7358,
      "ðŁ¦": 7359,
      "è»Ģ": 7360,
      "éĦ¯": 7361,
      "éĦŀ": 7362,
      "ðŁĺ¡": 7363,
      "ðŁĺ³": 7364,
      "ðŁĺĭ": 7365,
      "é§ģ": 7366,
      "é§Ĳ": 7367,
      "âĪĴ": 7368,
      "ðŁį³": 7369,
      "ðŁįģ": 7370,
      "ðŁİĵ": 7371,
      "é´³": 7372,
      "é´Ĥ": 7373,
      "Ãº": 7374,
      "ï¼¦": 7375,
      "ï¼µ": 7376,
      "äº»": 7377,
      "åıģ": 7378,
      "ä½Ŀ": 7379,
      "è¯Ķ": 7380,
      "åĲĶ": 7381,
      "ç»ł": 7382,
      "åŃ¥": 7383,
      "ä¼¢": 7384,
      "è¡½": 7385,
      "æķ§": 7386,
      "éĹī": 7387,
      "æŀĭ": 7388,
      "æŀŀ": 7389,
      "æŃİ": 7390,
      "çĽ§": 7391,
      "æİ´": 7392,
      "æĶ¥": 7393,
      "è´³": 7394,
      "å±¢": 7395,
      "æį©": 7396,
      "æį±": 7397,
      "ç±ĵ": 7398,
      "åŁĤ": 7399,
      "èīı": 7400,
      "çľļ": 7401,
      "é«Ĥ": 7402,
      "éĶ±": 7403,
      "è°®": 7404,
      "çĿŀ": 7405,
      "èĬ¨": 7406,
      "çĸ¥": 7407,
      "æŁŀ": 7408,
      "ç½¨": 7409,
      "çķ¬": 7410,
      "ç´ĵ": 7411,
      "è¢¢": 7412,
      "éķŀ": 7413,
      "è·¬": 7414,
      "è·º": 7415,
      "èģ©": 7416,
      "ç¼¯": 7417,
      "åķµ": 7418,
      "åĻģ": 7419,
      "é¥½": 7420,
      "æ»Ħ": 7421,
      "è¨¾": 7422,
      "èıĵ": 7423,
      "èıŁ": 7424,
      "ç¦ª": 7425,
      "éĵ±": 7426,
      "éĵį": 7427,
      "åĶµ": 7428,
      "æĲ¡": 7429,
      "çªħ": 7430,
      "èħİ": 7431,
      "èŀ«": 7432,
      "æ¹İ": 7433,
      "èĵĤ": 7434,
      "çĵ´": 7435,
      "éĨ®": 7436,
      "èľī": 7437,
      "æĩ¶": 7438,
      "èķª": 7439,
      "é¹į": 7440,
      "èĨĤ": 7441,
      "çĴł": 7442,
      "çŀ¢": 7443,
      "æ§©": 7444,
      "æĨĲ": 7445,
      "çĢŁ": 7446,
      "å¬°": 7447,
      "ðŁĮ»": 7448,
      "ðŁĺĿ": 7449,
      "éİ§": 7450,
      "ðŁĳĢ": 7451,
      "å¶½": 7452,
      "ðŁĴĲ": 7453,
      "ðŁĴļ": 7454,
      "é´»": 7455,
      "é·Ł": 7456,
      "Ã±": 7457,
      "Îº": 7458,
      "ï¼²": 7459,
      "ï¼Ĩ": 7460,
      "ä½»": 7461,
      "ç»¦": 7462,
      "è®§": 7463,
      "éĩĢ": 7464,
      "åĩľ": 7465,
      "å·ĩ": 7466,
      "é¢Ľ": 7467,
      "å¾¬": 7468,
      "éĹĳ": 7469,
      "èĢ·": 7470,
      "æıĦ": 7471,
      "éĿ¼": 7472,
      "æ°ª": 7473,
      "å¦¤": 7474,
      "ä¾Ĥ": 7475,
      "çº°": 7476,
      "çºĽ": 7477,
      "ç®ľ": 7478,
      "é£Ķ": 7479,
      "é£ĸ": 7480,
      "åŁ½": 7481,
      "æ²Ń": 7482,
      "ç³°": 7483,
      "èĬŁ": 7484,
      "æ®ĵ": 7485,
      "éĤ¡": 7486,
      "éĤł": 7487,
      "ç´®": 7488,
      "é¦Ĺ": 7489,
      "ç¯ĺ": 7490,
      "è¢ª": 7491,
      "éļ³": 7492,
      "èįľ": 7493,
      "ç²Ŀ": 7494,
      "èĦĶ": 7495,
      "èİ¨": 7496,
      "èıª": 7497,
      "éĴ¤": 7498,
      "çĬĩ": 7499,
      "é¤µ": 7500,
      "éĵĳ": 7501,
      "é¸²": 7502,
      "åĶ¢": 7503,
      "å²¿": 7504,
      "èĽĨ": 7505,
      "é²Ģ": 7506,
      "çª¨": 7507,
      "æĴĤ": 7508,
      "æ¿©": 7509,
      "æ©¢": 7510,
      "èĶĮ": 7511,
      "éĨ£": 7512,
      "éĨ¯": 7513,
      "èĸ¹": 7514,
      "èĸĳ": 7515,
      "åĺ¬": 7516,
      "åĺļ": 7517,
      "ç¶«": 7518,
      "æ¾¶": 7519,
      "é³Ļ": 7520,
      "åļ®": 7521,
      "çĢ¼": 7522,
      "åµļ": 7523,
      "èłĸ": 7524,
      "èłŁ": 7525,
      "ðŁĺĮ": 7526,
      "ðŁĺľ": 7527,
      "ãĥ³": 7528,
      "ãģĻ": 7529,
      "ðŁĴ»": 7530,
      "éĪ¦": 7531,
      "ðŁı«": 7532,
      "Ïģ": 7533,
      "ãĦ": 7534,
      "ãł": 7535,
      "ä¸¼": 7536,
      "ï¼¸": 7537,
      "æľĲ": 7538,
      "è¯Ĵ": 7539,
      "æĸ²": 7540,
      "åĲĭ": 7541,
      "åĬ¬": 7542,
      "ç»ī": 7543,
      "ç»Ķ": 7544,
      "è¦·": 7545,
      "è§ľ": 7546,
      "ç§Ń": 7547,
      "æŀĺ": 7548,
      "æŃĶ": 7549,
      "ä¿Ľ": 7550,
      "æ°ħ": 7551,
      "æ°ĺ": 7552,
      "åĵĭ": 7553,
      "åĵŀ": 7554,
      "åĳİ": 7555,
      "æ¯¬": 7556,
      "èµª": 7557,
      "çº®": 7558,
      "çºĶ": 7559,
      "çľĮ": 7560,
      "è½«": 7561,
      "éĶ¸": 7562,
      "åĸı": 7563,
      "åĢħ": 7564,
      "æ®½": 7565,
      "éĤĻ": 7566,
      "çķĭ": 7567,
      "èĲģ": 7568,
      "ç¯Į": 7569,
      "æ¡¿": 7570,
      "èĭĦ": 7571,
      "åĻĶ": 7572,
      "æ»¹": 7573,
      "æĳº": 7574,
      "æĳĪ": 7575,
      "æĳŃ": 7576,
      "å£©": 7577,
      "é»¥": 7578,
      "è±¢": 7579,
      "è£Ĵ": 7580,
      "ç¦¿": 7581,
      "ç¿ļ": 7582,
      "åĶ¸": 7583,
      "æ¦ĩ": 7584,
      "å²¡": 7585,
      "æ¤ĭ": 7586,
      "èĽŃ": 7587,
      "é²ĩ": 7588,
      "èŀĢ": 7589,
      "çĳĹ": 7590,
      "é¼©": 7591,
      "é¾ĺ": 7592,
      "å³Ħ": 7593,
      "çĩĲ": 7594,
      "çĩĻ": 7595,
      "æĩĩ": 7596,
      "æĩĳ": 7597,
      "é¹©": 7598,
      "èĨĳ": 7599,
      "åĺı": 7600,
      "åĺĶ": 7601,
      "å´Ĩ": 7602,
      "ç¶º": 7603,
      "è³Ń": 7604,
      "çŀŀ": 7605,
      "æªľ": 7606,
      "éł°": 7607,
      "éīĨ": 7608,
      "ç·ł": 7609,
      "è«Ĵ": 7610,
      "çįĲ": 7611,
      "è»¿": 7612,
      "åµ²": 7613,
      "åµĭ": 7614,
      "ðŁĮ§": 7615,
      "ðŁĮ±": 7616,
      "å¶º": 7617,
      "å¶ĩ": 7618,
      "âĪĳ": 7619,
      "ãģĹ": 7620,
      "ðŁĴķ": 7621,
      "ðŁĴĻ": 7622,
      "ðŁı»": 7623,
      "ðŁıŀ": 7624,
      "ï¼ª": 7625,
      "è¿ĵ": 7626,
      "è¯¨": 7627,
      "åĪİ": 7628,
      "åĬµ": 7629,
      "å°»": 7630,
      "å¹Ľ": 7631,
      "éĢĸ": 7632,
      "åĩĪ": 7633,
      "ç§ĸ": 7634,
      "æĢĬ": 7635,
      "æĢĻ": 7636,
      "æŀĮ": 7637,
      "æŃ©": 7638,
      "æĦİ": 7639,
      "âĢ°": 7640,
      "âĢ³": 7641,
      "æĽĪ": 7642,
      "æĽĮ": 7643,
      "åĳ£": 7644,
      "æĶ¬": 7645,
      "æįŃ": 7646,
      "ç®ł": 7647,
      "åŁ´": 7648,
      "éĻĶ": 7649,
      "æĤĴ": 7650,
      "çľĻ": 7651,
      "éģĺ": 7652,
      "çĦĵ": 7653,
      "æ±Ĭ": 7654,
      "éĺī": 7655,
      "éĺĴ": 7656,
      "ç¾£": 7657,
      "ç¾¨": 7658,
      "ç©Į": 7659,
      "åĸģ": 7660,
      "èĤŁ": 7661,
      "æ®Ħ": 7662,
      "çķ¤": 7663,
      "çķĢ": 7664,
      "æ·ª": 7665,
      "é¦ĳ": 7666,
      "ç¯¦": 7667,
      "éķĽ": 7668,
      "éĥ¤": 7669,
      "èģ¶": 7670,
      "ç¼µ": 7671,
      "çĭº": 7672,
      "åķ²": 7673,
      "éħ¡": 7674,
      "æ¶Ķ": 7675,
      "çĹ±": 7676,
      "éŁĭ": 7677,
      "ç¥ı": 7678,
      "æ¨¨": 7679,
      "æ¨ģ": 7680,
      "éĵĵ": 7681,
      "é¸·": 7682,
      "åĶĽ": 7683,
      "æĲĨ": 7684,
      "æħĿ": 7685,
      "ç¢ĩ": 7686,
      "ç¢ĵ": 7687,
      "èŀħ": 7688,
      "èŀŀ": 7689,
      "æĵ·": 7690,
      "åłł": 7691,
      "çĳ±": 7692,
      "çĳĢ": 7693,
      "çĳł": 7694,
      "æ¹ĵ": 7695,
      "æ¹Ķ": 7696,
      "æ¹ľ": 7697,
      "èĵł": 7698,
      "éĨ¨": 7699,
      "æ¥¦": 7700,
      "èĴ½": 7701,
      "èĸĻ": 7702,
      "é¹¡": 7703,
      "é¹ļ": 7704,
      "ç£¡": 7705,
      "è©Ķ": 7706,
      "çĴļ": 7707,
      "æ¾Į": 7708,
      "è¹Ĳ": 7709,
      "è«¦": 7710,
      "çį¬": 7711,
      "çį¼": 7712,
      "èł»": 7713,
      "èłħ": 7714,
      "ï½ķ": 7715,
      "âĳ¦": 7716,
      "ðŁĮ²": 7717,
      "ðŁĳ§": 7718,
      "å¶Ĵ": 7719,
      "ãģĦ": 7720,
      "ðŁĲ¿": 7721,
      "ðŁıĸ": 7722,
      "é´ī": 7723,
      "éµ©": 7724,
      "ðŁĶ¥": 7725,
      "âŃ": 7726,
      "çļ¦": 7727,
      "çļ´": 7728,
      "æľĵ": 7729,
      "è¿¨": 7730,
      "è¯¤": 7731,
      "è¯ľ": 7732,
      "æĸĤ": 7733,
      "åĪ¬": 7734,
      "è®£": 7735,
      "è®«": 7736,
      "é¢¯": 7737,
      "é¢ĭ": 7738,
      "éĹ©": 7739,
      "æĢ¿": 7740,
      "æŀµ": 7741,
      "æŃĺ": 7742,
      "æı¶": 7743,
      "æĦ¬": 7744,
      "æ³¬": 7745,
      "èĩ¬": 7746,
      "åĳ¸": 7747,
      "æµľ": 7748,
      "çº©": 7749,
      "è¾İ": 7750,
      "ç®©": 7751,
      "æ´¶": 7752,
      "é£¼": 7753,
      "åģĵ": 7754,
      "é«£": 7755,
      "é«´": 7756,
      "éĺı": 7757,
      "ç¾°": 7758,
      "ç¾ĥ": 7759,
      "è°µ": 7760,
      "åīľ": 7761,
      "åīĿ": 7762,
      "çĸĭ": 7763,
      "ç½·": 7764,
      "æ·Ĵ": 7765,
      "é¦Ĳ": 7766,
      "éķµ": 7767,
      "éķĿ": 7768,
      "éļ¸": 7769,
      "è·Ĥ": 7770,
      "ç¼«": 7771,
      "ç¼ĳ": 7772,
      "ç¬Ħ": 7773,
      "éĽĴ": 7774,
      "èĭ¡": 7775,
      "èĭ«": 7776,
      "èį¸": 7777,
      "èįĽ": 7778,
      "éħ´": 7779,
      "æ»·": 7780,
      "æĳµ": 7781,
      "æ¼¬": 7782,
      "æº½": 7783,
      "é»´": 7784,
      "çĮ±": 7785,
      "èİ¸": 7786,
      "èİĸ": 7787,
      "ç¦ĭ": 7788,
      "éĵĪ": 7789,
      "é¸¬": 7790,
      "èĮŃ": 7791,
      "èĳ¦": 7792,
      "ç¢´": 7793,
      "å¨£": 7794,
      "æĴ¿": 7795,
      "èŀ½": 7796,
      "æ¿ģ": 7797,
      "åª¾": 7798,
      "æ¥Ŀ": 7799,
      "èĴ¡": 7800,
      "èĴ´": 7801,
      "éŀ¦": 7802,
      "éŀ«": 7803,
      "é¹ŀ": 7804,
      "åĹ²": 7805,
      "éĸ¥": 7806,
      "æ¾Ĵ": 7807,
      "è³Ħ": 7808,
      "èļ¬": 7809,
      "éīĽ": 7810,
      "æ§Ķ": 7811,
      "åµİ": 7812,
      "ï½Ķ": 7813,
      "éĮł": 7814,
      "ãĥ¥": 7815,
      "éĭĭ": 7816,
      "ãģ¨": 7817,
      "ðŁİµ": 7818,
      "éĪĶ": 7819,
      "æ«ľ": 7820,
      "ãĤ¹": 7821,
      "ðŁıĬ": 7822,
      "Â§": 7823,
      "Î£": 7824,
      "Î´": 7825,
      "Ïĥ": 7826,
      "áł": 7827,
      "âķ": 7828,
      "æľĬ": 7829,
      "è¿º": 7830,
      "æĪ¬": 7831,
      "ä½¾": 7832,
      "æĺ´": 7833,
      "æĸ¸": 7834,
      "çĶ¦": 7835,
      "åĪ¿": 7836,
      "å°Ĥ": 7837,
      "å°ķ": 7838,
      "è®¦": 7839,
      "åĽ¡": 7840,
      "å¸Ķ": 7841,
      "è§¿": 7842,
      "çīĤ": 7843,
      "éĹ¿": 7844,
      "æŃĬ": 7845,
      "å½ĺ": 7846,
      "çŃ²": 7847,
      "åį¬": 7848,
      "æĥĿ": 7849,
      "æ°į": 7850,
      "æ°ļ": 7851,
      "æĶĶ": 7852,
      "æ¯¹": 7853,
      "æĮ¼": 7854,
      "ç±¥": 7855,
      "ç±´": 7856,
      "æ¸«": 7857,
      "åŁ¤": 7858,
      "æ²Ħ": 7859,
      "èīĭ": 7860,
      "éĺ¼": 7861,
      "éĺļ": 7862,
      "ç³ģ": 7863,
      "èĬĹ": 7864,
      "èĬĺ": 7865,
      "ç¨Ĺ": 7866,
      "æ®Ń": 7867,
      "éĤĿ": 7868,
      "ç½¾": 7869,
      "çķ²": 7870,
      "é¦Ń": 7871,
      "ç¯ĳ": 7872,
      "éĥĥ": 7873,
      "è·ı": 7874,
      "èģ±": 7875,
      "çł»": 7876,
      "çłī": 7877,
      "èºŀ": 7878,
      "èĻ§": 7879,
      "æ»ī": 7880,
      "è¨¼": 7881,
      "èĪ³": 7882,
      "èĪł": 7883,
      "é©©": 7884,
      "èıĺ": 7885,
      "éĴİ": 7886,
      "é¤Ķ": 7887,
      "æ£Ĳ": 7888,
      "åĥķ": 7889,
      "æĲ¦": 7890,
      "æ¦§": 7891,
      "æ¤ł": 7892,
      "çı£": 7893,
      "çıħ": 7894,
      "ç¢ľ": 7895,
      "åĭ¸": 7896,
      "åĭĲ": 7897,
      "èĽĦ": 7898,
      "é²ĭ": 7899,
      "çª¯": 7900,
      "çªŃ": 7901,
      "æĴĦ": 7902,
      "æĴļ": 7903,
      "çĳ£": 7904,
      "é¼¯": 7905,
      "æ¥½": 7906,
      "èľ©": 7907,
      "èľ®": 7908,
      "ç¹»": 7909,
      "éŀŀ": 7910,
      "é¹ĸ": 7911,
      "è¸¬": 7912,
      "åĹ«": 7913,
      "åĺĴ": 7914,
      "å´ģ": 7915,
      "å«ļ": 7916,
      "è¹»": 7917,
      "è¹Ģ": 7918,
      "èĺ©": 7919,
      "é³ı": 7920,
      "éī¤": 7921,
      "æ§²": 7922,
      "è¤Ĭ": 7923,
      "çĢ¹": 7924,
      "çĢī": 7925,
      "åµĬ": 7926,
      "ðŁĮħ": 7927,
      "éİı": 7928,
      "âĪł": 7929,
      "é¨ĳ": 7930,
      "ãģ¤": 7931,
      "ãģª": 7932,
      "ãģ«": 7933,
      "ðŁĲ¾": 7934,
      "ãĤī": 7935,
      "é´¦": 7936,
      "é´Ľ": 7937,
      "ðŁĻĮ": 7938,
      "ðŁ¤Ķ": 7939,
      "âģ¿": 7940,
      "ãłł": 7941,
      "âŃĲ": 7942,
      "Î©": 7943,
      "Î·": 7944,
      "Ïĩ": 7945,
      "ÏĪ": 7946,
      "à¤": 7947,
      "æľ®": 7948,
      "æĪķ": 7949,
      "åĪ½": 7950,
      "åĴ»": 7951,
      "åĴĿ": 7952,
      "åľ®": 7953,
      "åĽī": 7954,
      "åĽĹ": 7955,
      "å·ĳ": 7956,
      "å¯Ķ": 7957,
      "å¾³": 7958,
      "æł»": 7959,
      "åĳ´": 7960,
      "åĳĤ": 7961,
      "ç«ĩ": 7962,
      "æµĪ": 7963,
      "è´ĸ": 7964,
      "èµ§": 7965,
      "è¾Ģ": 7966,
      "æ´§": 7967,
      "æ´¹": 7968,
      "é£ĳ": 7969,
      "æ¸Ł": 7970,
      "æ²¢": 7971,
      "éģ¼": 7972,
      "çŁ¸": 7973,
      "åī¸": 7974,
      "å¢³": 7975,
      "æ·¦": 7976,
      "éķ§": 7977,
      "éķ¬": 7978,
      "éķĵ": 7979,
      "åŀ¤": 7980,
      "éĥ¾": 7981,
      "è·£": 7982,
      "ç¬«": 7983,
      "ç¬¾": 7984,
      "åķŀ": 7985,
      "èĭ¾": 7986,
      "èįĳ": 7987,
      "æ¶ĺ": 7988,
      "èĻ»": 7989,
      "é¥ħ": 7990,
      "é¥Ĵ": 7991,
      "é¥Ĺ": 7992,
      "çĻ¡": 7993,
      "éŁĨ": 7994,
      "ç¥ĵ": 7995,
      "æ¼Ń": 7996,
      "é»ī": 7997,
      "è±Ī": 7998,
      "è±İ": 7999,
      "éĴ²": 8000,
      "éĴ½": 8001,
      "é¤ĥ": 8002,
      "éĵ©": 8003,
      "æļķ": 8004,
      "èĮĿ": 8005,
      "æ¦±": 8006,
      "çı²": 8007,
      "çı½": 8008,
      "å¡¬": 8009,
      "åĭ£": 8010,
      "é²Ĥ": 8011,
      "çª©": 8012,
      "é¼Ĳ": 8013,
      "èŃ´": 8014,
      "èĶ£": 8015,
      "èľº": 8016,
      "èĴĮ": 8017,
      "åĤĴ": 8018,
      "éŀ®": 8019,
      "èķ¡": 8020,
      "èĨĺ": 8021,
      "èĿ£": 8022,
      "èĿ®": 8023,
      "çµ·": 8024,
      "å´ĥ": 8025,
      "å´Ħ": 8026,
      "æ¾±": 8027,
      "çĺµ": 8028,
      "æªĹ": 8029,
      "éī¬": 8030,
      "è«ľ": 8031,
      "æĨ«": 8032,
      "è¤«": 8033,
      "çĢ¾": 8034,
      "çĢķ": 8035,
      "è»¼": 8036,
      "è¬Ĭ": 8037,
      "ï½¡": 8038,
      "ï½Ĳ": 8039,
      "éĬľ": 8040,
      "ðŁĺ±": 8041,
      "éİĹ": 8042,
      "âīł": 8043,
      "é¨ķ": 8044,
      "ðŁįĬ": 8045,
      "ãģĨ": 8046,
      "ðŁĴĵ": 8047,
      "ðŁĴľ": 8048,
      "ðŁİ¤": 8049,
      "âĺĨ": 8050,
      "âħ£": 8051,
      "ÏĨ": 8052,
      "åĥ½": 8053,
      "ä¸¶": 8054,
      "è¯¹": 8055,
      "åĴ£": 8056,
      "åĴģ": 8057,
      "åĲĸ": 8058,
      "ç»ģ": 8059,
      "è®¬": 8060,
      "åºĳ": 8061,
      "éĢĦ": 8062,
      "è¡Ĵ": 8063,
      "å·¿": 8064,
      "é¢Ģ": 8065,
      "åĨı": 8066,
      "ç§ķ": 8067,
      "æŀ»": 8068,
      "æıİ": 8069,
      "çŃ¼": 8070,
      "éĿļ": 8071,
      "ä¿ľ": 8072,
      "æ³Ĥ": 8073,
      "æ³ħ": 8074,
      "åĵı": 8075,
      "çĲ¤": 8076,
      "åĳĵ": 8077,
      "æµ¯": 8078,
      "æµį": 8079,
      "èµ³": 8080,
      "èµľ": 8081,
      "æ´İ": 8082,
      "ç±¯": 8083,
      "æ¬»": 8084,
      "æ¬½": 8085,
      "æ²´": 8086,
      "æ²ļ": 8087,
      "éĻ´": 8088,
      "é«ĳ": 8089,
      "çŁ¯": 8090,
      "ç¾Ŀ": 8091,
      "è°ĸ": 8092,
      "æģļ": 8093,
      "çĿĨ": 8094,
      "çĿŃ": 8095,
      "ç¤«": 8096,
      "å¢Ĵ": 8097,
      "ç¨Ł": 8098,
      "èĤ¼": 8099,
      "èĤĦ": 8100,
      "éĤ´": 8101,
      "éĤ¾": 8102,
      "ç½ĺ": 8103,
      "çķĳ": 8104,
      "ç´¬": 8105,
      "é¦ĺ": 8106,
      "éķ£": 8107,
      "çĥ±": 8108,
      "éĥĹ": 8109,
      "è·ķ": 8110,
      "ç¼Ľ": 8111,
      "éĽ«": 8112,
      "çłľ": 8113,
      "æ¶ŀ": 8114,
      "æĳĽ": 8115,
      "å£Ł": 8116,
      "æºĨ": 8117,
      "è±¨": 8118,
      "è±Ĭ": 8119,
      "èı¹": 8120,
      "æ£»": 8121,
      "æļł": 8122,
      "åĥĿ": 8123,
      "åĶģ": 8124,
      "çı¦": 8125,
      "çıº": 8126,
      "ç¢²": 8127,
      "èĽī": 8128,
      "çªº": 8129,
      "æĴħ": 8130,
      "æĴĪ": 8131,
      "æĴĻ": 8132,
      "æĵ¤": 8133,
      "åłº": 8134,
      "é±Ĺ": 8135,
      "èĵĲ": 8136,
      "éĨ¾": 8137,
      "éĨľ": 8138,
      "åĤ©": 8139,
      "èªĬ": 8140,
      "éŀļ": 8141,
      "é¹Ĩ": 8142,
      "éĸĺ": 8143,
      "è²¶": 8144,
      "è©Ī": 8145,
      "çĴ¿": 8146,
      "çĴĪ": 8147,
      "çĺ³": 8148,
      "çĺĸ": 8149,
      "é½ĭ": 8150,
      "éłĮ": 8151,
      "é¬ļ": 8152,
      "åļħ": 8153,
      "åļķ": 8154,
      "çĢ¨": 8155,
      "ç¸¢": 8156,
      "è¬Ķ": 8157,
      "éĦľ": 8158,
      "ðŁĺĸ": 8159,
      "ãĥĪ": 8160,
      "ðŁį¦": 8161,
      "ðŁįī": 8162,
      "ðŁįĶ": 8163,
      "ãģĤ": 8164,
      "ãģį": 8165,
      "ðŁİ¶": 8166,
      "âĺº": 8167,
      "âħ§": 8168,
      "æ«ļ": 8169,
      "ãĤ¤": 8170,
      "ãĤĬ": 8171,
      "ãĤĭ": 8172,
      "ãĤĵ": 8173,
      "ðŁ¦ĭ": 8174,
      "Â¹": 8175,
      "Ã¤": 8176,
      "Ã§": 8177,
      "Ãİ": 8178,
      "Éª": 8179,
      "ËĪ": 8180,
      "âĭ": 8181,
      "ãħ": 8182,
      "äĨ": 8183,
      "é°": 8184,
      "ä»¡": 8185,
      "ä½¤": 8186,
      "è¯Į": 8187,
      "æĸģ": 8188,
      "çĶĵ": 8189,
      "çĶĻ": 8190,
      "åĴĹ": 8191,
      "åĲ²": 8192,
      "ç»Į": 8193,
      "ä¹©": 8194,
      "ä¹ľ": 8195,
      "å°¨": 8196,
      "å¹Ł": 8197,
      "éĢŃ": 8198,
      "é¢İ": 8199,
      "åĨĳ": 8200,
      "èĢ¨": 8201,
      "æĬľ": 8202,
      "æłĿ": 8203,
      "çĽĮ": 8204,
      "æ°Ĺ": 8205,
      "åĵĲ": 8206,
      "å¿¾": 8207,
      "åĳ²": 8208,
      "æĭı": 8209,
      "æĶı": 8210,
      "ä¾·": 8211,
      "èµĿ": 8212,
      "æ´º": 8213,
      "ç±Ģ": 8214,
      "éľ¤": 8215,
      "åģģ": 8216,
      "éģ°": 8217,
      "æ±Ĩ": 8218,
      "æ±Ń": 8219,
      "è½ĵ": 8220,
      "ç³Į": 8221,
      "åīİ": 8222,
      "å»ģ": 8223,
      "å»Ĥ": 8224,
      "åĢĮ": 8225,
      "éĤ¶": 8226,
      "éĤĹ": 8227,
      "æŁĻ": 8228,
      "çķĽ": 8229,
      "é¦´": 8230,
      "é¦Į": 8231,
      "æ¡´": 8232,
      "æ¡·": 8233,
      "éĥ§": 8234,
      "éĥľ": 8235,
      "è·Ĺ": 8236,
      "åĿĮ": 8237,
      "çĭĸ": 8238,
      "åĻĻ": 8239,
      "éħ½": 8240,
      "çĹ¾": 8241,
      "èĻº": 8242,
      "é¥¤": 8243,
      "æ»Ļ": 8244,
      "çģº": 8245,
      "ç¥²": 8246,
      "èĪ´": 8247,
      "æ¼£": 8248,
      "å£ĸ": 8249,
      "æº±": 8250,
      "æº¼": 8251,
      "é»©": 8252,
      "èĦ°": 8253,
      "èİ¢": 8254,
      "éĴį": 8255,
      "é¤į": 8256,
      "ç¦İ": 8257,
      "éĵ¦": 8258,
      "ç¿£": 8259,
      "çħĩ": 8260,
      "æĲ¢": 8261,
      "å²µ": 8262,
      "å²Ģ": 8263,
      "å²ı": 8264,
      "çı©": 8265,
      "å¡ļ": 8266,
      "å¨Ī": 8267,
      "é²ħ": 8268,
      "é²ļ": 8269,
      "èħ·": 8270,
      "çĨ¾": 8271,
      "åĦī": 8272,
      "æĵ²": 8273,
      "èĵĬ": 8274,
      "çĵĬ": 8275,
      "éĨĮ": 8276,
      "çĩ¹": 8277,
      "éŀ¬": 8278,
      "é¹´": 8279,
      "åĹĦ": 8280,
      "èĿ½": 8281,
      "éĸĳ": 8282,
      "è²ŀ": 8283,
      "çµĨ": 8284,
      "å´Ĵ": 8285,
      "çĴĨ": 8286,
      "èļĭ": 8287,
      "è¹ł": 8288,
      "çĺ¡": 8289,
      "çĺ¼": 8290,
      "éłĥ": 8291,
      "éłĳ": 8292,
      "æĨĢ": 8293,
      "è¤İ": 8294,
      "ðŁķ": 8295,
      "èŁ¬": 8296,
      "ç¸·": 8297,
      "ç¸Ī": 8298,
      "ï½ĥ": 8299,
      "ï½Ī": 8300,
      "ï½Į": 8301,
      "ï½į": 8302,
      "éĦ¢": 8303,
      "éĦ©": 8304,
      "ðŁĮ°": 8305,
      "ðŁĺ¨": 8306,
      "ðŁĳ»": 8307,
      "ãĥ©": 8308,
      "ãĥĥ": 8309,
      "é®°": 8310,
      "éĳ¼": 8311,
      "ãģĭ": 8312,
      "ãģŁ": 8313,
      "éĪŀ": 8314,
      "ðŁĲĴ": 8315,
      "âĺĲ": 8316,
      "âĻ¡": 8317,
      "é¯Ĭ": 8318,
      "ðŁ¤Ĺ": 8319,
      "âĭ¯": 8320,
      "Â½": 8321,
      "Ãī": 8322,
      "ÏĦ": 8323,
      "Ðµ": 8324,
      "âĬ": 8325,
      "ðĿ": 8326,
      "çļļ": 8327,
      "çļĽ": 8328,
      "äº¶": 8329,
      "æľı": 8330,
      "ä½º": 8331,
      "æĺ¿": 8332,
      "è¯¿": 8333,
      "è¯İ": 8334,
      "åĪ²": 8335,
      "åĴ¾": 8336,
      "åĬĦ": 8337,
      "ç»Ĳ": 8338,
      "æĹ®": 8339,
      "éĩĤ": 8340,
      "éĩĺ": 8341,
      "å¸ĳ": 8342,
      "å¾¯": 8343,
      "åĨĨ": 8344,
      "è§«": 8345,
      "è§³": 8346,
      "éĹ¬": 8347,
      "çİĻ": 8348,
      "æĢį": 8349,
      "æīĨ": 8350,
      "æŃĥ": 8351,
      "æı¾": 8352,
      "çŃ¦": 8353,
      "çŃį": 8354,
      "çŃľ": 8355,
      "æĬĶ": 8356,
      "æĥĵ": 8357,
      "åĵ¢": 8358,
      "åĵ¿": 8359,
      "å¦ģ": 8360,
      "å¿ī": 8361,
      "åĳ»": 8362,
      "æµĲ": 8363,
      "æ¯ĺ": 8364,
      "çºľ": 8365,
      "è¾»": 8366,
      "ç®ĭ": 8367,
      "ç®Ŀ": 8368,
      "æ´Į": 8369,
      "åŁ¼": 8370,
      "éĻĿ": 8371,
      "æĤ»": 8372,
      "åģª": 8373,
      "çľĬ": 8374,
      "éģ¹": 8375,
      "é«¡": 8376,
      "è½ħ": 8377,
      "éĶ¼": 8378,
      "éĺ¨": 8379,
      "éĺĽ": 8380,
      "éĺĿ": 8381,
      "ç³¬": 8382,
      "çŁ°": 8383,
      "è°³": 8384,
      "è°ŀ": 8385,
      "æģ¥": 8386,
      "çĿį": 8387,
      "åĸ«": 8388,
      "åĸĪ": 8389,
      "èĤ¸": 8390,
      "æ®Ĥ": 8391,
      "æŁ½": 8392,
      "èĲľ": 8393,
      "ç¯¾": 8394,
      "ç¯ļ": 8395,
      "éĥŀ": 8396,
      "åĿ»": 8397,
      "çĭį": 8398,
      "èįĬ": 8399,
      "éħ¾": 8400,
      "éªķ": 8401,
      "çģ¬": 8402,
      "çĻ¢": 8403,
      "ç¥¿": 8404,
      "ç¥Ķ": 8405,
      "æ¼Ļ": 8406,
      "èĥĻ": 8407,
      "ç²ľ": 8408,
      "èĦĴ": 8409,
      "è±ĩ": 8410,
      "éĴĨ": 8411,
      "çĬ´": 8412,
      "ç¦³": 8413,
      "éĵĬ": 8414,
      "é¸ĳ": 8415,
      "çħ³": 8416,
      "åĥ£": 8417,
      "åĥ¦": 8418,
      "åĶ°": 8419,
      "è¥ľ": 8420,
      "è¥ŀ": 8421,
      "æ¢Ĩ": 8422,
      "çı®": 8423,
      "å¡¢": 8424,
      "åĭį": 8425,
      "èĽ¸": 8426,
      "èĽı": 8427,
      "é²¥": 8428,
      "é²ķ": 8429,
      "æĴµ": 8430,
      "åĦ¼": 8431,
      "æĵĲ": 8432,
      "æ©¼": 8433,
      "æ©Ľ": 8434,
      "çĳ¯": 8435,
      "æ¥©": 8436,
      "æ¥¯": 8437,
      "åĤķ": 8438,
      "çĩļ": 8439,
      "æĩĶ": 8440,
      "èªħ": 8441,
      "èĸħ": 8442,
      "èĸĸ": 8443,
      "é¹Ķ": 8444,
      "è¸Ĩ": 8445,
      "åĹĩ": 8446,
      "çµ¢": 8447,
      "å´Ĳ": 8448,
      "çĴģ": 8449,
      "çŀŁ": 8450,
      "æª»": 8451,
      "é³©": 8452,
      "é³İ": 8453,
      "é³Ķ": 8454,
      "ç·¯": 8455,
      "æ§Ń": 8456,
      "ç°·": 8457,
      "å¬ĸ": 8458,
      "ï½ĵ": 8459,
      "éĦ£": 8460,
      "ðŁĮ¼": 8461,
      "ðŁĮĦ": 8462,
      "ðŁĮŁ": 8463,
      "ðŁĺı": 8464,
      "ðŁĳĻ": 8465,
      "âĪ¥": 8466,
      "âĸ²": 8467,
      "ðŁį´": 8468,
      "ãģ¿": 8469,
      "ðŁĲŃ": 8470,
      "ãĤĪ": 8471,
      "ðŁıĨ": 8472,
      "ðŁļĢ": 8473,
      "ðŁļĹ": 8474,
      "ðŁĵ±": 8475,
      "é¶±": 8476,
      "é¶Ĺ": 8477,
      "âģ°": 8478,
      "Âĵ": 8479,
      "ÂĶ": 8480,
      "Ã¦": 8481,
      "Ãª": 8482,
      "Ã²": 8483,
      "ÉĻ": 8484,
      "â¸": 8485,
      "ìĿ": 8486,
      "çļŀ": 8487,
      "æĪĨ": 8488,
      "ä½¹": 8489,
      "æĺ»": 8490,
      "æĸ¿": 8491,
      "æĸķ": 8492,
      "åĴį": 8493,
      "æĹ£": 8494,
      "åº¹": 8495,
      "éĩģ": 8496,
      "å¸¨": 8497,
      "ä¼Ľ": 8498,
      "åĩ¦": 8499,
      "å¯Ģ": 8500,
      "è§ı": 8501,
      "å¥Ĳ": 8502,
      "å¥Ń": 8503,
      "éĹ¢": 8504,
      "æīĮ": 8505,
      "æīŀ": 8506,
      "èĢĭ": 8507,
      "èĢľ": 8508,
      "æıł": 8509,
      "åįĲ": 8510,
      "æ³Ĳ": 8511,
      "æĥ²": 8512,
      "âĢ»": 8513,
      "åĵļ": 8514,
      "å¦«": 8515,
      "çĲ²": 8516,
      "æĻ¼": 8517,
      "æİĬ": 8518,
      "æİİ": 8519,
      "æİŀ": 8520,
      "æ¯³": 8521,
      "å±¼": 8522,
      "é£Ĺ": 8523,
      "éľĳ": 8524,
      "éľĻ": 8525,
      "æĤģ": 8526,
      "èī¹": 8527,
      "çĦľ": 8528,
      "é«ı": 8529,
      "è½±": 8530,
      "ç³¸": 8531,
      "çĿļ": 8532,
      "ç¤»": 8533,
      "èĬ»": 8534,
      "åĸ¶": 8535,
      "å¢®": 8536,
      "ç¨ľ": 8537,
      "ç¨ŀ": 8538,
      "èĤ«": 8539,
      "å»Į": 8540,
      "ç¡Į": 8541,
      "éĤ½": 8542,
      "æŁĬ": 8543,
      "ç´³": 8544,
      "é¡Ķ": 8545,
      "é¡Ĺ": 8546,
      "èĲĳ": 8547,
      "éļ¤": 8548,
      "åŀħ": 8549,
      "éĥĦ": 8550,
      "ç¬¤": 8551,
      "çĭ¯": 8552,
      "çł¦": 8553,
      "çł¼": 8554,
      "çłĹ": 8555,
      "åķĵ": 8556,
      "åĻĵ": 8557,
      "éħº": 8558,
      "éħĤ": 8559,
      "éħİ": 8560,
      "çĹº": 8561,
      "é¥ĳ": 8562,
      "æ»ª": 8563,
      "æ»ĥ": 8564,
      "æ»Ī": 8565,
      "å§Ĵ": 8566,
      "èĪĸ": 8567,
      "æºĺ": 8568,
      "é»Ĵ": 8569,
      "ç²¢": 8570,
      "çĮº": 8571,
      "é©İ": 8572,
      "èİľ": 8573,
      "è£Ľ": 8574,
      "é¤¸": 8575,
      "æ£¨": 8576,
      "æ£°": 8577,
      "æ£¼": 8578,
      "éĵ§": 8579,
      "éĵ¼": 8580,
      "é¸¨": 8581,
      "é¸Ĥ": 8582,
      "èĮĩ": 8583,
      "çħĬ": 8584,
      "èĳĳ": 8585,
      "æ¤ģ": 8586,
      "é²£": 8587,
      "é²½": 8588,
      "é²Ĩ": 8589,
      "æ¿ŀ": 8590,
      "åłĥ": 8591,
      "åłĻ": 8592,
      "çĳĬ": 8593,
      "éºĩ": 8594,
      "èĵ£": 8595,
      "éŃĥ": 8596,
      "éŃī": 8597,
      "éŃį": 8598,
      "èŃļ": 8599,
      "èĶĺ": 8600,
      "éĨ²": 8601,
      "èĸ·": 8602,
      "é¹¯": 8603,
      "é¹ģ": 8604,
      "è¸Ķ": 8605,
      "ç£»": 8606,
      "ç£¾": 8607,
      "ç£Ī": 8608,
      "èĨ´": 8609,
      "åĹļ": 8610,
      "è²ĺ": 8611,
      "çµº": 8612,
      "è©£": 8613,
      "å´¿": 8614,
      "çĴ½": 8615,
      "å«»": 8616,
      "èļ§": 8617,
      "èļĥ": 8618,
      "èļį": 8619,
      "æª¯": 8620,
      "éłĶ": 8621,
      "é¬¯": 8622,
      "é¬į": 8623,
      "é¬Ĵ": 8624,
      "é³£": 8625,
      "è¼¶": 8626,
      "éī¥": 8627,
      "éīħ": 8628,
      "ç·¬": 8629,
      "è«ł": 8630,
      "æ§ł": 8631,
      "æĨº": 8632,
      "è¤¡": 8633,
      "è¤§": 8634,
      "çį´": 8635,
      "ðŁĽ": 8636,
      "ç°¦": 8637,
      "èŁª": 8638,
      "åµĤ": 8639,
      "éĦ§": 8640,
      "âĨĳ": 8641,
      "ðŁĮĻ": 8642,
      "ï¸°": 8643,
      "éĳ²": 8644,
      "ðŁįĤ": 8645,
      "ðŁįĵ": 8646,
      "ãģ¯": 8647,
      "ðŁĴ°": 8648,
      "ðŁĴĨ": 8649,
      "ðŁĴĭ": 8650,
      "ðŁİ¨": 8651,
      "ðŁİģ": 8652,
      "æ«¥": 8653,
      "ðŁıł": 8654,
      "é´¨": 8655,
      "ðŁĵĸ": 8656,
      "é¶´": 8657,
      "ðŁĶį": 8658,
      "ãĦŁ": 8659,
      "Î¶": 8660,
      "Î½": 8661,
      "à¸": 8662,
      "à½": 8663,
      "ä¨": 8664,
      "ä¸±": 8665,
      "ä¸ı": 8666,
      "ï¼¹": 8667,
      "ï¼¼": 8668,
      "ï¼Ĭ": 8669,
      "çļ²": 8670,
      "äºį": 8671,
      "åıĨ": 8672,
      "æľ§": 8673,
      "åħĮ": 8674,
      "æĺº": 8675,
      "æĸĥ": 8676,
      "çĶ¯": 8677,
      "åľ¯": 8678,
      "åľ¹": 8679,
      "åĬ´": 8680,
      "æĹ¯": 8681,
      "æĹŁ": 8682,
      "åĽĿ": 8683,
      "åºĥ": 8684,
      "å¹ŀ": 8685,
      "ä¼§": 8686,
      "åĩĩ": 8687,
      "å·Ģ": 8688,
      "å¯ĺ": 8689,
      "åĨ±": 8690,
      "è§ĩ": 8691,
      "éĹĶ": 8692,
      "çİĹ": 8693,
      "æŀ¨": 8694,
      "æŃľ": 8695,
      "æŃł": 8696,
      "èĢ°": 8697,
      "å½³": 8698,
      "çŃĺ": 8699,
      "ä¿¶": 8700,
      "æĥĶ": 8701,
      "æĥĻ": 8702,
      "å¦ĺ": 8703,
      "çĲĩ": 8704,
      "æĻ¢": 8705,
      "æĻ¬": 8706,
      "æĻ»": 8707,
      "æĻĿ": 8708,
      "åĳĸ": 8709,
      "æĶµ": 8710,
      "ç«ĳ": 8711,
      "è´ĵ": 8712,
      "æ¯İ": 8713,
      "æĮĲ": 8714,
      "çºļ": 8715,
      "ç®ĳ": 8716,
      "æ´¸": 8717,
      "æ´Ł": 8718,
      "æ¬¬": 8719,
      "æ²£": 8720,
      "éĻŀ": 8721,
      "æĤ¢": 8722,
      "æĤ¤": 8723,
      "èīī": 8724,
      "çľµ": 8725,
      "è½¾": 8726,
      "éĶľ": 8727,
      "çŁ»": 8728,
      "ç¾Ī": 8729,
      "èĬ¼": 8730,
      "ç¨ı": 8731,
      "å»¨": 8732,
      "å»ĳ": 8733,
      "çĸ³": 8734,
      "çĸĸ": 8735,
      "ç¡ģ": 8736,
      "ç½Ŀ": 8737,
      "çķĩ": 8738,
      "è¢·": 8739,
      "çĥľ": 8740,
      "åŀŃ": 8741,
      "éĥı": 8742,
      "è·«": 8743,
      "ç¼¦": 8744,
      "åĿŃ": 8745,
      "çĭ¨": 8746,
      "èį©": 8747,
      "åĻĺ": 8748,
      "åĻŃ": 8749,
      "éħĨ": 8750,
      "èĻ¿": 8751,
      "è¨£": 8752,
      "è¨ļ": 8753,
      "æĳ½": 8754,
      "å§®": 8755,
      "çĻĥ": 8756,
      "éŁ¡": 8757,
      "æ¨Ľ": 8758,
      "é»¦": 8759,
      "èĥĹ": 8760,
      "èıī": 8761,
      "éĴħ": 8762,
      "éĴĮ": 8763,
      "è£¯": 8764,
      "é¤Ĵ": 8765,
      "éĵ³": 8766,
      "æļĲ": 8767,
      "èĮĳ": 8768,
      "ç¿ĥ": 8769,
      "ç¿Ļ": 8770,
      "åĥ³": 8771,
      "è¥¶": 8772,
      "æħĩ": 8773,
      "æħĬ": 8774,
      "æħŃ": 8775,
      "é²¿": 8776,
      "èħł": 8777,
      "çĨĩ": 8778,
      "åĦķ": 8779,
      "æ¿¬": 8780,
      "åłĮ": 8781,
      "éº°": 8782,
      "éº´": 8783,
      "åª¸": 8784,
      "é¾ĥ": 8785,
      "èĵĨ": 8786,
      "éŃĭ": 8787,
      "çĵĪ": 8788,
      "éĨ¢": 8789,
      "éĨģ": 8790,
      "åĤĪ": 8791,
      "çĩģ": 8792,
      "æĩ¾": 8793,
      "å©³": 8794,
      "éŀ¨": 8795,
      "éŀ¿": 8796,
      "èķİ": 8797,
      "èĸĶ": 8798,
      "èĸĿ": 8799,
      "é¹¥": 8800,
      "åĹ¶": 8801,
      "åĺ¢": 8802,
      "åĺĸ": 8803,
      "èĿ¥": 8804,
      "éĸ¾": 8805,
      "è©¼": 8806,
      "å´ĳ": 8807,
      "å´Ł": 8808,
      "æ¾Ĩ": 8809,
      "çŀĢ": 8810,
      "é¬¨": 8811,
      "é¬Ĳ": 8812,
      "æ§¤": 8813,
      "è¤¦": 8814,
      "è¤»": 8815,
      "çįį": 8816,
      "èłį": 8817,
      "ï½ľ": 8818,
      "éĮ¨": 8819,
      "ðŁĺĨ": 8820,
      "ðŁĺĴ": 8821,
      "éİĮ": 8822,
      "ðŁĳĬ": 8823,
      "ãĥķ": 8824,
      "éĭ¸": 8825,
      "ðŁį¬": 8826,
      "ãģĮ": 8827,
      "éĪį": 8828,
      "ï¿£": 8829,
      "ãĤ¯": 8830,
      "ãĤ°": 8831,
      "ðŁı¡": 8832,
      "ðŁĻĥ": 8833,
      "âŀ¡": 8834,
      "ðĿĲ": 8835,
      "¦ģ": 8836,
      "Â¬": 8837,
      "Ä§": 8838,
      "Ëĩ": 8839,
      "ÌĦ": 8840,
      "ÑĢ": 8841,
      "ÑĤ": 8842,
      "á»": 8843,
      "âĮ": 8844,
      "âļ": 8845,
      "âĽ": 8846,
      "â¦ģ": 8847,
      "ä»³": 8848,
      "æĪ¸": 8849,
      "åħĲ": 8850,
      "æĺ®": 8851,
      "æĺ½": 8852,
      "æĺĿ": 8853,
      "å¤Ĥ": 8854,
      "è¯Ĥ": 8855,
      "æĸ¨": 8856,
      "çĶ¡": 8857,
      "çĶĹ": 8858,
      "ç»¤": 8859,
      "ç»ĭ": 8860,
      "æĹĲ": 8861,
      "éĩĨ": 8862,
      "éĩļ": 8863,
      "å¹ª": 8864,
      "å¹®": 8865,
      "å¸¡": 8866,
      "è¡İ": 8867,
      "åĩĬ": 8868,
      "å·¯": 8869,
      "å·»": 8870,
      "å·ĸ": 8871,
      "åĮ±": 8872,
      "è¦ĵ": 8873,
      "é¢ĥ": 8874,
      "çī¾": 8875,
      "çīģ": 8876,
      "æīħ": 8877,
      "æīĬ": 8878,
      "æŀĴ": 8879,
      "æŃĪ": 8880,
      "å½¡": 8881,
      "å½ĸ": 8882,
      "çŃħ": 8883,
      "æĬº": 8884,
      "æłĮ": 8885,
      "éĿº": 8886,
      "åįį": 8887,
      "æ³º": 8888,
      "æ³Ķ": 8889,
      "âĢĥ": 8890,
      "æĻ©": 8891,
      "åİĸ": 8892,
      "æĽĢ": 8893,
      "æĽĸ": 8894,
      "æİ®": 8895,
      "å¿Ń": 8896,
      "æ¯¸": 8897,
      "å±©": 8898,
      "æĮ¾": 8899,
      "è¾ı": 8900,
      "æ´ĳ": 8901,
      "ç±Ł": 8902,
      "éľ¶": 8903,
      "æ¸°": 8904,
      "æ¬ĥ": 8905,
      "åģ¬": 8906,
      "çĤĿ": 8907,
      "éģĦ": 8908,
      "éģĿ": 8909,
      "çĦ®": 8910,
      "é«Ļ": 8911,
      "éĶĥ": 8912,
      "éĶķ": 8913,
      "éĺĦ": 8914,
      "çŁ¼": 8915,
      "è°Ĥ": 8916,
      "åīĲ": 8917,
      "ç¤½": 8918,
      "ç¤Į": 8919,
      "å¢Ĺ": 8920,
      "ç¨Į": 8921,
      "èĤľ": 8922,
      "åĢ¥": 8923,
      "æ®Ľ": 8924,
      "éĤħ": 8925,
      "ç½³": 8926,
      "çķ¯": 8927,
      "çķĴ": 8928,
      "éķł": 8929,
      "éļ©": 8930,
      "éĥĲ": 8931,
      "èģ¾": 8932,
      "ç¼¡": 8933,
      "ç¼§": 8934,
      "ç¬±": 8935,
      "ç¬¹": 8936,
      "éĽĺ": 8937,
      "éĽĽ": 8938,
      "åĿµ": 8939,
      "åĿľ": 8940,
      "çĭ´": 8941,
      "çĭ·": 8942,
      "çłĳ": 8943,
      "èº¥": 8944,
      "èįĪ": 8945,
      "åĻ¸": 8946,
      "çĹı": 8947,
      "éª¦": 8948,
      "éªĵ": 8949,
      "è¨ĩ": 8950,
      "çĻ¥": 8951,
      "ç¥§": 8952,
      "èĪº": 8953,
      "æºį": 8954,
      "é»§": 8955,
      "èİ©": 8956,
      "èı¶": 8957,
      "èıĶ": 8958,
      "è£¢": 8959,
      "é¤Į": 8960,
      "ç¦Ĩ": 8961,
      "æļį": 8962,
      "é¸º": 8963,
      "åĶ¼": 8964,
      "è¥ª": 8965,
      "è¥ķ": 8966,
      "æĲĹ": 8967,
      "æ¦¾": 8968,
      "æ¢¾": 8969,
      "æ¢Ī": 8970,
      "æ¤¤": 8971,
      "æ¤·": 8972,
      "ç¢ļ": 8973,
      "å¡©": 8974,
      "çª³": 8975,
      "çªĬ": 8976,
      "æĴº": 8977,
      "çĨĴ": 8978,
      "æ¿º": 8979,
      "æĵª": 8980,
      "é¾ī": 8981,
      "éŃŁ": 8982,
      "èŃŁ": 8983,
      "èĶµ": 8984,
      "çĵŀ": 8985,
      "éĨ½": 8986,
      "åĤ§": 8987,
      "çĩĬ": 8988,
      "èª¨": 8989,
      "ç¹Ħ": 8990,
      "èĹĭ": 8991,
      "èķ¹": 8992,
      "é¹ł": 8993,
      "ç£²": 8994,
      "åĺ©": 8995,
      "åĺģ": 8996,
      "èĿ°": 8997,
      "èĿ»": 8998,
      "éĸ¨": 8999,
      "çµľ": 9000,
      "çµŀ": 9001,
      "è©¶": 9002,
      "çĴ¹": 9003,
      "ç¶¢": 9004,
      "ç¶¸": 9005,
      "æ¾¥": 9006,
      "æ¾Ĺ": 9007,
      "å««": 9008,
      "çŀĩ": 9009,
      "é½£": 9010,
      "é½ģ": 9011,
      "éłł": 9012,
      "é¬²": 9013,
      "éīı": 9014,
      "ç·²": 9015,
      "ç·Ŀ": 9016,
      "æ§ļ": 9017,
      "åļ¬": 9018,
      "çĢİ": 9019,
      "çĢĿ": 9020,
      "èŁ«": 9021,
      "èŁı": 9022,
      "ç¸¹": 9023,
      "è¬¬": 9024,
      "ï½ĭ": 9025,
      "ï½Ĵ": 9026,
      "éĮ«": 9027,
      "éĮĺ": 9028,
      "éĦĺ": 9029,
      "ðŁĮļ": 9030,
      "ðŁĺµ": 9031,
      "éįį": 9032,
      "éİļ": 9033,
      "ðŁĳĮ": 9034,
      "å¶ª": 9035,
      "éĲ³": 9036,
      "âĪ®": 9037,
      "âĪĤ": 9038,
      "âĪĻ": 9039,
      "ãĥ«": 9040,
      "ãĥ¬": 9041,
      "ãĥŃ": 9042,
      "é®ĳ": 9043,
      "é®Ń": 9044,
      "é¨§": 9045,
      "ãģĬ": 9046,
      "ãģķ": 9047,
      "ðŁİ¸": 9048,
      "ðŁİĪ": 9049,
      "ðŁĲ¦": 9050,
      "ðŁĲĿ": 9051,
      "âĺĶ": 9052,
      "ãĤ·": 9053,
      "ãĤ¸": 9054,
      "ãĤŃ": 9055,
      "ðŁļķ": 9056,
      "ðŁĵĿ": 9057,
      "é¶Ĵ": 9058,
      "âģ´": 9059,
      "ðŁķ¶": 9060,
      "ìĿ´": 9061,
      "à½½": 9062
    },
    "merges": [
      [
        "ä",
        "¸"
      ],
      [
        "ï",
        "¼"
      ],
      [
        "ç",
        "ļ"
      ],
      [
        "çļ",
        "Ħ"
      ],
      [
        "ï¼",
        "Į"
      ],
      [
        "ã",
        "Ģ"
      ],
      [
        "ãĢ",
        "Ĥ"
      ],
      [
        "ä",
        "º"
      ],
      [
        "ä",
        "»"
      ],
      [
        "å",
        "ı"
      ],
      [
        "æ",
        "ľ"
      ],
      [
        "è",
        "¿"
      ],
      [
        "æ",
        "Ī"
      ],
      [
        "å",
        "ħ"
      ],
      [
        "ä",
        "½"
      ],
      [
        "æ",
        "ĺ"
      ],
      [
        "å",
        "¤"
      ],
      [
        "è",
        "¯"
      ],
      [
        "ä¸",
        "Ģ"
      ],
      [
        "æ",
        "ĸ"
      ],
      [
        "å",
        "®"
      ],
      [
        "ç",
        "Ķ"
      ],
      [
        "å",
        "Ī"
      ],
      [
        "å",
        "Ĵ"
      ],
      [
        "å",
        "ľ"
      ],
      [
        "åĴ",
        "Į"
      ],
      [
        "å",
        "Ĳ"
      ],
      [
        "å",
        "Ĭ"
      ],
      [
        "ç",
        "»"
      ],
      [
        "ä",
        "¹"
      ],
      [
        "æĺ",
        "¯"
      ],
      [
        "å",
        "°"
      ],
      [
        "å",
        "Ń"
      ],
      [
        "ä¸",
        "ª"
      ],
      [
        "ä»",
        "¥"
      ],
      [
        "è",
        "®"
      ],
      [
        "ãĢ",
        "ģ"
      ],
      [
        "æĪ",
        "ĳ"
      ],
      [
        "åľ",
        "¨"
      ],
      [
        "äº",
        "º"
      ],
      [
        "ĥ",
        "½"
      ],
      [
        "æľ",
        "ī"
      ],
      [
        "æ",
        "Ĺ"
      ],
      [
        "ï¼",
        "ļ"
      ],
      [
        "äº",
        "Ĩ"
      ],
      [
        "åı",
        "¯"
      ],
      [
        "è¿",
        "Ļ"
      ],
      [
        "æ",
        "Ŀ"
      ],
      [
        "å",
        "Ľ"
      ],
      [
        "å",
        "º"
      ],
      [
        "é",
        "ĩ"
      ],
      [
        "å",
        "¹"
      ],
      [
        "å",
        "¸"
      ],
      [
        "ä¸",
        "Ń"
      ],
      [
        "ä",
        "¼"
      ],
      [
        "é",
        "Ģ"
      ],
      [
        "è",
        "ĥ½"
      ],
      [
        "è",
        "¡"
      ],
      [
        "å",
        "ĩ"
      ],
      [
        "å",
        "·"
      ],
      [
        "æĸ",
        "ĩ"
      ],
      [
        "å",
        "Į"
      ],
      [
        "è",
        "¦"
      ],
      [
        "è¦",
        "ģ"
      ],
      [
        "é",
        "¢"
      ],
      [
        "å",
        "¯"
      ],
      [
        "å",
        "¾"
      ],
      [
        "å",
        "Ĩ"
      ],
      [
        "æ",
        "ķ"
      ],
      [
        "ä¸",
        "º"
      ],
      [
        "è",
        "§"
      ],
      [
        "å",
        "¥"
      ],
      [
        "ç",
        "ī"
      ],
      [
        "ç",
        "§"
      ],
      [
        "ä»",
        "¬"
      ],
      [
        "é",
        "Ĺ"
      ],
      [
        "ç",
        "İ"
      ],
      [
        "æ",
        "Ģ"
      ],
      [
        "ä¸",
        "į"
      ],
      [
        "å",
        "¼"
      ],
      [
        "çĶ",
        "¨"
      ],
      [
        "æ",
        "ī"
      ],
      [
        "æ",
        "ŀ"
      ],
      [
        "æ",
        "Ń"
      ],
      [
        "è",
        "Ģ"
      ],
      [
        "æ",
        "ı"
      ],
      [
        "å",
        "½"
      ],
      [
        "çĶ",
        "Ł"
      ],
      [
        "ç",
        "Ń"
      ],
      [
        "æ",
        "Ĭ"
      ],
      [
        "æ",
        "ł"
      ],
      [
        "é",
        "Ŀ"
      ],
      [
        "å",
        "į"
      ],
      [
        "ä",
        "¿"
      ],
      [
        "æ",
        "Ħ"
      ],
      [
        "æ",
        "³"
      ],
      [
        "æ",
        "ĥ"
      ],
      [
        "â",
        "Ģ"
      ],
      [
        "ç",
        "Ľ"
      ],
      [
        "æĿ",
        "¥"
      ],
      [
        "è",
        "ĩ"
      ],
      [
        "æ",
        "°"
      ],
      [
        "å",
        "ĵ"
      ],
      [
        "å",
        "¦"
      ],
      [
        "ä¸",
        "ĭ"
      ],
      [
        "ç",
        "Ĳ"
      ],
      [
        "æ",
        "Ļ"
      ],
      [
        "æĪ",
        "Ĳ"
      ],
      [
        "å",
        "İ"
      ],
      [
        "æı",
        "Ĳ"
      ],
      [
        "æ",
        "Ľ"
      ],
      [
        "åĪ",
        "°"
      ],
      [
        "ä»",
        "ĸ"
      ],
      [
        "åŃ",
        "¦"
      ],
      [
        "å¦",
        "Ĥ"
      ],
      [
        "æ",
        "İ"
      ],
      [
        "è¡",
        "Į"
      ],
      [
        "å",
        "¿"
      ],
      [
        "åĩ",
        "º"
      ],
      [
        "å",
        "ĳ"
      ],
      [
        "æ",
        "ĭ"
      ],
      [
        "æĹ",
        "¶"
      ],
      [
        "å¯",
        "¹"
      ],
      [
        "ä½",
        "ł"
      ],
      [
        "æ",
        "Ķ"
      ],
      [
        "åŃ",
        "Ĳ"
      ],
      [
        "ä",
        "¾"
      ],
      [
        "äº",
        "İ"
      ],
      [
        "åľ",
        "°"
      ],
      [
        "ä¸",
        "Ĭ"
      ],
      [
        "é¢",
        "ĺ"
      ],
      [
        "ç",
        "«"
      ],
      [
        "å°",
        "ı"
      ],
      [
        "æ",
        "µ"
      ],
      [
        "è",
        "´"
      ],
      [
        "å¥",
        "½"
      ],
      [
        "æ",
        "¯"
      ],
      [
        "ä¼",
        "ļ"
      ],
      [
        "çŃ",
        "ī"
      ],
      [
        "æĸ",
        "¹"
      ],
      [
        "æľ",
        "¬"
      ],
      [
        "æĽ",
        "´"
      ],
      [
        "èĩ",
        "ª"
      ],
      [
        "åĪ",
        "Ĩ"
      ],
      [
        "äº",
        "Ľ"
      ],
      [
        "å¤",
        "ļ"
      ],
      [
        "è",
        "µ"
      ],
      [
        "å¤",
        "§"
      ],
      [
        "å",
        "±"
      ],
      [
        "æ",
        "į"
      ],
      [
        "åĬ",
        "¨"
      ],
      [
        "ï¼",
        "Ł"
      ],
      [
        "ä½",
        "ľ"
      ],
      [
        "æ",
        "Į"
      ],
      [
        "çī",
        "©"
      ],
      [
        "å·",
        "¥"
      ],
      [
        "ç",
        "º"
      ],
      [
        "åħ",
        "³"
      ],
      [
        "è",
        "¾"
      ],
      [
        "å¹",
        "¶"
      ],
      [
        "åı",
        "ĳ"
      ],
      [
        "ç",
        "®"
      ],
      [
        "æ",
        "´"
      ],
      [
        "ç",
        "±"
      ],
      [
        "é",
        "£"
      ],
      [
        "é",
        "ľ"
      ],
      [
        "éĿ",
        "¢"
      ],
      [
        "æŀ",
        "ľ"
      ],
      [
        "æ",
        "¸"
      ],
      [
        "å®",
        "ļ"
      ],
      [
        "æľ",
        "Ģ"
      ],
      [
        "åħ",
        "¶"
      ],
      [
        "æ",
        "¬"
      ],
      [
        "å",
        "Ł"
      ],
      [
        "ç§",
        "į"
      ],
      [
        "æ",
        "²"
      ],
      [
        "æ³",
        "ķ"
      ],
      [
        "çİ",
        "°"
      ],
      [
        "è¿",
        "Ľ"
      ],
      [
        "é",
        "Ļ"
      ],
      [
        "æ",
        "Ĥ"
      ],
      [
        "è¿",
        "ĩ"
      ],
      [
        "éĹ",
        "®"
      ],
      [
        "å",
        "ģ"
      ],
      [
        "ä½",
        "ĵ"
      ],
      [
        "å¤",
        "©"
      ],
      [
        "å®",
        "ĥ"
      ],
      [
        "è",
        "ī"
      ],
      [
        "æį",
        "®"
      ],
      [
        "ç»",
        "Ļ"
      ],
      [
        "åĬ",
        "Ľ"
      ],
      [
        "çĲ",
        "Ĩ"
      ],
      [
        "éľ",
        "Ģ"
      ],
      [
        "æĺ",
        "İ"
      ],
      [
        "å°",
        "Ĩ"
      ],
      [
        "æĢ",
        "§"
      ],
      [
        "åº",
        "Ķ"
      ],
      [
        "åĬ",
        "ł"
      ],
      [
        "ç",
        "ľ"
      ],
      [
        "ç±",
        "»"
      ],
      [
        "æĦ",
        "Ł"
      ],
      [
        "ç",
        "Ĥ"
      ],
      [
        "æĸ",
        "°"
      ],
      [
        "æķ",
        "°"
      ],
      [
        "æĥ",
        "ħ"
      ],
      [
        "é",
        "ģ"
      ],
      [
        "åĮ",
        "ĸ"
      ],
      [
        "ç",
        "Ħ"
      ],
      [
        "åĲ",
        "Į"
      ],
      [
        "é",
        "«"
      ],
      [
        "ä½",
        "¿"
      ],
      [
        "æĪ",
        "ĸ"
      ],
      [
        "åĽ",
        "ł"
      ],
      [
        "éĩ",
        "į"
      ],
      [
        "å¸",
        "¸"
      ],
      [
        "ä¿",
        "Ŀ"
      ],
      [
        "åı",
        "¥"
      ],
      [
        "é«",
        "ĺ"
      ],
      [
        "æ",
        "±"
      ],
      [
        "è",
        "½"
      ],
      [
        "ä¹",
        "Ł"
      ],
      [
        "æĬ",
        "Ģ"
      ],
      [
        "å®",
        "¶"
      ],
      [
        "æľ",
        "º"
      ],
      [
        "è",
        "¶"
      ],
      [
        "å½",
        "±"
      ],
      [
        "ä¸",
        "»"
      ],
      [
        "é",
        "Ķ"
      ],
      [
        "é",
        "ĺ"
      ],
      [
        "è¯",
        "Ń"
      ],
      [
        "ç",
        "³"
      ],
      [
        "çĦ",
        "¶"
      ],
      [
        "ç«",
        "ł"
      ],
      [
        "âĢ",
        "Ŀ"
      ],
      [
        "æĻ",
        "º"
      ],
      [
        "å¾",
        "Ĺ"
      ],
      [
        "éĢ",
        "ļ"
      ],
      [
        "ç",
        "Ł"
      ],
      [
        "âĢ",
        "ľ"
      ],
      [
        "åĵ",
        "ģ"
      ],
      [
        "ç",
        "¾"
      ],
      [
        "çĶ",
        "µ"
      ],
      [
        "è",
        "°"
      ],
      [
        "è§",
        "£"
      ],
      [
        "ä¹",
        "ĭ"
      ],
      [
        "ä¹",
        "Ī"
      ],
      [
        "æ",
        "ģ"
      ],
      [
        "åº",
        "¦"
      ],
      [
        "ç",
        "Ŀ"
      ],
      [
        "æĤ",
        "¨"
      ],
      [
        "èĢ",
        "Į"
      ],
      [
        "è¡",
        "¨"
      ],
      [
        "å",
        "ī"
      ],
      [
        "ç",
        "¤"
      ],
      [
        "ç»",
        "ı"
      ],
      [
        "è¯",
        "·"
      ],
      [
        "æĦ",
        "ı"
      ],
      [
        "å¾",
        "Ī"
      ],
      [
        "éĹ",
        "´"
      ],
      [
        "ç",
        "©"
      ],
      [
        "æŃ",
        "¤"
      ],
      [
        "è",
        "Ĭ"
      ],
      [
        "å",
        "ĸ"
      ],
      [
        "æ°",
        "Ķ"
      ],
      [
        "å",
        "¢"
      ],
      [
        "åħ",
        "¬"
      ],
      [
        "çĤ",
        "¹"
      ],
      [
        "éĩ",
        "ı"
      ],
      [
        "åĽ",
        "½"
      ],
      [
        "æľ",
        "¯"
      ],
      [
        "èī",
        "²"
      ],
      [
        "ç",
        "¨"
      ],
      [
        "è",
        "Ĥ"
      ],
      [
        "è¯",
        "į"
      ],
      [
        "èĢ",
        "ħ"
      ],
      [
        "å¹",
        "´"
      ],
      [
        "å",
        "»"
      ],
      [
        "å®",
        "ŀ"
      ],
      [
        "ç¾",
        "İ"
      ],
      [
        "å",
        "Ģ"
      ],
      [
        "åı",
        "ĸ"
      ],
      [
        "å¿",
        "ĥ"
      ],
      [
        "ä¿",
        "¡"
      ],
      [
        "ä¹",
        "ł"
      ],
      [
        "æ",
        "®"
      ],
      [
        "åĲ",
        "į"
      ],
      [
        "ä½",
        "Ĩ"
      ],
      [
        "ç",
        "ĸ"
      ],
      [
        "åĲ",
        "Ī"
      ],
      [
        "æī",
        "Ģ"
      ],
      [
        "è¯",
        "¥"
      ],
      [
        "ä¸",
        "ļ"
      ],
      [
        "ä¾",
        "Ľ"
      ],
      [
        "ç",
        "¡"
      ],
      [
        "è®",
        "¡"
      ],
      [
        "æ´",
        "»"
      ],
      [
        "åĲ",
        "İ"
      ],
      [
        "é",
        "Ĥ"
      ],
      [
        "äº",
        "ĭ"
      ],
      [
        "ä»",
        "İ"
      ],
      [
        "å»",
        "º"
      ],
      [
        "è¿",
        "ĺ"
      ],
      [
        "çĽ",
        "¸"
      ],
      [
        "çĿ",
        "Ģ"
      ],
      [
        "çĲ",
        "ĥ"
      ],
      [
        "é",
        "ĥ½"
      ],
      [
        "æ",
        "Ł"
      ],
      [
        "æ°",
        "´"
      ],
      [
        "ç",
        "½"
      ],
      [
        "åĮ",
        "ħ"
      ],
      [
        "æł",
        "¹"
      ],
      [
        "ä¸",
        "İ"
      ],
      [
        "æĥ",
        "³"
      ],
      [
        "æ®",
        "µ"
      ],
      [
        "é£",
        "Ł"
      ],
      [
        "å¼",
        "ı"
      ],
      [
        "ç",
        "ķ"
      ],
      [
        "ç",
        "´"
      ],
      [
        "åħ",
        "¥"
      ],
      [
        "åħ",
        "¨"
      ],
      [
        "è¿",
        "°"
      ],
      [
        "å±",
        "ķ"
      ],
      [
        "éĩ",
        "Į"
      ],
      [
        "æ¯",
        "Ķ"
      ],
      [
        "æ",
        "·"
      ],
      [
        "é",
        "¡"
      ],
      [
        "å¤",
        "ĸ"
      ],
      [
        "æŃ",
        "£"
      ],
      [
        "çİ",
        "¯"
      ],
      [
        "çī",
        "¹"
      ],
      [
        "è",
        "Ĳ"
      ],
      [
        "é",
        "¦"
      ],
      [
        "ç",
        "¯"
      ],
      [
        "éĿ",
        "ŀ"
      ],
      [
        "æ",
        "¡"
      ],
      [
        "åĨ",
        "ħ"
      ],
      [
        "åİ",
        "»"
      ],
      [
        "å¼",
        "Ģ"
      ],
      [
        "å½",
        "ĵ"
      ],
      [
        "è",
        "¢"
      ],
      [
        "é",
        "ķ"
      ],
      [
        "é",
        "ļ"
      ],
      [
        "åĨ",
        "Ļ"
      ],
      [
        "åı",
        "ĺ"
      ],
      [
        "ç¨",
        "ĭ"
      ],
      [
        "æģ",
        "¯"
      ],
      [
        "ç³",
        "»"
      ],
      [
        "ç",
        "ĥ"
      ],
      [
        "å",
        "ŀ"
      ],
      [
        "é",
        "ĥ"
      ],
      [
        "ç¡",
        "®"
      ],
      [
        "è",
        "·"
      ],
      [
        "è¯",
        "´"
      ],
      [
        "è",
        "ģ"
      ],
      [
        "åĬ",
        "©"
      ],
      [
        "ç",
        "¼"
      ],
      [
        "åħ",
        "·"
      ],
      [
        "åĪ",
        "¶"
      ],
      [
        "ç",
        "¬"
      ],
      [
        "è®",
        "©"
      ],
      [
        "çľ",
        "ĭ"
      ],
      [
        "ä»",
        "Ģ"
      ],
      [
        "å¸",
        "Ĥ"
      ],
      [
        "æĮ",
        "ģ"
      ],
      [
        "é",
        "Ľ"
      ],
      [
        "éģ",
        "ĵ"
      ],
      [
        "å",
        "Ŀ"
      ],
      [
        "ç¯",
        "ĩ"
      ],
      [
        "ç",
        "ĭ"
      ],
      [
        "äº",
        "§"
      ],
      [
        "ç",
        "ł"
      ],
      [
        "èµ",
        "·"
      ],
      [
        "ç»",
        "ĵ"
      ],
      [
        "å",
        "ķ"
      ],
      [
        "å¸",
        "®"
      ],
      [
        "è",
        "º"
      ],
      [
        "æ¯",
        "ı"
      ],
      [
        "åı",
        "Ĭ"
      ],
      [
        "è¯",
        "Ŀ"
      ],
      [
        "éĥ",
        "¨"
      ],
      [
        "éĤ",
        "£"
      ],
      [
        "çĽ",
        "®"
      ],
      [
        "è",
        "ĭ"
      ],
      [
        "ä½",
        "ķ"
      ],
      [
        "éķ",
        "¿"
      ],
      [
        "è",
        "į"
      ],
      [
        "ç",
        "Ī"
      ],
      [
        "ç®",
        "Ĺ"
      ],
      [
        "åĬ",
        "¡"
      ],
      [
        "èº",
        "«"
      ],
      [
        "åģ",
        "¥"
      ],
      [
        "å",
        "Ļ"
      ],
      [
        "è¢",
        "«"
      ],
      [
        "å·",
        "±"
      ],
      [
        "æĹ",
        "¥"
      ],
      [
        "å°",
        "ĳ"
      ],
      [
        "ç§",
        "ĳ"
      ],
      [
        "éĢ",
        "Ĥ"
      ],
      [
        "åī",
        "į"
      ],
      [
        "é",
        "ħ"
      ],
      [
        "æĭ",
        "¬"
      ],
      [
        "åĸ",
        "ľ"
      ],
      [
        "åľ",
        "º"
      ],
      [
        "åı",
        "Ĺ"
      ],
      [
        "å®",
        "¹"
      ],
      [
        "æĹ",
        "ł"
      ],
      [
        "æ¬",
        "¢"
      ],
      [
        "åĽ",
        "ŀ"
      ],
      [
        "åĻ",
        "¨"
      ],
      [
        "æ",
        "¶"
      ],
      [
        "éĢ",
        "ī"
      ],
      [
        "æī",
        "ĭ"
      ],
      [
        "åĮ",
        "»"
      ],
      [
        "äº",
        "¤"
      ],
      [
        "æł",
        "ĩ"
      ],
      [
        "ä»",
        "£"
      ],
      [
        "åŀ",
        "ĭ"
      ],
      [
        "ç",
        "Ĺ"
      ],
      [
        "åĪ",
        "«"
      ],
      [
        "è",
        "Ļ"
      ],
      [
        "é¢",
        "Ĩ"
      ],
      [
        "å¤",
        "Ħ"
      ],
      [
        "é",
        "¥"
      ],
      [
        "é",
        "ª"
      ],
      [
        "æ",
        "»"
      ],
      [
        "çŃ",
        "Ķ"
      ],
      [
        "è",
        "¨"
      ],
      [
        "åĪ",
        "©"
      ],
      [
        "è´",
        "¨"
      ],
      [
        "ä½",
        "į"
      ],
      [
        "æ¡",
        "Ī"
      ],
      [
        "è®",
        "®"
      ],
      [
        "ä¸",
        "¤"
      ],
      [
        "å¢",
        "ĥ"
      ],
      [
        "å¹",
        "³"
      ],
      [
        "é£",
        "İ"
      ],
      [
        "æ",
        "ĳ"
      ],
      [
        "ç",
        "ģ"
      ],
      [
        "æİ",
        "¨"
      ],
      [
        "å",
        "§"
      ],
      [
        "ä¾",
        "ĭ"
      ],
      [
        "ç",
        "Ļ"
      ],
      [
        "ä»",
        "»"
      ],
      [
        "é",
        "Ł"
      ],
      [
        "æ¸",
        "¸"
      ],
      [
        "åĵ",
        "į"
      ],
      [
        "çŁ",
        "¥"
      ],
      [
        "ä»",
        "¶"
      ],
      [
        "æµ",
        "·"
      ],
      [
        "è®",
        "º"
      ],
      [
        "æĢ",
        "»"
      ],
      [
        "ç¤",
        "¾"
      ],
      [
        "åŃ",
        "Ĺ"
      ],
      [
        "æı",
        "ı"
      ],
      [
        "æĶ",
        "¹"
      ],
      [
        "ç",
        "¥"
      ],
      [
        "åŁ",
        "Ł"
      ],
      [
        "åı",
        "¸"
      ],
      [
        "è¨",
        "Ģ"
      ],
      [
        "å°",
        "±"
      ],
      [
        "æķ",
        "Ī"
      ],
      [
        "æ±",
        "Ĥ"
      ],
      [
        "æĶ",
        "¾"
      ],
      [
        "æ²",
        "¡"
      ],
      [
        "åį",
        "ķ"
      ],
      [
        "ç®",
        "Ģ"
      ],
      [
        "åĪ",
        "Ľ"
      ],
      [
        "è§",
        "Ĥ"
      ],
      [
        "åĨ",
        "³"
      ],
      [
        "è",
        "Ī"
      ],
      [
        "è®",
        "¾"
      ],
      [
        "æ",
        "¨"
      ],
      [
        "åı",
        "ª"
      ],
      [
        "æľ",
        "ª"
      ],
      [
        "ä¸",
        "ī"
      ],
      [
        "åº",
        "·"
      ],
      [
        "æ",
        "¼"
      ],
      [
        "ç»",
        "Ł"
      ],
      [
        "å",
        "£"
      ],
      [
        "æ",
        "º"
      ],
      [
        "é",
        "»"
      ],
      [
        "æľ",
        "Ł"
      ],
      [
        "è¯",
        "Ĩ"
      ],
[...]
