{
  "version": "1.0",
  "truncation": null,
  "padding": null,
  "added_tokens": [
    {
      "id": 0,
      "content": "<unk>",
      "single_word": false,
      "lstrip": false,
      "rstrip": false,
      "normalized": false,
      "special": true
    },
    {
      "id": 1,
      "content": "<s>",
      "single_word": false,
      "lstrip": false,
      "rstrip": false,
      "normalized": false,
      "special": true
    },
    {
      "id": 2,
      "content": "</s>",
      "single_word": false,
      "lstrip": false,
      "rstrip": false,
      "normalized": false,
      "special": true
    },
    {
      "id": 3,
      "content": "<|im_start|>",
      "single_word": false,
      "lstrip": false,
      "rstrip": false,
      "normalized": false,
      "special": true
    },
    {
      "id": 4,
      "content": "<|im_end|>",
      "single_word": false,
      "lstrip": false,
      "rstrip": false,
      "normalized": false,
      "special": true
    },
    {
      "id": 5,
      "content": "<|pad|>",
      "single_word": false,
      "lstrip": false,
      "rstrip": false,
      "normalized": false,
      "special": true
    },
    {
      "id": 6,
      "content": "<mask>",
      "single_word": false,
      "lstrip": false,
      "rstrip": false,
      "normalized": false,
      "special": true
    },
    {
      "id": 7,
      "content": "<|system|>",
      "single_word": false,
      "lstrip": false,
      "rstrip": false,
      "normalized": false,
      "special": true
    },
    {
      "id": 8,
      "content": "<|user|>",
      "single_word": false,
      "lstrip": false,
      "rstrip": false,
      "normalized": false,
      "special": true
    },
    {
      "id": 9,
      "content": "<|assistant|>",
      "single_word": false,
      "lstrip": false,
      "rstrip": false,
      "normalized": false,
      "special": true
    },
    {
      "id": 10,
      "content": "<|tool|>",
      "single_word": false,
      "lstrip": false,
      "rstrip": false,
      "normalized": false,
      "special": true
    },
    {
      "id": 11,
      "content": "<|function|>",
      "single_word": false,
      "lstrip": false,
      "rstrip": false,
      "normalized": false,
      "special": true
    },
    {
      "id": 12,
      "content": "<|observation|>",
      "single_word": false,
      "lstrip": false,
      "rstrip": false,
      "normalized": false,
      "special": true
    },
    {
      "id": 13,
      "content": "<|unknown|>",
      "single_word": false,
      "lstrip": false,
      "rstrip": false,
      "normalized": false,
      "special": true
    },
    {
      "id": 14,
      "content": "<|safe|>",
      "single_word": false,
      "lstrip": false,
      "rstrip": false,
      "normalized": false,
      "special": true
    },
    {
      "id": 15,
      "content": "<|unsafe|>",
      "single_word": false,
      "lstrip": false,
      "rstrip": false,
      "normalized": false,
      "special": true
    }
  ],
  "normalizer": {
    "type": "Sequence",
    "normalizers": [
      {
        "type": "NFC"
      },
      {
        "type": "Replace",
        "pattern": {
          "Regex": "\\r\\n?"
        },
        "content": "\n"
      },
      {
        "type": "Replace",
        "pattern": {
          "Regex": "[\\u0000-\\u0008\\u000B\\u000C\\u000E-\\u001F\\u007F]"
        },
        "content": ""
      },
      {
        "type": "Replace",
        "pattern": {
          "Regex": "[\\u2066-\\u2069]"
        },
        "content": ""
      },
      {
        "type": "Replace",
        "pattern": {
          "Regex": "[\\u3000\\u00A0\\u2007\\u202F]"
        },
        "content": " "
      },
      {
        "type": "Replace",
        "pattern": {
          "Regex": "[ ]{2,}"
        },
        "content": " "
      },
      {
        "type": "Replace",
        "pattern": {
          "Regex": "\\n{3,}"
        },
        "content": "\n\n"
      },
      {
        "type": "Replace",
        "pattern": {
          "Regex": "^[ \\t]+"
        },
        "content": ""
      },
      {
        "type": "Replace",
        "pattern": {
          "Regex": "[ \\t]+$"
        },
        "content": ""
      }
    ]
  },
  "pre_tokenizer": {
    "type": "Sequence",
    "pretokenizers": [
      {
        "type": "Split",
        "pattern": {
          "Regex": "([rubf]*(['\\\"]{3}.*?['\\\"]{3}|['\\\"].*?['\\\"]))"
        },
        "behavior": "Isolated",
        "invert": false
      },
      {
        "type": "Split",
        "pattern": {
          "Regex": "(#.*|//.*|/\\*[\\s\\S]*?\\*/)"
        },
        "behavior": "Isolated",
        "invert": false
      },
      {
        "type": "Split",
        "pattern": {
          "Regex": "https?://[^\\s]+"
        },
        "behavior": "Isolated",
        "invert": false
      },
      {
        "type": "Split",
        "pattern": {
          "Regex": "\\d+([._]\\d+)*([eE][+-]?\\d+)?"
        },
        "behavior": "Isolated",
        "invert": false
      },
      {
        "type": "Split",
        "pattern": {
          "Regex": "(===|!==|==|!=|<=|>=|\\+\\+|--|&&|\\|\\||->|=>|::|\\?\\?|\\.?)"
        },
        "behavior": "Isolated",
        "invert": false
      },
      {
        "type": "Punctuation",
        "behavior": "Isolated"
      },
      {
        "type": "Split",
        "pattern": {
          "Regex": "(\\p{Extended_Pictographic}(?:\\u200D\\p{Extended_Pictographic})*)"
        },
        "behavior": "Isolated",
        "invert": false
      },
      {
        "type": "Split",
        "pattern": {
          "Regex": "[\\p{L}_][\\p{L}\\p{N}_]*"
        },
        "behavior": "Isolated",
        "invert": false
      },
      {
        "type": "UnicodeScripts"
      },
      {
        "type": "ByteLevel",
        "add_prefix_space": false,
        "trim_offsets": true,
        "use_regex": true
      }
    ]
  },
  "post_processor": {
    "type": "TemplateProcessing",
    "single": [
      {
        "Sequence": {
          "id": "A",
          "type_id": 0
        }
      }
    ],
    "pair": [
      {
        "Sequence": {
          "id": "A",
          "type_id": 0
        }
      },
      {
        "Sequence": {
          "id": "B",
          "type_id": 0
        }
      }
    ],
    "special_tokens": {
      "</s>": {
        "id": "</s>",
        "ids": [
          2
        ],
        "tokens": [
          "</s>"
        ]
      },
      "<mask>": {
        "id": "<mask>",
        "ids": [
          6
        ],
        "tokens": [
          "<mask>"
        ]
      },
      "<s>": {
        "id": "<s>",
        "ids": [
          1
        ],
        "tokens": [
          "<s>"
        ]
      },
      "<unk>": {
        "id": "<unk>",
        "ids": [
          0
        ],
        "tokens": [
          "<unk>"
        ]
      },
      "<|assistant|>": {
        "id": "<|assistant|>",
        "ids": [
          9
        ],
        "tokens": [
          "<|assistant|>"
        ]
      },
      "<|function|>": {
        "id": "<|function|>",
        "ids": [
          11
        ],
        "tokens": [
          "<|function|>"
        ]
      },
      "<|im_end|>": {
        "id": "<|im_end|>",
        "ids": [
          4
        ],
        "tokens": [
          "<|im_end|>"
        ]
      },
      "<|im_start|>": {
        "id": "<|im_start|>",
        "ids": [
          3
        ],
        "tokens": [
          "<|im_start|>"
        ]
      },
      "<|observation|>": {
        "id": "<|observation|>",
        "ids": [
          12
        ],
        "tokens": [
          "<|observation|>"
        ]
      },
      "<|pad|>": {
        "id": "<|pad|>",
        "ids": [
          5
        ],
        "tokens": [
          "<|pad|>"
        ]
      },
      "<|safe|>": {
        "id": "<|safe|>",
        "ids": [
          14
        ],
        "tokens": [
          "<|safe|>"
        ]
      },
      "<|system|>": {
        "id": "<|system|>",
        "ids": [
          7
        ],
        "tokens": [
          "<|system|>"
        ]
      },
      "<|tool|>": {
        "id": "<|tool|>",
        "ids": [
          10
        ],
        "tokens": [
          "<|tool|>"
        ]
      },
      "<|unknown|>": {
        "id": "<|unknown|>",
        "ids": [
          13
        ],
        "tokens": [
          "<|unknown|>"
        ]
      },
      "<|unsafe|>": {
        "id": "<|unsafe|>",
        "ids": [
          15
        ],
        "tokens": [
          "<|unsafe|>"
        ]
      },
      "<|user|>": {
        "id": "<|user|>",
        "ids": [
          8
        ],
        "tokens": [
          "<|user|>"
        ]
      }
    }
  },
  "decoder": {
    "type": "ByteLevel",
    "add_prefix_space": true,
    "trim_offsets": true,
    "use_regex": true
  },
  "model": {
    "type": "BPE",
    "dropout": null,
    "unk_token": "<unk>",
    "continuing_subword_prefix": "",
    "end_of_word_suffix": "",
    "fuse_unk": true,
    "byte_fallback": true,
    "ignore_merges": false,
    "vocab": {
      "<unk>": 0,
      "<s>": 1,
      "</s>": 2,
      "<|im_start|>": 3,
      "<|im_end|>": 4,
      "<|pad|>": 5,
      "<mask>": 6,
      "<|system|>": 7,
      "<|user|>": 8,
      "<|assistant|>": 9,
      "<|tool|>": 10,
      "<|function|>": 11,
      "<|observation|>": 12,
      "<|unknown|>": 13,
      "<|safe|>": 14,
      "<|unsafe|>": 15,
      "!": 16,
      "\"": 17,
      "#": 18,
      "$": 19,
      "%": 20,
      "&": 21,
      "'": 22,
      "(": 23,
      ")": 24,
      "*": 25,
      "+": 26,
      ",": 27,
      "-": 28,
      ".": 29,
      "/": 30,
      "0": 31,
      "1": 32,
      "2": 33,
      "3": 34,
      "4": 35,
      "5": 36,
      "6": 37,
      "7": 38,
      "8": 39,
      "9": 40,
      ":": 41,
      ";": 42,
      "<": 43,
      "=": 44,
      ">": 45,
      "?": 46,
      "@": 47,
      "A": 48,
      "B": 49,
      "C": 50,
      "D": 51,
      "E": 52,
      "F": 53,
      "G": 54,
      "H": 55,
      "I": 56,
      "J": 57,
      "K": 58,
      "L": 59,
      "M": 60,
      "N": 61,
      "O": 62,
      "P": 63,
      "Q": 64,
      "R": 65,
      "S": 66,
      "T": 67,
      "U": 68,
      "V": 69,
      "W": 70,
      "X": 71,
      "Y": 72,
      "Z": 73,
      "[": 74,
      "\\": 75,
      "]": 76,
      "^": 77,
      "_": 78,
      "`": 79,
      "a": 80,
      "b": 81,
      "c": 82,
      "d": 83,
      "e": 84,
      "f": 85,
      "g": 86,
      "h": 87,
      "i": 88,
      "j": 89,
      "k": 90,
      "l": 91,
      "m": 92,
      "n": 93,
      "o": 94,
      "p": 95,
      "q": 96,
      "r": 97,
      "s": 98,
      "t": 99,
      "u": 100,
      "v": 101,
      "w": 102,
      "x": 103,
      "y": 104,
      "z": 105,
      "{": 106,
      "|": 107,
      "}": 108,
      "~": 109,
      "¡": 110,
      "¢": 111,
      "£": 112,
      "¤": 113,
      "¥": 114,
      "¦": 115,
      "§": 116,
      "¨": 117,
      "©": 118,
      "ª": 119,
      "«": 120,
      "¬": 121,
      "®": 122,
      "¯": 123,
      "°": 124,
      "±": 125,
      "²": 126,
      "³": 127,
      "´": 128,
      "µ": 129,
      "¶": 130,
      "·": 131,
      "¸": 132,
      "¹": 133,
      "º": 134,
      "»": 135,
      "¼": 136,
      "½": 137,
      "¾": 138,
      "¿": 139,
      "À": 140,
      "Á": 141,
      "Â": 142,
      "Ã": 143,
      "Ä": 144,
      "Å": 145,
      "Æ": 146,
      "Ç": 147,
      "È": 148,
      "É": 149,
      "Ê": 150,
      "Ë": 151,
      "Ì": 152,
      "Í": 153,
      "Î": 154,
      "Ï": 155,
      "Ð": 156,
      "Ñ": 157,
      "Ò": 158,
      "Ó": 159,
      "Ô": 160,
      "Õ": 161,
      "Ö": 162,
      "×": 163,
      "Ø": 164,
      "Ù": 165,
      "Ú": 166,
      "Û": 167,
      "Ü": 168,
      "Ý": 169,
      "Þ": 170,
      "ß": 171,
      "à": 172,
      "á": 173,
      "â": 174,
      "ã": 175,
      "ä": 176,
      "å": 177,
      "æ": 178,
      "ç": 179,
      "è": 180,
      "é": 181,
      "ê": 182,
      "ë": 183,
      "ì": 184,
      "í": 185,
      "î": 186,
      "ï": 187,
      "ð": 188,
      "ñ": 189,
      "ò": 190,
      "ó": 191,
      "ô": 192,
      "õ": 193,
      "ö": 194,
      "÷": 195,
      "ø": 196,
      "ù": 197,
      "ú": 198,
      "û": 199,
      "ü": 200,
      "ý": 201,
      "þ": 202,
      "ÿ": 203,
      "Ā": 204,
      "ā": 205,
      "Ă": 206,
      "ă": 207,
      "Ą": 208,
      "ą": 209,
      "Ć": 210,
      "ć": 211,
      "Ĉ": 212,
      "ĉ": 213,
      "Ċ": 214,
      "ċ": 215,
      "Č": 216,
      "č": 217,
      "Ď": 218,
      "ď": 219,
      "Đ": 220,
      "đ": 221,
      "Ē": 222,
      "ē": 223,
      "Ĕ": 224,
      "ĕ": 225,
      "Ė": 226,
      "ė": 227,
      "Ę": 228,
      "ę": 229,
      "Ě": 230,
      "ě": 231,
      "Ĝ": 232,
      "ĝ": 233,
      "Ğ": 234,
      "ğ": 235,
      "Ġ": 236,
      "ġ": 237,
      "Ģ": 238,
      "ģ": 239,
      "Ĥ": 240,
      "ĥ": 241,
      "Ħ": 242,
      "ħ": 243,
      "Ĩ": 244,
      "ĩ": 245,
      "Ī": 246,
      "ī": 247,
      "Ĭ": 248,
      "ĭ": 249,
      "Į": 250,
      "į": 251,
      "İ": 252,
      "ı": 253,
      "Ĳ": 254,
      "ĳ": 255,
      "Ĵ": 256,
      "ĵ": 257,
      "Ķ": 258,
      "ķ": 259,
      "ĸ": 260,
      "Ĺ": 261,
      "ĺ": 262,
      "Ļ": 263,
      "ļ": 264,
      "Ľ": 265,
      "ľ": 266,
      "Ŀ": 267,
      "ŀ": 268,
      "Ł": 269,
      "ł": 270,
      "Ń": 271,
      "ä¸": 272,
      "ï¼": 273,
      "çļ": 274,
      "çļĦ": 275,
      "ï¼Į": 276,
      "ãĢ": 277,
      "ãĢĤ": 278,
      "äº": 279,
      "ä»": 280,
      "åı": 281,
      "æľ": 282,
      "è¿": 283,
      "æĪ": 284,
      "åħ": 285,
      "ä½": 286,
      "æĺ": 287,
      "å¤": 288,
      "è¯": 289,
      "ä¸Ģ": 290,
      "æĸ": 291,
      "å®": 292,
      "çĶ": 293,
      "åĪ": 294,
      "åĴ": 295,
      "åľ": 296,
      "åĴĮ": 297,
      "åĲ": 298,
      "åĬ": 299,
      "ç»": 300,
      "ä¹": 301,
      "æĺ¯": 302,
      "å°": 303,
      "åŃ": 304,
      "ä¸ª": 305,
      "ä»¥": 306,
      "è®": 307,
      "ãĢģ": 308,
      "æĪĳ": 309,
      "åľ¨": 310,
      "äºº": 311,
      "ĥ½": 312,
      "æľī": 313,
      "æĹ": 314,
      "ï¼ļ": 315,
      "äºĨ": 316,
      "åı¯": 317,
      "è¿Ļ": 318,
      "åĽ": 319,
      "æĿ": 320,
      "åº": 321,
      "éĩ": 322,
      "å¸": 323,
      "å¹": 324,
      "ä¸Ń": 325,
      "ä¼": 326,
      "éĢ": 327,
      "è¡": 328,
      "èĥ½": 329,
      "åĩ": 330,
      "å·": 331,
      "æĸĩ": 332,
      "åĮ": 333,
      "è¦": 334,
      "è¦ģ": 335,
      "é¢": 336,
      "å¯": 337,
      "å¾": 338,
      "åĨ": 339,
      "æķ": 340,
      "ä¸º": 341,
      "è§": 342,
      "å¥": 343,
      "çī": 344,
      "ç§": 345,
      "ä»¬": 346,
      "éĹ": 347,
      "çİ": 348,
      "æĢ": 349,
      "å¼": 350,
      "ä¸į": 351,
      "çĶ¨": 352,
      "æī": 353,
      "æŃ": 354,
      "æŀ": 355,
      "èĢ": 356,
      "æı": 357,
      "å½": 358,
      "çĶŁ": 359,
      "çŃ": 360,
      "æĬ": 361,
      "æł": 362,
      "éĿ": 363,
      "åį": 364,
      "ä¿": 365,
      "æĦ": 366,
      "æ³": 367,
      "æĥ": 368,
      "çĽ": 369,
      "âĢ": 370,
      "æĿ¥": 371,
      "èĩ": 372,
      "æ°": 373,
      "åĵ": 374,
      "å¦": 375,
      "ä¸ĭ": 376,
      "çĲ": 377,
      "æĻ": 378,
      "æĪĲ": 379,
      "æıĲ": 380,
      "åİ": 381,
      "æĽ": 382,
      "åĪ°": 383,
      "ä»ĸ": 384,
      "åŃ¦": 385,
      "å¦Ĥ": 386,
      "æİ": 387,
      "è¡Į": 388,
      "åĩº": 389,
      "æĭ": 390,
      "åĳ": 391,
      "å¿": 392,
      "æĹ¶": 393,
      "å¯¹": 394,
      "ä½ł": 395,
      "æĶ": 396,
      "åŃĲ": 397,
      "ä¾": 398,
      "äºİ": 399,
      "åľ°": 400,
      "é¢ĺ": 401,
      "ä¸Ĭ": 402,
      "ç«": 403,
      "æµ": 404,
      "è´": 405,
      "å°ı": 406,
      "å¥½": 407,
      "æ¯": 408,
      "ä¼ļ": 409,
      "çŃī": 410,
      "æĸ¹": 411,
      "æľ¬": 412,
      "æĽ´": 413,
      "èĩª": 414,
      "åĪĨ": 415,
      "äºĽ": 416,
      "å¤ļ": 417,
      "èµ": 418,
      "å¤§": 419,
      "å±": 420,
      "æį": 421,
      "åĬ¨": 422,
      "ï¼Ł": 423,
      "ä½ľ": 424,
      "æĮ": 425,
      "å·¥": 426,
      "çī©": 427,
      "çº": 428,
      "åħ³": 429,
      "è¾": 430,
      "å¹¶": 431,
      "åıĳ": 432,
      "ç®": 433,
      "æ´": 434,
      "ç±": 435,
      "é£": 436,
      "éľ": 437,
      "éĿ¢": 438,
      "å®ļ": 439,
      "æ¸": 440,
      "æŀľ": 441,
      "æľĢ": 442,
      "åħ¶": 443,
      "æ¬": 444,
      "åŁ": 445,
      "ç§į": 446,
      "æ²": 447,
      "æ³ķ": 448,
      "çİ°": 449,
      "æĤ": 450,
      "è¿Ľ": 451,
      "éĻ": 452,
      "è¿ĩ": 453,
      "åģ": 454,
      "éĹ®": 455,
      "èī": 456,
      "ä½ĵ": 457,
      "å¤©": 458,
      "å®ĥ": 459,
      "æį®": 460,
      "ç»Ļ": 461,
      "çĲĨ": 462,
      "åĬĽ": 463,
      "æĺİ": 464,
      "éľĢ": 465,
      "å°Ĩ": 466,
      "åºĶ": 467,
      "åĬł": 468,
      "æĢ§": 469,
      "çľ": 470,
      "ç±»": 471,
      "æĦŁ": 472,
      "æĸ°": 473,
      "çĤ": 474,
      "æķ°": 475,
      "æĥħ": 476,
      "éģ": 477,
      "åĮĸ": 478,
      "çĦ": 479,
      "åĲĮ": 480,
      "é«": 481,
      "æĪĸ": 482,
      "ä½¿": 483,
      "ä¿Ŀ": 484,
      "å¸¸": 485,
      "åĽł": 486,
      "éĩį": 487,
      "åı¥": 488,
      "é«ĺ": 489,
      "æ±": 490,
      "è½": 491,
      "å®¶": 492,
      "ä¹Ł": 493,
      "æĬĢ": 494,
      "æľº": 495,
      "å½±": 496,
      "è¶": 497,
      "ä¸»": 498,
      "éĶ": 499,
      "éĺ": 500,
      "è¯Ń": 501,
      "ç³": 502,
      "çĦ¶": 503,
      "ç«ł": 504,
      "æĻº": 505,
      "âĢĿ": 506,
      "å¾Ĺ": 507,
      "çŁ": 508,
      "éĢļ": 509,
      "åĵģ": 510,
      "âĢľ": 511,
      "ç¾": 512,
      "çĶµ": 513,
      "è°": 514,
      "è§£": 515,
      "æģ": 516,
      "ä¹ĭ": 517,
      "æĤ¨": 518,
      "ä¹Ī": 519,
      "çĿ": 520,
      "åº¦": 521,
      "ç¤": 522,
      "èĢĮ": 523,
      "åī": 524,
      "è¡¨": 525,
      "ç»ı": 526,
      "è¯·": 527,
      "æĦı": 528,
      "å¾Ī": 529,
      "ç©": 530,
      "éĹ´": 531,
      "èĬ": 532,
      "æŃ¤": 533,
      "åĸ": 534,
      "æ°Ķ": 535,
      "åħ¬": 536,
      "å¢": 537,
      "éĩı": 538,
      "çĤ¹": 539,
      "åĽ½": 540,
      "æľ¯": 541,
      "èī²": 542,
      "ç¨": 543,
      "èĤ": 544,
      "èĢħ": 545,
      "è¯į": 546,
      "å¹´": 547,
      "ç¾İ": 548,
      "å®ŀ": 549,
      "å»": 550,
      "åĢ": 551,
      "åıĸ": 552,
      "ä¿¡": 553,
      "ä¹ł": 554,
      "åĲį": 555,
      "å¿ĥ": 556,
      "æ®": 557,
      "çĸ": 558,
      "åĲĪ": 559,
      "ä½Ĩ": 560,
      "æīĢ": 561,
      "è¯¥": 562,
      "ä¸ļ": 563,
      "ä¾Ľ": 564,
      "æ´»": 565,
      "è®¡": 566,
      "ç¡": 567,
      "åĲİ": 568,
      "éĤ": 569,
      "äºĭ": 570,
      "ä»İ": 571,
      "è¿ĺ": 572,
      "å»º": 573,
      "çĽ¸": 574,
      "çĿĢ": 575,
      "æŁ": 576,
      "çĲĥ": 577,
      "éĥ½": 578,
      "åĮħ": 579,
      "ç½": 580,
      "æ°´": 581,
      "æł¹": 582,
      "ä¸İ": 583,
      "æĥ³": 584,
      "æ®µ": 585,
      "ç´": 586,
      "é£Ł": 587,
      "å¼ı": 588,
      "çķ": 589,
      "å±ķ": 590,
      "åħ¥": 591,
      "åħ¨": 592,
      "éĩĮ": 593,
      "è¿°": 594,
      "é¡": 595,
      "æ¯Ķ": 596,
      "æ·": 597,
      "å¤ĸ": 598,
      "çİ¯": 599,
      "æŃ£": 600,
      "ç¯": 601,
      "çī¹": 602,
      "èĲ": 603,
      "éĿŀ": 604,
      "æ¡": 605,
      "é¦": 606,
      "åĨħ": 607,
      "è¢": 608,
      "å½ĵ": 609,
      "å¼Ģ": 610,
      "éļ": 611,
      "éķ": 612,
      "åİ»": 613,
      "æģ¯": 614,
      "åıĺ": 615,
      "åĨĻ": 616,
      "ç¨ĭ": 617,
      "ç³»": 618,
      "åŀ": 619,
      "éĥ": 620,
      "çĥ": 621,
      "è·": 622,
      "ç¡®": 623,
      "åĬ©": 624,
      "èģ": 625,
      "è¯´": 626,
      "åĪ¶": 627,
      "åħ·": 628,
      "ç¼": 629,
      "è®©": 630,
      "ç¬": 631,
      "å¸Ĥ": 632,
      "çľĭ": 633,
      "ä»Ģ": 634,
      "éĽ": 635,
      "æĮģ": 636,
      "éģĵ": 637,
      "åĿ": 638,
      "ç¯ĩ": 639,
      "äº§": 640,
      "çĭ": 641,
      "èµ·": 642,
      "çł": 643,
      "ç»ĵ": 644,
      "åķ": 645,
      "å¸®": 646,
      "èº": 647,
      "åıĬ": 648,
      "æ¯ı": 649,
      "è¯Ŀ": 650,
      "éĤ£": 651,
      "éĥ¨": 652,
      "çĽ®": 653,
      "èĭ": 654,
      "ä½ķ": 655,
      "éķ¿": 656,
      "çĪ": 657,
      "èį": 658,
      "åĬ¡": 659,
      "ç®Ĺ": 660,
      "èº«": 661,
      "è¢«": 662,
      "åģ¥": 663,
      "ç§ĳ": 664,
      "æĹ¥": 665,
      "å·±": 666,
      "åĻ": 667,
      "å°ĳ": 668,
      "åīį": 669,
      "éħ": 670,
      "æĭ¬": 671,
      "éĢĤ": 672,
      "åĸľ": 673,
      "åľº": 674,
      "æ¬¢": 675,
      "åıĹ": 676,
      "å®¹": 677,
      "æĹł": 678,
      "åĽŀ": 679,
      "éĢī": 680,
      "æ¶": 681,
      "åĻ¨": 682,
      "æīĭ": 683,
      "åĮ»": 684,
      "äº¤": 685,
      "çĹ": 686,
      "ä»£": 687,
      "æłĩ": 688,
      "åŀĭ": 689,
      "åĪ«": 690,
      "é¢Ĩ": 691,
      "èĻ": 692,
      "å¤Ħ": 693,
      "è¨": 694,
      "æ»": 695,
      "çŃĶ": 696,
      "é¥": 697,
      "éª": 698,
      "åĪ©": 699,
      "ä½į": 700,
      "è´¨": 701,
      "æ¡Ī": 702,
      "è®®": 703,
      "é£İ": 704,
      "å¹³": 705,
      "å¢ĥ": 706,
      "ä¸¤": 707,
      "æĳ": 708,
      "å§": 709,
      "çģ": 710,
      "ä¾ĭ": 711,
      "æİ¨": 712,
      "çĻ": 713,
      "æ¸¸": 714,
      "éŁ": 715,
      "ä»»": 716,
      "åĵį": 717,
      "ä»¶": 718,
      "çŁ¥": 719,
      "æĢ»": 720,
      "æµ·": 721,
      "ç¤¾": 722,
      "è®º": 723,
      "æıı": 724,
      "åŃĹ": 725,
      "æĶ¹": 726,
      "ç¥": 727,
      "åı¸": 728,
      "åŁŁ": 729,
      "è¨Ģ": 730,
      "æķĪ": 731,
      "å°±": 732,
      "æ±Ĥ": 733,
      "ç®Ģ": 734,
      "æĶ¾": 735,
      "åĪĽ": 736,
      "æ²¡": 737,
      "åĨ³": 738,
      "è§Ĥ": 739,
      "åįķ": 740,
      "èĪ": 741,
      "æ¨": 742,
      "åıª": 743,
      "è®¾": 744,
      "æľª": 745,
      "åº·": 746,
      "ç»Ł": 747,
      "ä¸ī": 748,
      "æ¼": 749,
      "æº": 750,
      "æľŁ": 751,
      "é»": 752,
      "å£": 753,
      "ä¹Ĳ": 754,
      "èĬĤ": 755,
      "è¯Ĩ": 756,
      "æ³¨": 757,
      "æ·±": 758,
      "æĻ¯": 759,
      "å¼º": 760,
      "èĥ": 761,
      "å¤Ł": 762,
      "æŀģ": 763,
      "æŃ¥": 764,
      "æĸŃ": 765,
      "åĩı": 766,
      "æµģ": 767,
      "å®ī": 768,
      "æł·": 769,
      "ç²": 770,
      "è¾¾": 771,
      "æľį": 772,
      "çĸĹ": 773,
      "çĶ±": 774,
      "è±": 775,
      "èĦ": 776,
      "æĺŁ": 777,
      "é©": 778,
      "éŁ³": 779,
      "å¤ª": 780,
      "çĮ": 781,
      "å½¢": 782,
      "åģļ": 783,
      "åİŁ": 784,
      "æ¨¡": 785,
      "ä¸ĸ": 786,
      "èİ": 787,
      "å·²": 788,
      "æ¬¡": 789,
      "è½¦": 790,
      "åıĭ": 791,
      "æĮĩ": 792,
      "å¸¦": 793,
      "çĪ±": 794,
      "æĪ·": 795,
      "å¯¼": 796,
      "è¿Ĳ": 797,
      "åĳĺ": 798,
      "çłĶ": 799,
      "éĴ": 800,
      "èı": 801,
      "æĸĻ": 802,
      "æĢĿ": 803,
      "éĶ®": 804,
      "è¯ķ": 805,
      "æī¾": 806,
      "åŁº": 807,
      "ç©º": 808,
      "ãĢĭ": 809,
      "ãĢĬ": 810,
      "è®¤": 811,
      "åİĨ": 812,
      "ä¹ī": 813,
      "åŁİ": 814,
      "å¥¹": 815,
      "æºĲ": 816,
      "ä¼ł": 817,
      "ç½ĳ": 818,
      "ç¤º": 819,
      "æĬ¤": 820,
      "æł¼": 821,
      "çĬ": 822,
      "åĲĦ": 823,
      "æĭ©": 824,
      "çķĮ": 825,
      "åĲĳ": 826,
      "éĢł": 827,
      "ç»Ħ": 828,
      "æĹħ": 829,
      "åħī": 830,
      "è¿ĳ": 831,
      "çĹħ": 832,
      "èĲ½": 833,
      "ç©¶": 834,
      "è£": 835,
      "è°ĥ": 836,
      "ï¼Ľ": 837,
      "åı£": 838,
      "è§Ĩ": 839,
      "åĳ³": 840,
      "èĢĥ": 841,
      "åĮº": 842,
      "çº¢": 843,
      "ä»·": 844,
      "åĲĹ": 845,
      "èĬ±": 846,
      "åĳĬ": 847,
      "çŁŃ": 848,
      "ç¦": 849,
      "é¤": 850,
      "å¿«": 851,
      "å¹¿": 852,
      "ç®¡": 853,
      "é¢Ħ": 854,
      "å¢ŀ": 855,
      "æ£": 856,
      "ï¼ī": 857,
      "åķĨ": 858,
      "éªĮ": 859,
      "æ¸ħ": 860,
      "é¤Ĳ": 861,
      "ä¹¦": 862,
      "ä¸Ķ": 863,
      "å®Į": 864,
      "åĩĨ": 865,
      "æķĻ": 866,
      "é¦ĸ": 867,
      "åĩł": 868,
      "æ¸©": 869,
      "å®¢": 870,
      "éĶĻ": 871,
      "é¡¹": 872,
      "éĵ": 873,
      "ä¼ĺ": 874,
      "æļ": 875,
      "è¶Ĭ": 876,
      "é¸": 877,
      "æĢģ": 878,
      "ç´ł": 879,
      "å¼ķ": 880,
      "è¯Ħ": 881,
      "éĩĳ": 882,
      "è®¸": 883,
      "åħĪ": 884,
      "åĬŁ": 885,
      "æķħ": 886,
      "æİ¥": 887,
      "ç¼ĸ": 888,
      "å¤ĩ": 889,
      "è½»": 890,
      "æĶ¯": 891,
      "ç¬¬": 892,
      "åĪĹ": 893,
      "è§ī": 894,
      "ï¼Ī": 895,
      "è¯»": 896,
      "æĪĺ": 897,
      "èµĦ": 898,
      "æµĭ": 899,
      "èĮ": 900,
      "å§ĭ": 901,
      "ä»Ĭ": 902,
      "éĺ³": 903,
      "æĳĺ": 904,
      "èĩ´": 905,
      "åŃĺ": 906,
      "åĵª": 907,
      "ç³ĸ": 908,
      "ç»Ń": 909,
      "åĢĻ": 910,
      "ï¼ģ": 911,
      "æŀĲ": 912,
      "æľĭ": 913,
      "åĲ«": 914,
      "åħ±": 915,
      "æľĪ": 916,
      "ç¥ŀ": 917,
      "èıľ": 918,
      "ç§¯": 919,
      "åħĭ": 920,
      "çº¦": 921,
      "æķ´": 922,
      "ç«ĭ": 923,
      "çİĩ": 924,
      "åı²": 925,
      "ç»Ĩ": 926,
      "æİ¢": 927,
      "çľŁ": 928,
      "æ»¡": 929,
      "çĭĹ": 930,
      "å±±": 931,
      "è±¡": 932,
      "è¶³": 933,
      "çĥŃ": 934,
      "åĲ¦": 935,
      "å¤į": 936,
      "åĪĻ": 937,
      "åĨµ": 938,
      "ç¿": 939,
      "èĳ": 940,
      "åħĥ": 941,
      "è§Ĵ": 942,
      "æİĴ": 943,
      "é¥®": 944,
      "çħ": 945,
      "åĥ": 946,
      "æľĽ": 947,
      "æĬ¥": 948,
      "èĢģ": 949,
      "è°¢": 950,
      "éĩĩ": 951,
      "åıį": 952,
      "çº¿": 953,
      "åĪĴ": 954,
      "æ¼Ķ": 955,
      "è¾ĵ": 956,
      "è§Ħ": 957,
      "éĢŁ": 958,
      "çĻ½": 959,
      "è·¯": 960,
      "å°½": 961,
      "è¶£": 962,
      "åĶ": 963,
      "éĻ©": 964,
      "åıĤ": 965,
      "å¥³": 966,
      "è¥": 967,
      "åĲĥ": 968,
      "èģĶ": 969,
      "ä»½": 970,
      "çĽ´": 971,
      "æĸ¯": 972,
      "æĺĵ": 973,
      "ç²¾": 974,
      "å¤´": 975,
      "Â·": 976,
      "è¥¿": 977,
      "æĸ½": 978,
      "åĢ¼": 979,
      "æĲ": 980,
      "åĨį": 981,
      "æ¦": 982,
      "æ¶Ī": 983,
      "åĥı": 984,
      "ä»ĭ": 985,
      "çĬ¶": 986,
      "åĽ¾": 987,
      "æĶ¶": 988,
      "å²": 989,
      "æŀĦ": 990,
      "æŃĮ": 991,
      "ä¹°": 992,
      "éļ¾": 993,
      "æ²»": 994,
      "ä¾¿": 995,
      "æŁ¥": 996,
      "åĳ¨": 997,
      "æ¢": 998,
      "èİ·": 999,
      "èĻĳ": 1000,
      "æĿ¡": 1001,
      "è¾ĥ": 1002,
      "è§ģ": 1003,
      "è¯Ĺ": 1004,
      "çīĩ": 1005,
      "æĶ¿": 1006,
      "åĲ¬": 1007,
      "æ¤": 1008,
      "æīĵ": 1009,
      "èĩ³": 1010,
      "éħį": 1011,
      "éļı": 1012,
      "çı": 1013,
      "çĮ«": 1014,
      "æħ": 1015,
      "åºı": 1016,
      "ç»ĥ": 1017,
      "ç´¢": 1018,
      "çĭ¬": 1019,
      "å¼ł": 1020,
      "èĤ²": 1021,
      "ä¸½": 1022,
      "æĬĬ": 1023,
      "åĳ½": 1024,
      "ç¢": 1025,
      "äº«": 1026,
      "è®°": 1027,
      "åħħ": 1028,
      "æ¬¾": 1029,
      "äºĮ": 1030,
      "åı¤": 1031,
      "èĭ¹": 1032,
      "çŃĸ": 1033,
      "åĲ¸": 1034,
      "å¡": 1035,
      "åĽŃ": 1036,
      "åħ´": 1037,
      "è´Ń": 1038,
      "å¸Ī": 1039,
      "ä½İ": 1040,
      "éĹ¨": 1041,
      "éĺŁ": 1042,
      "å¤±": 1043,
      "ç»´": 1044,
      "æīį": 1045,
      "ç§°": 1046,
      "åį³": 1047,
      "å¸ĥ": 1048,
      "éĹ»": 1049,
      "åħį": 1050,
      "éĩĬ": 1051,
      "è¯ī": 1052,
      "åĭ": 1053,
      "èįĲ": 1054,
      "äºĴ": 1055,
      "å°Ŀ": 1056,
      "æ¦Ĥ": 1057,
      "æĿĲ": 1058,
      "èĲ¥": 1059,
      "ç»į": 1060,
      "æĿ¾": 1061,
      "éĽĨ": 1062,
      "èĽ": 1063,
      "å¯Į": 1064,
      "åŃ£": 1065,
      "è¯¯": 1066,
      "å¿ħ": 1067,
      "å¨": 1068,
      "èĭ±": 1069,
      "çĶ·": 1070,
      "è½¬": 1071,
      "åı·": 1072,
      "åįĩ": 1073,
      "æ°ĳ": 1074,
      "è®¨": 1075,
      "åİĭ": 1076,
      "é¦Ļ": 1077,
      "éĻ¤": 1078,
      "è®²": 1079,
      "åĬ¿": 1080,
      "åĮĹ": 1081,
      "èĤī": 1082,
      "æĻļ": 1083,
      "ä¸ĵ": 1084,
      "èµĽ": 1085,
      "ä¿®": 1086,
      "é²": 1087,
      "é»ĳ": 1088,
      "è´¹": 1089,
      "æĿİ": 1090,
      "éĶĢ": 1091,
      "è£ħ": 1092,
      "æĮĳ": 1093,
      "æĪı": 1094,
      "çª": 1095,
      "åįİ": 1096,
      "æİ§": 1097,
      "è¯ģ": 1098,
      "åįģ": 1099,
      "åħ»": 1100,
      "æŁĵ": 1101,
      "é©¬": 1102,
      "æŁĲ": 1103,
      "ç¦»": 1104,
      "åĸĦ": 1105,
      "åĽ´": 1106,
      "èħ": 1107,
      "èīº": 1108,
      "ç»Ī": 1109,
      "å¯»": 1110,
      "å¤ı": 1111,
      "å¸Į": 1112,
      "æİª": 1113,
      "éĻħ": 1114,
      "å¾ĭ": 1115,
      "èĳĹ": 1116,
      "éĺ²": 1117,
      "è¿ľ": 1118,
      "è¶ħ": 1119,
      "æĴ": 1120,
      "åŃ©": 1121,
      "åĽĽ": 1122,
      "å°Ķ": 1123,
      "å·§": 1124,
      "æŀĹ": 1125,
      "æ³Ľ": 1126,
      "çģ«": 1127,
      "çħ§": 1128,
      "å£°": 1129,
      "èµ°": 1130,
      "åı¦": 1131,
      "åĳ¢": 1132,
      "æĭī": 1133,
      "ä»ħ": 1134,
      "åįĹ": 1135,
      "è´Ł": 1136,
      "å£«": 1137,
      "ç½®": 1138,
      "çĨ": 1139,
      "è¾¹": 1140,
      "èģĮ": 1141,
      "å¾·": 1142,
      "åİħ": 1143,
      "èĽĭ": 1144,
      "æĹ©": 1145,
      "éĻį": 1146,
      "æĪ¿": 1147,
      "æĺ¾": 1148,
      "èŀ": 1149,
      "åĦ": 1150,
      "ä¸ľ": 1151,
      "æ½": 1152,
      "è¾ĳ": 1153,
      "ä¼¼": 1154,
      "äºĶ": 1155,
      "æ¿": 1156,
      "å¯Ĩ": 1157,
      "çİ©": 1158,
      "ç±³": 1159,
      "æĭ¥": 1160,
      "çĶ»": 1161,
      "æļĸ": 1162,
      "æĵ": 1163,
      "éģ¿": 1164,
      "åĴĸ": 1165,
      "çİĭ": 1166,
      "è®Ń": 1167,
      "å®³": 1168,
      "æµİ": 1169,
      "å¿µ": 1170,
      "åĽ¢": 1171,
      "åı°": 1172,
      "ä¼ģ": 1173,
      "äºļ": 1174,
      "äº¬": 1175,
      "èŀį": 1176,
      "åķ¡": 1177,
      "éĻĲ": 1178,
      "æį¢": 1179,
      "æ´ģ": 1180,
      "éĽ¨": 1181,
      "å®¤": 1182,
      "ç»ľ": 1183,
      "èįī": 1184,
      "æĢİ": 1185,
      "æ©": 1186,
      "å·´": 1187,
      "åł": 1188,
      "æ±¡": 1189,
      "åĦ¿": 1190,
      "æĬķ": 1191,
      "å¹²": 1192,
      "é»Ħ": 1193,
      "æ¤į": 1194,
      "æłĳ": 1195,
      "ç©¿": 1196,
      "éħĴ": 1197,
      "æ¿Ģ": 1198,
      "è¡£": 1199,
      "é£ŀ": 1200,
      "ä¼Ĺ": 1201,
      "å¾ģ": 1202,
      "éĺħ": 1203,
      "çīĽ": 1204,
      "å¾Ģ": 1205,
      "åºĹ": 1206,
      "çĳ": 1207,
      "å±ŀ": 1208,
      "çĸ¾": 1209,
      "åºŃ": 1210,
      "åĿĩ": 1211,
      "éº": 1212,
      "æ²¹": 1213,
      "å±ħ": 1214,
      "çīĮ": 1215,
      "æ¹": 1216,
      "äºī": 1217,
      "ä»¤": 1218,
      "å¾®": 1219,
      "æ²Ļ": 1220,
      "åª": 1221,
      "ä¸ĩ": 1222,
      "é±": 1223,
      "åī§": 1224,
      "é±¼": 1225,
      "çĽĬ": 1226,
      "ç«Ļ": 1227,
      "ç»¿": 1228,
      "èĵ": 1229,
      "é¼": 1230,
      "èī¯": 1231,
      "ç¬¦": 1232,
      "åĪĩ": 1233,
      "å¾ħ": 1234,
      "é¾": 1235,
      "å®Ŀ": 1236,
      "å¤ľ": 1237,
      "åĪ¤": 1238,
      "ç¿»": 1239,
      "æķ£": 1240,
      "çº§": 1241,
      "å¥¶": 1242,
      "ç»ĩ": 1243,
      "å¥ĩ": 1244,
      "æ£Ģ": 1245,
      "è¯Ĭ": 1246,
      "éģĩ": 1247,
      "é¢ľ": 1248,
      "é¸¡": 1249,
      "åıĪ": 1250,
      "åĬª": 1251,
      "åºľ": 1252,
      "ä¸¾": 1253,
      "çĿ¡": 1254,
      "åĿĹ": 1255,
      "ä¸°": 1256,
      "æĻ®": 1257,
      "é¦Ĩ": 1258,
      "è¿ŀ": 1259,
      "æĺ¥": 1260,
      "åĪ»": 1261,
      "è½¯": 1262,
      "æµª": 1263,
      "èĪĴ": 1264,
      "èĻ½": 1265,
      "èį¯": 1266,
      "éĿĻ": 1267,
      "åĶ®": 1268,
      "çŁ³": 1269,
      "çĥ¤": 1270,
      "è¿½": 1271,
      "èĦĳ": 1272,
      "æĤ£": 1273,
      "ç§ĭ": 1274,
      "ä¸¥": 1275,
      "éŃ": 1276,
      "é¸Ł": 1277,
      "èŃ": 1278,
      "æ±½": 1279,
      "åħ¸": 1280,
      "å±Ĥ": 1281,
      "ç¼º": 1282,
      "å½Ĵ": 1283,
      "ç¦ı": 1284,
      "äºĳ": 1285,
      "åģĩ": 1286,
      "è¯¦": 1287,
      "èĶ": 1288,
      "èĮĥ": 1289,
      "æĽ²": 1290,
      "æĿĤ": 1291,
      "ç¬Ķ": 1292,
      "éĻ¢": 1293,
      "æĿ¯": 1294,
      "çĵ": 1295,
      "éĨ": 1296,
      "æĮī": 1297,
      "æ¥": 1298,
      "æ´ĭ": 1299,
      "é²ľ": 1300,
      "çķ¥": 1301,
      "ä¸´": 1302,
      "åªĴ": 1303,
      "èĥĮ": 1304,
      "æł¡": 1305,
      "åĽ°": 1306,
      "æ¢¦": 1307,
      "åį¡": 1308,
      "è·ĳ": 1309,
      "åĨ°": 1310,
      "çģµ": 1311,
      "åı¶": 1312,
      "èĵĿ": 1313,
      "çľ¼": 1314,
      "æĿĥ": 1315,
      "åĿļ": 1316,
      "å½©": 1317,
      "çªģ": 1318,
      "æ³¢": 1319,
      "åĳ¼": 1320,
      "èľ": 1321,
      "çĸ«": 1322,
      "äº²": 1323,
      "æĹı": 1324,
      "æĳĦ": 1325,
      "çł´": 1326,
      "å³": 1327,
      "çĻ¾": 1328,
      "èĴ": 1329,
      "åĬŀ": 1330,
      "ç¼ĵ": 1331,
      "ä¿ĥ": 1332,
      "ç´§": 1333,
      "çķĻ": 1334,
      "ä½ı": 1335,
      "éĴŁ": 1336,
      "çĽĳ": 1337,
      "çĹĩ": 1338,
      "çłģ": 1339,
      "å°¼": 1340,
      "è¿İ": 1341,
      "é¢Ĺ": 1342,
      "æ¯į": 1343,
      "äº®": 1344,
      "çĤ¼": 1345,
      "ç½Ĺ": 1346,
      "è¡¡": 1347,
      "æĭŁ": 1348,
      "å¼Ĥ": 1349,
      "æ´²": 1350,
      "éĿĴ": 1351,
      "ç¾¤": 1352,
      "åĤ": 1353,
      "è´£": 1354,
      "é¡»": 1355,
      "çļ®": 1356,
      "åĲ§": 1357,
      "æľ¨": 1358,
      "æĽ¿": 1359,
      "å¨ģ": 1360,
      "è¯ĳ": 1361,
      "ä¼¤": 1362,
      "åľ¾": 1363,
      "åŀĥ": 1364,
      "æ²³": 1365,
      "çĩ": 1366,
      "æ»©": 1367,
      "èĶ¬": 1368,
      "æ¼«": 1369,
      "åľŁ": 1370,
      "ä»į": 1371,
      "éĤ®": 1372,
      "æħ¢": 1373,
      "éĩİ": 1374,
      "çľł": 1375,
      "éĺ¿": 1376,
      "åĩ»": 1377,
      "ç¤¼": 1378,
      "ç§ĺ": 1379,
      "åº§": 1380,
      "è¯¢": 1381,
      "èĥľ": 1382,
      "çŃĳ": 1383,
      "è¶ĭ": 1384,
      "éĢĲ": 1385,
      "å·¨": 1386,
      "å·ŀ": 1387,
      "æ°§": 1388,
      "èģĬ": 1389,
      "å½ķ": 1390,
      "ä¼ĳ": 1391,
      "èŃ¦": 1392,
      "åĨĽ": 1393,
      "æĩ": 1394,
      "éĢģ": 1395,
      "åį°": 1396,
      "å·®": 1397,
      "éĶ»": 1398,
      "ä½³": 1399,
      "æ¸Ĳ": 1400,
      "åįı": 1401,
      "é©¶": 1402,
      "åī©": 1403,
      "éļĲ": 1404,
      "æŃ¢": 1405,
      "å°Ĭ": 1406,
      "çºª": 1407,
      "æĲŃ": 1408,
      "èª": 1409,
      "é¢ĳ": 1410,
      "æĿ¿": 1411,
      "é©¾": 1412,
      "ç»ª": 1413,
      "çĸĳ": 1414,
      "æĥĬ": 1415,
      "ç¬ĳ": 1416,
      "ç§ģ": 1417,
      "æĺ¨": 1418,
      "æ¯Ľ": 1419,
      "åĵĪ": 1420,
      "åĪĿ": 1421,
      "éĴ±": 1422,
      "ç²ī": 1423,
      "åį«": 1424,
      "åĬ±": 1425,
      "æ¶ī": 1426,
      "æĥ¯": 1427,
      "è¡Ģ": 1428,
      "ä¼¦": 1429,
      "è´¢": 1430,
      "åĨľ": 1431,
      "æł¸": 1432,
      "éĴĪ": 1433,
      "å¿Ĺ": 1434,
      "èĹ": 1435,
      "åºķ": 1436,
      "æ·»": 1437,
      "å°ļ": 1438,
      "ä¾Ŀ": 1439,
      "åĨ·": 1440,
      "å²ģ": 1441,
      "ç¹": 1442,
      "æ±ĩ": 1443,
      "å©": 1444,
      "æ½ľ": 1445,
      "æĭħ": 1446,
      "ç»§": 1447,
      "åįļ": 1448,
      "çĽĸ": 1449,
      "æ©Ļ": 1450,
      "çīĪ": 1451,
      "ç¥¨": 1452,
      "å¹¸": 1453,
      "çĦ¦": 1454,
      "æī§": 1455,
      "ç¡Ģ": 1456,
      "å°Ħ": 1457,
      "åĪļ": 1458,
      "æĹ¨": 1459,
      "èĻļ": 1460,
      "åıĮ": 1461,
      "èĪŀ": 1462,
      "ç§»": 1463,
      "âĢĶ": 1464,
      "åį´": 1465,
      "éĵģ": 1466,
      "åįĪ": 1467,
      "åį±": 1468,
      "å±Ģ": 1469,
      "å¡ĳ": 1470,
      "å®ĩ": 1471,
      "æ¯Ĵ": 1472,
      "èĮ¶": 1473,
      "æĦ¿": 1474,
      "å¯Ł": 1475,
      "å¹»": 1476,
      "åı«": 1477,
      "æĬ½": 1478,
      "çģ¾": 1479,
      "é¥Ń": 1480,
      "èķ": 1481,
      "åķĬ": 1482,
      "å³°": 1483,
      "å®£": 1484,
      "åĸĿ": 1485,
      "è±Ĩ": 1486,
      "éŀ": 1487,
      "ä»ĺ": 1488,
      "åįĥ": 1489,
      "çº³": 1490,
      "ç«ŀ": 1491,
      "åĿĲ": 1492,
      "èĸ": 1493,
      "çıŃ": 1494,
      "å¥¥": 1495,
      "ç»Ŀ": 1496,
      "ç¨³": 1497,
      "ç«¯": 1498,
      "èģļ": 1499,
      "éĢı": 1500,
      "è¯¾": 1501,
      "è·Ł": 1502,
      "ç¹ģ": 1503,
      "æĲľ": 1504,
      "çĮ®": 1505,
      "ä½Ļ": 1506,
      "é¹": 1507,
      "æ´ŀ": 1508,
      "é¡º": 1509,
      "ä¹ħ": 1510,
      "ç¢³": 1511,
      "çĥĪ": 1512,
      "èĪª": 1513,
      "åįĬ": 1514,
      "æ£®": 1515,
      "æķĳ": 1516,
      "èĪ¬": 1517,
      "æĭ¿": 1518,
      "é¼ĵ": 1519,
      "é¾Ļ": 1520,
      "éĵ¾": 1521,
      "çİĽ": 1522,
      "åĨ¬": 1523,
      "éĵ¶": 1524,
      "åħ°": 1525,
      "æŁĶ": 1526,
      "éŀĭ": 1527,
      "é¢Ŀ": 1528,
      "æ´Ĺ": 1529,
      "èĲ¨": 1530,
      "è¿·": 1531,
      "æĬ±": 1532,
      "å®ĺ": 1533,
      "ä¼´": 1534,
      "æĦī": 1535,
      "æľ«": 1536,
      "é¡¾": 1537,
      "æ²ī": 1538,
      "çĨŁ": 1539,
      "ä¼°": 1540,
      "å®ł": 1541,
      "éª¤": 1542,
      "æŃ»": 1543,
      "èµı": 1544,
      "åĢĭ": 1545,
      "æĽ¾": 1546,
      "åĭĩ": 1547,
      "çľģ": 1548,
      "çºł": 1549,
      "éĽª": 1550,
      "çĨĬ": 1551,
      "æľĹ": 1552,
      "åŃ¤": 1553,
      "æĵį": 1554,
      "æĭ¼": 1555,
      "éŃĶ": 1556,
      "åĿı": 1557,
      "åģı": 1558,
      "æ³³": 1559,
      "çķħ": 1560,
      "è¸": 1561,
      "æİĮ": 1562,
      "è°Ī": 1563,
      "æ¬§": 1564,
      "åģľ": 1565,
      "æ²Ł": 1566,
      "éĢĶ": 1567,
      "å§Ĩ": 1568,
      "æ··": 1569,
      "çģ¯": 1570,
      "çĶľ": 1571,
      "éħ¸": 1572,
      "é¥°": 1573,
      "è´µ": 1574,
      "è·Ŀ": 1575,
      "å²Ľ": 1576,
      "éħ±": 1577,
      "æĴŃ": 1578,
      "æī¿": 1579,
      "è°ģ": 1580,
      "èĤ¡": 1581,
      "ä¼½": 1582,
      "ç³ķ": 1583,
      "éĻĪ": 1584,
      "æ±ī": 1585,
      "ç£": 1586,
      "éľ²": 1587,
      "å¥ĸ": 1588,
      "å¿ĺ": 1589,
      "å¤«": 1590,
      "å®Ļ": 1591,
      "æĻ°": 1592,
      "éĿł": 1593,
      "è´§": 1594,
      "åŁ¹": 1595,
      "çĳľ": 1596,
      "å¿Ĩ": 1597,
      "èĨ": 1598,
      "ä¹³": 1599,
      "å¥Ĺ": 1600,
      "æļĹ": 1601,
      "çĹĽ": 1602,
      "æ¥¼": 1603,
      "çĻ»": 1604,
      "éĿ©": 1605,
      "æļ´": 1606,
      "æµĵ": 1607,
      "çº½": 1608,
      "æ±Ł": 1609,
      "æĬĺ": 1610,
      "æĬĹ": 1611,
      "æı¡": 1612,
      "çĬ¯": 1613,
      "éģĹ": 1614,
      "æ±¤": 1615,
      "è·³": 1616,
      "åĨĴ": 1617,
      "åĢĴ": 1618,
      "æ£Ĵ": 1619,
      "èĹı": 1620,
      "ç§Ģ": 1621,
      "åºĬ": 1622,
      "æľĿ": 1623,
      "éĨĴ": 1624,
      "å·¦": 1625,
      "å®Ī": 1626,
      "éļľ": 1627,
      "è¢ĭ": 1628,
      "æįŁ": 1629,
      "æŃ§": 1630,
      "ç¥Ŀ": 1631,
      "é¡¿": 1632,
      "æ¹ĸ": 1633,
      "æ½®": 1634,
      "å°ģ": 1635,
      "åı³": 1636,
      "åľĨ": 1637,
      "åĹ": 1638,
      "è¡Ĺ": 1639,
      "ç®±": 1640,
      "åĺ": 1641,
      "èĦĤ": 1642,
      "èĢĲ": 1643,
      "æĮ¥": 1644,
      "å¡Ķ": 1645,
      "åĨ²": 1646,
      "æ¬£": 1647,
      "ä¹İ": 1648,
      "æ°¸": 1649,
      "èĦļ": 1650,
      "çº¸": 1651,
      "ç«¥": 1652,
      "ç¯®": 1653,
      "æģĲ": 1654,
      "è£¤": 1655,
      "éĹ²": 1656,
      "ç±į": 1657,
      "çħ®": 1658,
      "è´¡": 1659,
      "çĽĲ": 1660,
      "é»İ": 1661,
      "è¾Ĩ": 1662,
      "æĶ»": 1663,
      "æī©": 1664,
      "ç½ª": 1665,
      "ä¸Ŀ": 1666,
      "èĿ": 1667,
      "è°·": 1668,
      "éĶħ": 1669,
      "ä»¿": 1670,
      "ç»¼": 1671,
      "çĤº": 1672,
      "éĸ": 1673,
      "å¸ģ": 1674,
      "çĩĥ": 1675,
      "æ»ĳ": 1676,
      "èĤ¤": 1677,
      "æ±ł": 1678,
      "æ±ģ": 1679,
      "èµŀ": 1680,
      "çĽĺ": 1681,
      "ä¹ĺ": 1682,
      "åĢĳ": 1683,
      "æĿĳ": 1684,
      "å¿Ļ": 1685,
      "åĬ³": 1686,
      "å®«": 1687,
      "éĵħ": 1688,
      "çıį": 1689,
      "è²": 1690,
      "æģ¶": 1691,
      "å¥ĭ": 1692,
      "åİļ": 1693,
      "ç¼©": 1694,
      "æ´¾": 1695,
      "åĤ¨": 1696,
      "åĲ¯": 1697,
      "æĢ¥": 1698,
      "æĺł": 1699,
      "å°į": 1700,
      "åħŃ": 1701,
      "å¾Ħ": 1702,
      "å¦Ī": 1703,
      "åĨł": 1704,
      "çĥ§": 1705,
      "æŀ¶": 1706,
      "çĪ¶": 1707,
      "æĿ°": 1708,
      "çĤĴ": 1709,
      "çİī": 1710,
      "æŃī": 1711,
      "éĢĻ": 1712,
      "éģį": 1713,
      "åĩī": 1714,
      "æĸĹ": 1715,
      "éº¦": 1716,
      "åĽº": 1717,
      "å®½": 1718,
      "åĳĪ": 1719,
      "åĪº": 1720,
      "ä½Ľ": 1721,
      "éĻĦ": 1722,
      "æ°Ľ": 1723,
      "é¥¼": 1724,
      "ç»©": 1725,
      "éľĩ": 1726,
      "éĽħ": 1727,
      "æĿŁ": 1728,
      "å¯Ĵ": 1729,
      "çµ": 1730,
      "æĤ¦": 1731,
      "åĶ±": 1732,
      "è®¢": 1733,
      "å¹ħ": 1734,
      "æ¶¦": 1735,
      "åºŁ": 1736,
      "ç»ĺ": 1737,
      "çŃ¾": 1738,
      "åºĵ": 1739,
      "å°¤": 1740,
      "çīĻ": 1741,
      "çĥŁ": 1742,
      "èĭ¦": 1743,
      "æ¹¿": 1744,
      "çĽĽ": 1745,
      "æ¤Ĵ": 1746,
      "æİī": 1747,
      "å¾ª": 1748,
      "éªĳ": 1749,
      "èĤĮ": 1750,
      "å¨±": 1751,
      "çıł": 1752,
      "æĢĢ": 1753,
      "å¼ĥ": 1754,
      "æĬ«": 1755,
      "èĭı": 1756,
      "èĤ¥": 1757,
      "èĥ¡": 1758,
      "æ¶²": 1759,
      "è·µ": 1760,
      "å°¾": 1761,
      "è©": 1762,
      "å©ļ": 1763,
      "éĢ»": 1764,
      "èĥģ": 1765,
      "æ³¡": 1766,
      "åĿ¦": 1767,
      "æ³°": 1768,
      "æķ¬": 1769,
      "ç¿°": 1770,
      "å®ľ": 1771,
      "è®¿": 1772,
      "åĵº": 1773,
      "å¥ı": 1774,
      "åĵ¥": 1775,
      "èĪ¹": 1776,
      "æľµ": 1777,
      "çĶļ": 1778,
      "è°±": 1779,
      "é¾Ħ": 1780,
      "è¾£": 1781,
      "è¯ļ": 1782,
      "æ¡Į": 1783,
      "ä¾Ĩ": 1784,
      "æĭį": 1785,
      "åŃ¸": 1786,
      "éĽ¶": 1787,
      "å¦Ļ": 1788,
      "çĤİ": 1789,
      "èķī": 1790,
      "æĭĽ": 1791,
      "çĬ¬": 1792,
      "èľľ": 1793,
      "è½®": 1794,
      "éģµ": 1795,
      "è¡¥": 1796,
      "ä¹¡": 1797,
      "åĩĢ": 1798,
      "è´Ŀ": 1799,
      "äº¡": 1800,
      "å´": 1801,
      "èĤ¯": 1802,
      "åĢ¾": 1803,
      "èĦ±": 1804,
      "éĹŃ": 1805,
      "çĶ³": 1806,
      "åį·": 1807,
      "æ¾": 1808,
      "è´¥": 1809,
      "æĩĤ": 1810,
      "è¿¹": 1811,
      "èªī": 1812,
      "åľ£": 1813,
      "éº¼": 1814,
      "çĴ": 1815,
      "éĥģ": 1816,
      "ç¡¬": 1817,
      "å«": 1818,
      "åħ«": 1819,
      "ç¶": 1820,
      "èĭĹ": 1821,
      "éķĩ": 1822,
      "éª¨": 1823,
      "çĻĮ": 1824,
      "èİĵ": 1825,
      "å»¶": 1826,
      "è§¦": 1827,
      "åºĨ": 1828,
      "ä¹ı": 1829,
      "æŃ¦": 1830,
      "æķı": 1831,
      "èĢ³": 1832,
      "çªĹ": 1833,
      "è³": 1834,
      "åĨ¥": 1835,
      "åīĤ": 1836,
      "å®Ĺ": 1837,
      "å£®": 1838,
      "æĹ§": 1839,
      "æħ§": 1840,
      "çķª": 1841,
      "äº¿": 1842,
      "å®ģ": 1843,
      "åĮĢ": 1844,
      "åłĤ": 1845,
      "ä¸ĥ": 1846,
      "å¯¿": 1847,
      "è½½": 1848,
      "èģª": 1849,
      "é»ĺ": 1850,
      "æĹĭ": 1851,
      "èĤª": 1852,
      "èĳ±": 1853,
      "è¿ª": 1854,
      "æ¼Ĥ": 1855,
      "æ®Ĭ": 1856,
      "æĿĢ": 1857,
      "æĭĮ": 1858,
      "é¼ł": 1859,
      "å®¾": 1860,
      "èĮĦ": 1861,
      "åĢŁ": 1862,
      "è¯º": 1863,
      "èļ": 1864,
      "å¼¹": 1865,
      "å¸Ŀ": 1866,
      "éĢĢ": 1867,
      "èĢĹ": 1868,
      "è°ĵ": 1869,
      "èĦı": 1870,
      "çĸ²": 1871,
      "è¹": 1872,
      "æľĥ": 1873,
      "å½¼": 1874,
      "æĹ¢": 1875,
      "ä¹Ŀ": 1876,
      "éĢĴ": 1877,
      "å·Ŀ": 1878,
      "çĵľ": 1879,
      "è¿ħ": 1880,
      "é¡¶": 1881,
      "ç»ķ": 1882,
      "åĴ¨": 1883,
      "æĻ¨": 1884,
      "æģĴ": 1885,
      "è¾ħ": 1886,
      "è§Ī": 1887,
      "éº»": 1888,
      "æķ¢": 1889,
      "çĵ¶": 1890,
      "æĥł": 1891,
      "éĻĨ": 1892,
      "çŀ": 1893,
      "æī¹": 1894,
      "èį£": 1895,
      "æµ®": 1896,
      "é½": 1897,
      "åĵ²": 1898,
      "éĺ¶": 1899,
      "çĺ": 1900,
      "èī¾": 1901,
      "çº¯": 1902,
      "éķľ": 1903,
      "çĶ²": 1904,
      "æĤ²": 1905,
      "å®¡": 1906,
      "æ·¡": 1907,
      "çĪĨ": 1908,
      "éĽ·": 1909,
      "æģ©": 1910,
      "å¡«": 1911,
      "çĥ¹": 1912,
      "èĻ«": 1913,
      "çĻ¼": 1914,
      "å±ĭ": 1915,
      "åĶĲ": 1916,
      "éĴ¢": 1917,
      "è¸ª": 1918,
      "æį·": 1919,
      "âĢ¦": 1920,
      "æĻĤ": 1921,
      "æ´Ľ": 1922,
      "çĶ°": 1923,
      "åı¹": 1924,
      "éĹª": 1925,
      "å¹ķ": 1926,
      "èħ¿": 1927,
      "æīĺ": 1928,
      "æ¶µ": 1929,
      "èĦ¸": 1930,
      "æ¡¥": 1931,
      "æĸ¼": 1932,
      "å¡ŀ": 1933,
      "èµ¢": 1934,
      "è¿Ŀ": 1935,
      "éŁ©": 1936,
      "äºĪ": 1937,
      "æĻ´": 1938,
      "èĥŀ": 1939,
      "æª": 1940,
      "çĿĽ": 1941,
      "å°º": 1942,
      "åįĸ": 1943,
      "åįł": 1944,
      "åł¡": 1945,
      "æ·ĭ": 1946,
      "ä»Ķ": 1947,
      "åĲī": 1948,
      "éĢĥ": 1949,
      "èľĤ": 1950,
      "èĭ¥": 1951,
      "èĤº": 1952,
      "å¼±": 1953,
      "åī¯": 1954,
      "é¦Ī": 1955,
      "æĪ´": 1956,
      "æĢķ": 1957,
      "æ¸¯": 1958,
      "ä¼Ĭ": 1959,
      "ç´¯": 1960,
      "æ¡£": 1961,
      "çĪ¬": 1962,
      "åĵ¦": 1963,
      "çĿ£": 1964,
      "å²¸": 1965,
      "ä»°": 1966,
      "åĲ¹": 1967,
      "ç²Ĵ": 1968,
      "èĸĦ": 1969,
      "éĽĦ": 1970,
      "çĤ¸": 1971,
      "ç¨İ": 1972,
      "å§ĵ": 1973,
      "åŁĥ": 1974,
      "æįķ": 1975,
      "ç´«": 1976,
      "é£ĺ": 1977,
      "ç¦ģ": 1978,
      "èİ«": 1979,
      "éļĶ": 1980,
      "å¿§": 1981,
      "çı¾": 1982,
      "åħĶ": 1983,
      "åİ¨": 1984,
      "çĽĴ": 1985,
      "çĪ½": 1986,
      "èµĸ": 1987,
      "èĳ¡": 1988,
      "æķ¦": 1989,
      "èĦī": 1990,
      "ä¼Ł": 1991,
      "æ°ı": 1992,
      "çģŃ": 1993,
      "æĤł": 1994,
      "èĲĦ": 1995,
      "éĺ´": 1996,
      "çĮİ": 1997,
      "æĲħ": 1998,
      "æĤ¬": 1999,
      "æī°": 2000,
      "çļĩ": 2001,
      "æ¬²": 2002,
      "ç¾Ĭ": 2003,
      "é¥ª": 2004,
      "åĶ¯": 2005,
      "æī¬": 2006,
      "ä¹±": 2007,
      "èı²": 2008,
      "éģŃ": 2009,
      "çº·": 2010,
      "å¢Ļ": 2011,
      "è¿Ķ": 2012,
      "è·¨": 2013,
      "å¿ł": 2014,
      "åĭķ": 2015,
      "è´´": 2016,
      "è¢ĸ": 2017,
      "ä¹Ķ": 2018,
      "èĤ´": 2019,
      "èĲĿ": 2020,
      "èĴ¸": 2021,
      "è¦Ĩ": 2022,
      "ç£¨": 2023,
      "æİĪ": 2024,
      "èİī": 2025,
      "çģ°": 2026,
      "åħµ": 2027,
      "æī®": 2028,
      "æģĭ": 2029,
      "çŁ¿": 2030,
      "ç¢İ": 2031,
      "ä¾µ": 2032,
      "æĳ©": 2033,
      "å¿½": 2034,
      "èĬ³": 2035,
      "è²Į": 2036,
      "æĴ°": 2037,
      "è´¦": 2038,
      "çĲ´": 2039,
      "æ¯ķ": 2040,
      "åĸ»": 2041,
      "æ²¿": 2042,
      "æĭĵ": 2043,
      "é¡µ": 2044,
      "éĺ»": 2045,
      "èĮ¨": 2046,
      "éĢ²": 2047,
      "åĩ½": 2048,
      "æ¢ħ": 2049,
      "èį·": 2050,
      "çº¤": 2051,
      "èĢį": 2052,
      "æĢª": 2053,
      "æĳĨ": 2054,
      "æĽ¼": 2055,
      "çĽ¾": 2056,
      "è£Ļ": 2057,
      "çĳŀ": 2058,
      "æİĺ": 2059,
      "æ£ī": 2060,
      "åĴª": 2061,
      "èģĺ": 2062,
      "æŀĿ": 2063,
      "éĺµ": 2064,
      "èıĮ": 2065,
      "çĶĺ": 2066,
      "è¯¸": 2067,
      "éł": 2068,
      "è±ª": 2069,
      "æĳĩ": 2070,
      "é²ģ": 2071,
      "åĲĽ": 2072,
      "çº¹": 2073,
      "èĻİ": 2074,
      "Ã·": 2075,
      "ä¼¯": 2076,
      "å§Ķ": 2077,
      "ä»ª": 2078,
      "åľĪ": 2079,
      "é¸£": 2080,
      "æĻĴ": 2081,
      "éĢĬ": 2082,
      "å¹½": 2083,
      "æŁł": 2084,
      "ç¢į": 2085,
      "éĤĢ": 2086,
      "åīª": 2087,
      "èİ±": 2088,
      "åį§": 2089,
      "ä¼Ļ": 2090,
      "æģ¢": 2091,
      "çŁĽ": 2092,
      "èĬĿ": 2093,
      "éĻ·": 2094,
      "å§¿": 2095,
      "åĩ¡": 2096,
      "è°Ĭ": 2097,
      "èħĲ": 2098,
      "éĺĶ": 2099,
      "æ¥ļ": 2100,
      "èĴľ": 2101,
      "æª¬": 2102,
      "éŃħ": 2103,
      "è°Ĳ": 2104,
      "æĭĶ": 2105,
      "ç©Ĩ": 2106,
      "å²©": 2107,
      "åİĺ": 2108,
      "çĭ®": 2109,
      "è¡«": 2110,
      "ä¿Ĺ": 2111,
      "å±ı": 2112,
      "åĿĢ": 2113,
      "ä¸ģ": 2114,
      "èĴĤ": 2115,
      "æĬĳ": 2116,
      "è£ģ": 2117,
      "çĽŁ": 2118,
      "ç§Ł": 2119,
      "åĪĺ": 2120,
      "æ´ª": 2121,
      "å°¿": 2122,
      "å¤®": 2123,
      "åĮ¹": 2124,
      "å¢¨": 2125,
      "ä»Ļ": 2126,
      "è¿«": 2127,
      "çĥ¦": 2128,
      "æ®ĸ": 2129,
      "ç«¹": 2130,
      "èİİ": 2131,
      "è·ĥ": 2132,
      "çĩķ": 2133,
      "æıŃ": 2134,
      "é²¸": 2135,
      "æĭľ": 2136,
      "é¸Ń": 2137,
      "æ®ĭ": 2138,
      "ç¾½": 2139,
      "æĥľ": 2140,
      "æĲº": 2141,
      "æ¡ĥ": 2142,
      "æĤī": 2143,
      "å¾Ĵ": 2144,
      "å¼Ł": 2145,
      "çĭĤ": 2146,
      "èĤł": 2147,
      "å¦ĩ": 2148,
      "éľľ": 2149,
      "è¿Ł": 2150,
      "éĨī": 2151,
      "èĤĸ": 2152,
      "éĻª": 2153,
      "æĮĤ": 2154,
      "åĪł": 2155,
      "æĬĵ": 2156,
      "éģİ": 2157,
      "æıĴ": 2158,
      "åĭĴ": 2159,
      "åĢį": 2160,
      "èĴĻ": 2161,
      "èĬĴ": 2162,
      "è´¸": 2163,
      "çĬ¹": 2164,
      "æĬµ": 2165,
      "èĥ¸": 2166,
      "ç£ģ": 2167,
      "åĪĢ": 2168,
      "çĮª": 2169,
      "æ·ĩ": 2170,
      "å£¤": 2171,
      "èĢĢ": 2172,
      "åįľ": 2173,
      "ä¸¦": 2174,
      "æı´": 2175,
      "éĺĲ": 2176,
      "æ¶Ĥ": 2177,
      "æ³Ĭ": 2178,
      "å°ĺ": 2179,
      "åĪ·": 2180,
      "åħļ": 2181,
      "ç¨®": 2182,
      "çĽĹ": 2183,
      "ä¸§": 2184,
      "åĭ¤": 2185,
      "ä¸²": 2186,
      "å¼Ĺ": 2187,
      "ä¾§": 2188,
      "å«Į": 2189,
      "å®¿": 2190,
      "æ¤ħ": 2191,
      "æĹģ": 2192,
      "è½¨": 2193,
      "æĩī": 2194,
      "å¯¸": 2195,
      "æĵİ": 2196,
      "æ¯«": 2197,
      "å¥Ķ": 2198,
      "é¬": 2199,
      "ç¶ĵ": 2200,
      "èĺ": 2201,
      "ãĢĮ": 2202,
      "æī£": 2203,
      "ä¹Į": 2204,
      "ç½ļ": 2205,
      "è´«": 2206,
      "éħª": 2207,
      "ãĢį": 2208,
      "å¯Ĥ": 2209,
      "çĪ¸": 2210,
      "åºĦ": 2211,
      "æ»¤": 2212,
      "æµ¸": 2213,
      "ç¢Ĺ": 2214,
      "åŃĶ": 2215,
      "å£ģ": 2216,
      "ä¼¸": 2217,
      "æĮĸ": 2218,
      "èį¡": 2219,
      "åİ¿": 2220,
      "åİĤ": 2221,
      "èĬ¬": 2222,
      "é¦¨": 2223,
      "é³": 2224,
      "èĪĩ": 2225,
      "ç¼ĺ": 2226,
      "è¾ŀ": 2227,
      "ç»Ĵ": 2228,
      "æĴŀ": 2229,
      "è´¯": 2230,
      "æłĸ": 2231,
      "åłµ": 2232,
      "æĴĴ": 2233,
      "é«Ķ": 2234,
      "åģ·": 2235,
      "å¸Ń": 2236,
      "é©±": 2237,
      "æĵħ": 2238,
      "è®¯": 2239,
      "æ¼ı": 2240,
      "èµĭ": 2241,
      "å¸½": 2242,
      "èħ»": 2243,
      "è¹Ī": 2244,
      "é½Ĳ": 2245,
      "éĸĭ": 2246,
      "éĸĵ": 2247,
      "å¦¹": 2248,
      "éŁµ": 2249,
      "æ¼ł": 2250,
      "ä¸¹": 2251,
      "è¡¬": 2252,
      "æ»´": 2253,
      "æħĪ": 2254,
      "åĩĿ": 2255,
      "è°¨": 2256,
      "çħİ": 2257,
      "åªļ": 2258,
      "æµħ": 2259,
      "æĭĤ": 2260,
      "çĳ°": 2261,
      "æļĤ": 2262,
      "èķ´": 2263,
      "æ¬º": 2264,
      "åģ¶": 2265,
      "åĩ¯": 2266,
      "èĿ¶": 2267,
      "è¡ĵ": 2268,
      "éĹľ": 2269,
      "ç©·": 2270,
      "ç¥ĸ": 2271,
      "èįĴ": 2272,
      "èıĩ": 2273,
      "çĮľ": 2274,
      "éĢĹ": 2275,
      "ç¨¿": 2276,
      "ç¨į": 2277,
      "æķĮ": 2278,
      "é¢Ī": 2279,
      "æĢĸ": 2280,
      "è¼": 2281,
      "æ©ĺ": 2282,
      "éĶģ": 2283,
      "ç½©": 2284,
      "éĵº": 2285,
      "ç¿ħ": 2286,
      "è£Ĥ": 2287,
      "æħİ": 2288,
      "ä»ģ": 2289,
      "èĦĨ": 2290,
      "é¹ħ": 2291,
      "å¨ľ": 2292,
      "èī³": 2293,
      "åľĭ": 2294,
      "åĹ¯": 2295,
      "éī": 2296,
      "æ³ī": 2297,
      "åį¢": 2298,
      "æ¶¯": 2299,
      "è°ľ": 2300,
      "çİ»": 2301,
      "æĴĳ": 2302,
      "ä½©": 2303,
      "å¤¹": 2304,
      "æ£ĭ": 2305,
      "çĸ¼": 2306,
      "æ¯ģ": 2307,
      "éĻ¶": 2308,
      "æ¢°": 2309,
      "éī´": 2310,
      "ä¾£": 2311,
      "æ¡Ĩ": 2312,
      "åłĨ": 2313,
      "çĴĥ": 2314,
      "æ³¥": 2315,
      "èµİ": 2316,
      "é¼»": 2317,
      "éģ¥": 2318,
      "æĦĪ": 2319,
      "æī«": 2320,
      "å¦Ĩ": 2321,
      "èµ¶": 2322,
      "æµ´": 2323,
      "åŃĻ": 2324,
      "æĭĸ": 2325,
      "æ³Ħ": 2326,
      "åįĵ": 2327,
      "éĻĮ": 2328,
      "è«": 2329,
      "æĶĢ": 2330,
      "æĻ¶": 2331,
      "å§Ĳ": 2332,
      "åħģ": 2333,
      "éĽ¾": 2334,
      "æ¥Ń": 2335,
      "å¤·": 2336,
      "åĸ·": 2337,
      "ä¼ŀ": 2338,
      "çĽĪ": 2339,
      "ç·": 2340,
      "æ¸´": 2341,
      "ä¹Ļ": 2342,
      "æ³ª": 2343,
      "æ³½": 2344,
      "è´¾": 2345,
      "æ¢¨": 2346,
      "å¤ķ": 2347,
      "çĭ¼": 2348,
      "æĸĳ": 2349,
      "æ§": 2350,
      "ç³Ĭ": 2351,
      "èħ°": 2352,
      "è¾Ľ": 2353,
      "æĺĨ": 2354,
      "å¯º": 2355,
      "çĥĤ": 2356,
      "æ»ļ": 2357,
      "å¤º": 2358,
      "äº¦": 2359,
      "ä¼ı": 2360,
      "æĥ§": 2361,
      "åī²": 2362,
      "æ©Ħ": 2363,
      "éľį": 2364,
      "æĮ¯": 2365,
      "æ¦Ħ": 2366,
      "é¥±": 2367,
      "æĹ±": 2368,
      "ç²®": 2369,
      "çĽĨ": 2370,
      "åĲģ": 2371,
      "æ©Ł": 2372,
      "è®ĵ": 2373,
      "æºª": 2374,
      "é¹¿": 2375,
      "åĬ£": 2376,
      "åıł": 2377,
      "æŁľ": 2378,
      "âĦ": 2379,
      "åĭĥ": 2380,
      "å°ĸ": 2381,
      "æ¶¨": 2382,
      "éªĹ": 2383,
      "å¼¦": 2384,
      "æ°¢": 2385,
      "éĤ¦": 2386,
      "åļ": 2387,
      "é¡Į": 2388,
      "æŁ¿": 2389,
      "çĩ¥": 2390,
      "å¦»": 2391,
      "éĢĨ": 2392,
      "åıĻ": 2393,
      "è°ĭ": 2394,
      "âĦĥ": 2395,
      "å¯ĵ": 2396,
      "è¿Ī": 2397,
      "æĸľ": 2398,
      "èĨľ": 2399,
      "æĨ": 2400,
      "æĿ¨": 2401,
      "è³ĩ": 2402,
      "ç«Ł": 2403,
      "éŃĤ": 2404,
      "çŀ¬": 2405,
      "æ¾³": 2406,
      "èĸ¯": 2407,
      "çŃĽ": 2408,
      "èħ¾": 2409,
      "èī°": 2410,
      "ä¿Ħ": 2411,
      "å£³": 2412,
      "åºĻ": 2413,
      "èĺĳ": 2414,
      "æ´Ĵ": 2415,
      "æĿī": 2416,
      "ç¢ĳ": 2417,
      "å°ĩ": 2418,
      "æĺĤ": 2419,
      "ï¼ħ": 2420,
      "åł´": 2421,
      "çİ«": 2422,
      "æ¸ł": 2423,
      "æīİ": 2424,
      "éĤ»": 2425,
      "ä¼Ĳ": 2426,
      "çĺ¦": 2427,
      "åŀĤ": 2428,
      "ç¿Ķ": 2429,
      "æĭĴ": 2430,
      "çĤī": 2431,
      "æ²ĥ": 2432,
      "èĥĥ": 2433,
      "çĭ±": 2434,
      "åĪĳ": 2435,
      "æĥĳ": 2436,
      "å¾Į": 2437,
      "è¤": 2438,
      "æ¢ģ": 2439,
      "èĥĸ": 2440,
      "å²Ĺ": 2441,
      "é½¿": 2442,
      "çį": 2443,
      "å©´": 2444,
      "æ»ĭ": 2445,
      "èĿ´": 2446,
      "å¹¼": 2447,
      "çĸı": 2448,
      "æĦģ": 2449,
      "çŁ¶": 2450,
      "å¾¡": 2451,
      "ç»³": 2452,
      "æĵ¦": 2453,
      "èĥ¶": 2454,
      "æģ°": 2455,
      "ç§Ĵ": 2456,
      "å½»": 2457,
      "éĽķ": 2458,
      "æĪª": 2459,
      "åŀ«": 2460,
      "æº¯": 2461,
      "èħĬ": 2462,
      "æ¡¶": 2463,
      "èĻ¾": 2464,
      "çĶ¢": 2465,
      "èħ¹": 2466,
      "å§ľ": 2467,
      "åīĳ": 2468,
      "è¸ı": 2469,
      "åħ½": 2470,
      "éŁ§": 2471,
      "èĪį": 2472,
      "è¯Ī": 2473,
      "ç³Ł": 2474,
      "ç¿ł": 2475,
      "æĮº": 2476,
      "åĺ´": 2477,
      "æ¶Į": 2478,
      "èĥĨ": 2479,
      "åķı": 2480,
      "èĨĢ": 2481,
      "å·¾": 2482,
      "çĵ¦": 2483,
      "çĭĲ": 2484,
      "ä¼į": 2485,
      "èĤ©": 2486,
      "è¿ģ": 2487,
      "éļĨ": 2488,
      "æ¨ª": 2489,
      "ç»µ": 2490,
      "åĻª": 2491,
      "å¯Ħ": 2492,
      "çĮ´": 2493,
      "èĮ«": 2494,
      "ðŁ": 2495,
      "å¿į": 2496,
      "åĪ¸": 2497,
      "åĨĮ": 2498,
      "åĳĢ": 2499,
      "ç¿Ĵ": 2500,
      "çĲ³": 2501,
      "ç½²": 2502,
      "æĮ«": 2503,
      "åķ¦": 2504,
      "ä»ĩ": 2505,
      "è¡°": 2506,
      "æĹĹ": 2507,
      "éŁ¿": 2508,
      "æĢĴ": 2509,
      "çĳŁ": 2510,
      "å®´": 2511,
      "åĩĮ": 2512,
      "æĿľ": 2513,
      "è¢Ń": 2514,
      "æ±Ĺ": 2515,
      "éĹ¹": 2516,
      "è´·": 2517,
      "å¸ħ": 2518,
      "æµĨ": 2519,
      "åĿ¡": 2520,
      "çĥĺ": 2521,
      "éĽĩ": 2522,
      "ç°": 2523,
      "é»Ľ": 2524,
      "æŀļ": 2525,
      "æ¹¾": 2526,
      "åĢ¡": 2527,
      "ä¿±": 2528,
      "çıĬ": 2529,
      "åħ¼": 2530,
      "æ¯ħ": 2531,
      "æ°£": 2532,
      "éħ·": 2533,
      "å¯¦": 2534,
      "è¾Ĳ": 2535,
      "èĤĿ": 2536,
      "éĨĭ": 2537,
      "å¼¯": 2538,
      "æħ°": 2539,
      "æĬ¹": 2540,
      "æ£ķ": 2541,
      "æĬ¢": 2542,
      "æķ¸": 2543,
      "ç¢§": 2544,
      "æĭ¯": 2545,
      "çµ±": 2546,
      "æ¢¯": 2547,
      "èĽĩ": 2548,
      "çĵ·": 2549,
      "æľ±": 2550,
      "åĲĲ": 2551,
      "ç¢°": 2552,
      "ç¨Ģ": 2553,
      "åİ¦": 2554,
      "èĤ¿": 2555,
      "æĤŁ": 2556,
      "æĪĴ": 2557,
      "çķ¶": 2558,
      "éĢĽ": 2559,
      "è£¡": 2560,
      "è¨Ī": 2561,
      "å®ĭ": 2562,
      "æģ¨": 2563,
      "çªĥ": 2564,
      "åĮĻ": 2565,
      "çģ£": 2566,
      "æ²®": 2567,
      "åıī": 2568,
      "æĩĴ": 2569,
      "å¾ŀ": 2570,
      "è·Į": 2571,
      "ç¿¼": 2572,
      "åĲ´": 2573,
      "æ¨£": 2574,
      "æļĳ": 2575,
      "æĽ°": 2576,
      "è¨Ń": 2577,
      "éĴĵ": 2578,
      "æº¶": 2579,
      "èĥİ": 2580,
      "çĢ": 2581,
      "éĢĿ": 2582,
      "ç¬¼": 2583,
      "éĨĩ": 2584,
      "èĸª": 2585,
      "åĿĽ": 2586,
      "è±¹": 2587,
      "ç²Ĺ": 2588,
      "æ»¨": 2589,
      "å®ı": 2590,
      "èµł": 2591,
      "æĵļ": 2592,
      "æŁ³": 2593,
      "åĭĻ": 2594,
      "è¾¨": 2595,
      "å«©": 2596,
      "å¼¥": 2597,
      "æĹ¦": 2598,
      "æĻĭ": 2599,
      "çĭ¸": 2600,
      "çĴ°": 2601,
      "ç®Ń": 2602,
      "çĮĽ": 2603,
      "èµ«": 2604,
      "å±Ĭ": 2605,
      "çĵ£": 2606,
      "éĵĥ": 2607,
      "è®Ĭ": 2608,
      "æ·Ģ": 2609,
      "é¬¼": 2610,
      "è»": 2611,
      "æ²¸": 2612,
      "èªª": 2613,
      "å§»": 2614,
      "åħĦ": 2615,
      "æįī": 2616,
      "åĮĨ": 2617,
      "ä¸Ľ": 2618,
      "æĭĨ": 2619,
      "åı¬": 2620,
      "çļĨ": 2621,
      "è¯ŀ": 2622,
      "æ±º": 2623,
      "éģ®": 2624,
      "å£¶": 2625,
      "æµı": 2626,
      "æĺı": 2627,
      "èıł": 2628,
      "å¨ĺ": 2629,
      "æģ¤": 2630,
      "èµµ": 2631,
      "éĵľ": 2632,
      "éĻµ": 2633,
      "æľ´": 2634,
      "æŀ¯": 2635,
      "èħº": 2636,
      "éĤª": 2637,
      "é¹°": 2638,
      "çŁ©": 2639,
      "åĩŃ": 2640,
      "èĻ¹": 2641,
      "æŀ«": 2642,
      "æ©¡": 2643,
      "è¾ī": 2644,
      "æŀª": 2645,
      "æĮ¤": 2646,
      "æĥ«": 2647,
      "éĤĦ": 2648,
      "åĢº": 2649,
      "åĸĤ": 2650,
      "åºŀ": 2651,
      "åĴ³": 2652,
      "ç§¦": 2653,
      "åłª": 2654,
      "èĤ¢": 2655,
      "å´ĩ": 2656,
      "æĩĪ": 2657,
      "èŁ": 2658,
      "éĴ»": 2659,
      "ç¢º": 2660,
      "å¦®": 2661,
      "èĲ§": 2662,
      "çµĲ": 2663,
      "çī§": 2664,
      "éĥİ": 2665,
      "ä¸ĺ": 2666,
      "è©¹": 2667,
      "æģ¼": 2668,
      "æĳ¸": 2669,
      "ãĢĳ": 2670,
      "ãĢĲ": 2671,
      "éĽ»": 2672,
      "ä¸¢": 2673,
      "çĪ·": 2674,
      "èĩĤ": 2675,
      "âĢĻ": 2676,
      "åŃķ": 2677,
      "éĶĲ": 2678,
      "âĢĺ": 2679,
      "èĦĬ": 2680,
      "é¢¨": 2681,
      "è©²": 2682,
      "é»ŀ": 2683,
      "æ·ĺ": 2684,
      "èĪŁ": 2685,
      "èĩ£": 2686,
      "ç¿©": 2687,
      "æĲŀ": 2688,
      "éĴ¥": 2689,
      "æīĳ": 2690,
      "çīµ": 2691,
      "æĢ¨": 2692,
      "å»·": 2693,
      "çºµ": 2694,
      "å¼·": 2695,
      "åĤ³": 2696,
      "èĭį": 2697,
      "åİī": 2698,
      "éĶ¦": 2699,
      "äºķ": 2700,
      "æīĩ": 2701,
      "æ¡Ĥ": 2702,
      "ÃĹ": 2703,
      "åĺī": 2704,
      "é¢ĸ": 2705,
      "æĥ©": 2706,
      "åħ§": 2707,
      "åĵŃ": 2708,
      "èĬ¯": 2709,
      "é¾Ł": 2710,
      "æĻĵ": 2711,
      "æ®¿": 2712,
      "èĨ³": 2713,
      "èļģ": 2714,
      "ç¢Į": 2715,
      "æ¾Ī": 2716,
      "æħ¨": 2717,
      "æ¹Ľ": 2718,
      "ä¾ł": 2719,
      "æº¢": 2720,
      "è¾©": 2721,
      "åĤ¬": 2722,
      "åģ¿": 2723,
      "æ¸¡": 2724,
      "çĺ¤": 2725,
      "æ¡ĳ": 2726,
      "æŁ±": 2727,
      "åħ¹": 2728,
      "é²¨": 2729,
      "åĩĳ": 2730,
      "åĶ¤": 2731,
      "åįī": 2732,
      "åįĢ": 2733,
      "ç¼Ŀ": 2734,
      "éķ·": 2735,
      "çĪª": 2736,
      "éħµ": 2737,
      "è³ª": 2738,
      "è£Ķ": 2739,
      "å©Ĩ": 2740,
      "æ´¥": 2741,
      "ä¿¯": 2742,
      "èµ¤": 2743,
      "åĤ²": 2744,
      "æĪ°": 2745,
      "éĢ¼": 2746,
      "çĽ²": 2747,
      "éĶĭ": 2748,
      "å¸ķ": 2749,
      "å¾Ĳ": 2750,
      "åĵĩ": 2751,
      "çıĤ": 2752,
      "èİ²": 2753,
      "ç¼Ģ": 2754,
      "å¤¸": 2755,
      "å³¡": 2756,
      "ç²ĺ": 2757,
      "å¤ł": 2758,
      "æĬļ": 2759,
      "ä¹ĥ": 2760,
      "åķ¤": 2761,
      "åİĮ": 2762,
      "èĻķ": 2763,
      "åĵĢ": 2764,
      "å®ħ": 2765,
      "æµĩ": 2766,
      "æ¨±": 2767,
      "ç¶²": 2768,
      "çĦ¡": 2769,
      "èħĶ": 2770,
      "èĥĢ": 2771,
      "ï¼ĳ": 2772,
      "åĴ¬": 2773,
      "åĩ¤": 2774,
      "æĸ¤": 2775,
      "æįĲ": 2776,
      "å½¹": 2777,
      "æĬ¼": 2778,
      "å»ī": 2779,
      "çķı": 2780,
      "è½´": 2781,
      "æī¶": 2782,
      "éĹ·": 2783,
      "éľ¸": 2784,
      "å½°": 2785,
      "æ¤İ": 2786,
      "å¥ī": 2787,
      "é¥²": 2788,
      "å±¿": 2789,
      "å´©": 2790,
      "çłį": 2791,
      "æŀķ": 2792,
      "ï¼Ĳ": 2793,
      "éľŀ": 2794,
      "é¥¿": 2795,
      "æ»¿": 2796,
      "å¸¶": 2797,
      "èŃ°": 2798,
      "èªŀ": 2799,
      "ç¢±": 2800,
      "æĴ¼": 2801,
      "åīĬ": 2802,
      "è£¹": 2803,
      "åĨ»": 2804,
      "ç©´": 2805,
      "å¥Ī": 2806,
      "ç¼ł": 2807,
      "ç¸": 2808,
      "è§Ģ": 2809,
      "æŁı": 2810,
      "é¡ŀ": 2811,
      "çī¢": 2812,
      "ä¾¦": 2813,
      "æĽ¹": 2814,
      "åĳĨ": 2815,
      "æĤĦ": 2816,
      "æ¸Ķ": 2817,
      "å¼Ħ": 2818,
      "èĮĤ": 2819,
      "çĳļ": 2820,
      "çķĶ": 2821,
      "çľī": 2822,
      "åĲ¾": 2823,
      "æ£µ": 2824,
      "æ³¼": 2825,
      "åĹ½": 2826,
      "æĿĨ": 2827,
      "èĪĮ": 2828,
      "æħķ": 2829,
      "èŀº": 2830,
      "è±«": 2831,
      "éģĭ": 2832,
      "æ¼Ĩ": 2833,
      "æĦ¤": 2834,
      "éĢ¢": 2835,
      "èķ¾": 2836,
      "å§ĳ": 2837,
      "æĲ¬": 2838,
      "åĢ¦": 2839,
      "æ²«": 2840,
      "ç½Ĳ": 2841,
      "ç»½": 2842,
      "èº²": 2843,
      "çĸ¯": 2844,
      "å¨ĥ": 2845,
      "å¸Ĩ": 2846,
      "çĦĻ": 2847,
      "åĵ¡": 2848,
      "æ¨Ĥ": 2849,
      "æ¯¯": 2850,
      "èºº": 2851,
      "èļĤ": 2852,
      "ç¥Ī": 2853,
      "åĲŀ": 2854,
      "çĢĳ": 2855,
      "ä¼ª": 2856,
      "å·«": 2857,
      "æĮļ": 2858,
      "åĸī": 2859,
      "çĪµ": 2860,
      "è¯±": 2861,
      "å¢ĵ": 2862,
      "åĬ²": 2863,
      "åĬ«": 2864,
      "åµ": 2865,
      "ç¥¥": 2866,
      "æµ¦": 2867,
      "æĥķ": 2868,
      "çĥģ": 2869,
      "çłĤ": 2870,
      "èŃ·": 2871,
      "Â°": 2872,
      "çº²": 2873,
      "ä¸ĳ": 2874,
      "çĹķ": 2875,
      "æ»¥": 2876,
      "å¸ĺ": 2877,
      "æĿı": 2878,
      "å·¢": 2879,
      "è®¶": 2880,
      "æ¦ľ": 2881,
      "æµ©": 2882,
      "æĮ¡": 2883,
      "èĳ£": 2884,
      "èĵ¬": 2885,
      "çŃĴ": 2886,
      "éĥĬ": 2887,
      "è±ļ": 2888,
      "èµļ": 2889,
      "å±Ī": 2890,
      "è¸¢": 2891,
      "éĽĢ": 2892,
      "æ½º": 2893,
      "åĹ¨": 2894,
      "å¸Ĳ": 2895,
      "æĪ¶": 2896,
      "èīĩ": 2897,
      "åĩ¸": 2898,
      "æļ®": 2899,
      "æĭ³": 2900,
      "æĺĶ": 2901,
      "å±¥": 2902,
      "å¥ĳ": 2903,
      "åŃŁ": 2904,
      "æºĥ": 2905,
      "å¼Ĭ": 2906,
      "å³»": 2907,
      "èµĶ": 2908,
      "åĳµ": 2909,
      "è«ĸ": 2910,
      "çİĦ": 2911,
      "ç»£": 2912,
      "çģĮ": 2913,
      "åĴ¸": 2914,
      "çĭ©": 2915,
      "çŁ®": 2916,
      "æī¼": 2917,
      "ç²¥": 2918,
      "æĻķ": 2919,
      "åľ³": 2920,
      "èĬ½": 2921,
      "å¸ĸ": 2922,
      "åĭº": 2923,
      "åıĥ": 2924,
      "å¯ŀ": 2925,
      "æł½": 2926,
      "åĲĬ": 2927,
      "èīĺ": 2928,
      "åĲ¨": 2929,
      "é¢ł": 2930,
      "éļĬ": 2931,
      "éĴ®": 2932,
      "è´º": 2933,
      "éħ¥": 2934,
      "éģ£": 2935,
      "æ¢³": 2936,
      "é¥¥": 2937,
      "åıĶ": 2938,
      "ç¥Ń": 2939,
      "äºŃ": 2940,
      "å¡ĺ": 2941,
      "çŃ¹": 2942,
      "ç¤ģ": 2943,
      "æ¢µ": 2944,
      "çĨ¬": 2945,
      "æłı": 2946,
      "é©Ĺ": 2947,
      "æ¾¡": 2948,
      "åīµ": 2949,
      "åĩ¶": 2950,
      "æĢ¡": 2951,
      "ä»ĵ": 2952,
      "è¡·": 2953,
      "é£ĵ": 2954,
      "ç¿ģ": 2955,
      "æĬ¬": 2956,
      "æİ©": 2957,
      "æŃĩ": 2958,
      "éĶĪ": 2959,
      "æ¤°": 2960,
      "çĮ©": 2961,
      "èĤĥ": 2962,
      "è³½": 2963,
      "èĨ¨": 2964,
      "æ²Ĵ": 2965,
      "èĽĻ": 2966,
      "å°İ": 2967,
      "è´ª": 2968,
      "èĬ¹": 2969,
      "æĤļ": 2970,
      "å¥¢": 2971,
      "éģĶ": 2972,
      "çĲĲ": 2973,
      "æĿŃ": 2974,
      "æĬĽ": 2975,
      "èļĬ": 2976,
      "éª¼": 2977,
      "çħ¤": 2978,
      "èģ²": 2979,
      "è¨±": 2980,
      "çģ¿": 2981,
      "è«ĭ": 2982,
      "æ¶Ľ": 2983,
      "ä¾¯": 2984,
      "ç«Ń": 2985,
      "ç¨»": 2986,
      "æĹº": 2987,
      "èĽĽ": 2988,
      "æĳ§": 2989,
      "å¬": 2990,
      "åĭ¾": 2991,
      "æīŃ": 2992,
      "éĢ¸": 2993,
      "èŃĺ": 2994,
      "æŁ¯": 2995,
      "åĲŁ": 2996,
      "é¢ģ": 2997,
      "æ°®": 2998,
      "æ¥µ": 2999,
      "çĥĽ": 3000,
      "èĲĮ": 3001,
      "é²į": 3002,
      "å¦¥": 3003,
      "æ¸Ĺ": 3004,
      "åĸ§": 3005,
      "åĦĴ": 3006,
      "ç¥¸": 3007,
      "éĺģ": 3008,
      "ä¸Ī": 3009,
      "æĤĶ": 3010,
      "æįŀ": 3011,
      "åĹħ": 3012,
      "çĨ±": 3013,
      "æ¨Ļ": 3014,
      "è°£": 3015,
      "åıĽ": 3016,
      "æ¸¬": 3017,
      "ç¯Ģ": 3018,
      "èª¿": 3019,
      "åĿª": 3020,
      "å¦¨": 3021,
      "æĳĶ": 3022,
      "åĦª": 3023,
      "æĸ·": 3024,
      "é¹¤": 3025,
      "è¦ĸ": 3026,
      "åĸĬ": 3027,
      "éļª": 3028,
      "é¥º": 3029,
      "åķ¸": 3030,
      "åĺ¿": 3031,
      "çµ¦": 3032,
      "è®¼": 3033,
      "èľ¡": 3034,
      "è¼ķ": 3035,
      "å¹«": 3036,
      "ç»ļ": 3037,
      "æķŀ": 3038,
      "è¬": 3039,
      "âĢ¢": 3040,
      "æ²Ĳ": 3041,
      "å²Ń": 3042,
      "éŁ¦": 3043,
      "æ¿Ĵ": 3044,
      "å··": 3045,
      "æķ²": 3046,
      "æĹ·": 3047,
      "çŃĭ": 3048,
      "èĮ¸": 3049,
      "åĥ¹": 3050,
      "æĸ¥": 3051,
      "å»Ĭ": 3052,
      "æ¢Ĺ": 3053,
      "åŁĭ": 3054,
      "è´¤": 3055,
      "æŃ·": 3056,
      "å¡Į": 3057,
      "åĪ¥": 3058,
      "è¿Ń": 3059,
      "æħĮ": 3060,
      "å·¡": 3061,
      "çºĮ": 3062,
      "æīĶ": 3063,
      "æĢľ": 3064,
      "é³Ħ": 3065,
      "éŃı": 3066,
      "éĴĻ": 3067,
      "åĵĳ": 3068,
      "ç½ķ": 3069,
      "ç§©": 3070,
      "çĦ°": 3071,
      "èĨı": 3072,
      "åĿł": 3073,
      "ç¾©": 3074,
      "å¥ł": 3075,
      "åĽĬ": 3076,
      "åħ©": 3077,
      "è¾Ī": 3078,
      "èľĺ": 3079,
      "çº±": 3080,
      "è©¦": 3081,
      "èıĬ": 3082,
      "è©±": 3083,
      "èħĮ": 3084,
      "æ³Į": 3085,
      "æĦĽ": 3086,
      "æĬĴ": 3087,
      "æŁ´": 3088,
      "åĲĵ": 3089,
      "çĤĸ": 3090,
      "æ§ĭ": 3091,
      "æ±ª": 3092,
      "æĭ¨": 3093,
      "èĩŃ": 3094,
      "èªį": 3095,
      "å²Ĥ": 3096,
      "å¯¡": 3097,
      "èĵĦ": 3098,
      "éĸĢ": 3099,
      "é©°": 3100,
      "æĺĮ": 3101,
      "çĤŃ": 3102,
      "å¬ī": 3103,
      "æ¿Ł": 3104,
      "æ¢Ń": 3105,
      "é©»": 3106,
      "çĹ´": 3107,
      "æĽĿ": 3108,
      "èĬ¦": 3109,
      "æµĻ": 3110,
      "åĥ§": 3111,
      "è´¼": 3112,
      "ï¼Ĵ": 3113,
      "åīĩ": 3114,
      "éĽģ": 3115,
      "èļĢ": 3116,
      "åĪĬ": 3117,
      "åĶĩ": 3118,
      "åĲµ": 3119,
      "éĴł": 3120,
      "åĤį": 3121,
      "éĥĳ": 3122,
      "èĢ¶": 3123,
      "åŃĿ": 3124,
      "è¾°": 3125,
      "ä½Ĳ": 3126,
      "èµ´": 3127,
      "éłĺ": 3128,
      "èĤ¾": 3129,
      "èį«": 3130,
      "é¦ħ": 3131,
      "å®ª": 3132,
      "éģ¸": 3133,
      "éģĬ": 3134,
      "çĥ·": 3135,
      "èĳĽ": 3136,
      "åī¥": 3137,
      "æħĭ": 3138,
      "çī²": 3139,
      "ç»ĳ": 3140,
      "æĭ¾": 3141,
      "éħ¬": 3142,
      "çİ²": 3143,
      "éģ©": 3144,
      "éĥŃ": 3145,
      "æĮ½": 3146,
      "çłĸ": 3147,
      "æ·Į": 3148,
      "ä»²": 3149,
      "åĤĻ": 3150,
      "èĸĽ": 3151,
      "å¾½": 3152,
      "åĴĻ": 3153,
      "èŁ¹": 3154,
      "çĶ«": 3155,
      "åµĮ": 3156,
      "è¡į": 3157,
      "éĿ´": 3158,
      "åį¿": 3159,
      "åĨĹ": 3160,
      "èĤļ": 3161,
      "æĴ¤": 3162,
      "çªĿ": 3163,
      "ç¡ħ": 3164,
      "é¸¦": 3165,
      "æłĭ": 3166,
      "ç¯¡": 3167,
      "èµĲ": 3168,
      "æĪĪ": 3169,
      "æĽ³": 3170,
      "ä¹Ĵ": 3171,
      "ç¡«": 3172,
      "èĨĿ": 3173,
      "éħ¶": 3174,
      "éĹ°": 3175,
      "æ¸Ľ": 3176,
      "æĵĬ": 3177,
      "ç¸½": 3178,
      "èĶĵ": 3179,
      "è°§": 3180,
      "æĥ¨": 3181,
      "æħ·": 3182,
      "ç´°": 3183,
      "å²³": 3184,
      "åĿĳ": 3185,
      "æ¤Ń": 3186,
      "é¸¿": 3187,
      "çķ´": 3188,
      "åįĳ": 3189,
      "ä¹ĵ": 3190,
      "æĮ£": 3191,
      "èªĵ": 3192,
      "è»Ĭ": 3193,
      "ç¦½": 3194,
      "å¸«": 3195,
      "å´ĸ": 3196,
      "æĬĸ": 3197,
      "æ¬ł": 3198,
      "æīģ": 3199,
      "åĢļ": 3200,
      "ç¶Ń": 3201,
      "åĸ±": 3202,
      "æºĸ": 3203,
      "ä¿Ĭ": 3204,
      "å´Ľ": 3205,
      "æŁļ": 3206,
      "èĸĩ": 3207,
      "æ°¨": 3208,
      "è¦ı": 3209,
      "èģĨ": 3210,
      "è¯Ģ": 3211,
      "è¹²": 3212,
      "æ¢Ŀ": 3213,
      "æ³ģ": 3214,
      "çºº": 3215,
      "èĿī": 3216,
      "åĿĬ": 3217,
      "æĭĺ": 3218,
      "çħ¸": 3219,
      "éªĦ": 3220,
      "åķ¼": 3221,
      "èĢķ": 3222,
      "åĮł": 3223,
      "çŃĿ": 3224,
      "éĥ¡": 3225,
      "è¦º": 3226,
      "é¦Ģ": 3227,
      "å¥´": 3228,
      "è²»": 3229,
      "åļ£": 3230,
      "ä¾į": 3231,
      "æ²Ī": 3232,
      "å¯¨": 3233,
      "çį²": 3234,
      "èĪ°": 3235,
      "çħĮ": 3236,
      "çµĤ": 3237,
      "æĲı": 3238,
      "çĥ«": 3239,
      "é¢ĩ": 3240,
      "åĻ¬": 3241,
      "ç¦ħ": 3242,
      "èĿł": 3243,
      "åĭ¿": 3244,
      "åįµ": 3245,
      "èĹ¤": 3246,
      "å§¬": 3247,
      "æĨ¾": 3248,
      "åľĸ": 3249,
      "è°¦": 3250,
      "ç»¸": 3251,
      "æŃ¡": 3252,
      "å½Ĺ": 3253,
      "çľ¾": 3254,
      "æłª": 3255,
      "èĹĿ": 3256,
      "å®µ": 3257,
      "è°İ": 3258,
      "èĢ¸": 3259,
      "ç¾ŀ": 3260,
      "çŀ©": 3261,
      "ä½£": 3262,
      "å·ħ": 3263,
      "çīº": 3264,
      "ç²¹": 3265,
      "å»ĵ": 3266,
      "éĵŃ": 3267,
      "çĤ®": 3268,
      "å»£": 3269,
      "åĽļ": 3270,
      "éĵĿ": 3271,
      "èĳµ": 3272,
      "æĻĸ": 3273,
      "çĭŃ": 3274,
      "å°ĭ": 3275,
      "éłħ": 3276,
      "çµĦ": 3277,
      "æĦļ": 3278,
      "ç¼ļ": 3279,
      "åĲ»": 3280,
      "æģŃ": 3281,
      "éĤĥ": 3282,
      "ç½¢": 3283,
      "èł": 3284,
      "èĿĻ": 3285,
      "å¨ĩ": 3286,
      "æĽ¸": 3287,
      "åħ®": 3288,
      "éĢ®": 3289,
      "ç¡ķ": 3290,
      "åĭŁ": 3291,
      "è¦ĭ": 3292,
      "åĪ¹": 3293,
      "ï½": 3294,
      "åĮ¿": 3295,
      "çĻĤ": 3296,
      "æ§½": 3297,
      "è¼ĥ": 3298,
      "çĨĻ": 3299,
      "é³ŀ": 3300,
      "æ»ŀ": 3301,
      "åĿİ": 3302,
      "çĺ¾": 3303,
      "ä¿©": 3304,
      "æĻĥ": 3305,
      "æ·¹": 3306,
      "éĬ": 3307,
      "æ²¥": 3308,
      "çĽ¼": 3309,
      "éļ¨": 3310,
      "èµĮ": 3311,
      "èĻĲ": 3312,
      "çŁ£": 3313,
      "åĺĽ": 3314,
      "å©ī": 3315,
      "æĳĬ": 3316,
      "éļĻ": 3317,
      "æĥŁ": 3318,
      "ç¨ł": 3319,
      "éĮ": 3320,
      "æ·®": 3321,
      "å¿Į": 3322,
      "ç³Ļ": 3323,
      "æ½ĺ": 3324,
      "å°Ī": 3325,
      "æĿĸ": 3326,
      "æ¼¾": 3327,
      "åº¸": 3328,
      "çļ±": 3329,
      "å°¸": 3330,
      "æį§": 3331,
      "è¸©": 3332,
      "ç·ļ": 3333,
      "æĬĦ": 3334,
      "å¯«": 3335,
      "ç£ħ": 3336,
      "åĸ®": 3337,
      "åĿŀ": 3338,
      "ç³¯": 3339,
      "å´½": 3340,
      "é¹¦": 3341,
      "è¨İ": 3342,
      "æ¶¤": 3343,
      "å¼µ": 3344,
      "èĦ¾": 3345,
      "åĬĿ": 3346,
      "è¡Ķ": 3347,
      "èĵī": 3348,
      "åĩĭ": 3349,
      "éłŃ": 3350,
      "é¸¥": 3351,
      "å¦ĸ": 3352,
      "é¹ī": 3353,
      "åį¸": 3354,
      "æ°¯": 3355,
      "éĴ©": 3356,
      "æ¬Ĭ": 3357,
      "ç¬Ľ": 3358,
      "å·©": 3359,
      "çĽİ": 3360,
      "åļ¼": 3361,
      "æ³£": 3362,
      "æ¹ĺ": 3363,
      "æ¸Ĭ": 3364,
      "éĤĵ": 3365,
      "çį¨": 3366,
      "ç¯·": 3367,
      "æ¶©": 3368,
      "è®½": 3369,
      "ç©į": 3370,
      "çĲ¼": 3371,
      "åĸĺ": 3372,
      "è¶Ł": 3373,
      "éĽ£": 3374,
      "è½ī": 3375,
      "åĪ®": 3376,
      "å®Ľ": 3377,
      "åĩĦ": 3378,
      "åīĸ": 3379,
      "èĮİ": 3380,
      "èĤĨ": 3381,
      "éĦ": 3382,
      "åĬį": 3383,
      "è½¿": 3384,
      "çļĤ": 3385,
      "åł±": 3386,
      "ç´Ħ": 3387,
      "éļ§": 3388,
      "éĨ«": 3389,
      "åĬĥ": 3390,
      "èĹ»": 3391,
      "è£ķ": 3392,
      "èºģ": 3393,
      "ç°¡": 3394,
      "æ£ĺ": 3395,
      "åĭ¢": 3396,
      "é¢Ĳ": 3397,
      "çĨĶ": 3398,
      "æĥ¬": 3399,
      "çĸĨ": 3400,
      "é©¯": 3401,
      "æĵģ": 3402,
      "é¸½": 3403,
      "èĪ±": 3404,
      "èĭĶ": 3405,
      "éŃĦ": 3406,
      "æİł": 3407,
      "æ²§": 3408,
      "æŁĦ": 3409,
      "è¾½": 3410,
      "éģĤ": 3411,
      "æµĳ": 3412,
      "çĭĢ": 3413,
      "åįĶ": 3414,
      "é¡¯": 3415,
      "ç¼¤": 3416,
      "æį¡": 3417,
      "é¢Ĥ": 3418,
      "çķ°": 3419,
      "ç¼´": 3420,
      "ä¸Ļ": 3421,
      "è§ħ": 3422,
      "ç£·": 3423,
      "åľĴ": 3424,
      "çĴ¨": 3425,
      "çĴĢ": 3426,
      "é©³": 3427,
      "èĮħ": 3428,
      "è¢į": 3429,
      "ç»İ": 3430,
      "æĪ²": 3431,
      "çĪŃ": 3432,
      "å³¦": 3433,
      "èĶ½": 3434,
      "éłĲ": 3435,
      "çģ¶": 3436,
      "åĸµ": 3437,
      "èģ¯": 3438,
      "è»į": 3439,
      "çªĦ": 3440,
      "è¯ı": 3441,
      "æĿ±": 3442,
      "æ£į": 3443,
      "å¼§": 3444,
      "åĵİ": 3445,
      "å±¤": 3446,
      "æ¾Ħ": 3447,
      "æıī": 3448,
      "è©ķ": 3449,
      "æº«": 3450,
      "è´©": 3451,
      "æ²¾": 3452,
      "è£Ŀ": 3453,
      "æºľ": 3454,
      "åĲı": 3455,
      "ä¹¾": 3456,
      "æ³»": 3457,
      "ä¿Ĥ": 3458,
      "ç¼ķ": 3459,
      "è¨Ĭ": 3460,
      "ç·´": 3461,
      "åĥħ": 3462,
      "éĶ¡": 3463,
      "ä»Ĺ": 3464,
      "éĹ¯": 3465,
      "éĴ¦": 3466,
      "ç¼¸": 3467,
      "éĻķ": 3468,
      "éģı": 3469,
      "èģŀ": 3470,
      "æª¢": 3471,
      "æ±Ģ": 3472,
      "è¨ĺ": 3473,
      "åĴĴ": 3474,
      "å£ĵ": 3475,
      "çķľ": 3476,
      "å±ĳ": 3477,
      "æŁĳ": 3478,
      "çĳ¶": 3479,
      "è©ŀ": 3480,
      "éļĽ": 3481,
      "èµģ": 3482,
      "åĨĪ": 3483,
      "è°ļ": 3484,
      "âĳ": 3485,
      "åºĲ": 3486,
      "éĴĹ": 3487,
      "æ¶¡": 3488,
      "èĪĨ": 3489,
      "æĺŃ": 3490,
      "äºı": 3491,
      "æŀ£": 3492,
      "å¾Ļ": 3493,
      "è½°": 3494,
      "é«ĵ": 3495,
      "åķ¥": 3496,
      "åĤħ": 3497,
      "ä¸¸": 3498,
      "çĤ«": 3499,
      "ï¼ĵ": 3500,
      "å¼ĵ": 3501,
      "éĻ½": 3502,
      "è¼¸": 3503,
      "æĪļ": 3504,
      "åĵ®": 3505,
      "âĨ": 3506,
      "å®°": 3507,
      "åį»": 3508,
      "éħ¿": 3509,
      "èĩº": 3510,
      "éľ¾": 3511,
      "ï¼ķ": 3512,
      "æĭŃ": 3513,
      "æĻ¤": 3514,
      "éªļ": 3515,
      "åľį": 3516,
      "éĴ¾": 3517,
      "èĥº": 3518,
      "ï¼İ": 3519,
      "æĺ¼": 3520,
      "æ²Ľ": 3521,
      "å³Ń": 3522,
      "é¼İ": 3523,
      "é¡½": 3524,
      "ä»ĳ": 3525,
      "è¾ĸ": 3526,
      "èĥ°": 3527,
      "èľĹ": 3528,
      "æĦ§": 3529,
      "æĮª": 3530,
      "æĵĩ": 3531,
      "éĺ±": 3532,
      "èģ½": 3533,
      "çĦķ": 3534,
      "æĥ°": 3535,
      "æĸĲ": 3536,
      "èįĨ": 3537,
      "èĮµ": 3538,
      "èı¯": 3539,
      "èĲİ": 3540,
      "å¢ħ": 3541,
      "æ¸º": 3542,
      "éĶ¤": 3543,
      "ï¼Ļ": 3544,
      "è¤Ĳ": 3545,
      "èĪĪ": 3546,
      "èŃī": 3547,
      "èĬĻ": 3548,
      "åīĶ": 3549,
      "éĸĴ": 3550,
      "è¾±": 3551,
      "çķ«": 3552,
      "èĦĸ": 3553,
      "æŀ¢": 3554,
      "è®Ģ": 3555,
      "è±Ĳ": 3556,
      "æĸĵ": 3557,
      "æĴ©": 3558,
      "åľĺ": 3559,
      "å¾Ĭ": 3560,
      "çµ¡": 3561,
      "Â²": 3562,
      "æ±Ŀ": 3563,
      "è£½": 3564,
      "éĤĬ": 3565,
      "åĥµ": 3566,
      "æ¦¨": 3567,
      "èİº": 3568,
      "æļĩ": 3569,
      "åĴ½": 3570,
      "å°¬": 3571,
      "è°ħ": 3572,
      "ï½ŀ": 3573,
      "è¤ĩ": 3574,
      "éĴŀ": 3575,
      "åĴı": 3576,
      "âĨĴ": 3577,
      "æ°¦": 3578,
      "çĮ¿": 3579,
      "éĴī": 3580,
      "å«ģ": 3581,
      "è´¬": 3582,
      "éļ¶": 3583,
      "çĭĦ": 3584,
      "æĴķ": 3585,
      "ç¿±": 3586,
      "éĿľ": 3587,
      "è°Ľ": 3588,
      "éģł": 3589,
      "åĴķ": 3590,
      "æ¸£": 3591,
      "å¾ĺ": 3592,
      "åļ´": 3593,
      "ç©©": 3594,
      "è¯µ": 3595,
      "åŀĴ": 3596,
      "æĸ©": 3597,
      "å°´": 3598,
      "çĽı": 3599,
      "èª°": 3600,
      "è¢ľ": 3601,
      "ç·Ĭ": 3602,
      "ç´ħ": 3603,
      "ç¾¡": 3604,
      "çĥ¯": 3605,
      "èĸ°": 3606,
      "èĳ¬": 3607,
      "è²¬": 3608,
      "èħķ": 3609,
      "äº©": 3610,
      "éºĹ": 3611,
      "åĮª": 3612,
      "å¾µ": 3613,
      "èľĢ": 3614,
      "æ¼¸": 3615,
      "è¶ģ": 3616,
      "æħ®": 3617,
      "åĨ¯": 3618,
      "è½©": 3619,
      "é»ı": 3620,
      "èĶļ": 3621,
      "ðŁĺ": 3622,
      "åĲķ": 3623,
      "åĳķ": 3624,
      "æ¸į": 3625,
      "éĽ¢": 3626,
      "åİķ": 3627,
      "åĤ»": 3628,
      "è¥Ł": 3629,
      "ç§ī": 3630,
      "ç¥ī": 3631,
      "è¹¦": 3632,
      "çº¬": 3633,
      "ç«ĸ": 3634,
      "èĹī": 3635,
      "å¼ĺ": 3636,
      "åħĨ": 3637,
      "åĩ³": 3638,
      "éłĪ": 3639,
      "ç±½": 3640,
      "ç¹Ķ": 3641,
      "ç¯ī": 3642,
      "éĻ³": 3643,
      "éĩĭ": 3644,
      "æĭ±": 3645,
      "é£Ľ": 3646,
      "èĬŃ": 3647,
      "éĿĪ": 3648,
      "çŀ°": 3649,
      "èĶ¡": 3650,
      "æ±°": 3651,
      "è¹Ħ": 3652,
      "åĴ±": 3653,
      "æ¨¹": 3654,
      "çĨı": 3655,
      "æ±²": 3656,
      "çħ²": 3657,
      "èĴ²": 3658,
      "èĽ®": 3659,
      "ç²¼": 3660,
      "éĺ®": 3661,
      "è¤ª": 3662,
      "éŀŃ": 3663,
      "ç¢Ł": 3664,
      "åĿį": 3665,
      "è°´": 3666,
      "å½Ń": 3667,
      "è¾Ł": 3668,
      "ç¼ħ": 3669,
      "éĢ¾": 3670,
      "è²ł": 3671,
      "åİĦ": 3672,
      "åŀ¢": 3673,
      "çĬĢ": 3674,
      "åĺ²": 3675,
      "å³¨": 3676,
      "é¬ĵ": 3677,
      "ä¹ŀ": 3678,
      "èį§": 3679,
      "æ¼ĵ": 3680,
      "æĮł": 3681,
      "éĽľ": 3682,
      "éªĤ": 3683,
      "æ¦´": 3684,
      "ï¼Ķ": 3685,
      "éľī": 3686,
      "æ¡Ĳ": 3687,
      "èĪī": 3688,
      "çĶ¸": 3689,
      "æİ¡": 3690,
      "èİ¹": 3691,
      "èľ¥": 3692,
      "åįĴ": 3693,
      "æĽ¦": 3694,
      "é¢¤": 3695,
      "äºŀ": 3696,
      "ðŁĮ": 3697,
      "è¨ĵ": 3698,
      "éĵ¸": 3699,
      "æ¶Ŀ": 3700,
      "åľŃ": 3701,
      "æ½Ń": 3702,
      "éħļ": 3703,
      "é©¼": 3704,
      "åĭĺ": 3705,
      "çĩŁ": 3706,
      "âĢĭ": 3707,
      "èĭ¯": 3708,
      "çĿĲ": 3709,
      "åĨ¤": 3710,
      "ç¶ł": 3711,
      "åĵŁ": 3712,
      "èģ·": 3713,
      "åł¤": 3714,
      "åŃµ": 3715,
      "éĶ¥": 3716,
      "æ·Ĩ": 3717,
      "çĦļ": 3718,
      "åĩ°": 3719,
      "å¦ĥ": 3720,
      "ç¾ģ": 3721,
      "åĺĪ": 3722,
      "æłĪ": 3723,
      "æ¶Ł": 3724,
      "æ½ĩ": 3725,
      "åĬĩ": 3726,
      "æķĽ": 3727,
      "å©·": 3728,
      "çĳķ": 3729,
      "æ¢§": 3730,
      "åĵī": 3731,
      "ç¬ĭ": 3732,
      "æĻ¾": 3733,
      "çĦī": 3734,
      "éĽĮ": 3735,
      "åĿĿ": 3736,
      "äº¨": 3737,
      "ç¥Ģ": 3738,
      "åĪĥ": 3739,
      "ä¾Ī": 3740,
      "éħ¯": 3741,
      "æİ·": 3742,
      "é©ļ": 3743,
      "æ¶ķ": 3744,
      "è³¼": 3745,
      "åħĳ": 3746,
      "èĬ¥": 3747,
      "æĹ¬": 3748,
      "éĻĭ": 3749,
      "èĩĢ": 3750,
      "é¸¢": 3751,
      "è¬Ŀ": 3752,
      "è¯ł": 3753,
      "åĺ»": 3754,
      "æĿł": 3755,
      "çĢļ": 3756,
      "è¯¡": 3757,
      "å¤¢": 3758,
      "æĸĭ": 3759,
      "è¾ľ": 3760,
      "æĭ¦": 3761,
      "è´ŀ": 3762,
      "ç¬¨": 3763,
      "é¸µ": 3764,
      "å¹¾": 3765,
      "éĺĳ": 3766,
      "éľĦ": 3767,
      "æºī": 3768,
      "æĵĢ": 3769,
      "èĹ¥": 3770,
      "è°į": 3771,
      "ç»ħ": 3772,
      "åİ¢": 3773,
      "åĹĵ": 3774,
      "éĻĢ": 3775,
      "éĵ²": 3776,
      "ç°ĩ": 3777,
      "éį": 3778,
      "çĿ¹": 3779,
      "çŁ«": 3780,
      "æ¼±": 3781,
      "é¤Ĭ": 3782,
      "é¾į": 3783,
      "æ¢¢": 3784,
      "æĭĲ": 3785,
      "éĽĻ": 3786,
      "ç«¶": 3787,
      "è¢ģ": 3788,
      "èĩ¨": 3789,
      "åĥ»": 3790,
      "é«¦": 3791,
      "å§¨": 3792,
      "éŃģ": 3793,
      "å§ļ": 3794,
      "é²ĳ": 3795,
      "çĽ¯": 3796,
      "ç¨½": 3797,
      "çŀ»": 3798,
      "å®ķ": 3799,
      "åĭĿ": 3800,
      "æ±¹": 3801,
      "æłĹ": 3802,
      "å±ī": 3803,
      "ç¼Ĩ": 3804,
      "æ¶İ": 3805,
      "çĹĴ": 3806,
      "è¶¾": 3807,
      "èĳ«": 3808,
      "éģĽ": 3809,
      "æ¡Ķ": 3810,
      "ÏĢ": 3811,
      "å´İ": 3812,
      "æīī": 3813,
      "çĹĺ": 3814,
      "ç²¤": 3815,
      "åŀĦ": 3816,
      "æİĢ": 3817,
      "èł¢": 3818,
      "é§": 3819,
      "å¯¥": 3820,
      "æĢħ": 3821,
      "éĿ¡": 3822,
      "çĭł": 3823,
      "çŃ·": 3824,
      "æµĬ": 3825,
      "å´Ķ": 3826,
      "åºĩ": 3827,
      "æ©±": 3828,
      "ç¹¼": 3829,
      "å±ł": 3830,
      "åĹİ": 3831,
      "çľº": 3832,
      "æľĶ": 3833,
      "æŀī": 3834,
      "åłħ": 3835,
      "åĩ¹": 3836,
      "å±¡": 3837,
      "çĦ¯": 3838,
      "ç¦Ħ": 3839,
      "åłķ": 3840,
      "åı®": 3841,
      "è°¬": 3842,
      "ä¹ĸ": 3843,
      "ç¡Ŀ": 3844,
      "åĭĭ": 3845,
      "éľĵ": 3846,
      "ç¼Ń": 3847,
      "è¨´": 3848,
      "çĨł": 3849,
      "è±ģ": 3850,
      "è¦ª": 3851,
      "èħ¦": 3852,
      "æ¼ª": 3853,
      "ðŁĳ": 3854,
      "å¼Ľ": 3855,
      "éĶĮ": 3856,
      "éĻ¡": 3857,
      "çĽĶ": 3858,
      "å¯¶": 3859,
      "çĲª": 3860,
      "è£³": 3861,
      "ä»Ĩ": 3862,
      "é¹ı": 3863,
      "æī¯": 3864,
      "çªŁ": 3865,
      "è¿Ħ": 3866,
      "æł©": 3867,
      "ï¼ĸ": 3868,
      "æºħ": 3869,
      "èħ¥": 3870,
      "é²Ī": 3871,
      "è©©": 3872,
      "æªĲ": 3873,
      "èĭĳ": 3874,
      "åĹ¡": 3875,
      "ç´ļ": 3876,
      "éİ": 3877,
      "çĹ°": 3878,
      "èľ´": 3879,
      "çªį": 3880,
      "å½¦": 3881,
      "è¢¤": 3882,
      "çĸ¹": 3883,
      "åīĥ": 3884,
      "å¯Ĳ": 3885,
      "åĿ¤": 3886,
      "èĲ¦": 3887,
      "å±¯": 3888,
      "çľ¸": 3889,
      "é¢Ĭ": 3890,
      "æ³µ": 3891,
      "æ²ģ": 3892,
      "éĻ¨": 3893,
      "æģį": 3894,
      "éĨĽ": 3895,
      "ï¼ĺ": 3896,
      "æĥ¹": 3897,
      "æ¦»": 3898,
      "æľ½": 3899,
      "åĴĢ": 3900,
      "ç¨±": 3901,
      "èĪĶ": 3902,
      "çļĳ": 3903,
      "ç¥·": 3904,
      "çĪ¾": 3905,
      "æĲį": 3906,
      "å´Ń": 3907,
      "éħ®": 3908,
      "ï¼Ĥ": 3909,
      "æħµ": 3910,
      "ä¸ŀ": 3911,
      "ä¿ı": 3912,
      "çĽ¡": 3913,
      "çī¡": 3914,
      "åĺ±": 3915,
      "ä½¼": 3916,
      "èĲ¬": 3917,
      "å¾©": 3918,
      "ï¼Ĺ": 3919,
      "ç¯±": 3920,
      "åŀł": 3921,
      "è²·": 3922,
      "æ±Ĳ": 3923,
      "èª²": 3924,
      "çµ®": 3925,
      "å¶": 3926,
      "èº¯": 3927,
      "æ¸ļ": 3928,
      "æ§Ľ": 3929,
      "çĽ£": 3930,
      "èĻŁ": 3931,
      "æľ¦": 3932,
      "å°ī": 3933,
      "å±¬": 3934,
      "æ®·": 3935,
      "èĬľ": 3936,
      "ç´¹": 3937,
      "æ´½": 3938,
      "åĭµ": 3939,
      "éħĮ": 3940,
      "æĶĺ": 3941,
      "æ¶ħ": 3942,
      "çĨµ": 3943,
      "åĭī": 3944,
      "é©Ń": 3945,
      "è·¤": 3946,
      "æĵĶ": 3947,
      "éĬ·": 3948,
      "èķĥ": 3949,
      "å¦Ħ": 3950,
      "éķģ": 3951,
      "é£²": 3952,
      "é¦Ĵ": 3953,
      "çļİ": 3954,
      "é¡·": 3955,
      "è¾²": 3956,
      "éªĨ": 3957,
      "éĩĿ": 3958,
      "éĺĻ": 3959,
      "æ¡©": 3960,
      "çıĢ": 3961,
      "èĢ»": 3962,
      "å¦Ĵ": 3963,
      "éĶĤ": 3964,
      "è¤¶": 3965,
      "æı®": 3966,
      "å·į": 3967,
      "è´¿": 3968,
      "çł¸": 3969,
      "èĲĥ": 3970,
      "èĥ§": 3971,
      "å©ª": 3972,
      "é¬¥": 3973,
      "âĹ": 3974,
      "æ¸²": 3975,
      "é¦¬": 3976,
      "ä¿ĳ": 3977,
      "å¨ħ": 3978,
      "è¾¦": 3979,
      "æ¨½": 3980,
      "éĲ": 3981,
      "ç«¿": 3982,
      "åĤ·": 3983,
      "èļķ": 3984,
      "ç¯Ŀ": 3985,
      "æĭĻ": 3986,
      "èĲ¤": 3987,
      "è»Ł": 3988,
      "æ°Ł": 3989,
      "çª¥": 3990,
      "çĭ¡": 3991,
      "çį»": 3992,
      "æķ·": 3993,
      "ç¯Ħ": 3994,
      "ç»·": 3995,
      "åĹŁ": 3996,
      "æįı": 3997,
      "å½·": 3998,
      "æĶĿ": 3999,
      "é¥¶": 4000,
      "åĹľ": 4001,
      "ç°§": 4002,
      "ï¼į": 4003,
      "æ¾ľ": 4004,
      "ç·Ĵ": 4005,
      "å¢Ł": 4006,
      "ç£Ĭ": 4007,
      "ä¹į": 4008,
      "ç¤İ": 4009,
      "åĳ¤": 4010,
      "è¢ħ": 4011,
      "éĿĸ": 4012,
      "èĻŀ": 4013,
      "çĤĻ": 4014,
      "åĩ¿": 4015,
      "æ¶§": 4016,
      "åĺĮ": 4017,
      "åŃľ": 4018,
      "æĵ¬": 4019,
      "æķµ": 4020,
      "ç©¹": 4021,
      "èĪ¶": 4022,
      "æĸ§": 4023,
      "éºŁ": 4024,
      "æıĽ": 4025,
      "æį£": 4026,
      "æĬī": 4027,
      "é²¤": 4028,
      "çĤ½": 4029,
      "å¨¥": 4030,
      "æķĹ": 4031,
      "èĤĺ": 4032,
      "æ¨ĵ": 4033,
      "æ²¼": 4034,
      "æĨ§": 4035,
      "è¤Ĵ": 4036,
      "åĵ¨": 4037,
      "ç©Ĺ": 4038,
      "åĵĹ": 4039,
      "âĪ": 4040,
      "ç´Ĭ": 4041,
      "é¬Ĩ": 4042,
      "æĨ¬": 4043,
      "æ»Ķ": 4044,
      "éĤĳ": 4045,
      "çĲħ": 4046,
      "æ£ļ": 4047,
      "åĿ·": 4048,
      "ç·¨": 4049,
      "çľ·": 4050,
      "åĸĩ": 4051,
      "åĲł": 4052,
      "å¸ľ": 4053,
      "å¦į": 4054,
      "æĤį": 4055,
      "éĽ²": 4056,
      "æ½Ľ": 4057,
      "è±Į": 4058,
      "æ¾İ": 4059,
      "æĶĴ": 4060,
      "èĿĩ": 4061,
      "åĺ¶": 4062,
      "çŀª": 4063,
      "é©´": 4064,
      "èĤ½": 4065,
      "é»¯": 4066,
      "å¯Ŀ": 4067,
      "çĺ«": 4068,
      "æĤĸ": 4069,
      "å¼Ī": 4070,
      "èĤĭ": 4071,
      "çĨĦ": 4072,
      "å£ĳ": 4073,
      "çŁ¢": 4074,
      "æī³": 4075,
      "ç¿ĺ": 4076,
      "åĨķ": 4077,
      "é¦ı": 4078,
      "çģ¼": 4079,
      "æĢ¯": 4080,
      "ç´Ģ": 4081,
      "åĻľ": 4082,
      "é£Ļ": 4083,
      "å¨Ł": 4084,
      "éĸ±": 4085,
      "åĸĢ": 4086,
      "èĭ·": 4087,
      "éª¸": 4088,
      "é³ķ": 4089,
      "èįĶ": 4090,
      "åŁ·": 4091,
      "éĻĽ": 4092,
      "çĿ¦": 4093,
      "ç¥ł": 4094,
      "æ²ª": 4095,
      "éĮ¯": 4096,
      "ç½¹": 4097,
      "çľ©": 4098,
      "é¸¾": 4099,
      "åĮĪ": 4100,
      "åĸ³": 4101,
      "èĭĽ": 4102,
      "æĥŃ": 4103,
      "è¶´": 4104,
      "æĲĵ": 4105,
      "èĴĭ": 4106,
      "çº¶": 4107,
      "åĨ¶": 4108,
      "éĹº": 4109,
      "éĢ£": 4110,
      "çĸµ": 4111,
      "éķ¶": 4112,
      "å»³": 4113,
      "æĿŀ": 4114,
      "ç¢¼": 4115,
      "éĭ": 4116,
      "èŀĥ": 4117,
      "ç»®": 4118,
      "èĮģ": 4119,
      "èĲį": 4120,
      "èĳī": 4121,
      "âĢĵ": 4122,
      "ç·©": 4123,
      "æĤ¼": 4124,
      "æ£±": 4125,
      "å°¹": 4126,
      "æĻ¦": 4127,
      "é¤¨": 4128,
      "çĦĸ": 4129,
      "éĽį": 4130,
      "âĸ": 4131,
      "æ£ł": 4132,
      "æĲģ": 4133,
      "éªı": 4134,
      "é¹Ĭ": 4135,
      "åıŃ": 4136,
      "è¡Ľ": 4137,
      "æ²¦": 4138,
      "çģ½": 4139,
      "æģ¬": 4140,
      "è¥Ħ": 4141,
      "éĩī": 4142,
      "éı": 4143,
      "æºº": 4144,
      "åĲ¼": 4145,
      "ç¦®": 4146,
      "éĺĢ": 4147,
      "åĻ¢": 4148,
      "çĮķ": 4149,
      "æ¹ĥ": 4150,
      "äºŁ": 4151,
      "æĪ³": 4152,
      "åĴĨ": 4153,
      "è²´": 4154,
      "åħĴ": 4155,
      "åķ¶": 4156,
      "éģĲ": 4157,
      "èĢ½": 4158,
      "èľ¿": 4159,
      "èľĴ": 4160,
      "å«ī": 4161,
      "ç®«": 4162,
      "èı±": 4163,
      "éĸĥ": 4164,
      "è²¢": 4165,
      "ãĢİ": 4166,
      "åĳľ": 4167,
      "èģĭ": 4168,
      "æµĴ": 4169,
      "é¢ħ": 4170,
      "ç¼ª": 4171,
      "é¹Ń": 4172,
      "åį¦": 4173,
      "çŀ³": 4174,
      "é³į": 4175,
      "ãĢı": 4176,
      "å¥¸": 4177,
      "è´±": 4178,
      "çª¦": 4179,
      "æĵ´": 4180,
      "çĮ¾": 4181,
      "éįµ": 4182,
      "èĢ¦": 4183,
      "ä¿Ń": 4184,
      "è¬Ľ": 4185,
      "åĴ¯": 4186,
      "å¥ķ": 4187,
      "çĦĹ": 4188,
      "âī": 4189,
      "æ·³": 4190,
      "è²¡": 4191,
      "å¯ĩ": 4192,
      "åĩĽ": 4193,
      "çŀĴ": 4194,
      "éĶ¯": 4195,
      "é¸³": 4196,
      "é¨": 4197,
      "èĺ¸": 4198,
      "æĨ¶": 4199,
      "åºµ": 4200,
      "æİı": 4201,
      "å£ŀ": 4202,
      "èı©": 4203,
      "åĺĹ": 4204,
      "çģ¸": 4205,
      "åį¤": 4206,
      "éĴĽ": 4207,
      "çĿģ": 4208,
      "ãĥ": 4209,
      "è½¼": 4210,
      "èĭŁ": 4211,
      "éĬĢ": 4212,
      "ç¦¹": 4213,
      "åĺ§": 4214,
      "é®": 4215,
      "éĿ¶": 4216,
      "çĤĬ": 4217,
      "èĹį": 4218,
      "è¿¢": 4219,
      "éĳ": 4220,
      "åļı": 4221,
      "éİ®": 4222,
      "çıĳ": 4223,
      "åĨĢ": 4224,
      "éģº": 4225,
      "ç¾ļ": 4226,
      "åºļ": 4227,
      "æĤ¸": 4228,
      "éĢį": 4229,
      "èĺŃ": 4230,
      "èİ½": 4231,
      "éĻ¸": 4232,
      "åĨī": 4233,
      "æĭ¢": 4234,
      "æ¼©": 4235,
      "éĮĦ": 4236,
      "è£¸": 4237,
      "æĺ§": 4238,
      "åķŁ": 4239,
      "è©³": 4240,
      "æ²ĵ": 4241,
      "ç¿¡": 4242,
      "æ´¼": 4243,
      "åĮ®": 4244,
      "æĽĻ": 4245,
      "åĸĻ": 4246,
      "ç¨ļ": 4247,
      "å¹Ĥ": 4248,
      "æ¶£": 4249,
      "åģİ": 4250,
      "éĺª": 4251,
      "å³¶": 4252,
      "å¥İ": 4253,
      "åĲĴ": 4254,
      "ç§¤": 4255,
      "ç¹«": 4256,
      "çµ²": 4257,
      "ç°¿": 4258,
      "æºĿ": 4259,
      "æĩ·": 4260,
      "è²Ĥ": 4261,
      "åĶ¾": 4262,
      "å°§": 4263,
      "éļ±": 4264,
      "ç±ĥ": 4265,
      "ç´į": 4266,
      "è¯Ľ": 4267,
      "åİ¥": 4268,
      "èĽ¤": 4269,
      "å¾ī": 4270,
      "é»ĥ": 4271,
      "å®¦": 4272,
      "æŀ¸": 4273,
      "æªĢ": 4274,
      "å¾ľ": 4275,
      "çµķ": 4276,
      "èĲ¼": 4277,
      "èĮı": 4278,
      "å¨ĳ": 4279,
      "å¹¢": 4280,
      "è·ª": 4281,
      "åķ¾": 4282,
      "ç¥ĩ": 4283,
      "æ¼ī": 4284,
      "æĪİ": 4285,
      "èľ»": 4286,
      "çĶĦ": 4287,
      "èľĵ": 4288,
      "æłĵ": 4289,
      "å²ļ": 4290,
      "é¹ĥ": 4291,
      "åĳĲ": 4292,
      "ðŁį": 4293,
      "æģ³": 4294,
      "çĶ©": 4295,
      "é¢ĵ": 4296,
      "åº¶": 4297,
      "èĥļ": 4298,
      "è³ŀ": 4299,
      "æĥĨ": 4300,
      "çĦĬ": 4301,
      "èĻı": 4302,
      "èľ·": 4303,
      "åº«": 4304,
      "éĽĸ": 4305,
      "ç±ģ": 4306,
      "åĵĴ": 4307,
      "æ·ĳ": 4308,
      "æħ£": 4309,
      "éĻ°": 4310,
      "æ¦Ń": 4311,
      "æ¿ĥ": 4312,
      "è°Ń": 4313,
      "åīģ": 4314,
      "åĿŁ": 4315,
      "çĹª": 4316,
      "ç¨¼": 4317,
      "è°ı": 4318,
      "å¥®": 4319,
      "æµ£": 4320,
      "è¶¨": 4321,
      "èĤĩ": 4322,
      "æĹŃ": 4323,
      "èĩī": 4324,
      "âĸ¡": 4325,
      "ãģ": 4326,
      "çĿ«": 4327,
      "çŃĲ": 4328,
      "çĿ¿": 4329,
      "éº¸": 4330,
      "åħľ": 4331,
      "åĦ²": 4332,
      "çĲ¢": 4333,
      "ï¸": 4334,
      "è·ĭ": 4335,
      "åĹ£": 4336,
      "åĢ©": 4337,
      "å¨¶": 4338,
      "ç´Ľ": 4339,
      "è¿¥": 4340,
      "æłħ": 4341,
      "çĤ¬": 4342,
      "ä»ķ": 4343,
      "è¡Ŀ": 4344,
      "è¨ª": 4345,
      "å¸·": 4346,
      "çĲī": 4347,
      "ç¬Ļ": 4348,
      "èĶ·": 4349,
      "ç¶ľ": 4350,
      "éĽı": 4351,
      "ç¦¾": 4352,
      "èª¤": 4353,
      "é®®": 4354,
      "èĿİ": 4355,
      "éķĳ": 4356,
      "ç¼Ķ": 4357,
      "éĿĵ": 4358,
      "ä¿ĺ": 4359,
      "éŁ¶": 4360,
      "ç²ª": 4361,
      "èĢ¿": 4362,
      "æĥ¡": 4363,
      "ä¾¬": 4364,
      "éĴ³": 4365,
      "çĸ®": 4366,
      "é©¿": 4367,
      "æ½Ķ": 4368,
      "æĨİ": 4369,
      "è¯«": 4370,
      "èłķ": 4371,
      "ç¼İ": 4372,
      "é©Ł": 4373,
      "éķĢ": 4374,
      "æ¦Ĩ": 4375,
      "éĻ£": 4376,
      "é¡§": 4377,
      "éķĤ": 4378,
      "æ²Į": 4379,
      "éħ°": 4380,
      "çŀŃ": 4381,
      "ï¸ı": 4382,
      "èĦħ": 4383,
      "æ¦Ī": 4384,
      "åĥļ": 4385,
      "è¯ħ": 4386,
      "æŃĲ": 4387,
      "ä¾®": 4388,
      "é³Ĺ": 4389,
      "è§ŀ": 4390,
      "å²ĸ": 4391,
      "çĸļ": 4392,
      "ä¾ı": 4393,
      "è²¨": 4394,
      "ç¸¾": 4395,
      "æ¦®": 4396,
      "åķĥ": 4397,
      "èĻĽ": 4398,
      "èµĺ": 4399,
      "é¸¯": 4400,
      "åĸĥ": 4401,
      "èº¬": 4402,
      "åħĢ": 4403,
      "åŁĶ": 4404,
      "çķ¸": 4405,
      "éĽ¯": 4406,
      "æı½": 4407,
      "æ¡ĵ": 4408,
      "çĴ§": 4409,
      "é³ĥ": 4410,
      "ä½ĳ": 4411,
      "æĺĬ": 4412,
      "èķ¨": 4413,
      "çĻ«": 4414,
      "çĲ¦": 4415,
      "äº¥": 4416,
      "å¯ħ": 4417,
      "æ¯ĭ": 4418,
      "éŀį": 4419,
      "è£´": 4420,
      "æĹĮ": 4421,
      "éħĹ": 4422,
      "èĹķ": 4423,
      "åµ©": 4424,
      "æĤ´": 4425,
      "éĢħ": 4426,
      "æ¦Ľ": 4427,
      "è´ı": 4428,
      "æŁ¬": 4429,
      "ðŁĴ": 4430,
      "äº¢": 4431,
      "è¸Ŀ": 4432,
      "ç°ª": 4433,
      "æ¸¤": 4434,
      "éĤĤ": 4435,
      "çĹŀ": 4436,
      "é¥µ": 4437,
      "éŃļ": 4438,
      "å«¦": 4439,
      "è´®": 4440,
      "åĶ§": 4441,
      "èĪħ": 4442,
      "è£ĺ": 4443,
      "âĳł": 4444,
      "æŃ¸": 4445,
      "èĮī": 4446,
      "è¢Ĥ": 4447,
      "èĮľ": 4448,
      "èķĬ": 4449,
      "èĵĭ": 4450,
      "éļĭ": 4451,
      "ç²Ł": 4452,
      "æĢł": 4453,
      "é³¥": 4454,
      "æ´±": 4455,
      "ç²½": 4456,
      "ç¾Ķ": 4457,
      "åŀ¦": 4458,
      "çªĴ": 4459,
      "çĥ©": 4460,
      "éł»": 4461,
      "è«ĩ": 4462,
      "å¡Ĭ": 4463,
      "çŀĦ": 4464,
      "æĻı": 4465,
      "éģķ": 4466,
      "çĸ¡": 4467,
      "èĹ©": 4468,
      "ç¾ħ": 4469,
      "å¾¨": 4470,
      "æĭĩ": 4471,
      "çĵ¢": 4472,
      "é¹³": 4473,
      "éĺĪ": 4474,
      "æ£Ħ": 4475,
      "åĦĢ": 4476,
      "éĻĩ": 4477,
      "æ·ħ": 4478,
      "éĴĿ": 4479,
      "èħ³": 4480,
      "ç»Ľ": 4481,
      "éħĭ": 4482,
      "å±İ": 4483,
      "çįİ": 4484,
      "è¯£": 4485,
      "èįŁ": 4486,
      "è¼ī": 4487,
      "æ§Ł": 4488,
      "åĲ±": 4489,
      "çŃĨ": 4490,
      "ä½¬": 4491,
      "éĽ¹": 4492,
      "çŀİ": 4493,
      "æ¸Ń": 4494,
      "æŃ²": 4495,
      "åĻ©": 4496,
      "éĹ¸": 4497,
      "ä¿ļ": 4498,
      "åĬĳ": 4499,
      "çĩĪ": 4500,
      "éĦĻ": 4501,
      "ä½Ī": 4502,
      "åĵ¼": 4503,
      "æ¼¢": 4504,
      "é¢Į": 4505,
      "çĪ¹": 4506,
      "éĲµ": 4507,
      "å½¬": 4508,
      "çĽ¹": 4509,
      "éĤµ": 4510,
      "éļį": 4511,
      "èĶ¼": 4512,
      "èµĤ": 4513,
      "çĹ«": 4514,
      "æ¨µ": 4515,
      "èŁĴ": 4516,
      "éĹ½": 4517,
      "åĳ¦": 4518,
      "æįĨ": 4519,
      "çĸŁ": 4520,
      "èªł": 4521,
      "åķ°": 4522,
      "å²Ĳ": 4523,
      "æĮ¨": 4524,
      "ç¥Ľ": 4525,
      "è¢Ħ": 4526,
      "æĨĶ": 4527,
      "âĳ¡": 4528,
      "èĭĴ": 4529,
      "æŃª": 4530,
      "åķĦ": 4531,
      "æ¶ĵ": 4532,
      "åĺŁ": 4533,
      "æ¯Ĺ": 4534,
      "éħ£": 4535,
      "çħ¦": 4536,
      "ç»°": 4537,
      "èµ¦": 4538,
      "çħ½": 4539,
      "ä¾ĥ": 4540,
      "é¡ĺ": 4541,
      "èĽ¾": 4542,
      "ç¹ª": 4543,
      "åŀ®": 4544,
      "çł§": 4545,
      "æļ¹": 4546,
      "ç¾¹": 4547,
      "èįĢ": 4548,
      "æįį": 4549,
      "æ¡¨": 4550,
      "çĺŁ": 4551,
      "è¹¬": 4552,
      "å¹Ķ": 4553,
      "ç§ĥ": 4554,
      "æĭ§": 4555,
      "æ·«": 4556,
      "æ¹į": 4557,
      "çľ¶": 4558,
      "ç¼®": 4559,
      "èħĳ": 4560,
      "çĥ½": 4561,
      "è§¸": 4562,
      "èŃ¬": 4563,
      "åı½": 4564,
      "âĹĩ": 4565,
      "ç¬ł": 4566,
      "æı£": 4567,
      "ä¾¨": 4568,
      "åĢĺ": 4569,
      "æĴĩ": 4570,
      "ç»ŀ": 4571,
      "åĬī": 4572,
      "æ»ķ": 4573,
      "å¦¾": 4574,
      "åķ®": 4575,
      "èĬ¸": 4576,
      "çłĮ": 4577,
      "é§Ľ": 4578,
      "éľĨ": 4579,
      "èļĵ": 4580,
      "çļĵ": 4581,
      "éĪ": 4582,
      "èĭĩ": 4583,
      "å®®": 4584,
      "çŃµ": 4585,
      "æĸŁ": 4586,
      "éľŃ": 4587,
      "å½¤": 4588,
      "æģķ": 4589,
      "éŁŃ": 4590,
      "åĺİ": 4591,
      "ä¼«": 4592,
      "èļĿ": 4593,
      "åŃ°": 4594,
      "ç¾Į": 4595,
      "èģĸ": 4596,
      "æ§Ĳ": 4597,
      "æĪĬ": 4598,
      "ç»Ĭ": 4599,
      "åį¯": 4600,
      "æ©ĩ": 4601,
      "çĳª": 4602,
      "è©¢": 4603,
      "Ã©": 4604,
      "çĲ¶": 4605,
      "éļ»": 4606,
      "èĪľ": 4607,
      "æ£¹": 4608,
      "æ¿Ľ": 4609,
      "æĪį": 4610,
      "å¾ĳ": 4611,
      "è¨º": 4612,
      "èĻĶ": 4613,
      "é§ķ": 4614,
      "åĢ«": 4615,
      "æ®´": 4616,
      "æļĿ": 4617,
      "ä¾Ħ": 4618,
      "ç¾²": 4619,
      "èĲĭ": 4620,
      "åĴļ": 4621,
      "å¹£": 4622,
      "åĳĹ": 4623,
      "èĶĹ": 4624,
      "çªĳ": 4625,
      "éłĨ": 4626,
      "åĭŀ": 4627,
      "è¹¤": 4628,
      "éľı": 4629,
      "èĬĭ": 4630,
      "çĥĥ": 4631,
      "è°Ķ": 4632,
      "æ½¦": 4633,
      "å±ģ": 4634,
      "èįı": 4635,
      "åĵĦ": 4636,
      "çŁĹ": 4637,
      "åĶī": 4638,
      "åŀ£": 4639,
      "æ¥·": 4640,
      "æ¾¹": 4641,
      "é£¾": 4642,
      "é£Ĵ": 4643,
      "çłº": 4644,
      "åĹ¦": 4645,
      "ä¸Ĳ": 4646,
      "èļ¯": 4647,
      "è®³": 4648,
      "å½Ļ": 4649,
      "çīł": 4650,
      "å¥Ĥ": 4651,
      "è¾Ħ": 4652,
      "éķį": 4653,
      "æ¢ĵ": 4654,
      "åľĥ": 4655,
      "è¾Ļ": 4656,
      "æ¸Ŀ": 4657,
      "çį¸": 4658,
      "æĸĮ": 4659,
      "èĬª": 4660,
      "è¨Ĥ": 4661,
      "æĿ³": 4662,
      "åĮ¡": 4663,
      "èĶ»": 4664,
      "åĴİ": 4665,
      "åĬ¾": 4666,
      "éĶĦ": 4667,
      "æĨ¨": 4668,
      "éĮ¢": 4669,
      "çľ¨": 4670,
      "è¯²": 4671,
      "ä¿Ĳ": 4672,
      "å±¹": 4673,
      "æŃ¹": 4674,
      "ç¬º": 4675,
      "ç¼ī": 4676,
      "è£ľ": 4677,
      "æļ¨": 4678,
      "åīĽ": 4679,
      "åģķ": 4680,
      "ç°¸": 4681,
      "ðŁĳį": 4682,
      "å¢©": 4683,
      "çª®": 4684,
      "è¯Ļ": 4685,
      "åĨ½": 4686,
      "èĦĪ": 4687,
      "åĺĺ": 4688,
      "æĨ©": 4689,
      "çĺĢ": 4690,
      "æĮŁ": 4691,
      "èį¤": 4692,
      "åĳĥ": 4693,
      "åŃ¢": 4694,
      "ä¼¶": 4695,
      "èĺĭ": 4696,
      "ðŁİ": 4697,
      "çĲµ": 4698,
      "éĺĤ": 4699,
      "åĸĶ": 4700,
      "é¡į": 4701,
      "æĳĴ": 4702,
      "æĩ¦": 4703,
      "ç£ĭ": 4704,
      "ï¿": 4705,
      "åĴĭ": 4706,
      "éľģ": 4707,
      "çļĭ": 4708,
      "å·³": 4709,
      "é±¿": 4710,
      "ä»Ħ": 4711,
      "æĩĬ": 4712,
      "è¼¯": 4713,
      "åı¨": 4714,
      "å¸§": 4715,
      "éªĩ": 4716,
      "èĳ©": 4717,
      "èĴ¿": 4718,
      "Î²": 4719,
      "æĥ¶": 4720,
      "ç®Ķ": 4721,
      "å¨Ľ": 4722,
      "éĶļ": 4723,
      "è·¹": 4724,
      "ç¼¥": 4725,
      "ç¦§": 4726,
      "æ¶®": 4727,
      "çĨ¨": 4728,
      "èĹľ": 4729,
      "éľĸ": 4730,
      "æ¨Ĭ": 4731,
      "çªľ": 4732,
      "ç¤´": 4733,
      "éļħ": 4734,
      "èŁ¾": 4735,
      "ãĥ»": 4736,
      "è¸Ĳ": 4737,
      "æ·¤": 4738,
      "æ¥ł": 4739,
      "ä½Ķ": 4740,
      "é¡ı": 4741,
      "èĽŁ": 4742,
      "è¼Ľ": 4743,
      "å¶Ĥ": 4744,
      "éºĵ": 4745,
      "çĤ¯": 4746,
      "æħ¶": 4747,
      "åĵ©": 4748,
      "èĮĹ": 4749,
      "æªĶ": 4750,
      "èĨº": 4751,
      "è²¿": 4752,
      "èĺĩ": 4753,
      "æ«": 4754,
      "æľķ": 4755,
      "éĹ¾": 4756,
      "éķĸ": 4757,
      "éĴ§": 4758,
      "çŀ§": 4759,
      "æ®º": 4760,
      "âīĪ": 4761,
      "è½§": 4762,
      "å§¥": 4763,
      "ç²±": 4764,
      "æĪĢ": 4765,
      "æİº": 4766,
      "éłĤ": 4767,
      "è¦½": 4768,
      "å£¯": 4769,
      "è¹´": 4770,
      "ä¸«": 4771,
      "åı©": 4772,
      "æ±¶": 4773,
      "æ®Ĩ": 4774,
      "æĪŁ": 4775,
      "éĤ¸": 4776,
      "æģĨ": 4777,
      "å²ĳ": 4778,
      "æ·º": 4779,
      "çħŀ": 4780,
      "ç¢¾": 4781,
      "ðŁĮ¹": 4782,
      "éĲĺ": 4783,
      "ï¼ı": 4784,
      "éļĺ": 4785,
      "æ½¢": 4786,
      "å¥§": 4787,
      "èĭŀ": 4788,
      "é¬ĥ": 4789,
      "æĨĤ": 4790,
      "ç¸®": 4791,
      "éĶ£": 4792,
      "éĺľ": 4793,
      "éļİ": 4794,
      "èĹĵ": 4795,
      "ä¿ł": 4796,
      "æ²½": 4797,
      "éłĵ": 4798,
      "å¨´": 4799,
      "çĴĭ": 4800,
      "éģģ": 4801,
      "åŀ©": 4802,
      "âħ": 4803,
      "åĬĪ": 4804,
      "èĪĬ": 4805,
      "éĵĽ": 4806,
      "çĨ¹": 4807,
      "æ¿ķ": 4808,
      "èŀĤ": 4809,
      "çĹ¹": 4810,
      "ç°½": 4811,
      "æĮİ": 4812,
      "åļİ": 4813,
      "çĲ¥": 4814,
      "ç¯Ĩ": 4815,
      "å»¢": 4816,
      "å£¬": 4817,
      "è£ı": 4818,
      "åªĽ": 4819,
      "èĸ¦": 4820,
      "æĮŀ": 4821,
      "éĤ¹": 4822,
      "æĴ®": 4823,
      "éŀł": 4824,
      "è°Ĵ": 4825,
      "è¹Ń": 4826,
      "åıŁ": 4827,
      "èİĬ": 4828,
      "å½Ŀ": 4829,
      "æ¿¡": 4830,
      "éĢ±": 4831,
      "èĲ±": 4832,
      "æĵĴ": 4833,
      "åĴ«": 4834,
      "æ±ŀ": 4835,
      "éª°": 4836,
      "è¾Ĺ": 4837,
      "ç¨£": 4838,
      "ç¼Ī": 4839,
      "èĮ§": 4840,
      "ðŁĲ": 4841,
      "æ¸¥": 4842,
      "èıĸ": 4843,
      "é¸ł": 4844,
      "å¥ļ": 4845,
      "éłģ": 4846,
      "è¡ħ": 4847,
      "æķķ": 4848,
      "ç¥ģ": 4849,
      "åĵĨ": 4850,
      "å½Ī": 4851,
      "ä¿ŀ": 4852,
      "åģī": 4853,
      "èĬ·": 4854,
      "è¿¦": 4855,
      "å¸Ľ": 4856,
      "æ³ł": 4857,
      "æĵ¾": 4858,
      "ç¨ħ": 4859,
      "æ©ĭ": 4860,
      "å³¥": 4861,
      "æľŃ": 4862,
      "æģ£": 4863,
      "å«£": 4864,
      "æīĴ": 4865,
      "ç´Ķ": 4866,
      "éķŃ": 4867,
      "çº«": 4868,
      "æ±ķ": 4869,
      "è°©": 4870,
      "éĤ±": 4871,
      "é©¹": 4872,
      "ä¼İ": 4873,
      "æģĻ": 4874,
      "èħ®": 4875,
      "ç¹ŀ": 4876,
      "çĺĻ": 4877,
      "å¦Ĭ": 4878,
      "çĥĻ": 4879,
      "âĢį": 4880,
      "èĨĬ": 4881,
      "æĺµ": 4882,
      "çīĨ": 4883,
      "çĽ¤": 4884,
      "åĳ±": 4885,
      "âĿ": 4886,
      "éĩľ": 4887,
      "è±º": 4888,
      "èľķ": 4889,
      "è²ĵ": 4890,
      "èŁł": 4891,
      "æ¿¯": 4892,
      "çļ¿": 4893,
      "æĪ®": 4894,
      "ç´¡": 4895,
      "çĻ¸": 4896,
      "èĦĵ": 4897,
      "å¿ı": 4898,
      "åķª": 4899,
      "éŁĵ": 4900,
      "æĲĸ": 4901,
      "èľĬ": 4902,
      "åĮ£": 4903,
      "å¯§": 4904,
      "åĴ¿": 4905,
      "é¥¯": 4906,
      "æ£º": 4907,
      "å¨ł": 4908,
      "æĩ¼": 4909,
      "å¼¼": 4910,
      "æ¯¡": 4911,
      "éºĴ": 4912,
      "âĪ¶": 4913,
      "ä»ŀ": 4914,
      "ç´ĭ": 4915,
      "çħĻ": 4916,
      "éĦī": 4917,
      "å¯©": 4918,
      "èĥ¥": 4919,
      "èŃ½": 4920,
      "æĭ£": 4921,
      "æ¯Ļ": 4922,
      "ç»¯": 4923,
      "èİŀ": 4924,
      "å¸ļ": 4925,
      "åģĥ": 4926,
      "ç¬ĥ": 4927,
      "æĭİ": 4928,
      "æ»ĩ": 4929,
      "è³£": 4930,
      "éºµ": 4931,
      "åĪ¨": 4932,
      "éĹµ": 4933,
      "ç¾Ł": 4934,
      "éĦĤ": 4935,
      "æĥĺ": 4936,
      "çľ¯": 4937,
      "éħī": 4938,
      "èĥ³": 4939,
      "æį²": 4940,
      "çĤ³": 4941,
      "çłļ": 4942,
      "å§Ĭ": 4943,
      "èĪµ": 4944,
      "èĦĲ": 4945,
      "è°¤": 4946,
      "èļ¤": 4947,
      "çĩĴ": 4948,
      "è¢Ĵ": 4949,
      "åķģ": 4950,
      "é¾ļ": 4951,
      "èªĩ": 4952,
      "è³´": 4953,
      "çħī": 4954,
      "ç¨·": 4955,
      "åª²": 4956,
      "âĳ¢": 4957,
      "çŁľ": 4958,
      "çł¾": 4959,
      "éºĭ": 4960,
      "éĢŀ": 4961,
      "èĦ¯": 4962,
      "å¤Ń": 4963,
      "çīŁ": 4964,
      "è°Ļ": 4965,
      "Î±": 4966,
      "ä¼º": 4967,
      "å¦©": 4968,
      "é¦¥": 4969,
      "èĦ«": 4970,
      "åĨ¢": 4971,
      "é¡Ĩ": 4972,
      "é»į": 4973,
      "åª³": 4974,
      "æĩ¿": 4975,
      "æ§ĥ": 4976,
      "éı¡": 4977,
      "æĪĽ": 4978,
      "åĲĿ": 4979,
      "éªĭ": 4980,
      "ç¦Ģ": 4981,
      "ãĤ": 4982,
      "ç´Ļ": 4983,
      "éģŀ": 4984,
      "ç²²": 4985,
      "èĽĢ": 4986,
      "èĩĥ": 4987,
      "æħĳ": 4988,
      "èŃ¯": 4989,
      "èŁ²": 4990,
      "é»Ķ": 4991,
      "èİ´": 4992,
      "äºĺ": 4993,
      "æ³ŀ": 4994,
      "éķ¯": 4995,
      "çĵ®": 4996,
      "æĪĮ": 4997,
      "æĸĽ": 4998,
      "èĢĺ": 4999,
      "åĢª": 5000,
      "éĤ¢": 5001,
      "è·¡": 5002,
      "ç¢ĺ": 5003,
      "è®ļ": 5004,
      "çĥ¬": 5005,
      "å£¹": 5006,
      "èĵĳ": 5007,
      "äºĤ": 5008,
      "é³Į": 5009,
      "ç»¢": 5010,
      "èĩŁ": 5011,
      "åĿĤ": 5012,
      "åĦĺ": 5013,
      "å³Ļ": 5014,
      "è´»": 5015,
      "èµĥ": 5016,
      "è°Ł": 5017,
      "çĸ¤": 5018,
      "ç£º": 5019,
      "æĤ¯": 5020,
      "é¦į": 5021,
      "é¾Ī": 5022,
      "å©Ģ": 5023,
      "âĺ": 5024,
      "é¦ģ": 5025,
      "ðŁı": 5026,
      "æķĿ": 5027,
      "çĬģ": 5028,
      "èŀ¨": 5029,
      "æĩµ": 5030,
      "é¬§": 5031,
      "âĿ¤": 5032,
      "èį¼": 5033,
      "èķĻ": 5034,
      "æĬ¨": 5035,
      "éĶ°": 5036,
      "ç¡¼": 5037,
      "é¹«": 5038,
      "æĽľ": 5039,
      "è¬Ģ": 5040,
      "æ¯Ĥ": 5041,
      "çŀ¥": 5042,
      "é¹Ĥ": 5043,
      "çĢĽ": 5044,
      "å»¿": 5045,
      "å»ł": 5046,
      "éª¥": 5047,
      "è«§": 5048,
      "è¯¬": 5049,
      "æĥļ": 5050,
      "èĬ¡": 5051,
      "èĴ¼": 5052,
      "ç¸£": 5053,
      "éıĪ": 5054,
      "è¿¸": 5055,
      "åħ¢": 5056,
      "è°ķ": 5057,
      "éĵĢ": 5058,
      "åª½": 5059,
      "èŁĢ": 5060,
      "éģ½": 5061,
      "å²Ķ": 5062,
      "ðŁĻ": 5063,
      "æµļ": 5064,
      "çĮ¬": 5065,
      "èª¼": 5066,
      "èŁĭ": 5067,
      "å½ª": 5068,
      "æļ¢": 5069,
      "è¥²": 5070,
      "å¨ĵ": 5071,
      "åº¾": 5072,
      "è¾į": 5073,
      "åĶĳ": 5074,
      "åł°": 5075,
      "çŀĮ": 5076,
      "é´": 5077,
      "æ¶¼": 5078,
      "èĦį": 5079,
      "åĺĨ": 5080,
      "åļ·": 5081,
      "æĥ®": 5082,
      "éŁ¬": 5083,
      "çļĻ": 5084,
      "ç¼¨": 5085,
      "èıģ": 5086,
      "å¨Ħ": 5087,
      "èĵ®": 5088,
      "èĨł": 5089,
      "âĶ": 5090,
      "ç»»": 5091,
      "è¡¢": 5092,
      "å±Ĳ": 5093,
      "é£¯": 5094,
      "å©¿": 5095,
      "é³´": 5096,
      "âĪļ": 5097,
      "ç³ľ": 5098,
      "èºį": 5099,
      "èĸ©": 5100,
      "é¨İ": 5101,
      "çĳĻ": 5102,
      "æ¹¯": 5103,
      "ç¼±": 5104,
      "æĶ¸": 5105,
      "èĤ±": 5106,
      "éĤ¯": 5107,
      "èĨĽ": 5108,
      "ï¿½": 5109,
      "æĺķ": 5110,
      "çİº": 5111,
      "ä¿¨": 5112,
      "æĭĪ": 5113,
      "æįĤ": 5114,
      "å©µ": 5115,
      "é¹½": 5116,
      "éĸī": 5117,
      "å¤¥": 5118,
      "åĮķ": 5119,
      "è§ĳ": 5120,
      "çł¥": 5121,
      "é²«": 5122,
      "å¤Ļ": 5123,
      "æĤħ": 5124,
      "éĥĿ": 5125,
      "æĲĶ": 5126,
      "è¸µ": 5127,
      "èŁĳ": 5128,
      "ç´Ĳ": 5129,
      "æ¨Ł": 5130,
      "èĥ±": 5131,
      "å¿¡": 5132,
      "æ±´": 5133,
      "æİ¬": 5134,
      "åĴĦ": 5135,
      "æ²Ĥ": 5136,
      "éĥµ": 5137,
      "èĿĹ": 5138,
      "è¡®": 5139,
      "æĽī": 5140,
      "å²«": 5141,
      "åĴĶ": 5142,
      "å¸³": 5143,
      "é«®": 5144,
      "åĪį": 5145,
      "âĹı": 5146,
      "æĢ¦": 5147,
      "è½¶": 5148,
      "è¯ĥ": 5149,
      "åĩ«": 5150,
      "æīĽ": 5151,
      "æ±¾": 5152,
      "éŃ¯": 5153,
      "çĲĽ": 5154,
      "åİ®": 5155,
      "å²±": 5156,
      "åľĵ": 5157,
      "èī±": 5158,
      "éģ·": 5159,
      "èĬ®": 5160,
      "èĬĬ": 5161,
      "æ¶¸": 5162,
      "åĹ·": 5163,
      "è«¾": 5164,
      "æĨĭ": 5165,
      "åĴ§": 5166,
      "æģĥ": 5167,
      "æ»ħ": 5168,
      "èĶĳ": 5169,
      "è¤Ĥ": 5170,
      "éĦŃ": 5171,
      "çĶº": 5172,
      "éĶµ": 5173,
      "èĭ£": 5174,
      "æ§İ": 5175,
      "è¾ķ": 5176,
      "ç®ķ": 5177,
      "è²§": 5178,
      "ç½Ħ": 5179,
      "æ·Ļ": 5180,
      "èģ°": 5181,
      "çĪ²": 5182,
      "æĭ½": 5183,
      "èĿĮ": 5184,
      "çĺł": 5185,
      "å¯°": 5186,
      "å¿±": 5187,
      "ç¬Ĩ": 5188,
      "ç¥Ĺ": 5189,
      "éĵ¬": 5190,
      "ç¿Ł": 5191,
      "ç£ķ": 5192,
      "éĭ¼": 5193,
      "æºŁ": 5194,
      "çĮ¶": 5195,
      "åĹĴ": 5196,
      "å®¸": 5197,
      "ç¤Ļ": 5198,
      "çĹĬ": 5199,
      "é¥ķ": 5200,
      "æļ§": 5201,
      "åĺ¹": 5202,
      "æ³¾": 5203,
      "èĭľ": 5204,
      "æĩ¸": 5205,
      "è¡Ļ": 5206,
      "æĢĨ": 5207,
      "æģª": 5208,
      "æ¼³": 5209,
      "èĽ¹": 5210,
      "é¹Ħ": 5211,
      "æĭ·": 5212,
      "ç¦¦": 5213,
      "åĽ§": 5214,
      "åĩ±": 5215,
      "æıļ": 5216,
      "æ°ĵ": 5217,
      "çĻĸ": 5218,
      "ç§½": 5219,
      "æ¥Ĭ": 5220,
      "é½¡": 5221,
      "é£Ħ": 5222,
      "éħĿ": 5223,
      "è®µ": 5224,
      "ç«º": 5225,
      "ç®į": 5226,
      "çªĪ": 5227,
      "é¾ĭ": 5228,
      "è¹ĳ": 5229,
      "è¼ª": 5230,
      "ç°Į": 5231,
      "è¡¾": 5232,
      "è°ª": 5233,
      "åĢĶ": 5234,
      "æ·¨": 5235,
      "ç¼ľ": 5236,
      "éĽī": 5237,
      "ç«£": 5238,
      "èĮ¹": 5239,
      "çªĺ": 5240,
      "çįµ": 5241,
      "èĩĨ": 5242,
      "æĵº": 5243,
      "é½Ĭ": 5244,
      "åµĺ": 5245,
      "åŃª": 5246,
      "èħ©": 5247,
      "æĦ«": 5248,
      "æĥĭ": 5249,
      "å»ĸ": 5250,
      "éĵµ": 5251,
      "è²¼": 5252,
      "æļ«": 5253,
      "éº¥": 5254,
      "èļª": 5255,
      "è¿Ĥ": 5256,
      "ç§§": 5257,
      "æ²±": 5258,
      "âĶĢ": 5259,
      "çĽľ": 5260,
      "é«»": 5261,
      "éĺİ": 5262,
      "èŁĨ": 5263,
      "ç»¶": 5264,
      "éĺĸ": 5265,
      "å©¦": 5266,
      "é¬Ł": 5267,
      "éĳ«": 5268,
      "ç¡Ĵ": 5269,
      "è·»": 5270,
      "é¥ĭ": 5271,
      "ç»¥": 5272,
      "çŃı": 5273,
      "éķ°": 5274,
      "éĴµ": 5275,
      "éĵĤ": 5276,
      "è³¦": 5277,
      "å¼©": 5278,
      "è°¥": 5279,
      "çĮĸ": 5280,
      "ç¶µ": 5281,
      "é·": 5282,
      "ç³ł": 5283,
      "ç¿³": 5284,
      "çĳ¾": 5285,
      "è²Ŀ": 5286,
      "æķĸ": 5287,
      "å¼ĭ": 5288,
      "ä¿º": 5289,
      "å¿Ĵ": 5290,
      "æ¥Ĥ": 5291,
      "æģº": 5292,
      "åĦŁ": 5293,
      "è¿©": 5294,
      "å¯¬": 5295,
      "åĳĽ": 5296,
      "çĺ´": 5297,
      "Â¥": 5298,
      "æŀ·": 5299,
      "çħ©": 5300,
      "è¹ī": 5301,
      "æĦ£": 5302,
      "æ±Ľ": 5303,
      "èļĮ": 5304,
      "ðŁĻı": 5305,
      "æ»Ł": 5306,
      "ç£¬": 5307,
      "èĤ®": 5308,
      "å»Ł": 5309,
      "åĢı": 5310,
      "æ»Ĥ": 5311,
      "åĤĳ": 5312,
      "ãĢī": 5313,
      "æ½¤": 5314,
      "è¶ķ": 5315,
      "ç½Ķ": 5316,
      "çģĺ": 5317,
      "é¤ĺ": 5318,
      "åĺĢ": 5319,
      "æ°²": 5320,
      "éĨº": 5321,
      "å«Ĥ": 5322,
      "åŃº": 5323,
      "æ³¸": 5324,
      "æ¯Ģ": 5325,
      "åĹĶ": 5326,
      "é³ĸ": 5327,
      "æĥº": 5328,
      "ç¤¦": 5329,
      "èģĤ": 5330,
      "èĵŁ": 5331,
      "åģ´": 5332,
      "èī®": 5333,
      "æģ»": 5334,
      "èŃľ": 5335,
      "è¬Ĥ": 5336,
      "ãĢĪ": 5337,
      "åĸļ": 5338,
      "èĮĮ": 5339,
      "è·İ": 5340,
      "å½¿": 5341,
      "éģ¨": 5342,
      "éº¾": 5343,
      "æ¦ķ": 5344,
      "èµħ": 5345,
      "èĬį": 5346,
      "éªĬ": 5347,
      "ç¥º": 5348,
      "æĲĲ": 5349,
      "çĴĩ": 5350,
      "çĴŀ": 5351,
      "æªĦ": 5352,
      "ä¿İ": 5353,
      "é¼¹": 5354,
      "æĺĻ": 5355,
      "é¢ļ": 5356,
      "èĢĨ": 5357,
      "ç½°": 5358,
      "è¯½": 5359,
      "è®¥": 5360,
      "ç¬³": 5361,
      "èĨ½": 5362,
      "åĴĲ": 5363,
      "åŃ½": 5364,
      "çĸ±": 5365,
      "çĭĻ": 5366,
      "éĴ´": 5367,
      "æ¥«": 5368,
      "è¹ĩ": 5369,
      "æĻĹ": 5370,
      "éĥ¢": 5371,
      "éĽŀ": 5372,
      "çĬĬ": 5373,
      "æ°¤": 5374,
      "éĻĤ": 5375,
      "èĦ©": 5376,
      "å©¢": 5377,
      "åŃ«": 5378,
      "ç§Ĩ": 5379,
      "çŃł": 5380,
      "èĸı": 5381,
      "éľ§": 5382,
      "ç¾¯": 5383,
      "åķ¬": 5384,
      "éŀĺ": 5385,
      "é¬±": 5386,
      "è¤¥": 5387,
      "ç»¡": 5388,
      "è®´": 5389,
      "åģĪ": 5390,
      "ç³į": 5391,
      "ç¥Ĳ": 5392,
      "èĳŃ": 5393,
      "å¨©": 5394,
      "èĨļ": 5395,
      "èĩ¾": 5396,
      "ç¥¢": 5397,
      "è£¾": 5398,
      "é¬£": 5399,
      "å¥ª": 5400,
      "æĥ¦": 5401,
      "è¾ĩ": 5402,
      "éĵł": 5403,
      "è¼Ķ": 5404,
      "èįŀ": 5405,
      "çªķ": 5406,
      "æ¹§": 5407,
      "æĳ¹": 5408,
      "èµĬ": 5409,
      "éļ¼": 5410,
      "è¨Ŀ": 5411,
      "èµ£": 5412,
      "åĶł": 5413,
      "åļĲ": 5414,
      "éİĸ": 5415,
      "æ³Ĺ": 5416,
      "èĩ¼": 5417,
      "æĭĦ": 5418,
      "çĻľ": 5419,
      "è¸ŀ": 5420,
      "éĥ¸": 5421,
      "éªģ": 5422,
      "æıĸ": 5423,
      "åĤ¾": 5424,
      "æ«»": 5425,
      "å¤Ķ": 5426,
      "åŃļ": 5427,
      "æŀŃ": 5428,
      "éĴĭ": 5429,
      "çĬ·": 5430,
      "âĳ£": 5431,
      "æ¸İ": 5432,
      "é«¯": 5433,
      "è£¨": 5434,
      "é¸ª": 5435,
      "éºĿ": 5436,
      "è¯ĭ": 5437,
      "åĽ¤": 5438,
      "åĽ±": 5439,
      "èĪĢ": 5440,
      "å©§": 5441,
      "éĿĽ": 5442,
      "çº¾": 5443,
      "èĥŃ": 5444,
      "ï¼¡": 5445,
      "ï¼°": 5446,
      "æĴ¬": 5447,
      "ðŁĺĬ": 5448,
      "èĩ»": 5449,
      "å¦ĵ": 5450,
      "ç±ł": 5451,
      "çĪį": 5452,
      "èħĭ": 5453,
      "èľĥ": 5454,
      "åĮĿ": 5455,
      "çºĤ": 5456,
      "ç¼Ħ": 5457,
      "éĨ¬": 5458,
      "ðŁĺŃ": 5459,
      "èĩ§": 5460,
      "è¾«": 5461,
      "èĽ°": 5462,
      "æ¥Ķ": 5463,
      "é¹§": 5464,
      "ç£Ĳ": 5465,
      "çķ¢": 5466,
      "èĻ¬": 5467,
      "è¨»": 5468,
      "è·¶": 5469,
      "è¬İ": 5470,
      "å£ĩ": 5471,
      "éĴ¨": 5472,
      "èĮ±": 5473,
      "ðŁĳı": 5474,
      "çºĸ": 5475,
      "å¹¡": 5476,
      "ä¿¸": 5477,
      "éĤĪ": 5478,
      "Î¼": 5479,
      "åĹĿ": 5480,
      "é³³": 5481,
      "è¬¹": 5482,
      "å¹Į": 5483,
      "å¡µ": 5484,
      "åĤ¥": 5485,
      "æ¦«": 5486,
      "è¹Ł": 5487,
      "éľ¹": 5488,
      "åīĮ": 5489,
      "å£½": 5490,
      "çĵ¯": 5491,
      "çĮ¥": 5492,
      "åĶı": 5493,
      "éº½": 5494,
      "èªĮ": 5495,
      "é¹ľ": 5496,
      "éģĻ": 5497,
      "é¦Ħ": 5498,
      "çł·": 5499,
      "èĥ¤": 5500,
      "çĳ©": 5501,
      "æ°°": 5502,
      "æ±Ļ": 5503,
      "æ¼ķ": 5504,
      "é©ħ": 5505,
      "åĶ¬": 5506,
      "æĲĤ": 5507,
      "å³¤": 5508,
      "è³ł": 5509,
      "èł¹": 5510,
      "å¦ŀ": 5511,
      "ç©İ": 5512,
      "æ®ĺ": 5513,
      "çĹī": 5514,
      "æ£²": 5515,
      "èĵ¦": 5516,
      "âĻ": 5517,
      "åģµ": 5518,
      "éĵ¿": 5519,
      "éĵĨ": 5520,
      "åĶĶ": 5521,
      "çĴĲ": 5522,
      "åĴ²": 5523,
      "ä¿Ł": 5524,
      "æ¡¦": 5525,
      "é»ľ": 5526,
      "éĵİ": 5527,
      "æļĦ": 5528,
      "éĹĬ": 5529,
      "é¦ĭ": 5530,
      "æ¹Ħ": 5531,
      "èĵĵ": 5532,
      "è¹Ĭ": 5533,
      "è¯§": 5534,
      "æ®ĩ": 5535,
      "èĭĵ": 5536,
      "èįļ": 5537,
      "æĵĺ": 5538,
      "è«¸": 5539,
      "è¯ĺ": 5540,
      "åĿ¯": 5541,
      "é¥¨": 5542,
      "èħ¸": 5543,
      "æĵĤ": 5544,
      "èľĪ": 5545,
      "è»Į": 5546,
      "å¶¼": 5547,
      "åĪģ": 5548,
      "çĹĶ": 5549,
      "è®ª": 5550,
      "ä¿¦": 5551,
      "é«ħ": 5552,
      "çĸ¸": 5553,
      "ç½¡": 5554,
      "ç¥ļ": 5555,
      "è¾ĺ": 5556,
      "ç¾§": 5557,
      "æĨĳ": 5558,
      "æ®ī": 5559,
      "éĽ³": 5560,
      "è¯°": 5561,
      "å¹¹": 5562,
      "å¥Ħ": 5563,
      "æĦķ": 5564,
      "çº¨": 5565,
      "æ²ĸ": 5566,
      "çĪº": 5567,
      "å³ª": 5568,
      "ç§¸": 5569,
      "éª·": 5570,
      "çıĲ": 5571,
      "æĵ¢": 5572,
      "åĮ¯": 5573,
      "æµĥ": 5574,
      "åī½": 5575,
      "çķ¿": 5576,
      "éķ«": 5577,
      "æ»¾": 5578,
      "ç¥¯": 5579,
      "èĸľ": 5580,
      "è¤ļ": 5581,
      "çĽĤ": 5582,
      "çĸ½": 5583,
      "åĦĦ": 5584,
      "çįĴ": 5585,
      "è®¹": 5586,
      "åį®": 5587,
      "æİĸ": 5588,
      "æĮĿ": 5589,
      "çĭĴ": 5590,
      "é¥·": 5591,
      "æ©«": 5592,
      "éĨª": 5593,
      "å´§": 5594,
      "ç»«": 5595,
      "çīĸ": 5596,
      "æº´": 5597,
      "éĭª": 5598,
      "é¢į": 5599,
      "è¾Ķ": 5600,
      "å»Ī": 5601,
      "åķľ": 5602,
      "éŁ»": 5603,
      "èľĩ": 5604,
      "âĹĭ": 5605,
      "å¹Ħ": 5606,
      "é¢¦": 5607,
      "æīª": 5608,
      "çķ¦": 5609,
      "ç°Ł": 5610,
      "Ãł": 5611,
      "ï¼ĭ": 5612,
      "è¸Ĭ": 5613,
      "çįĹ": 5614,
      "ç¸±": 5615,
      "éĦ±": 5616,
      "æİĥ": 5617,
      "æĮĽ": 5618,
      "èĲ¸": 5619,
      "å²Į": 5620,
      "å²ĺ": 5621,
      "æ¤¿": 5622,
      "æ°©": 5623,
      "èī¦": 5624,
      "éķķ": 5625,
      "æĴ·": 5626,
      "æĵĭ": 5627,
      "äºµ": 5628,
      "çĥĬ": 5629,
      "æ¦ī": 5630,
      "é¹ĳ": 5631,
      "æĹĸ": 5632,
      "çĲı": 5633,
      "ç´Ĺ": 5634,
      "é²Ł": 5635,
      "æĴĲ": 5636,
      "èŀ¯": 5637,
      "è¼Ŀ": 5638,
      "è¿´": 5639,
      "çİĳ": 5640,
      "é£ķ": 5641,
      "æ±©": 5642,
      "ç©«": 5643,
      "éĤº": 5644,
      "æ§ģ": 5645,
      "å¥ĺ": 5646,
      "æįħ": 5647,
      "èĲĬ": 5648,
      "é¦Ķ": 5649,
      "çĭĪ": 5650,
      "è±¬": 5651,
      "çĮ·": 5652,
      "çĮĿ": 5653,
      "Ã¨": 5654,
      "åı¢": 5655,
      "åķŃ": 5656,
      "èĪ«": 5657,
      "Äģ": 5658,
      "é¢±": 5659,
      "æīĥ": 5660,
      "æ¨ĳ": 5661,
      "é»¨": 5662,
      "èĽİ": 5663,
      "æĹİ": 5664,
      "æ³ĵ": 5665,
      "âĢķ": 5666,
      "ç¥Ł": 5667,
      "æĲª": 5668,
      "æ¾¤": 5669,
      "æĿµ": 5670,
      "æĮ¹": 5671,
      "æģģ": 5672,
      "éĵ¢": 5673,
      "æ¼²": 5674,
      "æ½¼": 5675,
      "çįŃ": 5676,
      "éĢµ": 5677,
      "éĹ±": 5678,
      "èµ¡": 5679,
      "çº¡": 5680,
      "ç®§": 5681,
      "éĻŁ": 5682,
      "é¤®": 5683,
      "è²©": 5684,
      "éĬ®": 5685,
      "æĭ®": 5686,
      "æĶ¤": 5687,
      "ç±²": 5688,
      "æ£Ĥ": 5689,
      "èĽ©": 5690,
      "æ¥¹": 5691,
      "èľį": 5692,
      "èķ©": 5693,
      "ç·»": 5694,
      "æ¡Ģ": 5695,
      "çīį": 5696,
      "æĻŁ": 5697,
      "å¿ĳ": 5698,
      "è´Ĭ": 5699,
      "éĴ¼": 5700,
      "èĮ´": 5701,
      "ç·£": 5702,
      "ðŁĺĺ": 5703,
      "é¨°": 5704,
      "æŃ¼": 5705,
      "æ¡¡": 5706,
      "éª¢": 5707,
      "æ££": 5708,
      "æ¥ŀ": 5709,
      "ðŁİī": 5710,
      "ç¿İ": 5711,
      "éĪ´": 5712,
      "å®¥": 5713,
      "èĩĺ": 5714,
      "è´²": 5715,
      "æį»": 5716,
      "éģ²": 5717,
      "åĿ³": 5718,
      "æº¥": 5719,
      "é©·": 5720,
      "æ¤½": 5721,
      "é¼¾": 5722,
      "éįĬ": 5723,
      "å¿Ĳ": 5724,
      "ç¾¸": 5725,
      "éĤı": 5726,
      "æ·Ħ": 5727,
      "æĲĢ": 5728,
      "âī¤": 5729,
      "éµ": 5730,
      "èĥĦ": 5731,
      "è±ī": 5732,
      "èľļ": 5733,
      "çŀ¿": 5734,
      "ï¼£": 5735,
      "åı±": 5736,
      "è¿¤": 5737,
      "æīĪ": 5738,
      "æ·ļ": 5739,
      "ç¬Ī": 5740,
      "åĭģ": 5741,
      "æĵł": 5742,
      "é³Ł": 5743,
      "è¡²": 5744,
      "å§£": 5745,
      "ç²ĳ": 5746,
      "èį»": 5747,
      "è£Ĩ": 5748,
      "è²ª": 5749,
      "æķĺ": 5750,
      "ç®´": 5751,
      "çĿ¾": 5752,
      "éķĲ": 5753,
      "è¸±": 5754,
      "èĨ©": 5755,
      "Ã¡": 5756,
      "æİĲ": 5757,
      "éĺ¡": 5758,
      "æ¼ģ": 5759,
      "éĵ®": 5760,
      "éĨ´": 5761,
      "è®·": 5762,
      "éĶ¢": 5763,
      "æ®¡": 5764,
      "æ·¬": 5765,
      "å¸ı": 5766,
      "æĬł": 5767,
      "åĴ©": 5768,
      "æĹĨ": 5769,
      "æī¦": 5770,
      "å¦³": 5771,
      "ç®¸": 5772,
      "éķĮ": 5773,
      "å¨²": 5774,
      "çĩİ": 5775,
      "åĹ¤": 5776,
      "é¯": 5777,
      "åĨĬ": 5778,
      "æĭļ": 5779,
      "å¿¿": 5780,
      "èļ£": 5781,
      "çļĪ": 5782,
      "è§Ĳ": 5783,
      "æİĽ": 5784,
      "æ¬¹": 5785,
      "è¹Ļ": 5786,
      "çįħ": 5787,
      "ï¼Ń": 5788,
      "çºŃ": 5789,
      "è°ĳ": 5790,
      "åī¿": 5791,
      "èĳĨ": 5792,
      "èł¡": 5793,
      "ï¼³": 5794,
      "ï¼ľ": 5795,
      "æİ£": 5796,
      "æ¯ĵ": 5797,
      "è·Ĩ": 5798,
      "éªĸ": 5799,
      "å©¶": 5800,
      "ÃŃ": 5801,
      "ä¿¾": 5802,
      "æ³¯": 5803,
      "æĭĹ": 5804,
      "çĿ¬": 5805,
      "æ¡§": 5806,
      "èĵ¿": 5807,
      "æĻģ": 5808,
      "çĪ°": 5809,
      "çªĸ": 5810,
      "æ¿ĳ": 5811,
      "èĴ¹": 5812,
      "é¹Ĺ": 5813,
      "å¬Ľ": 5814,
      "éĭĴ": 5815,
      "èĢĴ": 5816,
      "åĳ·": 5817,
      "éªĪ": 5818,
      "åĥĸ": 5819,
      "é¢ŀ": 5820,
      "å±¦": 5821,
      "éķī": 5822,
      "è··": 5823,
      "æ©¹": 5824,
      "éł¸": 5825,
      "åļĩ": 5826,
      "è¯¶": 5827,
      "ä¾¥": 5828,
      "æ®¼": 5829,
      "çł°": 5830,
      "åĻ¶": 5831,
      "é¤ħ": 5832,
      "ç¿Į": 5833,
      "æ§į": 5834,
      "åļĵ": 5835,
      "åĴ¦": 5836,
      "å¾ĩ": 5837,
      "è°Ĺ": 5838,
      "ç¯ģ": 5839,
      "éĴ¿": 5840,
      "éĨļ": 5841,
      "èķŃ": 5842,
      "Î¸": 5843,
      "ä½°": 5844,
      "çŃĩ": 5845,
      "çĪĽ": 5846,
      "èĻ±": 5847,
      "çħľ": 5848,
      "åĹĸ": 5849,
      "éįĽ": 5850,
      "æģ¸": 5851,
      "å»ļ": 5852,
      "èĪĤ": 5853,
      "èİ¼": 5854,
      "èİĴ": 5855,
      "é¾Ľ": 5856,
      "åĤµ": 5857,
      "éĬħ": 5858,
      "ç¥ķ": 5859,
      "éĴ°": 5860,
      "èĵ¼": 5861,
      "ðŁįİ": 5862,
      "âħ¡": 5863,
      "ï¼»": 5864,
      "ï¼½": 5865,
      "çĲĬ": 5866,
      "åŁł": 5867,
      "çĿĳ": 5868,
      "é»Ŀ": 5869,
      "é¸®": 5870,
      "é¸±": 5871,
      "ï¼ŀ": 5872,
      "æĪ¾": 5873,
      "æĲ¶": 5874,
      "å³½": 5875,
      "è»Ĵ": 5876,
      "âī¥": 5877,
      "ä¸ķ": 5878,
      "åħĸ": 5879,
      "å½İ": 5880,
      "å¿»": 5881,
      "èµĪ": 5882,
      "æ¦Ķ": 5883,
      "é¾Ĳ": 5884,
      "å¶Ļ": 5885,
      "éĹ¡": 5886,
      "æĶľ": 5887,
      "é«ĭ": 5888,
      "çĸĻ": 5889,
      "èĽĬ": 5890,
      "æ©Ĳ": 5891,
      "ç£´": 5892,
      "çĺ©": 5893,
      "æĨ¤": 5894,
      "é¨Ļ": 5895,
      "èİħ": 5896,
      "èĹ¿": 5897,
      "è©Ń": 5898,
      "è³ĵ": 5899,
      "ï¼¤": 5900,
      "å¤¯": 5901,
      "åĵĶ": 5902,
      "è½Ń": 5903,
      "å¢Ģ": 5904,
      "è£±": 5905,
      "èħ«": 5906,
      "èĴ»": 5907,
      "éĬ³": 5908,
      "ðŁĺĤ": 5909,
      "å¯®": 5910,
      "çĿĩ": 5911,
      "çĥ¨": 5912,
      "èºĩ": 5913,
      "éĵĲ": 5914,
      "ç¿®": 5915,
      "å²·": 5916,
      "æ¿ł": 5917,
      "åŃĳ": 5918,
      "å±Ĩ": 5919,
      "éľ°": 5920,
      "åŀĨ": 5921,
      "åĥ±": 5922,
      "å³ĭ": 5923,
      "èĴŁ": 5924,
      "ç»¾": 5925,
      "æĻĶ": 5926,
      "è´°": 5927,
      "çĸ£": 5928,
      "ç¯ĵ": 5929,
      "éķ³": 5930,
      "æ½ŀ": 5931,
      "éĸ£": 5932,
      "çĴľ": 5933,
      "éĦ°": 5934,
      "ä½Ĺ": 5935,
      "ç¾¿": 5936,
      "åĸ¬": 5937,
      "éļ½": 5938,
      "éĴľ": 5939,
      "èĮ¬": 5940,
      "ðŁĮº": 5941,
      "æµĶ": 5942,
      "çĻ£": 5943,
      "æ¨¯": 5944,
      "æ£Ł": 5945,
      "åłĳ": 5946,
      "éºĤ": 5947,
      "æ¥¸": 5948,
      "è©Ĳ": 5949,
      "å«¡": 5950,
      "âĨĵ": 5951,
      "Â³": 5952,
      "é¶": 5953,
      "ä½¥": 5954,
      "æĺ±": 5955,
      "æĭ´": 5956,
      "çĹ¢": 5957,
      "çĩ®": 5958,
      "ç¶ģ": 5959,
      "çĶ¥": 5960,
      "æłĬ": 5961,
      "æ³®": 5962,
      "åİ²": 5963,
      "æİ³": 5964,
      "éľİ": 5965,
      "æ·¼": 5966,
      "åĶ·": 5967,
      "åĹ³": 5968,
      "è¹¼": 5969,
      "ðŁĵ": 5970,
      "é·¹": 5971,
      "åĸª": 5972,
      "èĭķ": 5973,
      "èĪĽ": 5974,
      "èħĵ": 5975,
      "èªķ": 5976,
      "èĺĬ": 5977,
      "ðŁĲ¶": 5978,
      "ï¼¯": 5979,
      "èµĵ": 5980,
      "è½²": 5981,
      "è¨Ł": 5982,
      "éĵĦ": 5983,
      "åłĩ": 5984,
      "é³ħ": 5985,
      "åµ¬": 5986,
      "åĲ¡": 5987,
      "åºĸ": 5988,
      "å£ķ": 5989,
      "èħ±": 5990,
      "çĳĽ": 5991,
      "éŀħ": 5992,
      "ðŁļ": 5993,
      "Çİ": 5994,
      "æĻ·": 5995,
      "æ®ĥ": 5996,
      "èĪ¸": 5997,
      "æħĺ": 5998,
      "çļĸ": 5999,
      "ä½ŀ": 6000,
      "æĺĩ": 6001,
      "çī½": 6002,
      "éĿ¥": 6003,
      "èį¨": 6004,
      "é»ł": 6005,
      "ç²³": 6006,
      "èıħ": 6007,
      "ç¶»": 6008,
      "æĨĬ": 6009,
      "Ä«": 6010,
      "çº£": 6011,
      "é£ª": 6012,
      "éģĳ": 6013,
      "èĤħ": 6014,
      "ç¡ĥ": 6015,
      "çĭİ": 6016,
      "çĭŀ": 6017,
      "éĴº": 6018,
      "åĶ³": 6019,
      "é²²": 6020,
      "æ½¸": 6021,
      "è¸Į": 6022,
      "å´Ĥ": 6023,
      "ðŁĮŀ": 6024,
      "ï¼§": 6025,
      "ï¼©": 6026,
      "æĸ¡": 6027,
      "åĮĲ": 6028,
      "æĬŁ": 6029,
      "ä¾¶": 6030,
      "åĢŃ": 6031,
      "è¢±": 6032,
      "åĻ¼": 6033,
      "çģĳ": 6034,
      "èĪĲ": 6035,
      "éĳ°": 6036,
      "åĮį": 6037,
      "å¾¹": 6038,
      "æĻŀ": 6039,
      "éª§": 6040,
      "åĶĨ": 6041,
      "èŀ³": 6042,
      "æ½ĭ": 6043,
      "æ¿¾": 6044,
      "çĳ¤": 6045,
      "Ã¬": 6046,
      "æĿª": 6047,
      "ç³ħ": 6048,
      "ç©Ģ": 6049,
      "èĬ©": 6050,
      "åĻ´": 6051,
      "é²Ľ": 6052,
      "çĶ¾": 6053,
      "çİ®": 6054,
      "ä¾ª": 6055,
      "éĺĬ": 6056,
      "éħŀ": 6057,
      "ç¦º": 6058,
      "èħ¼": 6059,
      "é¼¬": 6060,
      "åĺ¤": 6061,
      "çĢı": 6062,
      "âľ": 6063,
      "éĢĭ": 6064,
      "æĥ±": 6065,
      "æ°ĸ": 6066,
      "æİ°": 6067,
      "éĺĨ": 6068,
      "åĸ½": 6069,
      "èħĨ": 6070,
      "å©º": 6071,
      "å«ĸ": 6072,
      "è³Ĭ": 6073,
      "èļ±": 6074,
      "âĳ¤": 6075,
      "å¾Ĥ": 6076,
      "æĽ·": 6077,
      "ä¾Ĺ": 6078,
      "è´½": 6079,
      "æĮĪ": 6080,
      "è¨Ĺ": 6081,
      "èĥ«": 6082,
      "æ¿®": 6083,
      "èĶ¥": 6084,
      "åĺŀ": 6085,
      "é½Ĵ": 6086,
      "ä½µ": 6087,
      "ç±¤": 6088,
      "ç³¾": 6089,
      "çĮŀ": 6090,
      "éĴĴ": 6091,
      "éĵ¨": 6092,
      "å¨Ĩ": 6093,
      "æĵŀ": 6094,
      "è»¸": 6095,
      "éĭģ": 6096,
      "ä½ļ": 6097,
      "æĸ«": 6098,
      "ç»Ģ": 6099,
      "æĻī": 6100,
      "æĤŃ": 6101,
      "ç¬ı": 6102,
      "çĮģ": 6103,
      "éĴĬ": 6104,
      "èª¬": 6105,
      "é¹Į": 6106,
      "è¯Ł": 6107,
      "åİĿ": 6108,
      "æİ¾": 6109,
      "é£¨": 6110,
      "éĤķ": 6111,
      "æ¡ī": 6112,
      "éªŀ": 6113,
      "èı½": 6114,
      "ç¿Ľ": 6115,
      "é¹Ī": 6116,
      "åµĩ": 6117,
      "éĮ¦": 6118,
      "ðŁĺģ": 6119,
      "æ¶ª": 6120,
      "å£ħ": 6121,
      "ç²µ": 6122,
      "ç¢£": 6123,
      "æ½ĳ": 6124,
      "éįĭ": 6125,
      "æĹĦ": 6126,
      "æĭĭ": 6127,
      "ç±Į": 6128,
      "åķī": 6129,
      "ç¿Ĭ": 6130,
      "æĴ«": 6131,
      "çŀł": 6132,
      "çĺª": 6133,
      "éĬĺ": 6134,
      "è¯©": 6135,
      "æĸ¬": 6136,
      "å¸Ļ": 6137,
      "æıª": 6138,
      "æıĨ": 6139,
      "è¾Ĭ": 6140,
      "èĬİ": 6141,
      "éħ¹": 6142,
      "èĦ¹": 6143,
      "æ¼¿": 6144,
      "éĵ°": 6145,
      "èĴĲ": 6146,
      "èĿ¦": 6147,
      "ç¶¿": 6148,
      "ç¸«": 6149,
      "æł¾": 6150,
      "çĽħ": 6151,
      "è°¯": 6152,
      "é¡«": 6153,
      "åĿ¨": 6154,
      "èİĺ": 6155,
      "çı¥": 6156,
      "çĺģ": 6157,
      "ï¿¥": 6158,
      "è¾Ń": 6159,
      "çĤĢ": 6160,
      "èĨĪ": 6161,
      "è¾¯": 6162,
      "è±ķ": 6163,
      "çıĪ": 6164,
      "èķ¤": 6165,
      "é¹ķ": 6166,
      "åĹĳ": 6167,
      "ï¼´": 6168,
      "ãĢĩ": 6169,
      "çľĩ": 6170,
      "è¶Ļ": 6171,
      "æ¡ģ": 6172,
      "éĽł": 6173,
      "éªł": 6174,
      "åĤ£": 6175,
      "é¯¨": 6176,
      "åĲ³": 6177,
      "å¼ģ": 6178,
      "æĮ²": 6179,
      "è½Ħ": 6180,
      "éĽİ": 6181,
      "åķ§": 6182,
      "çĹ£": 6183,
      "æ»ģ": 6184,
      "å§Ĺ": 6185,
      "çģŀ": 6186,
      "ç¢Ľ": 6187,
      "èŀ¢": 6188,
      "çĩ§": 6189,
      "è¹ĭ": 6190,
      "è¼»": 6191,
      "æ§Į": 6192,
      "è°ĺ": 6193,
      "è·ļ": 6194,
      "çĹĪ": 6195,
      "åĥ®": 6196,
      "èħ´": 6197,
      "æ½į": 6198,
      "æ¿Ĥ": 6199,
      "æĨ²": 6200,
      "ðŁĮ¸": 6201,
      "æĤ½": 6202,
      "ç¨¹": 6203,
      "èİĨ": 6204,
      "çħĸ": 6205,
      "æ¹®": 6206,
      "âĻĢ": 6207,
      "ç§£": 6208,
      "æłī": 6209,
      "æŁĺ": 6210,
      "çĭ°": 6211,
      "ðŁįĥ": 6212,
      "æĿ¼": 6213,
      "å¼Ń": 6214,
      "æĦĶ": 6215,
      "æ¬¤": 6216,
      "è°Ħ": 6217,
      "é©ķ": 6218,
      "æ¦·": 6219,
      "åĺħ": 6220,
      "è¹Ĵ": 6221,
      "âĤ": 6222,
      "æĺĢ": 6223,
      "æĶ«": 6224,
      "èī·": 6225,
      "éĺķ": 6226,
      "çĿ¨": 6227,
      "éļĪ": 6228,
      "ç¼ģ": 6229,
      "çħ¨": 6230,
      "é¹ĺ": 6231,
      "å´Ĺ": 6232,
      "éĿ³": 6233,
      "èĬ«": 6234,
      "èįĥ": 6235,
      "èı°": 6236,
      "çıª": 6237,
      "æĴ²": 6238,
      "å´Ļ": 6239,
      "èļľ": 6240,
      "ðŁĳ©": 6241,
      "çīĴ": 6242,
      "èºħ": 6243,
      "éªĿ": 6244,
      "ç²ķ": 6245,
      "è±Ķ": 6246,
      "é©º": 6247,
      "é©½": 6248,
      "çª£": 6249,
      "æ¹²": 6250,
      "æ¥£": 6251,
      "éĸŁ": 6252,
      "å¤¾": 6253,
      "å¿Ŀ": 6254,
      "è¾ĭ": 6255,
      "çŁ½": 6256,
      "åĸĭ": 6257,
      "çĹĤ": 6258,
      "èĮ¯": 6259,
      "ãģ®": 6260,
      "ÎĶ": 6261,
      "ï¼¢": 6262,
      "åĮ¾": 6263,
      "æİĩ": 6264,
      "é£ı": 6265,
      "æ²ħ": 6266,
      "çĩ¦": 6267,
      "çļº": 6268,
      "âĢ²": 6269,
      "éĶĨ": 6270,
      "ç¯Ļ": 6271,
      "åĻ±": 6272,
      "æ¿«": 6273,
      "åĹ¥": 6274,
      "åĹ¬": 6275,
      "è²Ķ": 6276,
      "æ§¿": 6277,
      "ï¹": 6278,
      "åľľ": 6279,
      "æŃĨ": 6280,
      "éĻ²": 6281,
      "çĿ¢": 6282,
      "çĭ¹": 6283,
      "èį½": 6284,
      "éĵī": 6285,
      "è¼©": 6286,
      "å¾¼": 6287,
      "éĹ«": 6288,
      "çİķ": 6289,
      "æĽĨ": 6290,
      "æ´µ": 6291,
      "è½¸": 6292,
      "åī¡": 6293,
      "ç¼°": 6294,
      "çĬ§": 6295,
      "åĭ»": 6296,
      "çªł": 6297,
      "éĮ¶": 6298,
      "å½Į": 6299,
      "ä¾ĳ": 6300,
      "éĶŃ": 6301,
      "èĬ°": 6302,
      "éªĽ": 6303,
      "è¥¦": 6304,
      "å¨¼": 6305,
      "çĺĭ": 6306,
      "âĺĢ": 6307,
      "å¸¥": 6308,
      "é¢¢": 6309,
      "å¯µ": 6310,
      "æĽ¬": 6311,
      "èĸ¨": 6312,
      "éĸ©": 6313,
      "å¬´": 6314,
      "åħĩ": 6315,
      "æĿ²": 6316,
      "åįŀ": 6317,
      "ç¨Ķ": 6318,
      "èģĴ": 6319,
      "éª¡": 6320,
      "è©®": 6321,
      "å«Ķ": 6322,
      "è³ĥ": 6323,
      "âħł": 6324,
      "çĸĬ": 6325,
      "éĤģ": 6326,
      "æ¶ł": 6327,
      "çĹ¿": 6328,
      "èħĪ": 6329,
      "éºĪ": 6330,
      "é¼Ļ": 6331,
      "é¹ĵ": 6332,
      "èĺ¿": 6333,
      "è¤Ľ": 6334,
      "ðŁ¤": 6335,
      "æ«ĥ": 6336,
      "æĿ·": 6337,
      "éĢ¶": 6338,
      "è¦ĥ": 6339,
      "é¢§": 6340,
      "æŀĩ": 6341,
      "è´Ī": 6342,
      "è°Ĩ": 6343,
      "çĸĩ": 6344,
      "éļĹ": 6345,
      "åķĸ": 6346,
      "åĻİ": 6347,
      "æħ¾": 6348,
      "è²«": 6349,
      "åĲ©": 6350,
      "æĹ»": 6351,
      "è¡¹": 6352,
      "æ³±": 6353,
      "çĲ®": 6354,
      "æį¶": 6355,
      "æ¬Ħ": 6356,
      "èĭ»": 6357,
      "å§¹": 6358,
      "èĳļ": 6359,
      "æĴ¸": 6360,
      "å³Ĵ": 6361,
      "æĩ²": 6362,
      "æĩĭ": 6363,
      "è¸°": 6364,
      "è¤ĵ": 6365,
      "å¥ģ": 6366,
      "çŃ±": 6367,
      "çĽ±": 6368,
      "çĽį": 6369,
      "åİĵ": 6370,
      "ç©°": 6371,
      "ç½Ĥ": 6372,
      "æ¡¢": 6373,
      "å£ĺ": 6374,
      "åłŀ": 6375,
      "Î³": 6376,
      "ï¼Ŀ": 6377,
      "åĲŃ": 6378,
      "æıį": 6379,
      "æłİ": 6380,
      "èĩ¥": 6381,
      "æĽĽ": 6382,
      "æĭĬ": 6383,
      "æįº": 6384,
      "è°Į": 6385,
      "éªħ": 6386,
      "å§Ŀ": 6387,
      "æĲ´": 6388,
      "åĭĸ": 6389,
      "èĽ³": 6390,
      "ç¹½": 6391,
      "ðŁĮ³": 6392,
      "éĳ½": 6393,
      "Â±": 6394,
      "åı¼": 6395,
      "å¯¤": 6396,
      "è§¥": 6397,
      "æŀ³": 6398,
      "æ®Ĵ": 6399,
      "çĬĴ": 6400,
      "è¸¹": 6401,
      "è«®": 6402,
      "ä½Ł": 6403,
      "çī¦": 6404,
      "æĦĨ": 6405,
      "æĶ²": 6406,
      "é£½": 6407,
      "è°Ģ": 6408,
      "éĥ¦": 6409,
      "èĪ·": 6410,
      "èĪĦ": 6411,
      "èĦ²": 6412,
      "çħħ": 6413,
      "åĶ»": 6414,
      "ç¢©": 6415,
      "èŀŃ": 6416,
      "ç£¯": 6417,
      "çĴĺ": 6418,
      "èļ©": 6419,
      "é³Ŀ": 6420,
      "è¤´": 6421,
      "åĵ½": 6422,
      "ç®ª": 6423,
      "æ´©": 6424,
      "å¢ľ": 6425,
      "ç¥ľ": 6426,
      "çª¸": 6427,
      "è³¢": 6428,
      "çŀħ": 6429,
      "âĦī": 6430,
      "åµ¯": 6431,
      "æĪ¢": 6432,
      "åĲ®": 6433,
      "åİ©": 6434,
      "æ²¤": 6435,
      "æ²ı": 6436,
      "ç¼Ļ": 6437,
      "èĦĺ": 6438,
      "çŀĳ": 6439,
      "çįł": 6440,
      "èŁ»": 6441,
      "çĲ¬": 6442,
      "æįİ": 6443,
      "æ´Ħ": 6444,
      "çĤķ": 6445,
      "è°¶": 6446,
      "æ·©": 6447,
      "æ¡İ": 6448,
      "ç¥Ĥ": 6449,
      "çĮĹ": 6450,
      "èĳ³": 6451,
      "æ¢ı": 6452,
      "èĶŃ": 6453,
      "ç¹ĩ": 6454,
      "é½ĳ": 6455,
      "åĩį": 6456,
      "çĤ·": 6457,
      "èĬ¾": 6458,
      "éĤĽ": 6459,
      "èģ¿": 6460,
      "èĭĭ": 6461,
      "åĻ«": 6462,
      "éŁĮ": 6463,
      "éĴ¯": 6464,
      "èľ¢": 6465,
      "éĪķ": 6466,
      "åĴĽ": 6467,
      "éĹĨ": 6468,
      "èı¸": 6469,
      "èªĺ": 6470,
      "ðŁĺį": 6471,
      "åĬŃ": 6472,
      "çĿ½": 6473,
      "åĻĮ": 6474,
      "æ¶¿": 6475,
      "èĳº": 6476,
      "èĶ«": 6477,
      "åĹª": 6478,
      "Ã¹": 6479,
      "Ã¼": 6480,
      "åĽ¿": 6481,
      "ä¿ª": 6482,
      "çº¥": 6483,
      "è¶¼": 6484,
      "éĺĹ": 6485,
      "çŁļ": 6486,
      "èį¥": 6487,
      "æ»ĵ": 6488,
      "çıŀ": 6489,
      "è³ľ": 6490,
      "é¬»": 6491,
      "çį¾": 6492,
      "çĢ°": 6493,
      "éıĸ": 6494,
      "ä½¯": 6495,
      "æĺ¶": 6496,
      "è§Ĭ": 6497,
      "åĵĿ": 6498,
      "çĪ¨": 6499,
      "æĳ¯": 6500,
      "çĵł": 6501,
      "éŀ£": 6502,
      "éĳĳ": 6503,
      "äº³": 6504,
      "åĴ¤": 6505,
      "æĹĴ": 6506,
      "çĲ°": 6507,
      "æĻĮ": 6508,
      "æ±¨": 6509,
      "éĶº": 6510,
      "ç½ħ": 6511,
      "èįł": 6512,
      "éªİ": 6513,
      "å¡Ĺ": 6514,
      "èĨ»": 6515,
      "èĿķ": 6516,
      "è¬Ĳ": 6517,
      "ï¼¥": 6518,
      "éĩĲ": 6519,
      "å·ĺ": 6520,
      "è§ļ": 6521,
      "æĢĤ": 6522,
      "èµį": 6523,
      "èµŃ": 6524,
      "çŁį": 6525,
      "å»ª": 6526,
      "æ·ŀ": 6527,
      "éªĲ": 6528,
      "ç¿¥": 6529,
      "è¥ģ": 6530,
      "æ½°": 6531,
      "çĵĴ": 6532,
      "è¹¶": 6533,
      "èĺ§": 6534,
      "è¤°": 6535,
      "ï¼ĥ": 6536,
      "è¡¿": 6537,
      "æĢĶ": 6538,
      "æĤĮ": 6539,
      "çĤľ": 6540,
      "é«Ń": 6541,
      "ç¯©": 6542,
      "çĹ¤": 6543,
      "èĥ¯": 6544,
      "åĥŃ": 6545,
      "éŃĩ": 6546,
      "åĤĢ": 6547,
      "åĺ¯": 6548,
      "è²¸": 6549,
      "èļµ": 6550,
      "ï¼®": 6551,
      "æĸĿ": 6552,
      "ä¿³": 6553,
      "æ±İ": 6554,
      "æ¡ħ": 6555,
      "æºı": 6556,
      "åĦ¡": 6557,
      "éĨħ": 6558,
      "ç¹³": 6559,
      "èĸ®": 6560,
      "åļ¨": 6561,
      "èł²": 6562,
      "âģ": 6563,
      "ï¼Ĭ": 6564,
      "è¡©": 6565,
      "æĦł": 6566,
      "æ°«": 6567,
      "æ®ģ": 6568,
      "ç¼ĩ": 6569,
      "ç¼Ł": 6570,
      "èĭİ": 6571,
      "çĬ¸": 6572,
      "å²¬": 6573,
      "é³ľ": 6574,
      "çįĦ": 6575,
      "ï¼¬": 6576,
      "ä½ĥ": 6577,
      "æĹĥ": 6578,
      "è§Į": 6579,
      "çİ³": 6580,
      "æ°µ": 6581,
      "å¿¤": 6582,
      "åģ»": 6583,
      "å¢ī": 6584,
      "æ¡ł": 6585,
      "è·ĸ": 6586,
      "çĪĲ": 6587,
      "éħĲ": 6588,
      "çĻĴ": 6589,
      "ç¦į": 6590,
      "é²¶": 6591,
      "çĳģ": 6592,
      "æ¹Ł": 6593,
      "æ¥ĵ": 6594,
      "ï½ħ": 6595,
      "ðŁĳ¨": 6596,
      "åĲĨ": 6597,
      "éĢ¡": 6598,
      "æ³·": 6599,
      "åĸ¹": 6600,
      "éĤ¨": 6601,
      "ç½į": 6602,
      "ç¼Ĺ": 6603,
      "éĵĮ": 6604,
      "é²¢": 6605,
      "æ¹Ĭ": 6606,
      "å³ĩ": 6607,
      "èķĸ": 6608,
      "è²ī": 6609,
      "å´´": 6610,
      "ç°ĭ": 6611,
      "åıĴ": 6612,
      "ç»Ĥ": 6613,
      "é¢Ķ": 6614,
      "éģľ": 6615,
      "ç³§": 6616,
      "æģ¹": 6617,
      "å¢¾": 6618,
      "èĥĽ": 6619,
      "èıı": 6620,
      "ç¦±": 6621,
      "éĵĹ": 6622,
      "å³£": 6623,
      "é¹¢": 6624,
      "ç¶¾": 6625,
      "æª¸": 6626,
      "ðŁĴĶ": 6627,
      "ä»¨": 6628,
      "å¼ĳ": 6629,
      "å±£": 6630,
      "çľ¦": 6631,
      "éĶ²": 6632,
      "çĹį": 6633,
      "èĥª": 6634,
      "èĮ²": 6635,
      "âĸł": 6636,
      "âħ¢": 6637,
      "åŃ³": 6638,
      "å¾Ń": 6639,
      "çİ·": 6640,
      "çİĸ": 6641,
      "çĽª": 6642,
      "æĤ±": 6643,
      "çŁ¾": 6644,
      "æŁ°": 6645,
      "çĥı": 6646,
      "éħ²": 6647,
      "éħĬ": 6648,
      "çıĻ": 6649,
      "æĴ¥": 6650,
      "çĳĦ": 6651,
      "æªł": 6652,
      "é³Ĳ": 6653,
      "çįĲ": 6654,
      "åĪª": 6655,
      "æĹĤ": 6656,
      "æĿĵ": 6657,
      "é¢ī": 6658,
      "åįħ": 6659,
      "å¦Ŀ": 6660,
      "ç«½": 6661,
      "ç«Ĭ": 6662,
      "æ¬¸": 6663,
      "æ®ļ": 6664,
      "éĴ¡": 6665,
      "ç¹©": 6666,
      "è²ħ": 6667,
      "èĺ¼": 6668,
      "æ§Ĭ": 6669,
      "éĦŀ": 6670,
      "é¨·": 6671,
      "ðŁĴª": 6672,
      "âĺķ": 6673,
      "ÇĲ": 6674,
      "çĶ¬": 6675,
      "åŃ±": 6676,
      "éĩ£": 6677,
      "æĢ¼": 6678,
      "çĲ¨": 6679,
      "åİŃ": 6680,
      "æ¨¸": 6681,
      "é©®": 6682,
      "é¤ļ": 6683,
      "èĿ¼": 6684,
      "ä¸Ł": 6685,
      "ï¼±": 6686,
      "åĪĪ": 6687,
      "åºł": 6688,
      "çŃ®": 6689,
      "æ³«": 6690,
      "çĽĥ": 6691,
      "æµ¥": 6692,
      "éĥ«": 6693,
      "ç¼£": 6694,
      "éĽ©": 6695,
      "èįĩ": 6696,
      "èĻ¢": 6697,
      "æ»¯": 6698,
      "çģı": 6699,
      "çĬį": 6700,
      "èĮķ": 6701,
      "é¾ľ": 6702,
      "âĺħ": 6703,
      "éĹ¼": 6704,
      "åĳĴ": 6705,
      "å¿ĸ": 6706,
      "æ´®": 6707,
      "åģ½": 6708,
      "éĶĹ": 6709,
      "çĸĿ": 6710,
      "æ»¦": 6711,
      "è¤²": 6712,
      "Îµ": 6713,
      "åĽĳ": 6714,
      "æŃĻ": 6715,
      "æ³ļ": 6716,
      "æ¸¾": 6717,
      "éģ¢": 6718,
      "æŁ©": 6719,
      "æ·²": 6720,
      "æ·ĸ": 6721,
      "èģ³": 6722,
      "æļĪ": 6723,
      "èŀĪ": 6724,
      "çĶĳ": 6725,
      "å¸»": 6726,
      "æłĢ": 6727,
      "å¦²": 6728,
      "çºı": 6729,
      "è±¸": 6730,
      "éĵ£": 6731,
      "åĶ°": 6732,
      "é²Ń": 6733,
      "åĦĭ": 6734,
      "é¼į": 6735,
      "éŃĳ": 6736,
      "èĸ¤": 6737,
      "è¸Ł": 6738,
      "å´Ĩ": 6739,
      "è³º": 6740,
      "è¬Ļ": 6741,
      "ï½ī": 6742,
      "ãĥ¼": 6743,
      "ï¼¦": 6744,
      "ï¼«": 6745,
      "ç§ª": 6746,
      "ç§¾": 6747,
      "çľĪ": 6748,
      "éģ´": 6749,
      "æŁĴ": 6750,
      "é¦³": 6751,
      "ç¥İ": 6752,
      "èĮĨ": 6753,
      "å¨ī": 6754,
      "åłĢ": 6755,
      "éĨį": 6756,
      "èĹĲ": 6757,
      "èķ²": 6758,
      "çĺ¢": 6759,
      "éĹĸ": 6760,
      "åįŁ": 6761,
      "âĢ§": 6762,
      "ç®ĵ": 6763,
      "æģ½": 6764,
      "ç©ĳ": 6765,
      "èİª": 6766,
      "é²µ": 6767,
      "èĶº": 6768,
      "å³¯": 6769,
      "éĸ¤": 6770,
      "è©Ľ": 6771,
      "è¹°": 6772,
      "ï½ģ": 6773,
      "Ã³": 6774,
      "åĲ½": 6775,
      "ç»Ĺ": 6776,
      "åŃĢ": 6777,
      "æ°Ĳ": 6778,
      "éľĪ": 6779,
      "éĶ¹": 6780,
      "æģĤ": 6781,
      "ç¯ª": 6782,
      "è¥¯": 6783,
      "è¹Ĥ": 6784,
      "âĤĤ": 6785,
      "Ã¶": 6786,
      "Î»": 6787,
      "ä½ĺ": 6788,
      "å·½": 6789,
      "èĢĻ": 6790,
      "å½§": 6791,
      "è¾Ĥ": 6792,
      "çł²": 6793,
      "èį¦": 6794,
      "è£Ł": 6795,
      "å¡¾": 6796,
      "åĭ°": 6797,
      "åĤĺ": 6798,
      "æ¾§": 6799,
      "ðŁĶ": 6800,
      "æŀ°": 6801,
      "å½«": 6802,
      "å½Ĭ": 6803,
      "è·Ľ": 6804,
      "èįª": 6805,
      "çı°": 6806,
      "èĨ¦": 6807,
      "åĺŃ": 6808,
      "åµĲ": 6809,
      "å¶º": 6810,
      "å¶Ħ": 6811,
      "Äĵ": 6812,
      "äº¹": 6813,
      "åıµ": 6814,
      "å½¥": 6815,
      "éĤ³": 6816,
      "éķĬ": 6817,
      "ç¬¥": 6818,
      "åĿ¼": 6819,
      "æĲ½": 6820,
      "é²Ķ": 6821,
      "éĨĲ": 6822,
      "ç¸»": 6823,
      "åĴ»": 6824,
      "å¹º": 6825,
      "é¢Ļ": 6826,
      "ç§«": 6827,
      "æĬ¿": 6828,
      "å±į": 6829,
      "æ¸Į": 6830,
      "åŁĻ": 6831,
      "éģĴ": 6832,
      "éĶĳ": 6833,
      "éĺį": 6834,
      "å»Ľ": 6835,
      "è¢Ī": 6836,
      "èĥį": 6837,
      "èİł": 6838,
      "è¹ģ": 6839,
      "èĺħ": 6840,
      "å¬Ĺ": 6841,
      "ï½ı": 6842,
      "âĪŀ": 6843,
      "éĳĦ": 6844,
      "éĶī": 6845,
      "åĸŁ": 6846,
      "æ·µ": 6847,
      "éļ°": 6848,
      "åŀĵ": 6849,
      "éĴı": 6850,
      "çª¿": 6851,
      "èħŃ": 6852,
      "è¸½": 6853,
      "çŀĭ": 6854,
      "çĺĺ": 6855,
      "éłĹ": 6856,
      "ðŁĺĦ": 6857,
      "éį¾": 6858,
      "éĭ°": 6859,
      "ãĦ": 6860,
      "ä»Ł": 6861,
      "å¸¼": 6862,
      "éĢ¦": 6863,
      "å·ī": 6864,
      "æİĻ": 6865,
      "æ¯µ": 6866,
      "éĤĻ": 6867,
      "çłĢ": 6868,
      "æ¨Ĺ": 6869,
      "å£º": 6870,
      "èĽŃ": 6871,
      "é²·": 6872,
      "å¬¤": 6873,
      "ðŁĺĥ": 6874,
      "ðŁĳ¦": 6875,
      "éĪī": 6876,
      "Å«": 6877,
      "Åį": 6878,
      "ÇĴ": 6879,
      "ä½¢": 6880,
      "å®ĵ": 6881,
      "è®«": 6882,
      "åĽ·": 6883,
      "è¡Ĩ": 6884,
      "çİł": 6885,
      "æĥ´": 6886,
      "çĲļ": 6887,
      "æĶª": 6888,
      "æ¯½": 6889,
      "æįĭ": 6890,
      "æ¸¦": 6891,
      "æ¬ĸ": 6892,
      "éĻ¬": 6893,
      "çĦĺ": 6894,
      "è¶º": 6895,
      "ç³Ĺ": 6896,
      "èĲĺ": 6897,
      "åŀĽ": 6898,
      "èĭ´": 6899,
      "çĪ»": 6900,
      "åĻ»": 6901,
      "æº·": 6902,
      "èħİ": 6903,
      "æ¥®": 6904,
      "çĴİ": 6905,
      "ãĢĶ": 6906,
      "éĢĳ": 6907,
      "é¢¡": 6908,
      "æĦį": 6909,
      "èĩŀ": 6910,
      "ç«¦": 6911,
      "é£§": 6912,
      "æ¸ĳ": 6913,
      "æĤ¶": 6914,
      "éĺĥ": 6915,
      "åĢľ": 6916,
      "é¦Ĳ": 6917,
      "èĭ§": 6918,
      "æ»²": 6919,
      "éªľ": 6920,
      "æĳŀ": 6921,
      "éŁ«": 6922,
      "åĶģ": 6923,
      "çĩŃ": 6924,
      "èķĪ": 6925,
      "èĺĸ": 6926,
      "ç¸Ľ": 6927,
      "ÏĨ": 6928,
      "ä¸¨": 6929,
      "ï¼¶": 6930,
      "ãĢķ": 6931,
      "ä½Ŀ": 6932,
      "æĹ¸": 6933,
      "å¾ķ": 6934,
      "çİŁ": 6935,
      "èĢĦ": 6936,
      "æĽ©": 6937,
      "èµĢ": 6938,
      "è½º": 6939,
      "è·¸": 6940,
      "æ¶Ķ": 6941,
      "æº§": 6942,
      "é©¸": 6943,
      "æļī": 6944,
      "ç¿¦": 6945,
      "åĦĨ": 6946,
      "èľ±": 6947,
      "åĤŃ": 6948,
      "å©ķ": 6949,
      "ç°¾": 6950,
      "å¶·": 6951,
      "ï¼¨": 6952,
      "åĳĭ": 6953,
      "æ²Ķ": 6954,
      "è°²": 6955,
      "è°ł": 6956,
      "åĸĨ": 6957,
      "çłŃ": 6958,
      "åĻģ": 6959,
      "çĹ§": 6960,
      "é¥¬": 6961,
      "çĻ¯": 6962,
      "æ¨¾": 6963,
      "æ¤Ģ": 6964,
      "çĩĶ": 6965,
      "èĿ¾": 6966,
      "è©ł": 6967,
      "ç¸ł": 6968,
      "âĳ¥": 6969,
      "é§Ń": 6970,
      "éĳĴ": 6971,
      "Ïī": 6972,
      "ä»Ŀ": 6973,
      "åħķ": 6974,
      "åĽĶ": 6975,
      "åĮı": 6976,
      "åĵ§": 6977,
      "æ´Ļ": 6978,
      "ç±¼": 6979,
      "éĻī": 6980,
      "æ±ľ": 6981,
      "éĥ´": 6982,
      "èĭ¡": 6983,
      "æĳģ": 6984,
      "çĬĦ": 6985,
      "å²§": 6986,
      "æ¹«": 6987,
      "é¾Ĭ": 6988,
      "è¬ł": 6989,
      "ðŁĺī": 6990,
      "ðŁĺĶ": 6991,
      "ä»ĥ": 6992,
      "æĬ¡": 6993,
      "å¦ª": 6994,
      "æĽł": 6995,
      "è´¶": 6996,
      "å¢»": 6997,
      "åĢĸ": 6998,
      "è·º": 6999,
      "ç¼ĥ": 7000,
      "èºı": 7001,
      "éħ¢": 7002,
      "éªĢ": 7003,
      "éĵ¯": 7004,
      "é¸©": 7005,
      "å²¡": 7006,
      "é²Ļ": 7007,
      "é¹ŀ": 7008,
      "è¹¿": 7009,
      "Ãº": 7010,
      "æĹ°": 7011,
      "çĽ¥": 7012,
      "ä¾Ķ": 7013,
      "é£ļ": 7014,
      "æ®Ħ": 7015,
      "éĥĵ": 7016,
      "èģĥ": 7017,
      "æ¶´": 7018,
      "é¥´": 7019,
      "èĪ£": 7020,
      "æ¨ŀ": 7021,
      "è³¬": 7022,
      "ðŁ¦": 7023,
      "ðŁĮ·": 7024,
      "Ïģ": 7025,
      "ï¼¸": 7026,
      "åħĹ": 7027,
      "é¢Ľ": 7028,
      "æŀ¥": 7029,
      "çŃĮ": 7030,
      "ä¿Ľ": 7031,
      "çĦĵ": 7032,
      "éĶ¶": 7033,
      "åĸĳ": 7034,
      "å¢Ĭ": 7035,
      "éĤĭ": 7036,
      "æŁĿ": 7037,
      "é¥½": 7038,
      "éĴķ": 7039,
      "èıŁ": 7040,
      "éĵį": 7041,
      "æ¤¹": 7042,
      "çıī": 7043,
      "çĳĭ": 7044,
      "çĩī": 7045,
      "å©Ĭ": 7046,
      "ðŁĩ": 7047,
      "é´»": 7048,
      "çļ¤": 7049,
      "æľħ": 7050,
      "åľī": 7051,
      "è§İ": 7052,
      "åŁ½": 7053,
      "æ²Ĩ": 7054,
      "èīĻ": 7055,
      "çľĦ": 7056,
      "æŁŀ": 7057,
      "è·Ħ": 7058,
      "çĭ³": 7059,
      "çłĿ": 7060,
      "å£©": 7061,
      "èİ³": 7062,
      "çĬ°": 7063,
      "æļ¾": 7064,
      "çªħ": 7065,
      "ç£ļ": 7066,
      "ç¶±": 7067,
      "ç¶´": 7068,
      "è³Ń": 7069,
      "é³ı": 7070,
      "âĻĤ": 7071,
      "è¯®": 7072,
      "çĶį": 7073,
      "éĹĩ": 7074,
      "å¼ĩ": 7075,
      "æİĤ": 7076,
      "æĤ°": 7077,
      "è¶¸": 7078,
      "çĿ¥": 7079,
      "èĤĵ": 7080,
      "æ¡¿": 7081,
      "éķĹ": 7082,
      "åĻ¤": 7083,
      "éħ©": 7084,
      "çĹ¨": 7085,
      "é¤ĵ": 7086,
      "éĵĭ": 7087,
      "åĭĲ": 7088,
      "æ¹İ": 7089,
      "èĶĶ": 7090,
      "éŀı": 7091,
      "é¹¹": 7092,
      "è³Ī": 7093,
      "æĨĲ": 7094,
      "å¬Į": 7095,
      "ï½İ": 7096,
      "äº¸": 7097,
      "åŃ¥": 7098,
      "æĬĥ": 7099,
      "çº»": 7100,
      "ç®¨": 7101,
      "çĿľ": 7102,
      "éĤł": 7103,
      "çķ¹": 7104,
      "éĥħ": 7105,
      "æ»Į": 7106,
      "éª¶": 7107,
      "é¸¬": 7108,
      "åĶµ": 7109,
      "ç¢ī": 7110,
      "å¡į": 7111,
      "æ¿±": 7112,
      "æ©¢": 7113,
      "çĵ¤": 7114,
      "éĪ£": 7115,
      "ç»ł": 7116,
      "åŃĽ": 7117,
      "éĩĢ": 7118,
      "çīĿ": 7119,
      "æĢĽ": 7120,
      "å¿ª": 7121,
      "æį¨": 7122,
      "æĤĽ": 7123,
      "è¨¾": 7124,
      "æĳĪ": 7125,
      "èı¡": 7126,
      "çıı": 7127,
      "é¾Į": 7128,
      "çĩł": 7129,
      "èĹģ": 7130,
      "è¸®": 7131,
      "å´¦": 7132,
      "é³Ļ": 7133,
      "éĦ´": 7134,
      "é§Ĳ": 7135,
      "ï¼²": 7136,
      "çļ´": 7137,
      "åľ©": 7138,
      "å·Ķ": 7139,
      "æĢı": 7140,
      "åĵĤ": 7141,
      "é«Ģ": 7142,
      "è¶µ": 7143,
      "èĲľ": 7144,
      "åķ»": 7145,
      "çĪĩ": 7146,
      "éħ¡": 7147,
      "é¸°": 7148,
      "æ¤Ł": 7149,
      "é²±": 7150,
      "æĴĵ": 7151,
      "æĩĩ": 7152,
      "ç¹¹": 7153,
      "è³Ģ": 7154,
      "çŀ½": 7155,
      "çĺĹ": 7156,
      "çĢŁ": 7157,
      "ðŁĮĬ": 7158,
      "é§ģ": 7159,
      "ðŁĳ§": 7160,
      "ãģĹ": 7161,
      "ðŁĴĿ": 7162,
      "ç»¨": 7163,
      "ä¹Ĥ": 7164,
      "æĿĪ": 7165,
      "è¡Ħ": 7166,
      "çİ¥": 7167,
      "æİ¸": 7168,
      "åĳİ": 7169,
      "è´³": 7170,
      "çºĽ": 7171,
      "æ¬·": 7172,
      "çĤħ": 7173,
      "åĢī": 7174,
      "ç¦Ĭ": 7175,
      "èĮĶ": 7176,
      "çĵ´": 7177,
      "èĴ¯": 7178,
      "çĩĦ": 7179,
      "åĺļ": 7180,
      "è«·": 7181,
      "è«Ĵ": 7182,
      "ðŁĺı": 7183,
      "éĪ¦": 7184,
      "é´ī": 7185,
      "é·º": 7186,
      "æĺī": 7187,
      "å¤¤": 7188,
      "è¯ľ": 7189,
      "çĶŃ": 7190,
      "å·Ĵ": 7191,
      "éĹ³": 7192,
      "å½Ģ": 7193,
      "æĥĩ": 7194,
      "æ°ª": 7195,
      "æĶ½": 7196,
      "å±§": 7197,
      "ç±ĵ": 7198,
      "æ²Ń": 7199,
      "åģĮ": 7200,
      "çĤĶ": 7201,
      "éĶ·": 7202,
      "ç³ģ": 7203,
      "æ¡ĸ": 7204,
      "çĥĿ": 7205,
      "èĻº": 7206,
      "é»¼": 7207,
      "ç²¿": 7208,
      "éĵŁ": 7209,
      "é¸·": 7210,
      "çħ¥": 7211,
      "åĭ³": 7212,
      "åªª": 7213,
      "éŀĳ": 7214,
      "è¸¯": 7215,
      "è¬Ĭ": 7216,
      "ï¹Ķ": 7217,
      "çĶĻ": 7218,
      "åľ»": 7219,
      "ç»¦": 7220,
      "å¦¤": 7221,
      "çĲ¯": 7222,
      "æµľ": 7223,
      "é«Ĥ": 7224,
      "é¡¼": 7225,
      "éķĥ": 7226,
      "ç¼¬": 7227,
      "é»»": 7228,
      "éĴļ": 7229,
      "ç¿ķ": 7230,
      "èĽĨ": 7231,
      "çĨ³": 7232,
      "é¼ĭ": 7233,
      "èŃļ": 7234,
      "é¹¬": 7235,
      "ç£Ķ": 7236,
      "åĹ²": 7237,
      "ï¼·": 7238,
      "äº»": 7239,
      "åĴĤ": 7240,
      "æ°ħ": 7241,
      "æĶ¥": 7242,
      "èµª": 7243,
      "çº°": 7244,
      "éľħ": 7245,
      "åŁĤ": 7246,
      "è½Ł": 7247,
      "èĬĥ": 7248,
      "èĬĪ": 7249,
      "çĸ´": 7250,
      "ç´ĵ": 7251,
      "éķĵ": 7252,
      "éĥľ": 7253,
      "åĻĹ": 7254,
      "éħ¤": 7255,
      "çĮĬ": 7256,
      "éĴ¤": 7257,
      "èıĢ": 7258,
      "çĬĩ": 7259,
      "éĵ¤": 7260,
      "æĲĨ": 7261,
      "æ¦¼": 7262,
      "èĽ±": 7263,
      "æ¿Ĩ": 7264,
      "çĳĹ": 7265,
      "é±·": 7266,
      "é¹®": 7267,
      "ç¶¦": 7268,
      "åļ¯": 7269,
      "è»Ģ": 7270,
      "ðŁĮį": 7271,
      "ÄĽ": 7272,
      "Î´": 7273,
      "åľĦ": 7274,
      "æį±": 7275,
      "éģĺ": 7276,
      "è½³": 7277,
      "éĶı": 7278,
      "çŁ§": 7279,
      "åīĿ": 7280,
      "åĢħ": 7281,
      "éķĴ": 7282,
      "ç¼¯": 7283,
      "ç¼ĳ": 7284,
      "éĽĴ": 7285,
      "èįħ": 7286,
      "éĵĻ": 7287,
      "çĳŃ": 7288,
      "èľī": 7289,
      "é¹ļ": 7290,
      "çĴł": 7291,
      "éİ§": 7292,
      "åıģ": 7293,
      "åĽĤ": 7294,
      "åĵŀ": 7295,
      "èµī": 7296,
      "èµĿ": 7297,
      "æį©": 7298,
      "æĮ»": 7299,
      "ç±´": 7300,
      "æ²Ħ": 7301,
      "é««": 7302,
      "æ®¢": 7303,
      "ç½µ": 7304,
      "è·¬": 7305,
      "è·Ĥ": 7306,
      "ç¼¢": 7307,
      "èºĶ": 7308,
      "æ»¢": 7309,
      "é¥§": 7310,
      "è±³": 7311,
      "éĴ¹": 7312,
      "çı©": 7313,
      "æħĦ": 7314,
      "åĦĹ": 7315,
      "åĺ£": 7316,
      "æ¾¶": 7317,
      "çĺ¸": 7318,
      "æªĹ": 7319,
      "ç·ł": 7320,
      "éµĿ": 7321,
      "ï¼ĩ": 7322,
      "è¿ĵ": 7323,
      "æĸ¸": 7324,
      "åĪİ": 7325,
      "è®£": 7326,
      "éĹī": 7327,
      "åĵĻ": 7328,
      "ç®ı": 7329,
      "è°®": 7330,
      "éĤ¬": 7331,
      "ç½´": 7332,
      "ç¼¶": 7333,
      "èĪ»": 7334,
      "æ¼¯": 7335,
      "é»¥": 7336,
      "èĥĿ": 7337,
      "åĶ¸": 7338,
      "å²¿": 7339,
      "æ¤ĭ": 7340,
      "åĭ¸": 7341,
      "çĨ¥": 7342,
      "æ¹ľ": 7343,
      "èª¦": 7344,
      "èĸ¹": 7345,
      "æ¾į": 7346,
      "çĺ¿": 7347,
      "èĺĨ": 7348,
      "çĢ£": 7349,
      "ðŁĺĮ": 7350,
      "ðŁĮ»": 7351,
      "éİĤ": 7352,
      "âĪĴ": 7353,
      "éıĬ": 7354,
      "ðŁį³": 7355,
      "ðŁİĤ": 7356,
      "é´¨": 7357,
      "âŀ": 7358,
      "é°": 7359,
      "è¿¨": 7360,
      "ç»ī": 7361,
      "åĨĩ": 7362,
      "å½ĺ": 7363,
      "ç®Ĳ": 7364,
      "é£ĸ": 7365,
      "é«Į": 7366,
      "è½«": 7367,
      "è°µ": 7368,
      "çĿŀ": 7369,
      "åĢĨ": 7370,
      "çĸł": 7371,
      "éķĽ": 7372,
      "çĻŀ": 7373,
      "é¸¸": 7374,
      "ç¿ļ": 7375,
      "ç¢²": 7376,
      "æĵ·": 7377,
      "åłł": 7378,
      "å©Ń": 7379,
      "é¹¼": 7380,
      "èĿ£": 7381,
      "èĿĪ": 7382,
      "çŀŁ": 7383,
      "æª»": 7384,
      "éł«": 7385,
      "éīĨ": 7386,
      "åµļ": 7387,
      "ðŁĮ´": 7388,
      "ðŁĮĪ": 7389,
      "âĪ©": 7390,
      "ãģĻ": 7391,
      "ðŁı»": 7392,
      "éµ¬": 7393,
      "ä¸¼": 7394,
      "åı»": 7395,
      "ä½¶": 7396,
      "çĶĥ": 7397,
      "è®¬": 7398,
      "åĽ¹": 7399,
      "éĩŃ": 7400,
      "åĩĪ": 7401,
      "éĿ¼": 7402,
      "çĽŀ": 7403,
      "èĩĬ": 7404,
      "éĺĴ": 7405,
      "çĸĶ": 7406,
      "æŁģ": 7407,
      "ç½¥": 7408,
      "ç´®": 7409,
      "éķ¬": 7410,
      "åķ·": 7411,
      "èĭ«": 7412,
      "èĭĮ": 7413,
      "çĹ¼": 7414,
      "æĳº": 7415,
      "æ¼¬": 7416,
      "ç²Ŀ": 7417,
      "æĲ¡": 7418,
      "çı£": 7419,
      "èĽĶ": 7420,
      "çª©": 7421,
      "èĵį": 7422,
      "çĵĺ": 7423,
      "åĤ¢": 7424,
      "ç¹ĥ": 7425,
      "èĿĵ": 7426,
      "è¹©": 7427,
      "è¹Ģ": 7428,
      "éłĴ": 7429,
      "åļ®": 7430,
      "åµĭ": 7431,
      "å¬·": 7432,
      "ï½į": 7433,
      "ðŁĺĭ": 7434,
      "ðŁĮ¿": 7435,
      "é´Ĥ": 7436,
      "ÇĶ": 7437,
      "ãİ": 7438,
      "ï¼Ĩ": 7439,
      "å°·": 7440,
      "çŃļ": 7441,
      "é£Ĳ": 7442,
      "ç¾°": 7443,
      "è°¡": 7444,
      "ç¬ŀ": 7445,
      "åķķ": 7446,
      "æĳħ": 7447,
      "éŁĭ": 7448,
      "éĴ½": 7449,
      "é¤¡": 7450,
      "é¸²": 7451,
      "é²ł": 7452,
      "èħł": 7453,
      "æ½Ł": 7454,
      "é¼Ĳ": 7455,
      "éĨ£": 7456,
      "æ¥Ŀ": 7457,
      "éŀ«": 7458,
      "éŀ¯": 7459,
      "é¹ĭ": 7460,
      "ðŁĺľ": 7461,
      "ðŁĳĢ": 7462,
      "ðŁĴĻ": 7463,
      "é´³": 7464,
      "æĸĤ": 7465,
      "çĶ¦": 7466,
      "åĲĭ": 7467,
      "å°ķ": 7468,
      "åºĳ": 7469,
      "è§ľ": 7470,
      "âĢ°": 7471,
      "çº®": 7472,
      "è¾İ": 7473,
      "ç®©": 7474,
      "é£¢": 7475,
      "çĦ±": 7476,
      "ç¾£": 7477,
      "çķ¬": 7478,
      "æ·Ŀ": 7479,
      "æ¡´": 7480,
      "éļ³": 7481,
      "åķµ": 7482,
      "éħ´": 7483,
      "é»¾": 7484,
      "æļĮ": 7485,
      "èĽŀ": 7486,
      "æĴļ": 7487,
      "æ¹Ķ": 7488,
      "éĨ®": 7489,
      "è¸ī": 7490,
      "çĴŁ": 7491,
      "çĢķ": 7492,
      "ï½Į": 7493,
      "ðŁıŀ": 7494,
      "ðŁĻĮ": 7495,
      "Â§": 7496,
      "Ã²": 7497,
      "æĺĥ": 7498,
      "åĩľ": 7499,
      "æĢĻ": 7500,
      "æīĨ": 7501,
      "æı©": 7502,
      "æ¯¬": 7503,
      "ç®¬": 7504,
      "é£Ķ": 7505,
      "éĤĿ": 7506,
      "éļ¸": 7507,
      "èģ©": 7508,
      "æ»¹": 7509,
      "é¥«": 7510,
      "èıĳ": 7511,
      "èıĵ": 7512,
      "æ¤ģ": 7513,
      "æĴħ": 7514,
      "èŀĢ": 7515,
      "éĨ¯": 7516,
      "é¹į": 7517,
      "æ¾Ģ": 7518,
      "æ§©": 7519,
      "æ§Ń": 7520,
      "éĦ¢": 7521,
      "éĦ¯": 7522,
      "å¶ĩ": 7523,
      "ãģĦ": 7524,
      "ðŁĴĭ": 7525,
      "ðŁİĵ": 7526,
      "âħ£": 7527,
      "ðŁıĥ": 7528,
      "âľĮ": 7529,
      "âķ": 7530,
      "çļ¦": 7531,
      "æĸ²": 7532,
      "åĬ¬": 7533,
      "åĽĹ": 7534,
      "æĢµ": 7535,
      "æĢ¿": 7536,
      "æĬĶ": 7537,
      "æĻ¡": 7538,
      "é£¼": 7539,
      "åŁ´": 7540,
      "åŁķ": 7541,
      "éĤ¾": 7542,
      "æ·ª": 7543,
      "èįľ": 7544,
      "é²Ĥ": 7545,
      "æ¿©": 7546,
      "éĨĳ": 7547,
      "ç¹¡": 7548,
      "ç¹ļ": 7549,
      "é¹ĸ": 7550,
      "åĺĶ": 7551,
      "å´ģ": 7552,
      "æ¾±": 7553,
      "éīĽ": 7554,
      "è»¿": 7555,
      "é·Ł": 7556,
      "ðŁĵļ": 7557,
      "ï¼µ": 7558,
      "ä½¾": 7559,
      "è¯³": 7560,
      "åľŀ": 7561,
      "è¡Ĵ": 7562,
      "æŀĭ": 7563,
      "èĢ·": 7564,
      "åĵĭ": 7565,
      "æĽĮ": 7566,
      "æİ´": 7567,
      "éĻĶ": 7568,
      "æ±Ĭ": 7569,
      "éĶ±": 7570,
      "çĸ¥": 7571,
      "çĸ°": 7572,
      "çĸĭ": 7573,
      "çķ²": 7574,
      "ç¯ĺ": 7575,
      "èĲģ": 7576,
      "éķĿ": 7577,
      "ç¼µ": 7578,
      "ç¼Ĭ": 7579,
      "åĿ°": 7580,
      "èĻ»": 7581,
      "é¥Ĺ": 7582,
      "çĮ±": 7583,
      "ç¦¿": 7584,
      "æ¤´": 7585,
      "é²ħ": 7586,
      "éĨĥ": 7587,
      "é¹©": 7588,
      "é¹ª": 7589,
      "åĺı": 7590,
      "èŁ¬": 7591,
      "èłĸ": 7592,
      "ðŁĺ³": 7593,
      "âľ¨": 7594,
      "ãİ¡": 7595,
      "Î£": 7596,
      "è¿³": 7597,
      "æĺ´": 7598,
      "çİ¦": 7599,
      "æŃĶ": 7600,
      "æŀŀ": 7601,
      "çĽ»": 7602,
      "æ°¡": 7603,
      "æ°Ļ": 7604,
      "åĳ¸": 7605,
      "åģĵ": 7606,
      "éĶ¸": 7607,
      "æģ«": 7608,
      "æģ¿": 7609,
      "èĬĹ": 7610,
      "åĸĪ": 7611,
      "æ®ĵ": 7612,
      "æ¡ľ": 7613,
      "é¦ĳ": 7614,
      "è¢·": 7615,
      "éĥĹ": 7616,
      "ç¼«": 7617,
      "çĭº": 7618,
      "æĳŃ": 7619,
      "å§®": 7620,
      "èĪł": 7621,
      "éĴİ": 7622,
      "èı¹": 7623,
      "æ¤ł": 7624,
      "çıħ": 7625,
      "èŀŁ": 7626,
      "æ½´": 7627,
      "çĳĢ": 7628,
      "èĴº": 7629,
      "çĩĻ": 7630,
      "æ¾Į": 7631,
      "çĴģ": 7632,
      "é½§": 7633,
      "è¤Ĭ": 7634,
      "çĢ¹": 7635,
      "âĸ³": 7636,
      "ðŁįĶ": 7637,
      "ðŁĴķ": 7638,
      "ðŁĴļ": 7639,
      "ðŁļ¶": 7640,
      "ä½»": 7641,
      "åĨ¼": 7642,
      "æıĦ": 7643,
      "å±¢": 7644,
      "ç®ľ": 7645,
      "éĺī": 7646,
      "ç¾¨": 7647,
      "ç¾ĥ": 7648,
      "èĤ¼": 7649,
      "é¡Ľ": 7650,
      "ç¯Į": 7651,
      "æ¡Ħ": 7652,
      "éķµ": 7653,
      "èºŀ": 7654,
      "çĹ±": 7655,
      "è±¢": 7656,
      "è£Ĵ": 7657,
      "éĵĪ": 7658,
      "é²ĩ": 7659,
      "èŀ«": 7660,
      "æ¿¤": 7661,
      "èŃ´": 7662,
      "èĶ£": 7663,
      "æ¥¦": 7664,
      "çĴļ": 7665,
      "ç·ĭ": 7666,
      "ðŁĮ²": 7667,
      "éİı": 7668,
      "âĪĳ": 7669,
      "ðŁĲ±": 7670,
      "é¶´": 7671,
      "Ïĥ": 7672,
      "å¸Ķ": 7673,
      "éĢĸ": 7674,
      "æĽĪ": 7675,
      "å¿¾": 7676,
      "æµĪ": 7677,
      "è¾ļ": 7678,
      "æ´¹": 7679,
      "ç±¥": 7680,
      "åŁ¤": 7681,
      "é«¡": 7682,
      "é«´": 7683,
      "åīİ": 7684,
      "ç¨Ĺ": 7685,
      "ç½·": 7686,
      "æ·Ĵ": 7687,
      "è¢¢": 7688,
      "çłĴ": 7689,
      "èĭĦ": 7690,
      "åĻĶ": 7691,
      "èĪ²": 7692,
      "æ£Ĳ": 7693,
      "æ¢Ĩ": 7694,
      "ç¢´": 7695,
      "æĴĤ": 7696,
      "åªµ": 7697,
      "èĵĤ": 7698,
      "é¾ĥ": 7699,
      "éĨ¾": 7700,
      "éĨľ": 7701,
      "å³Ħ": 7702,
      "èĴ½": 7703,
      "éŀ¦": 7704,
      "çµ¨": 7705,
      "å´ļ": 7706,
      "ðŁķ": 7707,
      "çĢī": 7708,
      "èłŁ": 7709,
      "ï½Ķ": 7710,
      "âĳ¦": 7711,
      "åĬµ": 7712,
      "å°»": 7713,
      "ä¼ī": 7714,
      "è¦ĵ": 7715,
      "é¢¯": 7716,
      "èĢĭ": 7717,
      "æłĿ": 7718,
      "åĳĤ": 7719,
      "éģĦ": 7720,
      "é«£": 7721,
      "éĺļ": 7722,
      "èĬŁ": 7723,
      "å¢³": 7724,
      "ç½¨": 7725,
      "ç½Ł": 7726,
      "é¡Ĺ": 7727,
      "ç¯¦": 7728,
      "èĲı": 7729,
      "æ»ª": 7730,
      "æ»Ħ": 7731,
      "çĻ®": 7732,
      "ç¦ª": 7733,
      "é¤µ": 7734,
      "æ¦§": 7735,
      "æĵ¿": 7736,
      "æ¹ĵ": 7737,
      "é±Ĺ": 7738,
      "æ¥½": 7739,
      "çĩĲ": 7740,
      "æĩĳ": 7741,
      "èķ¡": 7742,
      "èĨĳ": 7743,
      "èļ¬": 7744,
      "é¬ļ": 7745,
      "é³¢": 7746,
      "æĨ«": 7747,
      "çĢ¼": 7748,
      "å¬ĸ": 7749,
      "ðŁĮ±": 7750,
      "å¶Ĵ": 7751,
      "éĳ²": 7752,
      "Ã±": 7753,
      "æĪ¡": 7754,
      "æĪķ": 7755,
      "è¯¿": 7756,
      "è¯Ķ": 7757,
      "åĲĸ": 7758,
      "ç»Į": 7759,
      "è¦·": 7760,
      "å¾³": 7761,
      "è§ĩ": 7762,
      "èĢ¨": 7763,
      "æĥĿ": 7764,
      "è´ĸ": 7765,
      "è¾Ģ": 7766,
      "ç±Ģ": 7767,
      "æ¸Ł": 7768,
      "è½ĵ": 7769,
      "çŁ¯": 7770,
      "çķĢ": 7771,
      "çķİ": 7772,
      "éķŀ": 7773,
      "éĥ§": 7774,
      "èĭģ": 7775,
      "ç¦ĭ": 7776,
      "éĵ±": 7777,
      "èĮ¼": 7778,
      "èĮŃ": 7779,
      "æħĿ": 7780,
      "èĽĲ": 7781,
      "æĴ¿": 7782,
      "çĳ£": 7783,
      "æĩ¶": 7784,
      "èĨĺ": 7785,
      "åĺ¬": 7786,
      "çĴ¿": 7787,
      "è¼¿": 7788,
      "è«¦": 7789,
      "å¬°": 7790,
      "ðŁĺĿ": 7791,
      "ðŁĮ§": 7792,
      "éĳ¼": 7793,
      "ãģª": 7794,
      "Ø§": 7795,
      "à½": 7796,
      "âŃ": 7797,
      "åĪ¬": 7798,
      "ç»Ķ": 7799,
      "ä¼¥": 7800,
      "å·ĩ": 7801,
      "æŀ¨": 7802,
      "çĽ§": 7803,
      "åĵĲ": 7804,
      "æµį": 7805,
      "åŁĴ": 7806,
      "åŁŃ": 7807,
      "é«ĳ": 7808,
      "æ±Ĩ": 7809,
      "è°ĸ": 7810,
      "åīĲ": 7811,
      "æ®½": 7812,
      "èģ¶": 7813,
      "åķ²": 7814,
      "èįĳ": 7815,
      "é»©": 7816,
      "èİ¸": 7817,
      "åĶ¢": 7818,
      "ç¹»": 7819,
      "èķª": 7820,
      "èĨĤ": 7821,
      "èĿ®": 7822,
      "éĸĳ": 7823,
      "çµĨ": 7824,
      "ç·Ŀ": 7825,
      "ï½ĵ": 7826,
      "éĦ©": 7827,
      "éİĹ": 7828,
      "ãĥ³": 7829,
      "ãģ¯": 7830,
      "ðŁıĬ": 7831,
      "ðŁıł": 7832,
      "ðŁ¤Ķ": 7833,
      "è¯¨": 7834,
      "è¯Ĵ": 7835,
      "åĪ³": 7836,
      "åĴģ": 7837,
      "å°ª": 7838,
      "è®§": 7839,
      "æĹĲ": 7840,
      "å¥Ń": 7841,
      "ç§ķ": 7842,
      "æŃĺ": 7843,
      "æ°¾": 7844,
      "æ¯³": 7845,
      "æ¯ĸ": 7846,
      "çºĶ": 7847,
      "æ´¸": 7848,
      "é£Ĩ": 7849,
      "çľĻ": 7850,
      "é«ģ": 7851,
      "éĺĩ": 7852,
      "ç¯ĳ": 7853,
      "ç¼Ľ": 7854,
      "ç¬¾": 7855,
      "ç¬Ħ": 7856,
      "çł¦": 7857,
      "çł»": 7858,
      "åķ«": 7859,
      "å§Ĵ": 7860,
      "éŁĨ": 7861,
      "æļł": 7862,
      "é¸«": 7863,
      "ç¢ĵ": 7864,
      "æĴĦ": 7865,
      "çĨ¾": 7866,
      "èĵĬ": 7867,
      "é¼ķ": 7868,
      "éŃī": 7869,
      "éŃį": 7870,
      "èľº": 7871,
      "èĸĻ": 7872,
      "é¹ĩ": 7873,
      "è²ŀ": 7874,
      "å´¤": 7875,
      "éł°": 7876,
      "éłĮ": 7877,
      "èłħ": 7878,
      "ðŁĮħ": 7879,
      "ðŁįģ": 7880,
      "ðŁįĬ": 7881,
      "ãĤĭ": 7882,
      "ãĦŁ": 7883,
      "âŃĲ": 7884,
      "äį": 7885,
      "ç§ĸ": 7886,
      "æĢĬ": 7887,
      "æı¶": 7888,
      "æıİ": 7889,
      "æ³¬": 7890,
      "æ³ĸ": 7891,
      "èĩ¬": 7892,
      "æ°ĺ": 7893,
      "çĲ¤": 7894,
      "åĳ´": 7895,
      "æĶĶ": 7896,
      "æ¯¹": 7897,
      "èīĭ": 7898,
      "éĺ¼": 7899,
      "éĺı": 7900,
      "éĺĽ": 7901,
      "æ¡·": 7902,
      "é¦Ń": 7903,
      "éĥ¯": 7904,
      "è·ı": 7905,
      "æĳ½": 7906,
      "èĥ¼": 7907,
      "è±¨": 7908,
      "éĴ²": 7909,
      "èıĺ": 7910,
      "é¤į": 7911,
      "éĵĳ": 7912,
      "çħĬ": 7913,
      "æĲ¢": 7914,
      "çı¦": 7915,
      "æħĩ": 7916,
      "é²Ģ": 7917,
      "é²ĭ": 7918,
      "æĵ²": 7919,
      "é¾ī": 7920,
      "éĨģ": 7921,
      "èľ©": 7922,
      "èĴ´": 7923,
      "é¹Ĩ": 7924,
      "çµ·": 7925,
      "è©Ķ": 7926,
      "å«ļ": 7927,
      "å«ł": 7928,
      "æ§Ķ": 7929,
      "åµĬ": 7930,
      "ï½Ĳ": 7931,
      "éĮĺ": 7932,
      "éĦĴ": 7933,
      "ðŁĺļ": 7934,
      "âīł": 7935,
      "é®Ń": 7936,
      "ãģ¨": 7937,
      "ãĤĵ": 7938,
      "à½½": 7939,
      "Ã¤": 7940,
      "ÏĪ": 7941,
      "çļ²": 7942,
      "åĽŁ": 7943,
      "å¸ĳ": 7944,
      "è¡½": 7945,
      "å¯Ķ": 7946,
      "å¾¬": 7947,
      "æŀµ": 7948,
      "çŃ²": 7949,
      "åį¬": 7950,
      "ä¿ľ": 7951,
      "çĲį": 7952,
      "ç®ł": 7953,
      "æ´İ": 7954,
      "æĤ«": 7955,
      "çĿŃ": 7956,
      "ç¨ŀ": 7957,
      "çĸĸ": 7958,
      "ç½¾": 7959,
      "çķĭ": 7960,
      "çķļ": 7961,
      "éķł": 7962,
      "éĥĥ": 7963,
      "èģ±": 7964,
      "æ¶ĺ": 7965,
      "æ»·": 7966,
      "æº¼": 7967,
      "æºĨ": 7968,
      "æ£§": 7969,
      "éĵĵ": 7970,
      "å¡ļ": 7971,
      "æĵ¤": 7972,
      "åª¾": 7973,
      "é¼©": 7974,
      "èĸĳ": 7975,
      "é¹¡": 7976,
      "éĸ¥": 7977,
      "çµ¢": 7978,
      "æ¾Ĵ": 7979,
      "ç¶º": 7980,
      "è³Ħ": 7981,
      "èļ¶": 7982,
      "è¹Ĳ": 7983,
      "çŀ¢": 7984,
      "çŀŀ": 7985,
      "çĺ¼": 7986,
      "æªľ": 7987,
      "é³£": 7988,
      "ðŁĽ": 7989,
      "åµ²": 7990,
      "èł»": 7991,
      "ï½ľ": 7992,
      "éĦľ": 7993,
      "ðŁĳ»": 7994,
      "ðŁĳĮ": 7995,
      "ðŁįī": 7996,
      "ãģ«": 7997,
      "æ«ļ": 7998,
      "æ«ľ": 7999,
      "ðŁļĢ": 8000,
      "Â£": 8001,
      "ï¼¿": 8002,
      "è¿º": 8003,
      "çĶĵ": 8004,
      "éĢŃ": 8005,
      "é¢İ": 8006,
      "åĨ±": 8007,
      "éĹ©": 8008,
      "æŀĺ": 8009,
      "çŃ¼": 8010,
      "çŃľ": 8011,
      "æĦ¬": 8012,
      "åĳĵ": 8013,
      "æ´º": 8014,
      "æ¬½": 8015,
      "åŁ¸": 8016,
      "æĤ¤": 8017,
      "æĤ»": 8018,
      "èī¹": 8019,
      "ç³°": 8020,
      "æģļ": 8021,
      "ç©Į": 8022,
      "ç¡ģ": 8023,
      "éķ£": 8024,
      "è·£": 8025,
      "åĿ»": 8026,
      "èĭ¾": 8027,
      "çģº": 8028,
      "æ¨¨": 8029,
      "èİ¢": 8030,
      "èİĸ": 8031,
      "æ£¼": 8032,
      "ç¿¹": 8033,
      "èĳ¦": 8034,
      "åĶĽ": 8035,
      "æĲ¦": 8036,
      "å²ı": 8037,
      "çı½": 8038,
      "ç¢ĩ": 8039,
      "åĭ£": 8040,
      "èĽ¸": 8041,
      "èĽĦ": 8042,
      "é²Ĩ": 8043,
      "èĵģ": 8044,
      "éŀ¬": 8045,
      "åĺ©": 8046,
      "è²¶": 8047,
      "è¹ł": 8048,
      "çĺ³": 8049,
      "éłĶ": 8050,
      "é³Ķ": 8051,
      "çį¬": 8052,
      "ï½Ī": 8053,
      "éĬľ": 8054,
      "ðŁĺİ": 8055,
      "å¶½": 8056,
      "ãģį": 8057,
      "ðŁİ¤": 8058,
      "ï¿£": 8059,
      "ðŁı«": 8060,
      "éµ©": 8061,
      "ðŁĶ¥": 8062,
      "Â®": 8063,
      "ÉĻ": 8064,
      "ä¸¶": 8065,
      "çļŀ": 8066,
      "ä»¡": 8067,
      "åĪ¿": 8068,
      "åĽĿ": 8069,
      "å·ĳ": 8070,
      "é¢Ģ": 8071,
      "çīĤ": 8072,
      "ç§Ń": 8073,
      "æŀĮ": 8074,
      "ä¾·": 8075,
      "ç«ĩ": 8076,
      "èµ³": 8077,
      "æĮ¼": 8078,
      "çº©": 8079,
      "çľļ": 8080,
      "ç³¬": 8081,
      "éĤħ": 8082,
      "ç¼¦": 8083,
      "åķĵ": 8084,
      "åķŀ": 8085,
      "èįĦ": 8086,
      "è¨£": 8087,
      "éªĵ": 8088,
      "æĳĽ": 8089,
      "æº½": 8090,
      "ç¦Ľ": 8091,
      "ç¢ľ": 8092,
      "å¨£": 8093,
      "é²³": 8094,
      "èŀŀ": 8095,
      "çĳ±": 8096,
      "çĳł": 8097,
      "è¸¬": 8098,
      "éĸ¡": 8099,
      "çµº": 8100,
      "éī¬": 8101,
      "åļ¬": 8102,
      "çĢ¾": 8103,
      "ï½ĥ": 8104,
      "éĮ«": 8105,
      "ðŁĺ±": 8106,
      "ðŁĮŁ": 8107,
      "éĭ¸": 8108,
      "ðŁĴ¦": 8109,
      "ðŁİ¶": 8110,
      "é´¿": 8111,
      "âļ": 8112,
      "äº¶": 8113,
      "æĸģ": 8114,
      "åĪĸ": 8115,
      "åĲ²": 8116,
      "éĹ¢": 8117,
      "æĢį": 8118,
      "æŃİ": 8119,
      "çŃ¦": 8120,
      "æ°į": 8121,
      "æ°Ĺ": 8122,
      "åĵĮ": 8123,
      "æĶ¬": 8124,
      "æ¬»": 8125,
      "éĻ´": 8126,
      "åģª": 8127,
      "èīı": 8128,
      "é«ı": 8129,
      "æŁ¢": 8130,
      "çķ¤": 8131,
      "ç¯¾": 8132,
      "èģ¾": 8133,
      "èĻ§": 8134,
      "é¥ħ": 8135,
      "éªĺ": 8136,
      "ç¥§": 8137,
      "æ¨ģ": 8138,
      "å£Ł": 8139,
      "ç¦İ": 8140,
      "é¤Ķ": 8141,
      "éĵ©": 8142,
      "é¸Ĥ": 8143,
      "èĮĿ": 8144,
      "çı²": 8145,
      "æ¿º": 8146,
      "æ¿ģ": 8147,
      "é¼¯": 8148,
      "éĨ½": 8149,
      "åĤĪ": 8150,
      "åĹ«": 8151,
      "èĿ¸": 8152,
      "å´Ħ": 8153,
      "çĺµ": 8154,
      "éī¤": 8155,
      "éīĢ": 8156,
      "ç¸¢": 8157,
      "åµİ": 8158,
      "âĸ²": 8159,
      "ðŁĴ°": 8160,
      "ðŁĴ»": 8161,
      "ðŁİµ": 8162,
      "Î©": 8163,
      "ÏĦ": 8164,
      "âĭ": 8165,
      "ï¼ª": 8166,
      "æľ§": 8167,
      "æľ®": 8168,
      "æľĲ": 8169,
      "è¯Į": 8170,
      "åĴ¾": 8171,
      "åĴĿ": 8172,
      "è§ı": 8173,
      "æł»": 8174,
      "ä¿¶": 8175,
      "æįŃ": 8176,
      "æ´§": 8177,
      "æ²´": 8178,
      "æĤĴ": 8179,
      "éĺĿ": 8180,
      "èĤŁ": 8181,
      "éĤ¡": 8182,
      "ç´¬": 8183,
      "é¦Ĺ": 8184,
      "è¢ª": 8185,
      "è·Ĺ": 8186,
      "çĭ·": 8187,
      "çĭį": 8188,
      "çłľ": 8189,
      "èįĬ": 8190,
      "èįĽ": 8191,
      "æ»ī": 8192,
      "èĪ³": 8193,
      "é»ī": 8194,
      "é©©": 8195,
      "éĴį": 8196,
      "æ£¨": 8197,
      "çıº": 8198,
      "æĵĲ": 8199,
      "èľ®": 8200,
      "èĸ·": 8201,
      "èĿ°": 8202,
      "å´Ĳ": 8203,
      "é¬²": 8204,
      "âĦ¢": 8205,
      "åļķ": 8206,
      "è¤«": 8207,
      "ðŁĺ¡": 8208,
      "é¨ĳ": 8209,
      "ãĥ¥": 8210,
      "ðŁįŁ": 8211,
      "ãĤ¹": 8212,
      "âĺĨ": 8213,
      "Â¹": 8214,
      "ËĪ": 8215,
      "è¯¤": 8216,
      "ç»ģ": 8217,
      "è®¦": 8218,
      "éĩĺ": 8219,
      "å¹Ł": 8220,
      "æķ§": 8221,
      "æŀ»": 8222,
      "èĢľ": 8223,
      "æ°ļ": 8224,
      "åĵı": 8225,
      "æĻ»": 8226,
      "åĳ²": 8227,
      "åĳ»": 8228,
      "ç«ĳ": 8229,
      "ç±ŀ": 8230,
      "æ²ļ": 8231,
      "éģĿ": 8232,
      "åĸģ": 8233,
      "å»Ĥ": 8234,
      "é¦®": 8235,
      "éĥ¤": 8236,
      "è·«": 8237,
      "çĭ¯": 8238,
      "çł£": 8239,
      "æ¶ŀ": 8240,
      "è¨¼": 8241,
      "ç¥ĵ": 8242,
      "æ¼£": 8243,
      "æ¼Ļ": 8244,
      "å£ĸ": 8245,
      "è±Ī": 8246,
      "èĦĶ": 8247,
      "è£Ľ": 8248,
      "è¥ľ": 8249,
      "æ¦±": 8250,
      "ç¢ģ": 8251,
      "å¡¢": 8252,
      "èĽı": 8253,
      "çª¨": 8254,
      "åłº": 8255,
      "éºĩ": 8256,
      "é¾ĺ": 8257,
      "è¸Ķ": 8258,
      "åĹļ": 8259,
      "è²ĺ": 8260,
      "è©Ī": 8261,
      "èļ§": 8262,
      "çŀĩ": 8263,
      "æ§²": 8264,
      "åļħ": 8265,
      "çį¼": 8266,
      "ï½ĭ": 8267,
      "éĦĺ": 8268,
      "ðŁĮ¼": 8269,
      "ðŁį¦": 8270,
      "ãģ¾": 8271,
      "æ«¥": 8272,
      "ðŁĲ¦": 8273,
      "ðŁĲ¾": 8274,
      "ãĤĬ": 8275,
      "âĺº": 8276,
      "âĬ": 8277,
      "åĥ½": 8278,
      "åħĮ": 8279,
      "åĪ½": 8280,
      "åľ®": 8281,
      "ä¹ľ": 8282,
      "å¹Ľ": 8283,
      "çİĻ": 8284,
      "æł±": 8285,
      "æĦİ": 8286,
      "çĽĮ": 8287,
      "æİİ": 8288,
      "æµ¼": 8289,
      "èµ§": 8290,
      "èµŁ": 8291,
      "åŁ¼": 8292,
      "é«Ĵ": 8293,
      "ç³Į": 8294,
      "åĸı": 8295,
      "ç¨ľ": 8296,
      "èĤĦ": 8297,
      "æ®Ĥ": 8298,
      "éĤ¶": 8299,
      "ç½ĺ": 8300,
      "çķĽ": 8301,
      "æ·¦": 8302,
      "é¦ĺ": 8303,
      "çĭĸ": 8304,
      "éħ½": 8305,
      "ç¥²": 8306,
      "èĪĸ": 8307,
      "æº²": 8308,
      "è±ĩ": 8309,
      "éĴ¸": 8310,
      "åĥ³": 8311,
      "åĥĿ": 8312,
      "è¥ª": 8313,
      "æ¦ĩ": 8314,
      "å²Ģ": 8315,
      "çı®": 8316,
      "é²Ĭ": 8317,
      "æĴĪ": 8318,
      "èŀħ": 8319,
      "åłĻ": 8320,
      "éĨ¨": 8321,
      "èĴ¡": 8322,
      "é¹¥": 8323,
      "åĺģ": 8324,
      "çµľ": 8325,
      "è©£": 8326,
      "å´Ĵ": 8327,
      "å´Ł": 8328,
      "é¬¯": 8329,
      "å¬ħ": 8330,
      "ðŁį´": 8331,
      "âģ¿": 8332,
      "âĭ¯": 8333,
      "Ã§": 8334,
      "Ã´": 8335,
      "Îº": 8336,
      "à¸": 8337,
      "ã¶": 8338,
      "æľĵ": 8339,
      "è¯İ": 8340,
      "åĴĹ": 8341,
      "ä¼§": 8342,
      "çİ¢": 8343,
      "æĬľ": 8344,
      "éĿļ": 8345,
      "æ³Ĥ": 8346,
      "æ³ħ": 8347,
      "å¦ģ": 8348,
      "ä¾Ĥ": 8349,
      "æµĲ": 8350,
      "æ´Į": 8351,
      "æĤĨ": 8352,
      "éģ°": 8353,
      "ç¾Ī": 8354,
      "ç¾Ŀ": 8355,
      "åī¸": 8356,
      "èĬ¨": 8357,
      "èĬĺ": 8358,
      "åĢ¨": 8359,
      "åĢĮ": 8360,
      "çĥ±": 8361,
      "çĥľ": 8362,
      "åĿŃ": 8363,
      "çĭ¨": 8364,
      "éħ¾": 8365,
      "éħİ": 8366,
      "ç¥Ķ": 8367,
      "æ¼Ń": 8368,
      "èı¼": 8369,
      "æ¢Ī": 8370,
      "çªº": 8371,
      "æ©¼": 8372,
      "åª¸": 8373,
      "èĵł": 8374,
      "éĨ¢": 8375,
      "éĨŀ": 8376,
      "åĤ©": 8377,
      "æĩĶ": 8378,
      "ç¹Ħ": 8379,
      "éŀ®": 8380,
      "ç£¾": 8381,
      "éĸĺ": 8382,
      "å´ĥ": 8383,
      "èļ¡": 8384,
      "éīħ": 8385,
      "çĢĿ": 8386,
      "ç¸·": 8387,
      "ï½Ĥ": 8388,
      "ï½ĩ": 8389,
      "ãģĵ": 8390,
      "ãģŁ": 8391,
      "éĪĶ": 8392,
      "ðŁĲ¿": 8393,
      "é¯Ĭ": 8394,
      "é¶Ĵ": 8395,
      "ðŁĩ¨": 8396,
      "ðŁĩ³": 8397,
      "äį¦": 8398,
      "Ãī": 8399,
      "Î¶": 8400,
      "Ðµ": 8401,
      "å¤Ĳ": 8402,
      "åĬĦ": 8403,
      "ä¼Ľ": 8404,
      "å·¯": 8405,
      "æĦľ": 8406,
      "æ³Ĳ": 8407,
      "åĵ¢": 8408,
      "çĲ²": 8409,
      "æĽĢ": 8410,
      "å¿Ħ": 8411,
      "ç«Ħ": 8412,
      "å±ľ": 8413,
      "è¾»": 8414,
      "æ´¶": 8415,
      "éľ¢": 8416,
      "æ¬ĥ": 8417,
      "è¶Ħ": 8418,
      "éĶ´": 8419,
      "çŁ»": 8420,
      "å¢®": 8421,
      "å»ģ": 8422,
      "æ¡ķ": 8423,
      "éļķ": 8424,
      "ç¼§": 8425,
      "åĻ¸": 8426,
      "çĹ¾": 8427,
      "é¥ĳ": 8428,
      "é¥Ĵ": 8429,
      "é¥Ķ": 8430,
      "æĳµ": 8431,
      "çĻ¥": 8432,
      "æºį": 8433,
      "ç²ľ": 8434,
      "é©İ": 8435,
      "æļį": 8436,
      "æĲĹ": 8437,
      "å¨Ī": 8438,
      "é²§": 8439,
      "æ¿¬": 8440,
      "çĳĬ": 8441,
      "èĵĸ": 8442,
      "çĵĬ": 8443,
      "æ¥¯": 8444,
      "çĩ¹": 8445,
      "èªĬ": 8446,
      "éŀļ": 8447,
      "é¹£": 8448,
      "ç£¡": 8449,
      "å´ĳ": 8450,
      "æªİ": 8451,
      "é¬į": 8452,
      "è«ł": 8453,
      "çį´": 8454,
      "ï½Ģ": 8455,
      "ï¸°": 8456,
      "ðŁıĸ": 8457,
      "ï¹ĳ": 8458,
      "ðŁ¤Ĺ": 8459,
      "Â½": 8460,
      "ï¼¹": 8461,
      "çĶ£": 8462,
      "åľ¹": 8463,
      "åº¥": 8464,
      "éĩģ": 8465,
      "å¯ĺ": 8466,
      "æŃ©": 8467,
      "æŃĥ": 8468,
      "æı¾": 8469,
      "æĬº": 8470,
      "æĭı": 8471,
      "åĳĸ": 8472,
      "ä¾©": 8473,
      "æµ¯": 8474,
      "æ¯İ": 8475,
      "èµľ": 8476,
      "çºŁ": 8477,
      "éľĳ": 8478,
      "æ²£": 8479,
      "æĤ¢": 8480,
      "æ±Ń": 8481,
      "éĶ¼": 8482,
      "çŁ¸": 8483,
      "çŁĩ": 8484,
      "å¢Ĵ": 8485,
      "ç¨Ł": 8486,
      "èĤ«": 8487,
      "æ®į": 8488,
      "ç¡İ": 8489,
      "éĤĹ": 8490,
      "åŀµ": 8491,
      "åĻĻ": 8492,
      "åĻŃ": 8493,
      "ç¥¿": 8494,
      "é»§": 8495,
      "é»Ł": 8496,
      "èĥĹ": 8497,
      "èĥĻ": 8498,
      "çĮ¢": 8499,
      "éĴħ": 8500,
      "è£¥": 8501,
      "ç¿Ģ": 8502,
      "èĳĳ": 8503,
      "åĥķ": 8504,
      "è¥Ĩ": 8505,
      "æ¤·": 8506,
      "å¡¬": 8507,
      "çª¯": 8508,
      "çªŃ": 8509,
      "æĴĻ": 8510,
      "èŀ½": 8511,
      "èĶĮ": 8512,
      "ç£²": 8513,
      "åĹĩ": 8514,
      "è¹»": 8515,
      "çĺį": 8516,
      "çĺĸ": 8517,
      "æª¯": 8518,
      "éłĥ": 8519,
      "èĺ©": 8520,
      "è¤»": 8521,
      "ðŁ¥": 8522,
      "è»¼": 8523,
      "ç¸Ī": 8524,
      "éĦ£": 8525,
      "ðŁĮ¾": 8526,
      "ðŁĮĻ": 8527,
      "é®°": 8528,
      "ãģĤ": 8529,
      "ãģĭ": 8530,
      "éĪ·": 8531,
      "ðŁİģ": 8532,
      "é¶Ĺ": 8533,
      "ðŁ¦ĭ": 8534,
      "Î·": 8535,
      "Ïĩ": 8536,
      "âĴ": 8537,
      "æĺ®": 8538,
      "åľ¯": 8539,
      "åĬı": 8540,
      "éĩĤ": 8541,
      "å¹°": 8542,
      "è¡ŀ": 8543,
      "åĩĩ": 8544,
      "å·ĸ": 8545,
      "çī¯": 8546,
      "æıł": 8547,
      "æĬ»": 8548,
      "âĢ³": 8549,
      "åĵļ": 8550,
      "æĻĿ": 8551,
      "åİĸ": 8552,
      "æĶı": 8553,
      "è´Ħ": 8554,
      "çºľ": 8555,
      "ç®ĳ": 8556,
      "éģ¹": 8557,
      "éĶľ": 8558,
      "éĺĮ": 8559,
      "çŁ°": 8560,
      "è°³": 8561,
      "çĿĨ": 8562,
      "çĿļ": 8563,
      "å»ĳ": 8564,
      "æŁĻ": 8565,
      "ç¯ļ": 8566,
      "éĥĲ": 8567,
      "è·ķ": 8568,
      "çĭ»": 8569,
      "èį©": 8570,
      "ç¥Ļ": 8571,
      "èĪ´": 8572,
      "ç²¢": 8573,
      "éĵ³": 8574,
      "éĵ·": 8575,
      "é¸¨": 8576,
      "é¸¶": 8577,
      "é¸ĳ": 8578,
      "æ¦¾": 8579,
      "é²½": 8580,
      "çĳ¯": 8581,
      "èĵĲ": 8582,
      "çĵ¿": 8583,
      "çĵŀ": 8584,
      "èĴĮ": 8585,
      "èĹĭ": 8586,
      "é¹¯": 8587,
      "ç£Ī": 8588,
      "åĹĦ": 8589,
      "éĸ¨": 8590,
      "æ¾¥": 8591,
      "é½£": 8592,
      "é½ģ": 8593,
      "è¼Ĵ": 8594,
      "æĨº": 8595,
      "è¤§": 8596,
      "ç°¦": 8597,
      "çĢ¨": 8598,
      "åµ´": 8599,
      "è¬ĩ": 8600,
      "éįª": 8601,
      "ðŁĳĬ": 8602,
      "âĹ¯": 8603,
      "ãĥĪ": 8604,
      "ðŁįĤ": 8605,
      "ãĤĴ": 8606,
      "âģ´": 8607,
      "Éª": 8608,
      "Ð½": 8609,
      "âĩ": 8610,
      "ãł": 8611,
      "åıĨ": 8612,
      "æĪĨ": 8613,
      "ä½¤": 8614,
      "æĺ¿": 8615,
      "æĺĿ": 8616,
      "æĸĥ": 8617,
      "å®Ł": 8618,
      "åĲ¶": 8619,
      "æĹ®": 8620,
      "åĽ¡": 8621,
      "åĽī": 8622,
      "é¢ĥ": 8623,
      "åĨı": 8624,
      "å¥Ĳ": 8625,
      "æŃĬ": 8626,
      "æŃł": 8627,
      "éĿº": 8628,
      "åįį": 8629,
      "æĦ¦": 8630,
      "æĦ·": 8631,
      "å¦«": 8632,
      "æĻ¼": 8633,
      "æ´³": 8634,
      "ç±¯": 8635,
      "ç±Ł": 8636,
      "é£ĳ": 8637,
      "éľĻ": 8638,
      "æĤĿ": 8639,
      "éĻĿ": 8640,
      "çľĮ": 8641,
      "çĦľ": 8642,
      "éĶĩ": 8643,
      "éĺ¨": 8644,
      "åīľ": 8645,
      "èĬ£": 8646,
      "å»Į": 8647,
      "çķ¯": 8648,
      "é¦ķ": 8649,
      "éļ¤": 8650,
      "éķ§": 8651,
      "åŀ¤": 8652,
      "ç¬¤": 8653,
      "çłĳ": 8654,
      "çłĹ": 8655,
      "èĻ¿": 8656,
      "çĻ¢": 8657,
      "éŁ¡": 8658,
      "æº±": 8659,
      "è±İ": 8660,
      "èİ¨": 8661,
      "èİ©": 8662,
      "è£Ģ": 8663,
      "é¤Ĵ": 8664,
      "çħĩ": 8665,
      "é²Ĳ": 8666,
      "èŃİ": 8667,
      "èĶĺ": 8668,
      "çĩļ": 8669,
      "èª£": 8670,
      "èķ¹": 8671,
      "éŀ¨": 8672,
      "èĸħ": 8673,
      "èĸĿ": 8674,
      "ç¶¢": 8675,
      "èļĭ": 8676,
      "é½ĭ": 8677,
      "éłĳ": 8678,
      "é¬¨": 8679,
      "é¬ĸ": 8680,
      "è«ľ": 8681,
      "ç·Į": 8682,
      "ç°·": 8683,
      "éĮł": 8684,
      "éĦ§": 8685,
      "éĦĦ": 8686,
      "éĭĭ": 8687,
      "ãĥĥ": 8688,
      "ðŁĴ¼": 8689,
      "ðŁĵ±": 8690,
      "ã¶ģ": 8691,
      "Â¬": 8692,
      "Ã¦": 8693,
      "â¼": 8694,
      "ðĿ": 8695,
      "ï¼ł": 8696,
      "çļļ": 8697,
      "äºį": 8698,
      "æĪ¬": 8699,
      "è¯¹": 8700,
      "æĸķ": 8701,
      "åĴ£": 8702,
      "æĹŁ": 8703,
      "éĢĦ": 8704,
      "åĮ±": 8705,
      "é¢¶": 8706,
      "éĹ¬": 8707,
      "çİĺ": 8708,
      "å½³": 8709,
      "çŃħ": 8710,
      "æĻ¢": 8711,
      "åĳ£": 8712,
      "å¿ī": 8713,
      "å±©": 8714,
      "å±º": 8715,
      "å±¼": 8716,
      "æĮĲ": 8717,
      "ç®ĭ": 8718,
      "ç±¬": 8719,
      "é£Ĺ": 8720,
      "éľ¤": 8721,
      "éľĤ": 8722,
      "æĤĥ": 8723,
      "çĤĿ": 8724,
      "éĶĴ": 8725,
      "éĺĵ": 8726,
      "çĿį": 8727,
      "ç¤»": 8728,
      "åĸ«": 8729,
      "å¢ĺ": 8730,
      "çĸ³": 8731,
      "ç¡Ĳ": 8732,
      "ç¡ļ": 8733,
      "éĤ´": 8734,
      "æŁ½": 8735,
      "åŀŃ": 8736,
      "ç¼¡": 8737,
      "éħº": 8738,
      "èĻľ": 8739,
      "è¨ĩ": 8740,
      "æ»Ļ": 8741,
      "çĻĢ": 8742,
      "ç¥ı": 8743,
      "é»Ĵ": 8744,
      "é¤ĥ": 8745,
      "èĮĳ": 8746,
      "æĲ¥": 8747,
      "å²µ": 8748,
      "åĭį": 8749,
      "é²£": 8750,
      "æĴµ": 8751,
      "çĨĩ": 8752,
      "åĦ¼": 8753,
      "æ½Ĩ": 8754,
      "åĤĴ": 8755,
      "åĤķ": 8756,
      "çĩĬ": 8757,
      "éŀŀ": 8758,
      "é¹ģ": 8759,
      "èĨ´": 8760,
      "è©«": 8761,
      "è©°": 8762,
      "æ¾ª": 8763,
      "çĴĨ": 8764,
      "èļ¨": 8765,
      "é³©": 8766,
      "è¼¶": 8767,
      "ç°ī": 8768,
      "çĢ«": 8769,
      "èŁª": 8770,
      "è¬¬": 8771,
      "éĮĲ": 8772,
      "éĦł": 8773,
      "ðŁĺĸ": 8774,
      "å¶ª": 8775,
      "å¶°": 8776,
      "âĪ¥": 8777,
      "é¨ķ": 8778,
      "ãĥ«": 8779,
      "ðŁįķ": 8780,
      "ãģ¿": 8781,
      "ãģĬ": 8782,
      "æ«Ľ": 8783,
      "é´¦": 8784,
      "é´Ľ": 8785,
      "ðŁĵĪ": 8786,
      "âľĪ": 8787,
      "âŀ¡": 8788,
      "Ã¢": 8789,
      "Î½": 8790,
      "Ð¸": 8791,
      "ä¨": 8792,
      "ä¸±": 8793,
      "è¿į": 8794,
      "æĺ»": 8795,
      "åĪĵ": 8796,
      "åĬ´": 8797,
      "ç»ĸ": 8798,
      "æĹ¯": 8799,
      "åĽį": 8800,
      "å¹ŀ": 8801,
      "å·¿": 8802,
      "éĹ¿": 8803,
      "æĢ«": 8804,
      "çŃį": 8805,
      "æĦĢ": 8806,
      "æ³º": 8807,
      "æĥ²": 8808,
      "æĥĶ": 8809,
      "æ°¹": 8810,
      "å¿¸": 8811,
      "æĤģ": 8812,
      "åģģ": 8813,
      "èīŁ": 8814,
      "çľĬ": 8815,
      "éģ¼": 8816,
      "çĦĮ": 8817,
      "è½¾": 8818,
      "éĶĥ": 8819,
      "éĶŁ": 8820,
      "è°ŀ": 8821,
      "ç¤«": 8822,
      "æ®Ľ": 8823,
      "æŁ®": 8824,
      "çķĳ": 8825,
      "é¦Į": 8826,
      "éķ¨": 8827,
      "éĥ¾": 8828,
      "éĽĬ": 8829,
      "çł¢": 8830,
      "æ¶ĳ": 8831,
      "çĹł": 8832,
      "é¥¤": 8833,
      "æĳ°": 8834,
      "æĳŁ": 8835,
      "çģ¬": 8836,
      "è±Ĺ": 8837,
      "è£¯": 8838,
      "è£Ī": 8839,
      "ç¦³": 8840,
      "åĥ¦": 8841,
      "åĶ¼": 8842,
      "æħŃ": 8843,
      "ç¢ļ": 8844,
      "é²»": 8845,
      "çĨĴ": 8846,
      "æ½ı": 8847,
      "æĵ±": 8848,
      "éº´": 8849,
      "éĨ²": 8850,
      "çĩ»": 8851,
      "é¹´": 8852,
      "é¹Ķ": 8853,
      "è¸£": 8854,
      "ç£»": 8855,
      "è²²": 8856,
      "è©¼": 8857,
      "å´¿": 8858,
      "æ¾Ĩ": 8859,
      "çĴ¹": 8860,
      "çĴĪ": 8861,
      "ç¶ĳ": 8862,
      "é¬Ĵ": 8863,
      "é³·": 8864,
      "è«Ń": 8865,
      "æ§ļ": 8866,
      "è¤İ": 8867,
      "åµĤ": 8868,
      "âĳ§": 8869,
      "ðŁĺĨ": 8870,
      "å¶ī": 8871,
      "ãĥª": 8872,
      "ðŁįº": 8873,
      "ðŁĴĲ": 8874,
      "éĪŀ": 8875,
      "ðŁİĪ": 8876,
      "âħ¤": 8877,
      "âħ§": 8878,
      "ðŁĲ»": 8879,
      "ðŁĲĿ": 8880,
      "ãĤ¿": 8881,
      "ãĤī": 8882,
      "âĩĴ": 8883,
      "Â¼": 8884,
      "Ã¸": 8885,
      "Îĵ": 8886,
      "Ð°": 8887,
      "äĨ": 8888,
      "çļĽ": 8889,
      "åı¡": 8890,
      "æľĬ": 8891,
      "æĪ¦": 8892,
      "åĴŃ": 8893,
      "å¹µ": 8894,
      "åĩ¦": 8895,
      "å¯Ģ": 8896,
      "æĢ©": 8897,
      "æīŀ": 8898,
      "æŃľ": 8899,
      "æĥĵ": 8900,
      "åĵĵ": 8901,
      "çĲĩ": 8902,
      "å±ĥ": 8903,
      "çºļ": 8904,
      "è¾ı": 8905,
      "ç®Ŀ": 8906,
      "åģ¬": 8907,
      "èīĦ": 8908,
      "çľµ": 8909,
      "è½¹": 8910,
      "æģ¥": 8911,
      "èĬ¼": 8912,
      "åĸ£": 8913,
      "åĸ¾": 8914,
      "èĤ¸": 8915,
      "å»Ĩ": 8916,
      "åĢ¥": 8917,
      "åĢ¬": 8918,
      "ç¡Į": 8919,
      "éĤ°": 8920,
      "éĤ½": 8921,
      "ç½Ŀ": 8922,
      "åŀļ": 8923,
      "ç¼²": 8924,
      "åĿ©": 8925,
      "çĭ²": 8926,
      "èį¸": 8927,
      "çĻĥ": 8928,
      "èĪº": 8929,
      "æ¨Ľ": 8930,
      "é»´": 8931,
      "èĦ°": 8932,
      "èİľ": 8933,
      "æļ±": 8934,
      "èĮļ": 8935,
      "åĥ£": 8936,
      "è¥¶": 8937,
      "æ¦ĸ": 8938,
      "é²Į": 8939,
      "æ¿ŀ": 8940,
      "é¾ģ": 8941,
      "èĶĢ": 8942,
      "çĵĪ": 8943,
      "æ¥Ļ": 8944,
      "éŀ¿": 8945,
      "èĸĸ": 8946,
      "åĺ¢": 8947,
      "çĴ©": 8948,
      "é¬ĺ": 8949,
      "è«²": 8950,
      "æ§¤": 8951,
      "è¤¡": 8952,
      "è¤¦": 8953,
      "çįį": 8954,
      "ï½Ħ": 8955,
      "ï½Ĵ": 8956,
      "ï½ķ": 8957,
      "âĪĤ": 8958,
      "âĪł": 8959,
      "é®ĳ": 8960,
      "ðŁį¬": 8961,
      "ãģ¦": 8962,
      "ãģĮ": 8963,
      "éĪĩ": 8964,
      "ï¿¡": 8965,
      "ãĤ·": 8966,
      "ðŁıĿ": 8967,
      "âĻ¡": 8968,
      "âģ°": 8969,
      "Âĵ": 8970,
      "Ãª": 8971,
      "É¡": 8972,
      "Î¦": 8973,
      "áł": 8974,
      "ìĿ": 8975,
      "çļª": 8976,
      "æľı": 8977,
      "æĺ½": 8978,
      "æĸ¿": 8979,
      "ç»ĭ": 8980,
      "ç»Ĳ": 8981,
      "åĽ«": 8982,
      "æĿķ": 8983,
      "éĩĨ": 8984,
      "å¸¨": 8985,
      "å¾¯": 8986,
      "è§³": 8987,
      "æŀ±": 8988,
      "èĢ°": 8989,
      "âĢ»": 8990,
      "æĽĸ": 8991,
      "æİŀ": 8992,
      "å¿Ń": 8993,
      "è´ĵ": 8994,
      "èµĳ": 8995,
      "çºģ": 8996,
      "éľª": 8997,
      "æ¸ĭ": 8998,
      "éĻŀ": 8999,
      "èī¨": 9000,
      "é«Ļ": 9001,
      "æ±¸": 9002,
      "è½±": 9003,
      "åīĭ": 9004,
      "èĬ»": 9005,
      "åĸº": 9006,
      "ç¨Į": 9007,
      "ç¨ı": 9008,
      "å»¨": 9009,
      "æ®³": 9010,
      "èĲĳ": 9011,
      "æ¡¤": 9012,
      "é¦Ĭ": 9013,
      "è¢¸": 9014,
      "åŀħ": 9015,
      "éĥĩ": 9016,
      "éĽ«": 9017,
      "åĿĮ": 9018,
      "çłī": 9019,
      "çĪĿ": 9020,
      "èįĪ": 9021,
      "çĹº": 9022,
      "èĻĵ": 9023,
      "æ»ĥ": 9024,
      "å§±": 9025,
      "çĻ±": 9026,
      "éŁª": 9027,
      "éĴĨ": 9028,
      "èıª": 9029,
      "è£¼": 9030,
      "ç¦Ĩ": 9031,
      "é¤Į": 9032,
      "é¤Ĺ": 9033,
      "æ£°": 9034,
      "éĵ¥": 9035,
      "éĵ¦": 9036,
      "éĵ§": 9037,
      "éĵ¼": 9038,
      "å²Ļ": 9039,
      "æ¤ª": 9040,
      "é²¥": 9041,
      "èħ·": 9042,
      "åĦħ": 9043,
      "æ¥©": 9044,
      "çĩģ": 9045,
      "èĹ¹": 9046,
      "èĿĢ": 9047,
      "çµª": 9048,
      "ç¶«": 9049,
      "ç¶į": 9050,
      "æª©": 9051,
      "éł¹": 9052,
      "é³Ĭ": 9053,
      "éī¥": 9054,
      "ç·¯": 9055,
      "æ§ľ": 9056,
      "åļ±": 9057,
      "æĨĢ": 9058,
      "èŁ¥": 9059,
      "ï½¡": 9060,
      "ï½Ĺ": 9061,
      "ðŁĺĵ": 9062,
      "éįį": 9063,
      "ðŁĳī": 9064,
      "ðŁĳĭ": 9065,
      "âĸ½": 9066,
      "ãĥī": 9067,
      "ðŁįĵ": 9068,
      "ãģ§": 9069,
      "ãģĨ": 9070,
      "ðŁĴ¡": 9071,
      "ðŁĴ«": 9072,
      "ðŁĴĳ": 9073,
      "ðŁĴĵ": 9074,
      "ðŁİĬ": 9075,
      "ãĤ¯": 9076,
      "ðŁıĭ": 9077,
      "ðŁĵĿ": 9078,
      "ðŁļĹ": 9079,
      "ãłł": 9080,
      "Ãİ": 9081,
      "ÉĽ": 9082,
      "ÑĮ": 9083,
      "á»": 9084,
      "ãķ": 9085,
      "ãĢħ": 9086,
      "ãĢľ": 9087,
      "è¿ķ": 9088,
      "åħĲ": 9089,
      "ä½®": 9090,
      "ä½º": 9091,
      "æĺª": 9092,
      "æĺº": 9093,
      "çĶ¯": 9094,
      "çĶķ": 9095,
      "åĴį": 9096,
      "åĴĺ": 9097,
      "åŃĸ": 9098,
      "æĹ£": 9099,
      "æĹ´": 9100,
      "åĽµ": 9101,
      "æĿĮ": 9102,
      "å¹ª": 9103,
      "å¹®": 9104,
      "å·ĥ": 9105,
      "é¢ĭ": 9106,
      "åĨĳ": 9107,
      "è§«": 9108,
      "è§±": 9109,
      "æŃĪ": 9110,
      "çŃĺ": 9111,
      "âĢĥ": 9112,
      "èĩĪ": 9113,
      "å¦£": 9114,
      "æµī": 9115,
      "æ¯ĺ": 9116,
      "èµĩ": 9117,
      "èµĻ": 9118,
      "æįĮ": 9119,
      "æ´Ł": 9120,
      "éľ¶": 9121,
      "æ¸«": 9122,
      "åŁļ": 9123,
      "èīİ": 9124,
      "èīŃ": 9125,
      "é«İ": 9126,
      "éĺĭ": 9127,
      "ç³ŀ": 9128,
      "ç©£": 9129,
      "ç¨Ĥ": 9130,
      "ç¨Ĭ": 9131,
      "çĸ¬": 9132,
      "ç¡·": 9133,
      "ç¡Ļ": 9134,
      "æŁĪ": 9135,
      "ç½½": 9136,
      "æ·Ĥ": 9137,
      "ç¯¥": 9138,
      "é¦´": 9139,
      "ç¼ĭ": 9140,
      "çł¼": 9141,
      "éħĤ": 9142,
      "è¨ļ": 9143,
      "éªº": 9144,
      "å£¸": 9145,
      "çĮº": 9146,
      "èıĶ": 9147,
      "çĬ´": 9148,
      "æ£«": 9149,
      "æ£»": 9150,
      "æ£Ĺ": 9151,
      "éĵĸ": 9152,
      "éĵļ": 9153,
      "æļµ": 9154,
      "æļ¸": 9155,
      "æļķ": 9156,
      "é¸º": 9157,
      "ç¿£": 9158,
      "ç¿ĥ": 9159,
      "åĥĳ": 9160,
      "è¥ŀ": 9161,
      "æħį": 9162,
      "åĭĶ": 9163,
      "èĽī": 9164,
      "çª¬": 9165,
      "çªĨ": 9166,
      "åĦī": 9167,
      "æ¹³": 9168,
      "éŃĥ": 9169,
      "éŃŁ": 9170,
      "èĹŁ": 9171,
      "èķŀ": 9172,
      "é¹ł": 9173,
      "èĨ®": 9174,
      "åĹ¶": 9175,
      "åĺĴ": 9176,
      "èĿ¥": 9177,
      "è²Ĭ": 9178,
      "çµŀ": 9179,
      "æ¾¨": 9180,
      "çĴ½": 9181,
      "å««": 9182,
      "å«»": 9183,
      "çĺ§": 9184,
      "çĺ°": 9185,
      "çĺħ": 9186,
      "çĺĿ": 9187,
      "éł¤": 9188,
      "é¬ħ": 9189,
      "è¼¾": 9190,
      "æ§ł": 9191,
      "åµ·": 9192,
      "åµĵ": 9193,
      "è¬Ķ": 9194,
      "èłį": 9195,
      "èłĶ": 9196,
      "ðŁĺ¢": 9197,
      "ðŁĺĴ": 9198,
      "ðŁĺķ": 9199,
      "ðŁĮĦ": 9200,
      "é§Ŀ": 9201,
      "éİļ": 9202,
      "âĪ§": 9203,
      "éıĺ": 9204,
      "ðŁį¹": 9205,
      "ãģ¡": 9206,
      "ãģķ": 9207,
      "ðŁĴĥ": 9208,
      "ðŁİ¨": 9209,
      "ðŁĲĴ": 9210,
      "ãĤĥ": 9211,
      "ðŁĻĪ": 9212,
      "é¶¯": 9213,
      "ðŁļ´": 9214,
      "ÂĶ": 9215,
      "ÂŃ": 9216,
      "Ã£": 9217,
      "Ëĩ": 9218,
      "ÌĦ": 9219,
      "â½": 9220,
      "ä°": 9221,
      "æĪ¸": 9222,
      "åħ²": 9223,
      "ä½¹": 9224,
      "è¯Ĥ": 9225,
      "è®ł": 9226,
      "åº¹": 9227,
      "åºĥ": 9228,
      "ä¼ĭ": 9229,
      "è¡İ": 9230,
      "åĩĬ": 9231,
      "å·Ĥ": 9232,
      "é¢ı": 9233,
      "è§¿": 9234,
      "çī¾": 9235,
      "çİİ": 9236,
      "æīĮ": 9237,
      "æŀĴ": 9238,
      "å½´": 9239,
      "æĦĴ": 9240,
      "æ°Ī": 9241,
      "å¦ĺ": 9242,
      "æİĬ": 9243,
      "æĶµ": 9244,
      "æµ¬": 9245,
      "å±Ļ": 9246,
      "æįĥ": 9247,
      "åŁµ": 9248,
      "åŁı": 9249,
      "çľ¬": 9250,
      "çĤ¤": 9251,
      "çĦĭ": 9252,
      "é«Ī": 9253,
      "è½į": 9254,
      "è½ĺ": 9255,
      "ç³¸": 9256,
      "ç©¢": 9257,
      "æ®»": 9258,
      "æ®Ń": 9259,
      "çĸĥ": 9260,
      "ç´³": 9261,
      "ç¯¤": 9262,
      "ç¯¯": 9263,
      "æ¡Ĭ": 9264,
      "éķ²": 9265,
      "åŀŀ": 9266,
      "éĥı": 9267,
      "éĽĽ": 9268,
      "åĻĢ": 9269,
      "çĹ¡": 9270,
      "èĻ¡": 9271,
      "èĻ®": 9272,
      "çĻ¡": 9273,
      "éŁ¨": 9274,
      "å£Ĵ": 9275,
      "è±Ĭ": 9276,
      "çĬŁ": 9277,
      "é¤¸": 9278,
      "éĵ«": 9279,
      "åĥĩ": 9280,
      "æħĬ": 9281,
      "æħľ": 9282,
      "é²ļ": 9283,
      "çª³": 9284,
      "åĦķ": 9285,
      "é±¸": 9286,
      "èĵ¥": 9287,
      "é¼·": 9288,
      "èĶµ": 9289,
      "éĨĮ": 9290,
      "åĤī": 9291,
      "çĩ¼": 9292,
      "æĩ¾": 9293,
      "æĩĲ": 9294,
      "ç¹Ĩ": 9295,
      "é¹Ģ": 9296,
      "è¸¦": 9297,
      "èĨ¾": 9298,
      "èĿ½": 9299,
      "å´®": 9300,
      "æ¾Ĺ": 9301,
      "èļĥ": 9302,
      "è¹ļ": 9303,
      "çŀį": 9304,
      "é¬Ĳ": 9305,
      "èĺ¤": 9306,
      "è¼Ģ": 9307,
      "ç·«": 9308,
      "è¤·": 9309,
      "çį°": 9310,
      "èŁ«": 9311,
      "åµ«": 9312,
      "è¬ģ": 9313,
      "èłĻ": 9314,
      "ï½Ĩ": 9315,
      "ðŁĺĢ": 9316,
      "é§¿": 9317,
      "éĭħ": 9318,
      "âĸĪ": 9319,
      "éı»": 9320,
      "ãĥł": 9321,
      "ðŁĴĨ": 9322,
      "ðŁĴĹ": 9323,
      "éĪİ": 9324,
      "ðŁĲ¬": 9325,
      "ðŁĲ¼": 9326,
      "âĿ¶": 9327,
      "âĿ·": 9328,
      "âĿ¸": 9329,
      "ãĤ¤": 9330,
      "ãĤĤ": 9331,
      "éµģ": 9332,
      "é¶±": 9333,
      "âľĸ": 9334,
      "ðŁķ¶": 9335,
      "âļª": 9336,
      "Âº": 9337,
      "Î¿": 9338,
      "ÑĢ": 9339,
      "â¾": 9340,
      "âŁ": 9341,
      "ãŁ": 9342,
      "äĶ": 9343,
      "äºĢ": 9344,
      "çĶĹ": 9345,
      "ä¹©": 9346,
      "å°Ĥ": 9347,
      "ä¼Ŀ": 9348,
      "å·Ģ": 9349,
      "åĮ¦": 9350,
      "å¯¾": 9351,
      "åĨ¨": 9352,
      "æķ©": 9353,
      "éĹĶ": 9354,
      "æĢĥ": 9355,
      "èĢµ": 9356,
      "åįĲ": 9357,
      "æĥĽ": 9358,
      "çĽ¬": 9359,
      "åĵķ": 9360,
      "çĲ¹": 9361,
      "æĻ«": 9362,
      "åĳ¶": 9363,
      "ä¾ģ": 9364,
      "ç«ħ": 9365,
      "èµĨ": 9366,
      "æĮ¾": 9367,
      "æ¸°": 9368,
      "æ¬¬": 9369,
      "æ²¢": 9370,
      "æ²©": 9371,
      "çľŃ": 9372,
      "è½İ": 9373,
      "è¶Ķ": 9374,
      "éĶĶ": 9375,
      "è°«": 9376,
      "è°¿": 9377,
      "è°Ĥ": 9378,
      "ç©¸": 9379,
      "åĢ®": 9380,
      "åĢķ": 9381,
      "æ®£": 9382,
      "ç¡ĸ": 9383,
      "æŁµ": 9384,
      "æŁĬ": 9385,
      "ç´ŀ": 9386,
      "çķĪ": 9387,
      "éķ®": 9388,
      "éķĪ": 9389,
      "éĥŀ": 9390,
      "è·½": 9391,
      "ç¼Ĵ": 9392,
      "ç¬ķ": 9393,
      "åĿµ": 9394,
      "çł½": 9395,
      "åĻı": 9396,
      "æ»Ī": 9397,
      "æ»ı": 9398,
      "é¥ĺ": 9399,
      "éªį": 9400,
      "æĳĲ": 9401,
      "éŁĿ": 9402,
      "æ¨«": 9403,
      "é»¡": 9404,
      "èĥĤ": 9405,
      "èĥł": 9406,
      "èĦĴ": 9407,
      "èİ¿": 9408,
      "èİĽ": 9409,
      "éĴ£": 9410,
      "èıī": 9411,
      "èıŃ": 9412,
      "è£¢": 9413,
      "ç¦ĺ": 9414,
      "éĵķ": 9415,
      "æļĲ": 9416,
      "è¥ķ": 9417,
      "æĲ°": 9418,
      "æĲµ": 9419,
      "æ¤¤": 9420,
      "çıĿ": 9421,
      "æħĨ": 9422,
      "é²¡": 9423,
      "é²ĥ": 9424,
      "é²İ": 9425,
      "é²ķ": 9426,
      "èħĺ": 9427,
      "æĴº": 9428,
      "æĴĿ": 9429,
      "çĨĺ": 9430,
      "åĦĩ": 9431,
      "åł®": 9432,
      "éº°": 9433,
      "éºĽ": 9434,
      "é±Ī": 9435,
      "èĵĨ": 9436,
      "é¼Ĺ": 9437,
      "é¾¢": 9438,
      "é¾ħ": 9439,
      "èľĳ": 9440,
      "çĩĿ": 9441,
      "èķİ": 9442,
      "èĸĶ": 9443,
      "è¸¨": 9444,
      "è¸Ĩ": 9445,
      "åĺĸ": 9446,
      "éĸ¢": 9447,
      "çµĵ": 9448,
      "å«±": 9449,
      "ç¶®": 9450,
      "ç¶½": 9451,
      "çĺ¡": 9452,
      "éłł": 9453,
      "é¬Ļ": 9454,
      "é³Ģ": 9455,
      "éīı": 9456,
      "ç·¬": 9457,
      "ç·²": 9458,
      "æ§³": 9459,
      "âĦı": 9460,
      "åļŁ": 9461,
      "æĨĻ": 9462,
      "æĨĿ": 9463,
      "ðŁĹ": 9464,
      "èŁı": 9465,
      "ç¸¹": 9466,
      "ç¸Ĩ": 9467,
      "è¬¦": 9468,
      "èłĽ": 9469,
      "ï½¥": 9470,
      "éĦĲ": 9471,
      "âĨĳ": 9472,
      "ðŁĺ¨": 9473,
      "é¨Ħ": 9474,
      "ðŁį²": 9475,
      "ðŁįµ": 9476,
      "ðŁįĿ": 9477,
      "ãģ£": 9478,
      "ãģı": 9479,
      "ðŁĴĽ": 9480,
      "éĪį": 9481,
      "ðŁĲ°": 9482,
      "ðŁĲķ": 9483,
      "ãĤģ": 9484,
      "ãĤĦ": 9485,
      "ãĤĪ": 9486,
      "ãĤĮ": 9487,
      "âĺĲ": 9488,
      "âĺĶ": 9489,
      "ðŁı¡": 9490,
      "é·Ħ": 9491,
      "é·ĩ": 9492,
      "ðŁĵ·": 9493,
      "âĤģ": 9494,
      "ðŁ¤Ŀ": 9495,
      "é°»": 9496,
      "âķ³": 9497,
      "Â¾": 9498,
      "Ä±": 9499,
      "Ð¾": 9500,
      "ÑĤ": 9501,
      "ä²": 9502,
      "ä´": 9503,
      "äĮ": 9504,
      "äºĵ": 9505,
      "åıĩ": 9506,
      "åıİ": 9507,
      "å¤ī": 9508,
      "åĪ²": 9509,
      "åĩ¼": 9510,
      "å¾§": 9511,
      "åĨĨ": 9512,
      "çīģ": 9513,
      "å¼İ": 9514,
      "çŃ´": 9515,
      "çŃĪ": 9516,
      "æłĦ": 9517,
      "æĥĻ": 9518,
      "èĩį": 9519,
      "æ°½": 9520,
      "æĻ©": 9521,
      "æĻ¬": 9522,
      "æİ¼": 9523,
      "åĳ¿": 9524,
      "ä¾ĸ": 9525,
      "æµł": 9526,
      "æ¯°": 9527,
      "æ¯¸": 9528,
      "æ´¿": 9529,
      "æ¬ī": 9530,
      "éĻľ": 9531,
      "èīĳ": 9532,
      "é«¹": 9533,
      "æ±į": 9534,
      "è½ħ": 9535,
      "è¶į": 9536,
      "è¶ĳ": 9537,
      "éĺ¯": 9538,
      "è°º": 9539,
      "æģĬ": 9540,
      "æģĽ": 9541,
      "çĿĥ": 9542,
      "çĿİ": 9543,
      "ç¤½": 9544,
      "åĸ¶": 9545,
      "å¢Ħ": 9546,
      "å»Ļ": 9547,
      "æ®ª": 9548,
      "æŁĤ": 9549,
      "ç½³": 9550,
      "ç¯¸": 9551,
      "èģį": 9552,
      "ç¬®": 9553,
      "çĭ½": 9554,
      "çĭĿ": 9555,
      "åķĲ": 9556,
      "èºĬ": 9557,
      "éªķ": 9558,
      "å§¤": 9559,
      "å§ŀ": 9560,
      "ç¥¼": 9561,
      "é»®": 9562,
      "å£Ī": 9563,
      "çĮĻ": 9564,
      "éĴĮ": 9565,
      "çĬŃ": 9566,
      "ç¦ĩ": 9567,
      "éĵª": 9568,
      "èĮĢ": 9569,
      "èĮĩ": 9570,
      "åĥ¥": 9571,
      "åĶ«": 9572,
      "åĶ¶": 9573,
      "æ¢£": 9574,
      "èĽ»": 9575,
      "é²¦": 9576,
      "æĴĥ": 9577,
      "åĦ¦": 9578,
      "æ½¾": 9579,
      "æĵ¡": 9580,
      "æĵª": 9581,
      "æĵĦ": 9582,
      "æĵĹ": 9583,
      "åł§": 9584,
      "èĵ£": 9585,
      "çĵļ": 9586,
      "éĨµ": 9587,
      "éĨĤ": 9588,
      "æ¥ª": 9589,
      "çĩĭ": 9590,
      "æĩ½": 9591,
      "èª¡": 9592,
      "èªħ": 9593,
      "ç¹Ń": 9594,
      "èķ»": 9595,
      "éŀ²": 9596,
      "é¹İ": 9597,
      "è¸ł": 9598,
      "è²İ": 9599,
      "è©¶": 9600,
      "å«ĺ": 9601,
      "ç¶¸": 9602,
      "è³Ĥ": 9603,
      "çĺĵ": 9604,
      "çĺķ": 9605,
      "éłµ": 9606,
      "è««": 9607,
      "è«´": 9608,
      "ç·ŀ": 9609,
      "çĢ§": 9610,
      "çĢģ": 9611,
      "çĢĭ": 9612,
      "èŁ¢": 9613,
      "èłĥ": 9614,
      "èłĵ": 9615,
      "ï½ļ": 9616,
      "éĮ¨": 9617,
      "éĮ²": 9618,
      "ðŁĺ´": 9619,
      "ðŁĺŀ": 9620,
      "ðŁĮ°": 9621,
      "ðŁĳ£": 9622,
      "ðŁĳĻ": 9623,
      "éİĶ": 9624,
      "å¶ĭ": 9625,
      "âĹİ": 9626,
      "éĲ²": 9627,
      "éĲ¸": 9628,
      "âĪ«": 9629,
      "âĪ´": 9630,
      "ãĥ©": 9631,
      "ãĥ¬": 9632,
      "ãĥŃ": 9633,
      "ðŁį»": 9634,
      "ãģ¤": 9635,
      "ãģ©": 9636,
      "ãģ°": 9637,
      "éĪº": 9638,
      "ðŁİ¥": 9639,
      "âħĵ": 9640,
      "ðŁĲ¥": 9641,
      "ðŁĲ¸": 9642,
      "ðŁĲŁ": 9643,
      "ãĤ«": 9644,
      "ãĤŃ": 9645,
      "ðŁıĨ": 9646,
      "âĶĶ": 9647,
      "é·Ĺ": 9648,
      "âĻ¥": 9649,
      "é¶Ħ": 9650,
      "ðŁļª": 9651,
      "âĤ¬": 9652,
      "âĤħ": 9653,
      "ï¹Ĳ": 9654,
      "ðŁ¤¤": 9655,
      "ãĦ§": 9656,
      "ðŁ¦Ĩ": 9657,
      "ðŁĽį": 9658,
      "âĬĻ": 9659,
      "äĨī": 9660,
      "»¿": 9661,
      "Â»": 9662,
      "Ã¥": 9663,
      "Ãĺ": 9664,
      "Ä§": 9665,
      "ÉĶ": 9666,
      "ÎĦ": 9667,
      "ÏĤ": 9668,
      "Ð²": 9669,
      "Ñģ": 9670,
      "âĮ": 9671,
      "ã¬": 9672,
      "ãĹ": 9673,
      "ãĿ": 9674,
      "äĳ": 9675,
      "ëĭ": 9676,
      "ï»¿": 9677,
      "ä¸ħ": 9678,
      "ä¸ı": 9679,
      "ï¼º": 9680,
      "çļĿ": 9681,
      "ãĢĿ": 9682,
      "ãĢŀ": 9683,
      "ä»«": 9684,
      "ä»³": 9685,
      "ä½§": 9686,
      "ä½ĩ": 9687,
      "è¯¼": 9688,
      "å®Ħ": 9689,
      "åĴ®": 9690,
      "åĴĪ": 9691,
      "åľ¬": 9692,
      "åĲĶ": 9693,
      "åĬ»": 9694,
      "ç»¤": 9695,
      "å°¨": 9696,
      "è®ĸ": 9697,
      "è®Ł": 9698,
      "æĿĴ": 9699,
      "åºĭ": 9700,
      "å¸¡": 9701,
      "å¸Ł": 9702,
      "ä¼¢": 9703,
      "è¦Ī": 9704,
      "åĨª": 9705,
      "åĨģ": 9706,
      "æķį": 9707,
      "æķĶ": 9708,
      "å¥¬": 9709,
      "å¼¾": 9710,
      "æŀ¹": 9711,
      "æı¿": 9712,
      "å½¯": 9713,
      "æ³Ķ": 9714,
      "æĥĦ": 9715,
      "èĩĮ": 9716,
      "æ°·": 9717,
      "æ°İ": 9718,
      "æĻ¸": 9719,
      "æĽļ": 9720,
      "æĶŀ": 9721,
      "æµ¹": 9722,
      "æĮ¦": 9723,
      "è¾º": 9724,
      "ç®¦": 9725,
      "ç®¯": 9726,
      "ç®ĩ": 9727,
      "ç®Ļ": 9728,
      "é£Ĥ": 9729,
      "åŁĹ": 9730,
      "æ²¬": 9731,
      "æ²ĩ": 9732,
      "æĤµ": 9733,
      "éĻģ": 9734,
      "çľ¢": 9735,
      "çĤ°": 9736,
      "çĤ»": 9737,
      "çĦ®": 9738,
      "è½µ": 9739,
      "è¶¿": 9740,
      "ç³Ī": 9741,
      "çŁ¼": 9742,
      "ç¾Ĩ": 9743,
      "ç¾ĸ": 9744,
      "è°ĩ": 9745,
      "çĿı": 9746,
      "ç¤¡": 9747,
      "ç¤ª": 9748,
      "åīĹ": 9749,
      "èĬĳ": 9750,
      "åĸ¤": 9751,
      "åĸ°": 9752,
      "å¢¦": 9753,
      "å¢Ĺ": 9754,
      "èĤľ": 9755,
      "å»ĭ": 9756,
      "å»į": 9757,
      "å»Ŀ": 9758,
      "åĢ¶": 9759,
      "çķĴ": 9760,
      "çķĿ": 9761,
      "é¡±": 9762,
      "é¡Ķ": 9763,
      "ç¯´": 9764,
      "éĥ¿": 9765,
      "éĥĽ": 9766,
      "çĥ´": 9767,
      "è·©": 9768,
      "ç¬«": 9769,
      "åĿ«": 9770,
      "çłŁ": 9771,
      "åķħ": 9772,
      "èº¡": 9773,
      "èĭĺ": 9774,
      "åĻĵ": 9775,
      "è¨¶": 9776,
      "é¥©": 9777,
      "é¥Į": 9778,
      "å§ī": 9779,
      "çĻİ": 9780,
      "æºĢ": 9781,
      "æºĺ": 9782,
      "é»ģ": 9783,
      "é©²": 9784,
      "çĮĺ": 9785,
      "èı«": 9786,
      "èı¶": 9787,
      "è£ĭ": 9788,
      "é¤ī": 9789,
      "éĵĬ": 9790,
      "éĵı": 9791,
      "ç¿¾": 9792,
      "çħķ": 9793,
      "åĥ°": 9794,
      "åĶĤ": 9795,
      "å¡¿": 9796,
      "å¡Ī": 9797,
      "é²®": 9798,
      "é²°": 9799,
      "é²¼": 9800,
      "èħ§": 9801,
      "æ©Ľ": 9802,
      "åł¯": 9803,
      "åłĮ": 9804,
      "çĳ½": 9805,
      "éº©": 9806,
      "éºĳ": 9807,
      "æ¹£": 9808,
      "æ¹ħ": 9809,
      "åªŀ": 9810,
      "èĵ°": 9811,
      "éŃĭ": 9812,
      "èŃĬ": 9813,
      "èĶ¸": 9814,
      "çĵĮ": 9815,
      "çĵı": 9816,
      "éĨ±": 9817,
      "åĤ§": 9818,
      "ç¹ķ": 9819,
      "éŀ¶": 9820,
      "é¹Ļ": 9821,
      "é¹Ł": 9822,
      "è¸§": 9823,
      "èĨ°": 9824,
      "çµĥ": 9825,
      "è©Ł": 9826,
      "æ¾Ń": 9827,
      "çĴĽ": 9828,
      "ç¶Ļ": 9829,
      "èļ´": 9830,
      "èļº": 9831,
      "è¹¯": 9832,
      "çŀĢ": 9833,
      "éīĹ": 9834,
      "åļ¥": 9835,
      "åļľ": 9836,
      "è¤Ļ": 9837,
      "çįº": 9838,
      "ç°ı": 9839,
      "è»¾": 9840,
      "èŁĬ": 9841,
      "ç¸¯": 9842,
      "å¬¿": 9843,
      "è¬ļ": 9844,
      "èłµ": 9845,
      "ï½Ļ": 9846,
      "éĮĵ": 9847,
      "âĳ¨": 9848,
      "âĳ´": 9849,
      "ðŁĺĩ": 9850,
      "ðŁĮĮ": 9851,
      "é§®": 9852,
      "ðŁĳĨ": 9853,
      "éĲ³": 9854,
      "âĪ¨": 9855,
      "âĪĪ": 9856,
      "éı½": 9857,
      "é¨§": 9858,
      "é¨ĥ": 9859,
      "é®¨": 9860,
      "éĳ¾": 9861,
      "ðŁį¸": 9862,
      "ðŁį½": 9863,
      "ãģĪ": 9864,
      "ãģł": 9865,
      "ðŁĴ¸": 9866,
      "ðŁĴĸ": 9867,
      "ðŁİ¬": 9868,
      "æ«Ĩ": 9869,
      "âħ¥": 9870,
      "ðŁı¼": 9871,
      "âĶĤ": 9872,
      "ðŁĵ£": 9873,
      "ðŁĵĸ": 9874,
      "âľĬ": 9875,
      "âľĶ": 9876,
      "âģ·": 9877,
      "ðŁĶį": 9878,
      "ãĦł": 9879,
      "ðĿĲ": 9880,
      "Â«": 9881,
      "Î¨": 9882,
      "Î¾": 9883,
      "Îł": 9884,
      "ÐĿ": 9885,
      "à¤": 9886,
      "âĽ": 9887,
      "äĵ": 9888,
      "ê·": 9889,
      "ëı": 9890,
      "ìĦ": 9891,
      "ä¸¡": 9892,
      "ä¸Ħ": 9893,
      "åıķ": 9894,
      "ä½½": 9895,
      "æĺĲ": 9896,
      "æĺŀ": 9897,
      "å¤Ĥ": 9898,
      "å®Ģ": 9899,
      "çĶ¡": 9900,
      "çĶĶ": 9901,
      "åľª": 9902,
      "åĬĵ": 9903,
      "ç»²": 9904,
      "ç»º": 9905,
      "å°Į": 9906,
      "åŃ¬": 9907,
      "åŃ¿": 9908,
      "è®Ļ": 9909,
      "åºģ": 9910,
      "å¸¢": 9911,
      "å¸¯": 9912,
      "ä¼·": 9913,
      "éĢ¯": 9914,
      "å·ı": 9915,
      "è¦©": 9916,
      "å¯¢": 9917,
      "åĨ¾": 9918,
      "æķİ": 9919,
      "è§ĭ": 9920,
      "çī´": 9921,
      "çī·": 9922,
      "çİĹ": 9923,
      "æĢĦ": 9924,
      "å¼Ķ": 9925,
      "æīħ": 9926,
      "æīĬ": 9927,
      "æīķ": 9928,
      "æŃº": 9929,
      "æı¹": 9930,
      "æłĨ": 9931,
      "æłĮ": 9932,
      "åįĮ": 9933,
      "åįĺ": 9934,
      "âĢĤ": 9935,
      "âĢİ": 9936,
      "åĵ³": 9937,
      "æĻĦ": 9938,
      "åİİ": 9939,
      "æĭµ": 9940,
      "åĳ«": 9941,
      "å¿º": 9942,
      "ç«ģ": 9943,
      "çºķ": 9944,
      "ç®£": 9945,
      "æ´ĩ": 9946,
      "æ´ĳ": 9947,
      "æ´Ń": 9948,
      "æ¸¼": 9949,
      "æ²¨": 9950,
      "æ²²": 9951,
      "åģ¾": 9952,
      "èī½": 9953,
      "éģ«": 9954,
      "çĦ¼": 9955,
      "éĶ¨": 9956,
      "éĶ«": 9957,
      "éĶĿ": 9958,
      "éĺ¬": 9959,
      "ç³µ": 9960,
      "çŁī": 9961,
      "è°½": 9962,
      "æģµ": 9963,
      "æģĿ": 9964,
      "æģŁ": 9965,
      "çĿŁ": 9966,
      "å¢ģ": 9967,
      "ç¨²": 9968,
      "çĸİ": 9969,
      "ç¡ī": 9970,
      "éĤĩ": 9971,
      "æŁŁ": 9972,
      "ç½Ľ": 9973,
      "ç´ī": 9974,
      "æ·°": 9975,
      "æ¡«": 9976,
      "é¦ŀ": 9977,
      "è¢´": 9978,
      "è¢Ĩ": 9979,
      "éķ¥": 9980,
      "éķª": 9981,
      "éĥª": 9982,
      "éĥĦ": 9983,
      "éĽĺ": 9984,
      "åĿ±": 9985,
      "çĭģ": 9986,
      "çĭĨ": 9987,
      "çĭĽ": 9988,
      "èº§": 9989,
      "èį¬": 9990,
      "èįĺ": 9991,
      "åĻĺ": 9992,
      "éħĨ": 9993,
      "æ¶ļ": 9994,
      "é¥¾": 9995,
      "é¥Ł": 9996,
      "å§ª": 9997,
      "çĻ©": 9998,
      "çĻ²": 9999,
      "æ¨©": 10000,
      "æ¼»": 10001,
      "é»¦": 10002,
      "èĦ£": 10003,
      "é©µ": 10004,
      "çĮĦ": 10005,
      "çĮĭ": 10006,
      "è£²": 10007,
      "è£»": 10008,
      "ç¦ĥ": 10009,
      "é¸ŀ": 10010,
      "èĮĽ": 10011,
      "ç¿Ļ": 10012,
      "æ¦ĳ": 10013,
      "å²£": 10014,
      "å²¨": 10015,
      "çı§": 10016,
      "æħĻ": 10017,
      "åĭ§": 10018,
      "èĽ´": 10019,
      "å¨µ": 10020,
      "é²¿": 10021,
      "çªĬ": 10022,
      "èħĻ": 10023,
      "æĴ»": 10024,
      "æĴĺ": 10025,
      "èŀĵ": 10026,
      "åł¿": 10027,
      "çĳĴ": 10028,
      "æ¹ĭ": 10029,
      "åª»": 10030,
      "åªľ": 10031,
      "èĵ§": 10032,
      "é¾ĩ": 10033,
      "èŃģ": 10034,
      "æ¥ħ": 10035,
      "æ¥Ľ": 10036,
      "èľ£": 10037,
      "èĴ±": 10038,
      "çĩ¬": 10039,
      "èª¨": 10040,
      "ç¹Ĺ": 10041,
      "èķº": 10042,
      "èĸ¶": 10043,
      "èĸĨ": 10044,
      "è¸¶": 10045,
      "åĹµ": 10046,
      "åĹĨ": 10047,
      "åĹŀ": 10048,
      "åĺĲ": 10049,
      "èĿ¤": 10050,
      "éĸ§": 10051,
      "çµĩ": 10052,
      "å´±": 10053,
      "æ¾¼": 10054,
      "çĴª": 10055,
      "ç¶·": 10056,
      "ç¶ĸ": 10057,
      "èļį": 10058,
      "çŀµ": 10059,
      "çĺı": 10060,
      "æª«": 10061,
      "é¬Ī": 10062,
      "é³®": 10063,
      "é³ĩ": 10064,
      "éī»": 10065,
      "éīĦ": 10066,
      "éīŀ": 10067,
      "æ§ĵ": 10068,
      "åļļ": 10069,
      "åļŃ": 10070,
      "è¤ī": 10071,
      "è¤Ķ": 10072,
      "ç°į": 10073,
      "èŁľ": 10074,
      "ç¸Ŀ": 10075,
      "åµĿ": 10076,
      "è¬¾": 10077,
      "èł¨": 10078,
      "ï½¢": 10079,
      "ï½ĸ": 10080,
      "éĬĥ": 10081,
      "éĮ®": 10082,
      "éĦ®": 10083,
      "âĳµ": 10084,
      "âĨĶ": 10085,
      "ðŁĺĪ": 10086,
      "ðŁĮ¤": 10087,
      "ðŁĮİ": 10088,
      "ðŁĮĽ": 10089,
      "é§ª": 10090,
      "ðŁĳ«": 10091,
      "ðŁĳĦ": 10092,
      "ðŁĳĪ": 10093,
      "ðŁĳĹ": 10094,
      "éİµ": 10095,
      "å¶ķ": 10096,
      "âĹĨ": 10097,
      "éĲį": 10098,
      "âĪª": 10099,
      "ãĥ£": 10100,
      "ãĥĨ": 10101,
      "ãĥķ": 10102,
      "é®Ģ": 10103,
      "éĳ¿": 10104,
      "ðŁį°": 10105,
      "ðŁįľ": 10106,
      "ðŁĴ¬": 10107,
      "ðŁĴľ": 10108,
      "ðŁĴŃ": 10109,
      "ðŁİ¸": 10110,
      "ðŁİ¼": 10111,
      "ï¿¼": 10112,
      "æ«©": 10113,
      "ãĤ¢": 10114,
      "ãĤ¸": 10115,
      "ðŁı°": 10116,
      "ðŁıĢ": 10117,
      "é´ĥ": 10118,
      "âĻª": 10119,
      "éµĬ": 10120,
      "é¯Ī": 10121,
      "ðŁļķ": 10122,
      "ï¹£": 10123,
      "ðŁĶ¬": 10124,
      "é°Ń": 10125,
      "ðŁķº": 10126,
      "âĬ¥": 10127,
      "ìĿ´": 10128,
      "ãķĻ": 10129,
      "ëıĦ": 10130,
      "¦¬": 10131,
      "Ãľ": 10132,
      "ÃŁ": 10133,
      "Åļ": 10134,
      "ÊĬ": 10135,
      "ÊĮ": 10136,
      "ËĻ": 10137,
      "Ø¯": 10138,
[...]
