{
  "version": "1.0",
  "truncation": null,
  "padding": null,
  "added_tokens": [
    {
      "id": 0,
      "content": "<unk>",
      "single_word": false,
      "lstrip": false,
      "rstrip": false,
      "normalized": false,
      "special": true
    },
    {
      "id": 1,
      "content": "<s>",
      "single_word": false,
      "lstrip": false,
      "rstrip": false,
      "normalized": false,
      "special": true
    },
    {
      "id": 2,
      "content": "</s>",
      "single_word": false,
      "lstrip": false,
      "rstrip": false,
      "normalized": false,
      "special": true
    },
    {
      "id": 3,
      "content": "<|SBOS|>",
      "single_word": false,
      "lstrip": false,
      "rstrip": false,
      "normalized": false,
      "special": true
    },
    {
      "id": 4,
      "content": "<|SEOS|>",
      "single_word": false,
      "lstrip": false,
      "rstrip": false,
      "normalized": false,
      "special": true
    },
    {
      "id": 5,
      "content": "<PAD>",
      "single_word": false,
      "lstrip": false,
      "rstrip": false,
      "normalized": false,
      "special": true
    },
    {
      "id": 6,
      "content": "<mask>",
      "single_word": false,
      "lstrip": false,
      "rstrip": false,
      "normalized": false,
      "special": true
    },
    {
      "id": 7,
      "content": "<cls>",
      "single_word": false,
      "lstrip": false,
      "rstrip": false,
      "normalized": false,
      "special": true
    },
    {
      "id": 8,
      "content": "<sep>",
      "single_word": false,
      "lstrip": false,
      "rstrip": false,
      "normalized": false,
      "special": true
    },
    {
      "id": 9,
      "content": "<math>",
      "single_word": false,
      "lstrip": false,
      "rstrip": false,
      "normalized": false,
      "special": true
    },
    {
      "id": 10,
      "content": "<formula>",
      "single_word": false,
      "lstrip": false,
      "rstrip": false,
      "normalized": false,
      "special": true
    },
    {
      "id": 11,
      "content": "<equation>",
      "single_word": false,
      "lstrip": false,
      "rstrip": false,
      "normalized": false,
      "special": true
    },
    {
      "id": 12,
      "content": "<matrix>",
      "single_word": false,
      "lstrip": false,
      "rstrip": false,
      "normalized": false,
      "special": true
    },
    {
      "id": 13,
      "content": "<integral>",
      "single_word": false,
      "lstrip": false,
      "rstrip": false,
      "normalized": false,
      "special": true
    },
    {
      "id": 14,
      "content": "<derivative>",
      "single_word": false,
      "lstrip": false,
      "rstrip": false,
      "normalized": false,
      "special": true
    },
    {
      "id": 15,
      "content": "<summation>",
      "single_word": false,
      "lstrip": false,
      "rstrip": false,
      "normalized": false,
      "special": true
    },
    {
      "id": 16,
      "content": "<limit>",
      "single_word": false,
      "lstrip": false,
      "rstrip": false,
      "normalized": false,
      "special": true
    },
    {
      "id": 17,
      "content": "<vector>",
      "single_word": false,
      "lstrip": false,
      "rstrip": false,
      "normalized": false,
      "special": true
    },
    {
      "id": 18,
      "content": "<tensor>",
      "single_word": false,
      "lstrip": false,
      "rstrip": false,
      "normalized": false,
      "special": true
    },
    {
      "id": 19,
      "content": "<probability>",
      "single_word": false,
      "lstrip": false,
      "rstrip": false,
      "normalized": false,
      "special": true
    },
    {
      "id": 20,
      "content": "<fraction>",
      "single_word": false,
      "lstrip": false,
      "rstrip": false,
      "normalized": false,
      "special": true
    },
    {
      "id": 21,
      "content": "<sqrt>",
      "single_word": false,
      "lstrip": false,
      "rstrip": false,
      "normalized": false,
      "special": true
    },
    {
      "id": 22,
      "content": "<log>",
      "single_word": false,
      "lstrip": false,
      "rstrip": false,
      "normalized": false,
      "special": true
    },
    {
      "id": 23,
      "content": "<trig>",
      "single_word": false,
      "lstrip": false,
      "rstrip": false,
      "normalized": false,
      "special": true
    },
    {
      "id": 24,
      "content": "<set>",
      "single_word": false,
      "lstrip": false,
      "rstrip": false,
      "normalized": false,
      "special": true
    },
    {
      "id": 25,
      "content": "<code>",
      "single_word": false,
      "lstrip": false,
      "rstrip": false,
      "normalized": false,
      "special": true
    },
    {
      "id": 26,
      "content": "<function>",
      "single_word": false,
      "lstrip": false,
      "rstrip": false,
      "normalized": false,
      "special": true
    },
    {
      "id": 27,
      "content": "<class>",
      "single_word": false,
      "lstrip": false,
      "rstrip": false,
      "normalized": false,
      "special": true
    },
    {
      "id": 28,
      "content": "<loop>",
      "single_word": false,
      "lstrip": false,
      "rstrip": false,
      "normalized": false,
      "special": true
    },
    {
      "id": 29,
      "content": "<condition>",
      "single_word": false,
      "lstrip": false,
      "rstrip": false,
      "normalized": false,
      "special": true
    },
    {
      "id": 30,
      "content": "<variable>",
      "single_word": false,
      "lstrip": false,
      "rstrip": false,
      "normalized": false,
      "special": true
    },
    {
      "id": 31,
      "content": "<import>",
      "single_word": false,
      "lstrip": false,
      "rstrip": false,
      "normalized": false,
      "special": true
    },
    {
      "id": 32,
      "content": "<comment>",
      "single_word": false,
      "lstrip": false,
      "rstrip": false,
      "normalized": false,
      "special": true
    },
    {
      "id": 33,
      "content": "<api_call>",
      "single_word": false,
      "lstrip": false,
      "rstrip": false,
      "normalized": false,
      "special": true
    },
    {
      "id": 34,
      "content": "<sql>",
      "single_word": false,
      "lstrip": false,
      "rstrip": false,
      "normalized": false,
      "special": true
    },
    {
      "id": 35,
      "content": "<json>",
      "single_word": false,
      "lstrip": false,
      "rstrip": false,
      "normalized": false,
      "special": true
    },
    {
      "id": 36,
      "content": "<xml>",
      "single_word": false,
      "lstrip": false,
      "rstrip": false,
      "normalized": false,
      "special": true
    },
    {
      "id": 37,
      "content": "<yaml>",
      "single_word": false,
      "lstrip": false,
      "rstrip": false,
      "normalized": false,
      "special": true
    },
    {
      "id": 38,
      "content": "<html>",
      "single_word": false,
      "lstrip": false,
      "rstrip": false,
      "normalized": false,
      "special": true
    },
    {
      "id": 39,
      "content": "<css>",
      "single_word": false,
      "lstrip": false,
      "rstrip": false,
      "normalized": false,
      "special": true
    },
    {
      "id": 40,
      "content": "<js>",
      "single_word": false,
      "lstrip": false,
      "rstrip": false,
      "normalized": false,
      "special": true
    },
    {
      "id": 41,
      "content": "<python>",
      "single_word": false,
      "lstrip": false,
      "rstrip": false,
      "normalized": false,
      "special": true
    },
    {
      "id": 42,
      "content": "<java>",
      "single_word": false,
      "lstrip": false,
      "rstrip": false,
      "normalized": false,
      "special": true
    },
    {
      "id": 43,
      "content": "<cpp>",
      "single_word": false,
      "lstrip": false,
      "rstrip": false,
      "normalized": false,
      "special": true
    },
    {
      "id": 44,
      "content": "<reasoning>",
      "single_word": false,
      "lstrip": false,
      "rstrip": false,
      "normalized": false,
      "special": true
    },
    {
      "id": 45,
      "content": "<step>",
      "single_word": false,
      "lstrip": false,
      "rstrip": false,
      "normalized": false,
      "special": true
    },
    {
      "id": 46,
      "content": "<proof>",
      "single_word": false,
      "lstrip": false,
      "rstrip": false,
      "normalized": false,
      "special": true
    },
    {
      "id": 47,
      "content": "<theorem>",
      "single_word": false,
      "lstrip": false,
      "rstrip": false,
      "normalized": false,
      "special": true
    },
    {
      "id": 48,
      "content": "<lemma>",
      "single_word": false,
      "lstrip": false,
      "rstrip": false,
      "normalized": false,
      "special": true
    },
    {
      "id": 49,
      "content": "<conjecture>",
      "single_word": false,
      "lstrip": false,
      "rstrip": false,
      "normalized": false,
      "special": true
    },
    {
      "id": 50,
      "content": "<corollary>",
      "single_word": false,
      "lstrip": false,
      "rstrip": false,
      "normalized": false,
      "special": true
    },
    {
      "id": 51,
      "content": "<axiom>",
      "single_word": false,
      "lstrip": false,
      "rstrip": false,
      "normalized": false,
      "special": true
    },
    {
      "id": 52,
      "content": "<definition>",
      "single_word": false,
      "lstrip": false,
      "rstrip": false,
      "normalized": false,
      "special": true
    },
    {
      "id": 53,
      "content": "<data>",
      "single_word": false,
      "lstrip": false,
      "rstrip": false,
      "normalized": false,
      "special": true
    },
    {
      "id": 54,
      "content": "<table>",
      "single_word": false,
      "lstrip": false,
      "rstrip": false,
      "normalized": false,
      "special": true
    },
    {
      "id": 55,
      "content": "<row>",
      "single_word": false,
      "lstrip": false,
      "rstrip": false,
      "normalized": false,
      "special": true
    },
    {
      "id": 56,
      "content": "<column>",
      "single_word": false,
      "lstrip": false,
      "rstrip": false,
      "normalized": false,
      "special": true
    },
    {
      "id": 57,
      "content": "<cell>",
      "single_word": false,
      "lstrip": false,
      "rstrip": false,
      "normalized": false,
      "special": true
    },
    {
      "id": 58,
      "content": "<dataset>",
      "single_word": false,
      "lstrip": false,
      "rstrip": false,
      "normalized": false,
      "special": true
    },
    {
      "id": 59,
      "content": "<stat>",
      "single_word": false,
      "lstrip": false,
      "rstrip": false,
      "normalized": false,
      "special": true
    },
    {
      "id": 60,
      "content": "<mean>",
      "single_word": false,
      "lstrip": false,
      "rstrip": false,
      "normalized": false,
      "special": true
    },
    {
      "id": 61,
      "content": "<median>",
      "single_word": false,
      "lstrip": false,
      "rstrip": false,
      "normalized": false,
      "special": true
    },
    {
      "id": 62,
      "content": "<std>",
      "single_word": false,
      "lstrip": false,
      "rstrip": false,
      "normalized": false,
      "special": true
    },
    {
      "id": 63,
      "content": "<distribution>",
      "single_word": false,
      "lstrip": false,
      "rstrip": false,
      "normalized": false,
      "special": true
    },
    {
      "id": 64,
      "content": "<medical>",
      "single_word": false,
      "lstrip": false,
      "rstrip": false,
      "normalized": false,
      "special": true
    },
    {
      "id": 65,
      "content": "<legal>",
      "single_word": false,
      "lstrip": false,
      "rstrip": false,
      "normalized": false,
      "special": true
    },
    {
      "id": 66,
      "content": "<financial>",
      "single_word": false,
      "lstrip": false,
      "rstrip": false,
      "normalized": false,
      "special": true
    },
    {
      "id": 67,
      "content": "<scientific><input>",
      "single_word": false,
      "lstrip": false,
      "rstrip": false,
      "normalized": false,
      "special": true
    },
    {
      "id": 68,
      "content": "</input>",
      "single_word": false,
      "lstrip": false,
      "rstrip": false,
      "normalized": false,
      "special": true
    },
    {
      "id": 69,
      "content": "<instruction>",
      "single_word": false,
      "lstrip": false,
      "rstrip": false,
      "normalized": false,
      "special": true
    },
    {
      "id": 70,
      "content": "</instruction>",
      "single_word": false,
      "lstrip": false,
      "rstrip": false,
      "normalized": false,
      "special": true
    },
    {
      "id": 71,
      "content": "<reasoning_content>",
      "single_word": false,
      "lstrip": false,
      "rstrip": false,
      "normalized": false,
      "special": true
    },
    {
      "id": 72,
      "content": "</reasoning_content>",
      "single_word": false,
      "lstrip": false,
      "rstrip": false,
      "normalized": false,
      "special": true
    },
    {
      "id": 73,
      "content": "<output>",
      "single_word": false,
      "lstrip": false,
      "rstrip": false,
      "normalized": false,
      "special": true
    },
    {
      "id": 74,
      "content": "</output>",
      "single_word": false,
      "lstrip": false,
      "rstrip": false,
      "normalized": false,
      "special": true
    },
    {
      "id": 75,
      "content": "<source>",
      "single_word": false,
      "lstrip": false,
      "rstrip": false,
      "normalized": false,
      "special": true
    },
    {
      "id": 76,
      "content": "</source>",
      "single_word": false,
      "lstrip": false,
      "rstrip": false,
      "normalized": false,
      "special": true
    },
    {
      "id": 77,
      "content": "<score>",
      "single_word": false,
      "lstrip": false,
      "rstrip": false,
      "normalized": false,
      "special": true
    },
    {
      "id": 78,
      "content": "</score>",
      "single_word": false,
      "lstrip": false,
      "rstrip": false,
      "normalized": false,
      "special": true
    }
  ],
  "normalizer": {
    "type": "Sequence",
    "normalizers": [
      {
        "type": "NFKC"
      },
      {
        "type": "Replace",
        "pattern": {
          "Regex": "[ \\u00A0\\ufeff]+"
        },
        "content": " "
      },
      {
        "type": "Replace",
        "pattern": {
          "Regex": "\\s+"
        },
        "content": " "
      },
      {
        "type": "StripAccents"
      },
      {
        "type": "Replace",
        "pattern": {
          "Regex": "[“”]"
        },
        "content": "\""
      },
      {
        "type": "Replace",
        "pattern": {
          "Regex": "[‘’]"
        },
        "content": "'"
      },
      {
        "type": "Replace",
        "pattern": {
          "Regex": "[…]+"
        },
        "content": "..."
      },
      {
        "type": "Replace",
        "pattern": {
          "Regex": "(\\d{1,3}\\.){3}\\d{1,3}"
        },
        "content": "<ip> \\1"
      },
      {
        "type": "Replace",
        "pattern": {
          "Regex": "(CVE-\\d{4}-\\d{4,7})"
        },
        "content": "<cve> \\1"
      },
      {
        "type": "Replace",
        "pattern": {
          "Regex": "(CWE-\\d+)"
        },
        "content": "<cwe> \\1"
      },
      {
        "type": "Replace",
        "pattern": {
          "Regex": "([A-Z]{3,5}-\\d{3,5})"
        },
        "content": "<vuln> \\1"
      },
      {
        "type": "Lowercase"
      }
    ]
  },
  "pre_tokenizer": {
    "type": "Sequence",
    "pretokenizers": [
      {
        "type": "Split",
        "pattern": {
          "Regex": "<[^>]+>"
        },
        "behavior": "Isolated",
        "invert": false
      },
      {
        "type": "Split",
        "pattern": {
          "Regex": "CVE-\\d{4}-\\d{4,7}"
        },
        "behavior": "Isolated",
        "invert": false
      },
      {
        "type": "Split",
        "pattern": {
          "Regex": "CWE-\\d+"
        },
        "behavior": "Isolated",
        "invert": false
      },
      {
        "type": "Split",
        "pattern": {
          "Regex": "([A-Z]{3,5}-\\d{3,5})"
        },
        "behavior": "Isolated",
        "invert": false
      },
      {
        "type": "Split",
        "pattern": {
          "Regex": "(\\d{1,3}\\.){3}\\d{1,3}"
        },
        "behavior": "Isolated",
        "invert": false
      },
      {
        "type": "Split",
        "pattern": {
          "Regex": "0x[0-9a-fA-F]+"
        },
        "behavior": "Isolated",
        "invert": false
      },
      {
        "type": "Split",
        "pattern": {
          "Regex": "\\b\\d+\\.\\d+\\b"
        },
        "behavior": "Isolated",
        "invert": false
      },
      {
        "type": "Split",
        "pattern": {
          "Regex": "\\\\[a-zA-Z]+"
        },
        "behavior": "Isolated",
        "invert": false
      },
      {
        "type": "Split",
        "pattern": {
          "Regex": "<code>(.*?)</code>"
        },
        "behavior": "Isolated",
        "invert": false
      },
      {
        "type": "Split",
        "pattern": {
          "Regex": "<equation>(.*?)</equation>"
        },
        "behavior": "Isolated",
        "invert": false
      },
      {
        "type": "Digits",
        "individual_digits": false
      },
      {
        "type": "Punctuation",
        "behavior": "Isolated"
      },
      {
        "type": "Metaspace",
        "replacement": "▁",
        "prepend_scheme": "always",
        "split": true
      },
      {
        "type": "ByteLevel",
        "add_prefix_space": true,
        "trim_offsets": true,
        "use_regex": true
      },
      {
        "type": "Whitespace"
      }
    ]
  },
  "post_processor": {
    "type": "TemplateProcessing",
    "single": [
      {
        "SpecialToken": {
          "id": "<s>",
          "type_id": 0
        }
      },
      {
        "Sequence": {
          "id": "A",
          "type_id": 0
        }
      },
      {
        "SpecialToken": {
          "id": "</s>",
          "type_id": 0
        }
      }
    ],
    "pair": [
      {
        "SpecialToken": {
          "id": "<s>",
          "type_id": 0
        }
      },
      {
        "Sequence": {
          "id": "A",
          "type_id": 0
        }
      },
      {
        "SpecialToken": {
          "id": "</s>",
          "type_id": 0
        }
      },
      {
        "Sequence": {
          "id": "B",
          "type_id": 1
        }
      },
      {
        "SpecialToken": {
          "id": "</s>",
          "type_id": 1
        }
      }
    ],
    "special_tokens": {
      "</s>": {
        "id": "</s>",
        "ids": [
          2
        ],
        "tokens": [
          "</s>"
        ]
      },
      "<s>": {
        "id": "<s>",
        "ids": [
          1
        ],
        "tokens": [
          "<s>"
        ]
      }
    }
  },
  "decoder": {
    "type": "ByteLevel",
    "add_prefix_space": true,
    "trim_offsets": true,
    "use_regex": true
  },
  "model": {
    "type": "BPE",
    "dropout": null,
    "unk_token": "<unk>",
    "continuing_subword_prefix": "##",
    "end_of_word_suffix": "</w>",
    "fuse_unk": false,
    "byte_fallback": false,
    "ignore_merges": false,
    "vocab": {
      "<unk>": 0,
      "<s>": 1,
      "</s>": 2,
      "<|SBOS|>": 3,
      "<|SEOS|>": 4,
      "<PAD>": 5,
      "<mask>": 6,
      "<cls>": 7,
      "<sep>": 8,
      "<math>": 9,
      "<formula>": 10,
      "<equation>": 11,
      "<matrix>": 12,
      "<integral>": 13,
      "<derivative>": 14,
      "<summation>": 15,
      "<limit>": 16,
      "<vector>": 17,
      "<tensor>": 18,
      "<probability>": 19,
      "<fraction>": 20,
      "<sqrt>": 21,
      "<log>": 22,
      "<trig>": 23,
      "<set>": 24,
      "<code>": 25,
      "<function>": 26,
      "<class>": 27,
      "<loop>": 28,
      "<condition>": 29,
      "<variable>": 30,
      "<import>": 31,
      "<comment>": 32,
      "<api_call>": 33,
      "<sql>": 34,
      "<json>": 35,
      "<xml>": 36,
      "<yaml>": 37,
      "<html>": 38,
      "<css>": 39,
      "<js>": 40,
      "<python>": 41,
      "<java>": 42,
      "<cpp>": 43,
      "<reasoning>": 44,
      "<step>": 45,
      "<proof>": 46,
      "<theorem>": 47,
      "<lemma>": 48,
      "<conjecture>": 49,
      "<corollary>": 50,
      "<axiom>": 51,
      "<definition>": 52,
      "<data>": 53,
      "<table>": 54,
      "<row>": 55,
      "<column>": 56,
      "<cell>": 57,
      "<dataset>": 58,
      "<stat>": 59,
      "<mean>": 60,
      "<median>": 61,
      "<std>": 62,
      "<distribution>": 63,
      "<medical>": 64,
      "<legal>": 65,
      "<financial>": 66,
      "<scientific><input>": 67,
      "</input>": 68,
      "<instruction>": 69,
      "</instruction>": 70,
      "<reasoning_content>": 71,
      "</reasoning_content>": 72,
      "<output>": 73,
      "</output>": 74,
      "<source>": 75,
      "</source>": 76,
      "<score>": 77,
      "</score>": 78,
      "!": 79,
      "\"": 80,
      "#": 81,
      "$": 82,
      "%": 83,
      "&": 84,
      "'": 85,
      "(": 86,
      ")": 87,
      "*": 88,
      "+": 89,
      ",": 90,
      "-": 91,
      ".": 92,
      "/": 93,
      "0": 94,
      "1": 95,
      "2": 96,
      "3": 97,
      "4": 98,
      "5": 99,
      "6": 100,
      "7": 101,
      "8": 102,
      "9": 103,
      ":": 104,
      ";": 105,
      "<": 106,
      "=": 107,
      ">": 108,
      "?": 109,
      "@": 110,
      "A": 111,
      "B": 112,
      "C": 113,
      "D": 114,
      "E": 115,
      "F": 116,
      "G": 117,
      "H": 118,
      "I": 119,
      "J": 120,
      "K": 121,
      "L": 122,
      "M": 123,
      "N": 124,
      "O": 125,
      "P": 126,
      "Q": 127,
      "R": 128,
      "S": 129,
      "T": 130,
      "U": 131,
      "V": 132,
      "W": 133,
      "X": 134,
      "Y": 135,
      "Z": 136,
      "[": 137,
      "\\": 138,
      "]": 139,
      "^": 140,
      "_": 141,
      "`": 142,
      "a": 143,
      "b": 144,
      "c": 145,
      "d": 146,
      "e": 147,
      "f": 148,
      "g": 149,
      "h": 150,
      "i": 151,
      "j": 152,
      "k": 153,
      "l": 154,
      "m": 155,
      "n": 156,
      "o": 157,
      "p": 158,
      "q": 159,
      "r": 160,
      "s": 161,
      "t": 162,
      "u": 163,
      "v": 164,
      "w": 165,
      "x": 166,
      "y": 167,
      "z": 168,
      "{": 169,
      "|": 170,
      "}": 171,
      "~": 172,
      "¡": 173,
      "¢": 174,
      "£": 175,
      "¤": 176,
      "¥": 177,
      "¦": 178,
      "§": 179,
      "¨": 180,
      "©": 181,
      "ª": 182,
      "«": 183,
      "¬": 184,
      "®": 185,
      "¯": 186,
      "°": 187,
      "±": 188,
      "²": 189,
      "³": 190,
      "´": 191,
      "µ": 192,
      "¶": 193,
      "·": 194,
      "¸": 195,
      "¹": 196,
      "º": 197,
      "»": 198,
      "¼": 199,
      "½": 200,
      "¾": 201,
      "¿": 202,
      "À": 203,
      "Á": 204,
      "Â": 205,
      "Ã": 206,
      "Ä": 207,
      "Å": 208,
      "Æ": 209,
      "Ç": 210,
      "È": 211,
      "É": 212,
      "Ê": 213,
      "Ë": 214,
      "Ì": 215,
      "Í": 216,
      "Î": 217,
      "Ï": 218,
      "Ð": 219,
      "Ñ": 220,
      "Ò": 221,
      "Ó": 222,
      "Ô": 223,
      "Õ": 224,
      "Ö": 225,
      "×": 226,
      "Ø": 227,
      "Ù": 228,
      "Ú": 229,
      "Û": 230,
      "Ü": 231,
      "Ý": 232,
      "Þ": 233,
      "ß": 234,
      "à": 235,
      "á": 236,
      "â": 237,
      "ã": 238,
      "ä": 239,
      "å": 240,
      "æ": 241,
      "ç": 242,
      "è": 243,
      "é": 244,
      "ê": 245,
      "ë": 246,
      "ì": 247,
      "í": 248,
      "î": 249,
      "ï": 250,
      "ð": 251,
      "ñ": 252,
      "ò": 253,
      "ó": 254,
      "ô": 255,
      "õ": 256,
      "ö": 257,
      "÷": 258,
      "ø": 259,
      "ù": 260,
      "ú": 261,
      "û": 262,
      "ü": 263,
      "ý": 264,
      "þ": 265,
      "ÿ": 266,
      "Ā": 267,
      "ā": 268,
      "Ă": 269,
      "ă": 270,
      "Ą": 271,
      "ą": 272,
      "Ć": 273,
      "ć": 274,
      "Ĉ": 275,
      "ĉ": 276,
      "Ċ": 277,
      "ċ": 278,
      "Č": 279,
      "č": 280,
      "Ď": 281,
      "ď": 282,
      "Đ": 283,
      "đ": 284,
      "Ē": 285,
      "ē": 286,
      "Ĕ": 287,
      "ĕ": 288,
      "Ė": 289,
      "ė": 290,
      "Ę": 291,
      "ę": 292,
      "Ě": 293,
      "ě": 294,
      "Ĝ": 295,
      "ĝ": 296,
      "Ğ": 297,
      "ğ": 298,
      "Ġ": 299,
      "ġ": 300,
      "Ģ": 301,
      "ģ": 302,
      "Ĥ": 303,
      "ĥ": 304,
      "Ħ": 305,
      "ħ": 306,
      "Ĩ": 307,
      "ĩ": 308,
      "Ī": 309,
      "ī": 310,
      "Ĭ": 311,
      "ĭ": 312,
      "Į": 313,
      "į": 314,
      "İ": 315,
      "ı": 316,
      "Ĳ": 317,
      "ĳ": 318,
      "Ĵ": 319,
      "ĵ": 320,
      "Ķ": 321,
      "ķ": 322,
      "ĸ": 323,
      "Ĺ": 324,
      "ĺ": 325,
      "Ļ": 326,
      "ļ": 327,
      "Ľ": 328,
      "ľ": 329,
      "Ŀ": 330,
      "ŀ": 331,
      "Ł": 332,
      "ł": 333,
      "Ń": 334,
      "##t": 335,
      "##m": 336,
      "##l": 337,
      "##ç": 338,
      "##ļ": 339,
      "##Ħ": 340,
      "##i": 341,
      "##n": 342,
      "##p": 343,
      "##u": 344,
      "##æ": 345,
      "##ł": 346,
      "##ĩ": 347,
      "##Ń</w>": 348,
      "##ĸ": 349,
      "##ľ": 350,
      "##å": 351,
      "##Ģ": 352,
      "##Ł</w>": 353,
      "##Į": 354,
      "##ģ": 355,
      "##ī": 356,
      "##º": 357,
      "##ı": 358,
      "##Ĭ</w>": 359,
      "##Ĵ": 360,
      "##Ĩ": 361,
      "##Ķ": 362,
      "##µ": 363,
      "##ä</w>": 364,
      "##ħ": 365,
      "##Ī": 366,
      "##s": 367,
      "##a": 368,
      "##è</w>": 369,
      "##ĸ</w>": 370,
      "##c": 371,
      "##h": 372,
      "##e": 373,
      "##d": 374,
      "##r</w>": 375,
      "##Ĺ": 376,
      "##ĥ": 377,
      "##Ł": 378,
      "##ĥ</w>": 379,
      "##é": 380,
      "##ī</w>": 381,
      "##Ĥ</w>": 382,
      "##į": 383,
      "##Ī</w>": 384,
      "##å</w>": 385,
      "##Ŀ": 386,
      "##Ĥ": 387,
      "##Ń": 388,
      "##Ĳ": 389,
      "##ç</w>": 390,
      "##è": 391,
      "##æ</w>": 392,
      "##Ľ</w>": 393,
      "##ä": 394,
      "##f": 395,
      "##r": 396,
      "##o": 397,
      "##s</w>": 398,
      "##Ľ": 399,
      "##ŀ": 400,
      "##ĭ</w>": 401,
      "##ĭ": 402,
      "##ľ</w>": 403,
      "##Ļ": 404,
      "##ĵ": 405,
      "##Į</w>": 406,
      "##x": 407,
      "##Ĺ</w>": 408,
      "##ı</w>": 409,
      "##q": 410,
      "##b": 411,
      "##l</w>": 412,
      "##ĳ": 413,
      "##ĺ</w>": 414,
      "##j": 415,
      "##ħ</w>": 416,
      "##ª": 417,
      "##İ": 418,
      "##Ķ</w>": 419,
      "##Ĭ": 420,
      "##c</w>": 421,
      "##ĩ</w>": 422,
      "##º</w>": 423,
      "##1": 424,
      "##4": 425,
      "##9": 426,
      "##2</w>": 427,
      "##q</w>": 428,
      "##z": 429,
      "##İ</w>": 430,
      "##ķ": 431,
      "##ķ</w>": 432,
      "##Ï": 433,
      "##ĳ</w>": 434,
      "##p</w>": 435,
      "##é</w>": 436,
      "##ĺ": 437,
      "##Ļ</w>": 438,
      "##Ŀ</w>": 439,
      "##Ĩ</w>": 440,
      "##Ĳ</w>": 441,
      "##g": 442,
      "##y": 443,
      "##k": 444,
      "##Ģ</w>": 445,
      "##į</w>": 446,
      "##v": 447,
      "##w": 448,
      "##d</w>": 449,
      "##0": 450,
      "##6": 451,
      "##f</w>": 452,
      "##e</w>": 453,
      "##i</w>": 454,
      "##a</w>": 455,
      "##n</w>": 456,
      "##y</w>": 457,
      "##Ĵ</w>": 458,
      "##3": 459,
      "##2": 460,
      "##8": 461,
      "##0</w>": 462,
      "##ã": 463,
      "##ģ</w>": 464,
      "##ł</w>": 465,
      "##x</w>": 466,
      "##Ħ</w>": 467,
      "##7</w>": 468,
      "##b</w>": 469,
      "##t</w>": 470,
      "##g</w>": 471,
      "##µ</w>": 472,
      "##w</w>": 473,
      "##5": 474,
      "##7": 475,
      "##9</w>": 476,
      "##5</w>": 477,
      "##â": 478,
      "##ð": 479,
      "##Î</w>": 480,
      "##k</w>": 481,
      "##h</w>": 482,
      "##ļ</w>": 483,
      "##o</w>": 484,
      "##ª</w>": 485,
      "##j</w>": 486,
      "##8</w>": 487,
      "##½</w>": 488,
      "##ĵ</w>": 489,
      "##m</w>": 490,
      "##1</w>": 491,
      "##u</w>": 492,
      "##6</w>": 493,
      "##z</w>": 494,
      "Õ</w>": 495,
      "##Î": 496,
      "##3</w>": 497,
      "##ŀ</w>": 498,
      "##ð</w>": 499,
      "##4</w>": 500,
      "##v</w>": 501,
      "##Ç": 502,
      "##Ò</w>": 503,
      "##Å</w>": 504,
      "##Ä": 505,
      "##¦</w>": 506,
      "##Ã</w>": 507,
      "##á": 508,
      "##á</w>": 509,
      "##Ð</w>": 510,
      "##Ñ": 511,
      "##Ä</w>": 512,
      "##Ã": 513,
      "##·</w>": 514,
      "Â</w>": 515,
      "##²</w>": 516,
      "##Ð": 517,
      "##¤</w>": 518,
      "##£</w>": 519,
      "##Ë": 520,
      "##É": 521,
      "##§</w>": 522,
      "##±</w>": 523,
      "##í": 524,
      "##ë": 525,
      "##»</w>": 526,
      "##¾</w>": 527,
      "##¥</w>": 528,
      "{</w>": 529,
      "##ì": 530,
      "##¢</w>": 531,
      "##®</w>": 532,
      "##¿</w>": 533,
      "##©</w>": 534,
      "##È</w>": 535,
      "##¶</w>": 536,
      "##Å": 537,
      "##Ê": 538,
      "½</w>": 539,
      "##«</w>": 540,
      "##É</w>": 541,
      "©</w>": 542,
      "##¡</w>": 543,
      "##Ç</w>": 544,
      "!</w>": 545,
      "##È": 546,
      "##¤": 547,
      "##×": 548,
      "##¦": 549,
      "##×</w>": 550,
      "##Ú</w>": 551,
      "##¼</w>": 552,
      "]</w>": 553,
      "´</w>": 554,
      "â</w>": 555,
      "##ë</w>": 556,
      "##ã</w>": 557,
      "##¬</w>": 558,
      "##Ù": 559,
      "##Ú": 560,
      "ħ</w>": 561,
      "##à</w>": 562,
      "##ê</w>": 563,
      "##¨</w>": 564,
      "##ê": 565,
      "##Õ</w>": 566,
      "##¹</w>": 567,
      "##Ê</w>": 568,
      "}</w>": 569,
      "##Ø</w>": 570,
      "[</w>": 571,
      "¥</w>": 572,
      "1</w>": 573,
      "##ì</w>": 574,
      "##³</w>": 575,
      "##¸</w>": 576,
      "¨</w>": 577,
      "##´</w>": 578,
      "##ï": 579,
      "##Ë</w>": 580,
      "/</w>": 581,
      "##°</w>": 582,
      "##Ø": 583,
      "b</w>": 584,
      "²</w>": 585,
      "Ã</w>": 586,
      "®</w>": 587,
      "Ļ</w>": 588,
      "*</w>": 589,
      "ı</w>": 590,
      "s</w>": 591,
      "Ī</w>": 592,
      "##¯</w>": 593,
      "æ</w>": 594,
      "##Ü": 595,
      "0</w>": 596,
      "ľ</w>": 597,
      "##ï</w>": 598,
      "ð</w>": 599,
      "##Ù</w>": 600,
      "|</w>": 601,
      "##â</w>": 602,
      "à</w>": 603,
      "2</w>": 604,
      "`</w>": 605,
      "></w>": 606,
      "ĩ</w>": 607,
      "Ĺ</w>": 608,
      "?</w>": 609,
      ".</w>": 610,
      "¼</w>": 611,
      "##¢": 612,
      "u</w>": 613,
      "ī</w>": 614,
      "##î": 615,
      ";</w>": 616,
      "##Â</w>": 617,
      "##Û": 618,
      "6</w>": 619,
      "d</w>": 620,
      "m</w>": 621,
      "Í</w>": 622,
      "ë</w>": 623,
      "Ê</w>": 624,
      "p</w>": 625,
      "w</w>": 626,
      "r</w>": 627,
      "ĭ</w>": 628,
      "ĸ</w>": 629,
      "µ</w>": 630,
      "\"</w>": 631,
      "t</w>": 632,
      "9</w>": 633,
      "##Æ</w>": 634,
      "ç</w>": 635,
      "¢</w>": 636,
      "#</w>": 637,
      "v</w>": 638,
      "##©": 639,
      "Ń</w>": 640,
      "°</w>": 641,
      "a</w>": 642,
      "ä</w>": 643,
      "Ķ</w>": 644,
      "ĵ</w>": 645,
      "Ł</w>": 646,
      "¡</w>": 647,
      "ì</w>": 648,
      "Į</w>": 649,
      "&</w>": 650,
      "Æ</w>": 651,
      "5</w>": 652,
      "Ç</w>": 653,
      "x</w>": 654,
      "ª</w>": 655,
      "Ľ</w>": 656,
      "^</w>": 657,
      "Ò</w>": 658,
      "z</w>": 659,
      "+</w>": 660,
      "Ð</w>": 661,
      "ĳ</w>": 662,
      "'</w>": 663,
      "##Ó</w>": 664,
      "<</w>": 665,
      "ĥ</w>": 666,
      "§</w>": 667,
      "¹</w>": 668,
      "q</w>": 669,
      "ł</w>": 670,
      "ŀ</w>": 671,
      "c</w>": 672,
      ":</w>": 673,
      "·</w>": 674,
      "h</w>": 675,
      "¤</w>": 676,
      "Î</w>": 677,
      "g</w>": 678,
      "Ú</w>": 679,
      "Ä</w>": 680,
      "Ë</w>": 681,
      "ķ</w>": 682,
      "¬</w>": 683,
      "±</w>": 684,
      ",</w>": 685,
      "y</w>": 686,
      "4</w>": 687,
      "³</w>": 688,
      "##Õ": 689,
      "å</w>": 690,
      "j</w>": 691,
      "£</w>": 692,
      "Å</w>": 693,
      "ê</w>": 694,
      "~</w>": 695,
      "è</w>": 696,
      "ĺ</w>": 697,
      "##_</w>": 698,
      "8</w>": 699,
      "n</w>": 700,
      "@</w>": 701,
      "é</w>": 702,
      "¦</w>": 703,
      "Ĥ</w>": 704,
      "È</w>": 705,
      "¿</w>": 706,
      "f</w>": 707,
      "##Ĉ</w>": 708,
      "##¨": 709,
      "##Ü</w>": 710,
      "ï</w>": 711,
      "Ħ</w>": 712,
      "×</w>": 713,
      "É</w>": 714,
      "e</w>": 715,
      "3</w>": 716,
      "(</w>": 717,
      "¶</w>": 718,
      "=</w>": 719,
      "ģ</w>": 720,
      "i</w>": 721,
      "Ŀ</w>": 722,
      "\\</w>": 723,
      "o</w>": 724,
      "-</w>": 725,
      "İ</w>": 726,
      "l</w>": 727,
      "Ĳ</w>": 728,
      "»</w>": 729,
      "Ĭ</w>": 730,
      "«</w>": 731,
      "Ĩ</w>": 732,
      "ã</w>": 733,
      "Ï</w>": 734,
      "¯</w>": 735,
      "Ù</w>": 736,
      ")</w>": 737,
      "Ĵ</w>": 738,
      "į</w>": 739,
      "¾</w>": 740,
      "k</w>": 741,
      "Ģ</w>": 742,
      "$</w>": 743,
      "º</w>": 744,
      "ļ</w>": 745,
      "##ā</w>": 746,
      "á</w>": 747,
      "¸</w>": 748,
      "%</w>": 749,
      "Ø</w>": 750,
      "7</w>": 751,
      "##âĸ": 752,
      "Ġâĸ": 753,
      "Ġâĸģ</w>": 754,
      "Ġâĸģ": 755,
      "Ġâĸģã": 756,
      "ĠâĸģãĢ": 757,
      "Ġâĸģ_</w>": 758,
      "##ļĦ": 759,
      "ĠâĸģãĢĤ</w>": 760,
      "##ti": 761,
      "th": 762,
      "##en": 763,
      "##in": 764,
      "##çļĦ": 765,
      "the</w>": 766,
      "##at": 767,
      "##er": 768,
      "##on</w>": 769,
      "co": 770,
      "##es": 771,
      "çļĦ": 772,
      "##or": 773,
      "##tion</w>": 774,
      "##es</w>": 775,
      "æĺ</w>": 776,
      "##ed</w>": 777,
      "èĥ</w>": 778,
      "in": 779,
      "##er</w>": 780,
      "##ro": 781,
      "##æĺ</w>": 782,
      "##ec": 783,
      "åı</w>": 784,
      "an": 785,
      "##an": 786,
      "##ing</w>": 787,
      "##on": 788,
      "##ar": 789,
      "##ľĢ": 790,
      "##et": 791,
      "##ur": 792,
      "##äº": 793,
      "æĪ": 794,
      "to</w>": 795,
      "##al": 796,
      "»¥</w>": 797,
      "##it": 798,
      "##ac": 799,
      "##ent</w>": 800,
      "##lo": 801,
      "##mp": 802,
      "ĠâĸģãĢģ</w>": 803,
      "##ul": 804,
      "##as": 805,
      "##el": 806,
      "##ľī": 807,
      "and</w>": 808,
      "##åı</w>": 809,
      "åĲ": 810,
      "##ic": 811,
      "##åĲ": 812,
      "##al</w>": 813,
      "##st": 814,
      "##il": 815,
      "##at</w>": 816,
      "##or</w>": 817,
      "##ľĢè</w>": 818,
      "##åħ</w>": 819,
      "æī": 820,
      "äº": 821,
      "##ĪĨ": 822,
      "st": 823,
      "##æķ</w>": 824,
      "de": 825,
      "of</w>": 826,
      "åħ</w>": 827,
      "##ate</w>": 828,
      "çĶ</w>": 829,
      "##æŀ": 830,
      "##èĢ": 831,
      "##æĹ</w>": 832,
      "re": 833,
      "##me</w>": 834,
      "##un": 835,
      "ex": 836,
      "##ment</w>": 837,
      "æīĢ": 838,
      "##ut</w>": 839,
      "##et</w>": 840,
      "##åı": 841,
      "##ri": 842,
      "##ĴĮ": 843,
      "dat": 844,
      "æīĢä</w>": 845,
      "##æĪ": 846,
      "##ra": 847,
      "¡®</w>": 848,
      "##re": 849,
      "##ºĶ": 850,
      "in</w>": 851,
      "##is": 852,
      "con": 853,
      "##ut": 854,
      "##éĩ": 855,
      "##åĪ</w>": 856,
      "com": 857,
      "##çĽ</w>": 858,
      "åľ</w>": 859,
      "Ķå</w>": 860,
      "pro": 861,
      "for</w>": 862,
      "¯¹</w>": 863,
      "æľī": 864,
      "åı": 865,
      "##uc": 866,
      "##ts</w>": 867,
      "##çĶ</w>": 868,
      "##ation</w>": 869,
      "##de</w>": 870,
      "éĢ": 871,
      "##ge</w>": 872,
      "æĪĸ": 873,
      "##éĢ": 874,
      "##si": 875,
      "data</w>": 876,
      "éĩ": 877,
      "us": 878,
      "##le</w>": 879,
      "##put</w>": 880,
      "##in</w>": 881,
      "##åľ</w>": 882,
      "##ļĦ</w>": 883,
      "##æĸ</w>": 884,
      "æķ</w>": 885,
      "##åħ": 886,
      "åĲ</w>": 887,
      "Ģä</w>": 888,
      "##æŃ</w>": 889,
      "æĢ</w>": 890,
      "åĽ": 891,
      "def</w>": 892,
      "##th": 893,
      "sel": 894,
      "##æł</w>": 895,
      "en": 896,
      "imp": 897,
      "##ort</w>": 898,
      "éľĢè</w>": 899,
      "##tion": 900,
      "®¡</w>": 901,
      "èĢ": 902,
      "##æĿ</w>": 903,
      "self</w>": 904,
      "##åĩ": 905,
      "lo": 906,
      "æĪ</w>": 907,
      "##åĮ": 908,
      "##æľ": 909,
      "comment</w>": 910,
      "##åĨ": 911,
      "åĪĨ": 912,
      "§£</w>": 913,
      "##åŃ": 914,
      "##ess</w>": 915,
      "##ab": 916,
      "æĪĳ": 917,
      "##éĹ</w>": 918,
      "åħ": 919,
      "is</w>": 920,
      "ret": 921,
      "##se</w>": 922,
      "##èĢħ": 923,
      "##00</w>": 924,
      "##æľī": 925,
      "æŃ</w>": 926,
      "åĪ</w>": 927,
      "##ve</w>": 928,
      "flo": 929,
      "##ĲĨ": 930,
      "æĹ</w>": 931,
      "fun": 932,
      "##æĢ</w>": 933,
      "##ess": 934,
      "##ex": 935,
      "wit": 936,
      "##yp": 937,
      "##ame</w>": 938,
      "æĸ</w>": 939,
      "retur": 940,
      "that</w>": 941,
      "éĹ</w>": 942,
      "##age</w>": 943,
      "func": 944,
      "çŃ": 945,
      "sc": 946,
      "res": 947,
      "æľ": 948,
      "¯¥</w>": 949,
      "ad": 950,
      "##åĪĨ": 951,
      "float</w>": 952,
      "##ol": 953,
      "¡¹</w>": 954,
      "##ig": 955,
      "##qu": 956,
      "##is</w>": 957,
      "##ity</w>": 958,
      "##en</w>": 959,
      "°±</w>": 960,
      "return</w>": 961,
      "##od": 962,
      "ĺçĽ</w>": 963,
      "##int</w>": 964,
      "##ad</w>": 965,
      "##åĴĮ": 966,
      "##ly</w>": 967,
      "##çŃ": 968,
      "##æŀľ": 969,
      "ch": 970,
      "##åºĶ": 971,
      "##ĶŁ": 972,
      "##åĬ": 973,
      "##ce</w>": 974,
      "##åį": 975,
      "##im": 976,
      "Ļä</w>": 977,
      "Ġâĸģâ": 978,
      "æį</w>": 979,
      "åĽł": 980,
      "##éľĢè</w>": 981,
      "æĪĸèĢħ": 982,
      "pr": 983,
      "##æľ</w>": 984,
      "##le": 985,
      "¸¤</w>": 986,
      "##tin": 987,
      "åĮ": 988,
      "##åĬ</w>": 989,
      "åĴĮ": 990,
      "åĪ": 991,
      "##ext</w>": 992,
      "##åĽ": 993,
      "åŃ": 994,
      "##str": 995,
      "##iz": 996,
      "ac": 997,
      "with</w>": 998,
      "import</w>": 999,
      "fil": 1000,
      "æİ</w>": 1001,
      "ma": 1002,
      "##tions</w>": 1003,
      "##ack": 1004,
      "function</w>": 1005,
      "##and": 1006,
      "po": 1007,
      "##an</w>": 1008,
      "çļĦ</w>": 1009,
      "¯´</w>": 1010,
      "¤§</w>": 1011,
      "##çİ</w>": 1012,
      "##ĥħ": 1013,
      "##ay": 1014,
      "²¡</w>": 1015,
      "##İŁ": 1016,
      "al": 1017,
      "åºĶ": 1018,
      "out": 1019,
      "ap": 1020,
      "çļĦè</w>": 1021,
      "input</w>": 1022,
      "¸¸</w>": 1023,
      "##uld</w>": 1024,
      "##it</w>": 1025,
      "sh": 1026,
      "åĬ": 1027,
      "##ıĲ": 1028,
      "įè</w>": 1029,
      "éĤ</w>": 1030,
      "##çļĦè</w>": 1031,
      "##pl": 1032,
      "##èĥ</w>": 1033,
      "æĿ</w>": 1034,
      "##çī</w>": 1035,
      "çĽ</w>": 1036,
      "##ter": 1037,
      "çĦ</w>": 1038,
      "this</w>": 1039,
      "åĬ</w>": 1040,
      "ar": 1041,
      "name</w>": 1042,
      "¬¬</w>": 1043,
      "if</w>": 1044,
      "åĢ": 1045,
      "##åŃ</w>": 1046,
      "èĢĮ": 1047,
      "ke": 1048,
      "åĨ": 1049,
      "##cess</w>": 1050,
      "code</w>": 1051,
      "##ting</w>": 1052,
      "##tt": 1053,
      "##éĥ</w>": 1054,
      "output</w>": 1055,
      "qu": 1056,
      "##el</w>": 1057,
      "##om": 1058,
      "as</w>": 1059,
      "»¶</w>": 1060,
      "åĩ": 1061,
      "tr": 1062,
      "##st</w>": 1063,
      "su": 1064,
      "##åĪ": 1065,
      "##vi": 1066,
      "wh": 1067,
      "åĲİ": 1068,
      "æł</w>": 1069,
      "##æĸ": 1070,
      "##ff": 1071,
      "##īé</w>": 1072,
      "çº</w>": 1073,
      "®¾</w>": 1074,
      "fro": 1075,
      "10</w>": 1076,
      "##çĲĨ": 1077,
      "æĮ": 1078,
      "¹³</w>": 1079,
      "##ic</w>": 1080,
      "ĭå</w>": 1081,
      "##åĩº": 1082,
      "##enti": 1083,
      "##ou": 1084,
      "or</w>": 1085,
      "##ad": 1086,
      "##em": 1087,
      "##ver": 1088,
      "Ĥæŀľ": 1089,
      "##çļĦ</w>": 1090,
      "##çº</w>": 1091,
      "from</w>": 1092,
      "##åĽ</w>": 1093,
      "##struc": 1094,
      "åº</w>": 1095,
      "##çļĦä</w>": 1096,
      "åį": 1097,
      "##wor": 1098,
      "##æĪĲ": 1099,
      "le": 1100,
      "åĵ": 1101,
      "##æĥħ": 1102,
      "##rip": 1103,
      "##ure</w>": 1104,
      "##ĩª": 1105,
      "comp": 1106,
      "éĿ</w>": 1107,
      "¡¨</w>": 1108,
      "##çĤ</w>": 1109,
      "no": 1110,
      "³»</w>": 1111,
      "##åĲĪ": 1112,
      "##äºĽ": 1113,
      "sy": 1114,
      "##åĮĸ": 1115,
      "##åº</w>": 1116,
      "##ue</w>": 1117,
      "##est</w>": 1118,
      "æĺ": 1119,
      "##æĪĸ": 1120,
      "##æµ": 1121,
      "åį</w>": 1122,
      "##ir": 1123,
      "##çļĦå</w>": 1124,
      "##ted</w>": 1125,
      "ıä</w>": 1126,
      "key</w>": 1127,
      "be</w>": 1128,
      "Ļæł</w>": 1129,
      "instruc": 1130,
      "##æĶ</w>": 1131,
      "##oc": 1132,
      "##ould</w>": 1133,
      "cont": 1134,
      "##äºº": 1135,
      "##um": 1136,
      "##åĲĮ": 1137,
      "¹´</w>": 1138,
      "on</w>": 1139,
      "pat": 1140,
      "ste": 1141,
      "instruction</w>": 1142,
      "##for": 1143,
      "¬¡</w>": 1144,
      "½¿</w>": 1145,
      "##æĬ": 1146,
      "cl": 1147,
      "log": 1148,
      "mod": 1149,
      "##éĩĮ": 1150,
      "it</w>": 1151,
      "¤©</w>": 1152,
      "##æĽ</w>": 1153,
      "file</w>": 1154,
      "éĢļ": 1155,
      "ºè</w>": 1156,
      "##amp": 1157,
      "çī</w>": 1158,
      "un": 1159,
      "##åŃĲ": 1160,
      "æĶ</w>": 1161,
      "##æĦ": 1162,
      "çĶŁ": 1163,
      "##æķ": 1164,
      "Ĥä</w>": 1165,
      "¯¼</w>": 1166,
      "»£</w>": 1167,
      "pl": 1168,
      "ne": 1169,
      "##ers</w>": 1170,
      "æĦ": 1171,
      "py": 1172,
      "det": 1173,
      "½¢</w>": 1174,
      "åĲĮ": 1175,
      "ho": 1176,
      "äºİ": 1177,
      "åŃ</w>": 1178,
      "##æĥħåĨ": 1179,
      "æĽ</w>": 1180,
      "ŃçļĦ": 1181,
      "##ain</w>": 1182,
      "##ryp": 1183,
      "ti": 1184,
      "##ical</w>": 1185,
      "##éĻ": 1186,
      "##pon": 1187,
      "##īį": 1188,
      "çļĦå</w>": 1189,
      "##äº</w>": 1190,
      "##am": 1191,
      "»¬</w>": 1192,
      "ļå</w>": 1193,
      "##pr": 1194,
      "pay": 1195,
      "##åĳ</w>": 1196,
      "##iti": 1197,
      "to": 1198,
      "·¥</w>": 1199,
      "##em</w>": 1200,
      "æĬ": 1201,
      "##åºĶè</w>": 1202,
      "print</w>": 1203,
      "##id": 1204,
      "time</w>": 1205,
      "##äºİ": 1206,
      "##ect</w>": 1207,
      "##åŁ": 1208,
      "##æĭ</w>": 1209,
      "att": 1210,
      "add": 1211,
      "##tic": 1212,
      "##æĮ": 1213,
      "##ap": 1214,
      "##ass</w>": 1215,
      "##arg": 1216,
      "text</w>": 1217,
      "pyth": 1218,
      "##load</w>": 1219,
      "çĤ</w>": 1220,
      "enc": 1221,
      "##ine</w>": 1222,
      "##if": 1223,
      "python</w>": 1224,
      "op": 1225,
      "##erv": 1226,
      "##åº": 1227,
      "respon": 1228,
      "çİ</w>": 1229,
      "gen": 1230,
      "±»</w>": 1231,
      "##æĺ": 1232,
      "par": 1233,
      "##ag": 1234,
      "##èĻ": 1235,
      "çļĦä</w>": 1236,
      "éĥ</w>": 1237,
      "éĩı": 1238,
      "##Ķµ": 1239,
      "åºĶè</w>": 1240,
      "ĵæŀ": 1241,
      "val": 1242,
      "®¤</w>": 1243,
      "int": 1244,
      "sp": 1245,
      "##æĿ": 1246,
      "åĲĪ": 1247,
      "æľĢ": 1248,
      "çŃī": 1249,
      "tra": 1250,
      "per": 1251,
      "fra": 1252,
      "¸»</w>": 1253,
      "##ents</w>": 1254,
      "sen": 1255,
      "åĽłæŃ</w>": 1256,
      "##ss": 1257,
      "str": 1258,
      "##ip": 1259,
      "bas": 1260,
      "##éĿ</w>": 1261,
      "Łå</w>": 1262,
      "sec": 1263,
      "¢«</w>": 1264,
      "##æİ</w>": 1265,
      "an</w>": 1266,
      "process</w>": 1267,
      "ģæ</w>": 1268,
      "requ": 1269,
      "##ize</w>": 1270,
      "äº</w>": 1271,
      "¿¡</w>": 1272,
      "¾¹</w>": 1273,
      "Ĥå</w>": 1274,
      "di": 1275,
      "examp": 1276,
      "##ĥèĻ": 1277,
      "±³</w>": 1278,
      "by</w>": 1279,
      "ĸåħ": 1280,
      "payload</w>": 1281,
      "user</w>": 1282,
      "ĠâĸģÃ": 1283,
      "´¨</w>": 1284,
      "ĠâĸģÃĹ</w>": 1285,
      "des": 1286,
      "##äºĨ": 1287,
      "##aly": 1288,
      "çĲĨ": 1289,
      "##çĶŁ": 1290,
      "åİŁ": 1291,
      "##ack</w>": 1292,
      "##oun": 1293,
      "½±</w>": 1294,
      "get</w>": 1295,
      "inc": 1296,
      "##åĲİ": 1297,
      "¹¶</w>": 1298,
      "##Ķæ</w>": 1299,
      "»·</w>": 1300,
      "##ma": 1301,
      "20": 1302,
      "gener": 1303,
      "##łĩ": 1304,
      "##æĻ</w>": 1305,
      "##įä</w>": 1306,
      "targ": 1307,
      "##ere</w>": 1308,
      "ºä</w>": 1309,
      "##æī": 1310,
      "##ľĭ": 1311,
      "##ary</w>": 1312,
      "exp": 1313,
      "##ep": 1314,
      "##åľ": 1315,
      "##æŁ</w>": 1316,
      "ļä</w>": 1317,
      "path</w>": 1318,
      "Ģå</w>": 1319,
      "##tr": 1320,
      "§¯</w>": 1321,
      "##duc": 1322,
      "can</w>": 1323,
      "##ore</w>": 1324,
      "įåĲĮ": 1325,
      "##ds</w>": 1326,
      "pack": 1327,
      "analy": 1328,
      "æıĲ": 1329,
      "mess": 1330,
      "##ĥèĻĳ": 1331,
      "##åıĳ": 1332,
      "comm": 1333,
      "æĪĲ": 1334,
      "##ĶĻ": 1335,
      "id</w>": 1336,
      "##ach": 1337,
      "##ati": 1338,
      "##æıĲ": 1339,
      "¯¯</w>": 1340,
      "##åİŁ": 1341,
      "åĽłä</w>": 1342,
      "##éĩį": 1343,
      "##ection</w>": 1344,
      "įç</w>": 1345,
      "cal": 1346,
      "·±</w>": 1347,
      "pre": 1348,
      "##ice</w>": 1349,
      "##Ĺł": 1350,
      "³¨</w>": 1351,
      "serv": 1352,
      "ģä</w>": 1353,
      "ev": 1354,
      "response</w>": 1355,
      "##éĻ</w>": 1356,
      "įå</w>": 1357,
      "##ence</w>": 1358,
      "äºº": 1359,
      "½®</w>": 1360,
      "scrip": 1361,
      "½¬</w>": 1362,
      "##ps</w>": 1363,
      "°´</w>": 1364,
      "ĺä</w>": 1365,
      "##åĬł": 1366,
      "se": 1367,
      "he": 1368,
      "ģç</w>": 1369,
      "syst": 1370,
      "##ations</w>": 1371,
      "bo": 1372,
      "æĸ": 1373,
      "cre": 1374,
      "ģè</w>": 1375,
      "##able</w>": 1376,
      "##abil": 1377,
      "##ed": 1378,
      "##çļĦç</w>": 1379,
      "##çİ": 1380,
      "target</w>": 1381,
      "##ĺåľ</w>": 1382,
      "åŀ": 1383,
      "##ho": 1384,
      "¨¡</w>": 1385,
      "æĢ": 1386,
      "##der</w>": 1387,
      "##igh": 1388,
      "step</w>": 1389,
      "®¶</w>": 1390,
      "##sion</w>": 1391,
      "##ar</w>": 1392,
      "##ow": 1393,
      "##çŃī": 1394,
      "##ner": 1395,
      "ĻéĩĮ": 1396,
      "##ies</w>": 1397,
      "##work</w>": 1398,
      "¬¦</w>": 1399,
      "®®</w>": 1400,
      "ĸåħĪ</w>": 1401,
      "åĳ</w>": 1402,
      "åĢĻ": 1403,
      "##ally</w>": 1404,
      "##ulner": 1405,
      "åĢ</w>": 1406,
      "##ter</w>": 1407,
      "##éĢļ": 1408,
      "įæĺ</w>": 1409,
      "tim": 1410,
      "##lu": 1411,
      "##åĽł": 1412,
      "not</w>": 1413,
      "##wer</w>": 1414,
      "vulner": 1415,
      "¥½</w>": 1416,
      "ĠâĸģâĪ": 1417,
      "script</w>": 1418,
      "ques": 1419,
      "åĮĸ": 1420,
      "20</w>": 1421,
      "##éĩı": 1422,
      "åĬł": 1423,
      "##èĩª": 1424,
      "##ulate</w>": 1425,
      "##éĢīé</w>": 1426,
      "example</w>": 1427,
      "12</w>": 1428,
      "##cess": 1429,
      "##as</w>": 1430,
      "addr": 1431,
      "resul": 1432,
      "net": 1433,
      "rec": 1434,
      "®©</w>": 1435,
      "##ated</w>": 1436,
      "ĸä</w>": 1437,
      "##ans": 1438,
      "##èµ": 1439,
      "question</w>": 1440,
      "æŀ": 1441,
      "ĻæĹ</w>": 1442,
      "##åĢ</w>": 1443,
      "wor": 1444,
      "id": 1445,
      "suc": 1446,
      "##ance</w>": 1447,
      "##ase</w>": 1448,
      "##print</w>": 1449,
      "ro": 1450,
      "®¹</w>": 1451,
      "ip</w>": 1452,
      "##ory</w>": 1453,
      "åĽ</w>": 1454,
      "##om</w>": 1455,
      "##éķ</w>": 1456,
      "##pro": 1457,
      "##åĵ": 1458,
      "model</w>": 1459,
      "¾¾</w>": 1460,
      "åĿ": 1461,
      "èĩ</w>": 1462,
      "éķ</w>": 1463,
      "æĦı": 1464,
      "##ode</w>": 1465,
      "æľ</w>": 1466,
      "##ain": 1467,
      "##eg": 1468,
      "Ĩè</w>": 1469,
      "message</w>": 1470,
      "using</w>": 1471,
      "rand": 1472,
      "sim": 1473,
      "##ģĩ": 1474,
      "·®</w>": 1475,
      "äºĨ": 1476,
      "æķ": 1477,
      "##æĢ": 1478,
      "##æĸĩ": 1479,
      "im": 1480,
      "ıå</w>": 1481,
      "##ke</w>": 1482,
      "įä</w>": 1483,
      "dec": 1484,
      "æģ</w>": 1485,
      "##il</w>": 1486,
      "åº": 1487,
      "nprint</w>": 1488,
      "should</w>": 1489,
      "ĭä</w>": 1490,
      "el": 1491,
      "ĻäºĽ": 1492,
      "´»</w>": 1493,
      "éĢļè</w>": 1494,
      "çļĦç</w>": 1495,
      "éĢīé</w>": 1496,
      "##ent": 1497,
      "åŁ": 1498,
      "##ph": 1499,
      "##éª": 1500,
      "##åıĺ": 1501,
      "are</w>": 1502,
      "##çĽ": 1503,
      "##ass": 1504,
      "##åĲ</w>": 1505,
      "æĪĳéľĢè</w>": 1506,
      "ķå</w>": 1507,
      "Ģç</w>": 1508,
      "##cep": 1509,
      "network</w>": 1510,
      "##éľĢ": 1511,
      "##th</w>": 1512,
      "trans": 1513,
      "ĵä</w>": 1514,
      "æĺİ": 1515,
      "ur": 1516,
      "##ates</w>": 1517,
      "dis": 1518,
      "li": 1519,
      "éĻ</w>": 1520,
      "ĥä</w>": 1521,
      "ģå</w>": 1522,
      "èĩª": 1523,
      "##åīį": 1524,
      "##ns</w>": 1525,
      "##us": 1526,
      "##id</w>": 1527,
      "##Ģæľ</w>": 1528,
      "##ror</w>": 1529,
      "åĨ</w>": 1530,
      "ªå</w>": 1531,
      "##æľº": 1532,
      "##èĢĥèĻĳ": 1533,
      "èĭ</w>": 1534,
      "how</w>": 1535,
      "encryp": 1536,
      "ans": 1537,
      "æĮĩ": 1538,
      "ªä</w>": 1539,
      "##èµ</w>": 1540,
      "äºĮ": 1541,
      "30</w>": 1542,
      "İåħ": 1543,
      "##æĥħåĨµ": 1544,
      "##ĲĨ</w>": 1545,
      "##ach</w>": 1546,
      "¶³</w>": 1547,
      "100</w>": 1548,
      "##ist</w>": 1549,
      "met": 1550,
      "be": 1551,
      "##ech": 1552,
      "answer</w>": 1553,
      "ema": 1554,
      "īä</w>": 1555,
      "çŁ</w>": 1556,
      "æµ": 1557,
      "æī</w>": 1558,
      "##ch": 1559,
      "##åİ": 1560,
      "ĭæĿ</w>": 1561,
      "##ŁĲ": 1562,
      "so": 1563,
      "##èĥ": 1564,
      "##ħå</w>": 1565,
      "would</w>": 1566,
      "##Ķç</w>": 1567,
      "##äºİ</w>": 1568,
      "ĢæŁ</w>": 1569,
      "##äºĨ</w>": 1570,
      "##enc": 1571,
      "Ķè</w>": 1572,
      "##æĺİ": 1573,
      "éĻ": 1574,
      "for": 1575,
      "packet</w>": 1576,
      "##æī</w>": 1577,
      "class</w>": 1578,
      "##ĴĮ</w>": 1579,
      "##ay</w>": 1580,
      "##éĺ</w>": 1581,
      "##one</w>": 1582,
      "##ect": 1583,
      "vulnerabil": 1584,
      "ºå</w>": 1585,
      "system</w>": 1586,
      "##æĥ</w>": 1587,
      "frac</w>": 1588,
      "main</w>": 1589,
      "·²</w>": 1590,
      "##ace</w>": 1591,
      "åĲĮæĹ</w>": 1592,
      "##ange</w>": 1593,
      "##éģ": 1594,
      "Ĩä</w>": 1595,
      "ĺè</w>": 1596,
      "¦»</w>": 1597,
      "inclu": 1598,
      "Ļç</w>": 1599,
      "inter": 1600,
      "##æĦŁ": 1601,
      "12": 1602,
      "##form": 1603,
      "new</w>": 1604,
      "åŃĲ": 1605,
      "ĹåĪ</w>": 1606,
      "åħį": 1607,
      "##Ľä</w>": 1608,
      "##åŁº": 1609,
      "on": 1610,
      "generate</w>": 1611,
      "based</w>": 1612,
      "##am</w>": 1613,
      "##crip": 1614,
      "##çĹ": 1615,
      "test</w>": 1616,
      "éģ": 1617,
      "ªè</w>": 1618,
      "yo": 1619,
      "exec": 1620,
      "##ĶĻè</w>": 1621,
      "15</w>": 1622,
      "##èĢħ</w>": 1623,
      "##ģç</w>": 1624,
      "ĠâĸģâĪļ</w>": 1625,
      "##çĶµ": 1626,
      "the": 1627,
      "ass": 1628,
      "pri": 1629,
      "##éĴ": 1630,
      "calc": 1631,
      "te": 1632,
      "##bo": 1633,
      "éª</w>": 1634,
      "inf": 1635,
      "##Ŀŀ": 1636,
      "ıæĹ</w>": 1637,
      "identi": 1638,
      "fin": 1639,
      "##æķĪ": 1640,
      "thre": 1641,
      "provi": 1642,
      "explo": 1643,
      "use</w>": 1644,
      "##ding</w>": 1645,
      "·¯</w>": 1646,
      "email</w>": 1647,
      "##ch</w>": 1648,
      "éĩį": 1649,
      "±¡</w>": 1650,
      "##ıè</w>": 1651,
      "##ail": 1652,
      "you</w>": 1653,
      "##000</w>": 1654,
      "##æİ": 1655,
      "num": 1656,
      "##èī</w>": 1657,
      "##ures</w>": 1658,
      "##çļĦæ</w>": 1659,
      "ĵæŀľ": 1660,
      "##ile</w>": 1661,
      "fe": 1662,
      "»´</w>": 1663,
      "we": 1664,
      "##ĨĴ</w>": 1665,
      "æĹł": 1666,
      "##Įè</w>": 1667,
      "##der": 1668,
      "app": 1669,
      "##ous</w>": 1670,
      "Ķç</w>": 1671,
      "##åįķ": 1672,
      "ob": 1673,
      "æľŁ": 1674,
      "åıĳ": 1675,
      "´¹</w>": 1676,
      "def": 1677,
      "##åĮĸ</w>": 1678,
      "##ight</w>": 1679,
      "chec": 1680,
      "æĿ": 1681,
      "ľä</w>": 1682,
      "mat": 1683,
      "Ģæ</w>": 1684,
      "url</w>": 1685,
      "reas": 1686,
      "##çĦ</w>": 1687,
      "##ıå</w>": 1688,
      "##oning</w>": 1689,
      "åŃĺåľ</w>": 1690,
      "##ber</w>": 1691,
      "åĩº": 1692,
      "##ets</w>": 1693,
      "##urity</w>": 1694,
      "##åĪĨæŀ": 1695,
      "##ari": 1696,
      "identif": 1697,
      "##our</w>": 1698,
      "##çī": 1699,
      "er": 1700,
      "##um</w>": 1701,
      "##çļĦæĺ</w>": 1702,
      "expl": 1703,
      "çĹ": 1704,
      "åĲĳ": 1705,
      "202": 1706,
      "ĵæŀĦ": 1707,
      "##di": 1708,
      "such</w>": 1709,
      "ver": 1710,
      "aut": 1711,
      "##çľĭ": 1712,
      "##æľĢ": 1713,
      "random</w>": 1714,
      "éģ</w>": 1715,
      "çļĦæ</w>": 1716,
      "İåħĥ</w>": 1717,
      "##ang": 1718,
      "ļè</w>": 1719,
      "¤¾</w>": 1720,
      "ĵè</w>": 1721,
      "##èĤ</w>": 1722,
      "²»</w>": 1723,
      "##æĥħåĨµ</w>": 1724,
      "##åĽŀ": 1725,
      "into</w>": 1726,
      "»¡</w>": 1727,
      "##ici": 1728,
      "##åľº": 1729,
      "##æµĭ": 1730,
      "##gs</w>": 1731,
      "##act</w>": 1732,
      "reasoning</w>": 1733,
      "##end</w>": 1734,
      "##çŁ</w>": 1735,
      "##īæĭ</w>": 1736,
      "##æłĩ": 1737,
      "cach": 1738,
      "åŁº": 1739,
      "##æĪĳ": 1740,
      "soc": 1741,
      "Ĩå</w>": 1742,
      "½¦</w>": 1743,
      "imple": 1744,
      "##po": 1745,
      "çĸ": 1746,
      "list</w>": 1747,
      "##us</w>": 1748,
      "åİ": 1749,
      "##ication</w>": 1750,
      "server</w>": 1751,
      "##ģĩè</w>": 1752,
      "Ĥè</w>": 1753,
      "##tive</w>": 1754,
      "ÏĢ</w>": 1755,
      "hand": 1756,
      "åıĬ": 1757,
      "##ks</w>": 1758,
      "¯»</w>": 1759,
      "æĥ</w>": 1760,
      "##ign": 1761,
      "åľ": 1762,
      "##ron": 1763,
      "##cription</w>": 1764,
      "Ńä</w>": 1765,
      "25</w>": 1766,
      "åĹ</w>": 1767,
      "æĭ": 1768,
      "image</w>": 1769,
      "##dic": 1770,
      "åĪĨ</w>": 1771,
      "çŃĶæ</w>": 1772,
      "50</w>": 1773,
      "up": 1774,
      "##ust": 1775,
      "##sis</w>": 1776,
      "©¶</w>": 1777,
      "each</w>": 1778,
      "##ests</w>": 1779,
      "port</w>": 1780,
      "##ĬĤ": 1781,
      "create</w>": 1782,
      "ĩç</w>": 1783,
      "®°</w>": 1784,
      "åıª": 1785,
      "##ell": 1786,
      "cur": 1787,
      "éĶ": 1788,
      "åıĺ": 1789,
      "éĶ</w>": 1790,
      "add</w>": 1791,
      "åĴĮ</w>": 1792,
      "##oth": 1793,
      "sub": 1794,
      "Īå</w>": 1795,
      "or": 1796,
      "pass": 1797,
      "ĦçĲĨ": 1798,
      "ĺæĺ</w>": 1799,
      "##war": 1800,
      "##ential</w>": 1801,
      "##çİĩ": 1802,
      "mo": 1803,
      "##ver</w>": 1804,
      "##ute</w>": 1805,
      "##and</w>": 1806,
      "##åį</w>": 1807,
      "##åĿ": 1808,
      "##word</w>": 1809,
      "éľĢ": 1810,
      "##äºĭ": 1811,
      "çĶµ": 1812,
      "security</w>": 1813,
      "##ities</w>": 1814,
      "çĽ": 1815,
      "your</w>": 1816,
      "##ite</w>": 1817,
      "##ģä</w>": 1818,
      "##åıį": 1819,
      "åĨį": 1820,
      "##art</w>": 1821,
      "Ķä</w>": 1822,
      "inv": 1823,
      "ģèĢĥèĻĳ": 1824,
      "ŀéĻ": 1825,
      "##åİ</w>": 1826,
      "description</w>": 1827,
      "ªç</w>": 1828,
      "åŀĭ": 1829,
      "Ĺä</w>": 1830,
      "ĥå</w>": 1831,
      "##çĲĨ</w>": 1832,
      "##æĬ</w>": 1833,
      "##ls</w>": 1834,
      "typ": 1835,
      "¿°</w>": 1836,
      "size</w>": 1837,
      "éĩĮ": 1838,
      "çł": 1839,
      "eth": 1840,
      "##Ĺä</w>": 1841,
      "æĪĸèĢħ</w>": 1842,
      "Ńè</w>": 1843,
      "åĮħ": 1844,
      "##åĨ</w>": 1845,
      "##tu": 1846,
      "èģ": 1847,
      "attack</w>": 1848,
      "hyp": 1849,
      "##les</w>": 1850,
      "##çĻ</w>": 1851,
      "it": 1852,
      "could</w>": 1853,
      "##iqu": 1854,
      "Įä</w>": 1855,
      "##ature</w>": 1856,
      "##çŃī</w>": 1857,
      "##éħ": 1858,
      "##son</w>": 1859,
      "analyz": 1860,
      "##ning</w>": 1861,
      "##åĬĽ": 1862,
      "##åŃĲ</w>": 1863,
      "##ected</w>": 1864,
      "Ħä</w>": 1865,
      "##ģå</w>": 1866,
      "mem": 1867,
      "Ńå</w>": 1868,
      "Ļåĩº": 1869,
      "åī</w>": 1870,
      "æİ": 1871,
      "##çĲĨè</w>": 1872,
      "åĵį": 1873,
      "ªæķ</w>": 1874,
      "ŀéĻħ": 1875,
      "jo": 1876,
      "calculate</w>": 1877,
      "value</w>": 1878,
      "##echn": 1879,
      "##ise</w>": 1880,
      "æĸĩ": 1881,
      "techn": 1882,
      "##çļĦæķ</w>": 1883,
      "èĢħ": 1884,
      "cache</w>": 1885,
      "analysis</w>": 1886,
      "##ir</w>": 1887,
      "»»</w>": 1888,
      "##çł": 1889,
      "##ket</w>": 1890,
      "##form</w>": 1891,
      "true</w>": 1892,
      "error</w>": 1893,
      "ĠâĸģãĢĭ</w>": 1894,
      "ĠâĸģãĢĬ</w>": 1895,
      "##king</w>": 1896,
      "htt": 1897,
      "##æľŁ": 1898,
      "æłĩ": 1899,
      "##èģ": 1900,
      "ıè</w>": 1901,
      "ĠâĸģÂ</w>": 1902,
      "init</w>": 1903,
      "man": 1904,
      "##éļ": 1905,
      "åĲĹ</w>": 1906,
      "æľīä</w>": 1907,
      "logical</w>": 1908,
      "##anc": 1909,
      "ĠâĸģâĨĴ</w>": 1910,
      "##ģè</w>": 1911,
      "##port</w>": 1912,
      "çļĦæĺ</w>": 1913,
      "ĭè</w>": 1914,
      "ĵç</w>": 1915,
      "result</w>": 1916,
      "pot": 1917,
      "¸©</w>": 1918,
      "##loc": 1919,
      "¸¦</w>": 1920,
      "range</w>": 1921,
      "##åī</w>": 1922,
      "address</w>": 1923,
      "hypoth": 1924,
      "##mon": 1925,
      "##åıĬ": 1926,
      "##ave</w>": 1927,
      "##ution</w>": 1928,
      "Īä</w>": 1929,
      "else</w>": 1930,
      "##éľĢæ</w>": 1931,
      "acc": 1932,
      "sq": 1933,
      "åıį": 1934,
      "##çŃĶæ</w>": 1935,
      "éĺ</w>": 1936,
      "##ft</w>": 1937,
      "16</w>": 1938,
      "##mo": 1939,
      "##iv": 1940,
      "åĩ</w>": 1941,
      "åĢĻ</w>": 1942,
      "ph": 1943,
      "##tical</w>": 1944,
      "spec": 1945,
      "¹¦</w>": 1946,
      "##Ĳĥ": 1947,
      "##rig": 1948,
      "##æľīä</w>": 1949,
      "##æĭ": 1950,
      "åĲİ</w>": 1951,
      "Ľè</w>": 1952,
      "##åĢ": 1953,
      "##low": 1954,
      "cor": 1955,
      "##åºĶçĶ</w>": 1956,
      "produc": 1957,
      "##åĮº": 1958,
      "##ith": 1959,
      "##ating</w>": 1960,
      "dev": 1961,
      "##çķ": 1962,
      "##00": 1963,
      "##ient</w>": 1964,
      "ķè</w>": 1965,
      "times</w>": 1966,
      "##ub": 1967,
      "éĢĤ": 1968,
      "requests</w>": 1969,
      "ĥæķ</w>": 1970,
      "##æĥħåĨµä</w>": 1971,
      "çľĭ": 1972,
      "ens": 1973,
      "İå</w>": 1974,
      "æĥħ": 1975,
      "password</w>": 1976,
      "²¾</w>": 1977,
      "##åĲİ</w>": 1978,
      "used</w>": 1979,
      "##åĩĨ": 1980,
      "si": 1981,
      "60</w>": 1982,
      "conn": 1983,
      "çī": 1984,
      "com</w>": 1985,
      "tok": 1986,
      "loc": 1987,
      "äºĨ</w>": 1988,
      "ta": 1989,
      "rel": 1990,
      "##tional</w>": 1991,
      "çŃī</w>": 1992,
      "¥¹</w>": 1993,
      "mal": 1994,
      "##ems</w>": 1995,
      "dom": 1996,
      "##åĻ</w>": 1997,
      "īè</w>": 1998,
      "éĺ": 1999,
      "excep": 2000,
      "tas": 2001,
      "ethical</w>": 2002,
      "##ant</w>": 2003,
      "none</w>": 2004,
      "åĮº": 2005,
      "åģĩè</w>": 2006,
      "np</w>": 2007,
      "me": 2008,
      "##ern": 2009,
      "chain</w>": 2010,
      "40</w>": 2011,
      "##ount</w>": 2012,
      "##ºĲ": 2013,
      "éĩı</w>": 2014,
      "åħĥ</w>": 2015,
      "##xed</w>": 2016,
      "Ŀå</w>": 2017,
      "##te</w>": 2018,
      "åħĪ": 2019,
      "ħé</w>": 2020,
      "sk": 2021,
      "èµ": 2022,
      "set</w>": 2023,
      "detection</w>": 2024,
      "##èĩ</w>": 2025,
      "##fi": 2026,
      "ĵå</w>": 2027,
      "##res": 2028,
      "struc": 2029,
      "##ĥç</w>": 2030,
      "§»</w>": 2031,
      "##ich</w>": 2032,
      "more</w>": 2033,
      "send</w>": 2034,
      "ħè</w>": 2035,
      "##ement</w>": 2036,
      "json</w>": 2037,
      "ºç</w>": 2038,
      "##rou": 2039,
      "upd": 2040,
      "##æĬĢæľ</w>": 2041,
      "¸®</w>": 2042,
      "quer": 2043,
      "sign": 2044,
      "disc": 2045,
      "ĩå</w>": 2046,
      "¿«</w>": 2047,
      "##ĽĨ": 2048,
      "éļ": 2049,
      "check</w>": 2050,
      "æľī</w>": 2051,
      "log</w>": 2052,
      "##ses</w>": 2053,
      "vulnerability</w>": 2054,
      "Ĩé</w>": 2055,
      "Łè</w>": 2056,
      "demon": 2057,
      "sol": 2058,
      "##ert": 2059,
      "##åĲĳ": 2060,
      "æĬ</w>": 2061,
      "##æĮĩ": 2062,
      "which</w>": 2063,
      "##ell</w>": 2064,
      "##åħĪ": 2065,
      "##åģ": 2066,
      "æľº": 2067,
      "##èį</w>": 2068,
      "##ject</w>": 2069,
      "##if</w>": 2070,
      "##åĩ</w>": 2071,
      "process": 2072,
      "##gra": 2073,
      "##ĿĢ": 2074,
      "state</w>": 2075,
      "api</w>": 2076,
      "##ot</w>": 2077,
      "®¢</w>": 2078,
      "¹°</w>": 2079,
      "##æīĢ": 2080,
      "çŃīäºİ</w>": 2081,
      "##æĪĲ</w>": 2082,
      "Ģè</w>": 2083,
      "provide</w>": 2084,
      "ĩè</w>": 2085,
      "consi": 2086,
      "çİ": 2087,
      "identify</w>": 2088,
      "simul": 2089,
      "éģĵ": 2090,
      "del": 2091,
      "##now": 2092,
      "hypothes": 2093,
      "col": 2094,
      "åįķ": 2095,
      "pol": 2096,
      "coun": 2097,
      "##ol</w>": 2098,
      "address": 2099,
      "·¦</w>": 2100,
      "åĽŀ": 2101,
      "Ļåı</w>": 2102,
      "ĭæĺ</w>": 2103,
      "diff": 2104,
      "number</w>": 2105,
      "content</w>": 2106,
      "boxed</w>": 2107,
      "èī</w>": 2108,
      "##ative</w>": 2109,
      "åīį": 2110,
      "techniqu": 2111,
      "##sh": 2112,
      "##Łå</w>": 2113,
      "exploit</w>": 2114,
      "potential</w>": 2115,
      "åĪĨéĴ": 2116,
      "##èµĦ": 2117,
      "¯·</w>": 2118,
      "ĵåĲĪ": 2119,
      "##gor": 2120,
      "åĪĨæŀ": 2121,
      "##ors</w>": 2122,
      "åŃĹ": 2123,
      "##ther</w>": 2124,
      "cri": 2125,
      "analyze</w>": 2126,
      "æľīæ</w>": 2127,
      "nd": 2128,
      "##ied</w>": 2129,
      "##ªģ": 2130,
      "access</w>": 2131,
      "extr": 2132,
      "##tiv": 2133,
      "ĳç</w>": 2134,
      "##gorith": 2135,
      "appl": 2136,
      "attack": 2137,
      "fl": 2138,
      "çļĦæķ</w>": 2139,
      "##ĥŃ": 2140,
      "##ully</w>": 2141,
      "prob": 2142,
      "##æĸĻ": 2143,
      "çľ": 2144,
      "specif": 2145,
      "##eng": 2146,
      "ĭçļĦ": 2147,
      "¡»</w>": 2148,
      "results</w>": 2149,
      "with": 2150,
      "ľçĶ</w>": 2151,
      "ag": 2152,
      "algorith": 2153,
      "éĢļå</w>": 2154,
      "auth": 2155,
      "##çĬ</w>": 2156,
      "ªéĹ</w>": 2157,
      "ķä</w>": 2158,
      "##ıä</w>": 2159,
      "##Łèĥ</w>": 2160,
      "##éĩįè</w>": 2161,
      "nc": 2162,
      "æŁĲ": 2163,
      "##ized</w>": 2164,
      "compon": 2165,
      "##icious</w>": 2166,
      "Ŀç</w>": 2167,
      "pass</w>": 2168,
      "##tual</w>": 2169,
      "##åĵª": 2170,
      "open</w>": 2171,
      "##ķĨ": 2172,
      "åĨħ": 2173,
      "##ist": 2174,
      "¤±</w>": 2175,
      "##we": 2176,
      "type</w>": 2177,
      "çĲĨè</w>": 2178,
      "İä</w>": 2179,
      "¿®</w>": 2180,
      "struct": 2181,
      "##æĹł": 2182,
      "##éªĮ": 2183,
      "include</w>": 2184,
      "æĪĳä</w>": 2185,
      "traff": 2186,
      "train</w>": 2187,
      "èĢĮä</w>": 2188,
      "##sc": 2189,
      "##åĳ": 2190,
      "##rib": 2191,
      "##erm": 2192,
      "we</w>": 2193,
      "ĿæĮ": 2194,
      "cust": 2195,
      "##çķ</w>": 2196,
      "##50</w>": 2197,
      "##æľĽ": 2198,
      "logg": 2199,
      "##ined</w>": 2200,
      "Ĥæ</w>": 2201,
      "stat": 2202,
      "their</w>": 2203,
      "context</w>": 2204,
      "¤´</w>": 2205,
      "traffic</w>": 2206,
      "tc": 2207,
      "##éĢļè</w>": 2208,
      "##åıĤ": 2209,
      "Łä</w>": 2210,
      "ĥè</w>": 2211,
      "11</w>": 2212,
      "¹²</w>": 2213,
      "##Įĥ": 2214,
      "append</w>": 2215,
      "##èĤ": 2216,
      "fi": 2217,
      "¾®</w>": 2218,
      "initi": 2219,
      "start</w>": 2220,
      "know": 2221,
      "team</w>": 2222,
      "##ization</w>": 2223,
      "ĭéĹ</w>": 2224,
      "##sp": 2225,
      "##çĸ</w>": 2226,
      "os</w>": 2227,
      "##ble</w>": 2228,
      "##æĪĸèĢħ": 2229,
      "ŃçļĦ</w>": 2230,
      "åĳ": 2231,
      "all</w>": 2232,
      "åĬĽ": 2233,
      "åĪĻ": 2234,
      "##éĢŁ": 2235,
      "Ĺå</w>": 2236,
      "##åĽłç</w>": 2237,
      "envi": 2238,
      "within</w>": 2239,
      "ĳä</w>": 2240,
      "İéĻ</w>": 2241,
      "##ware</w>": 2242,
      "ĳå</w>": 2243,
      "##æŁĲ": 2244,
      "tcp</w>": 2245,
      "ĩä</w>": 2246,
      "##urce</w>": 2247,
      "æĺĵ": 2248,
      "ŀç</w>": 2249,
      "bu": 2250,
      "¡¥</w>": 2251,
      "Ĩèĥ": 2252,
      "reg": 2253,
      "##ial</w>": 2254,
      "win": 2255,
      "steps</w>": 2256,
      "##éĩĳ": 2257,
      "##åħī": 2258,
      "##èĦ": 2259,
      "fal": 2260,
      "##åĨį": 2261,
      "query</w>": 2262,
      "##éĶĻè</w>": 2263,
      "string</w>": 2264,
      "æľīè</w>": 2265,
      "##Ĺæ</w>": 2266,
      "has": 2267,
      "##åįĩ": 2268,
      "24</w>": 2269,
      "ıç</w>": 2270,
      "éĶĻ</w>": 2271,
      "ĺç</w>": 2272,
      "##åĪĨæŀĲ": 2273,
      "èĤ</w>": 2274,
      "form": 2275,
      "¼¼</w>": 2276,
      "»½</w>": 2277,
      "##ion</w>": 2278,
      "demonstr": 2279,
      "valu": 2280,
      "##éĩı</w>": 2281,
      "##est": 2282,
      "æĬĢæľ</w>": 2283,
      "##tal</w>": 2284,
      "##verage</w>": 2285,
      "##ages</w>": 2286,
      "environ": 2287,
      "##atures</w>": 2288,
      "Īè</w>": 2289,
      "##ubl": 2290,
      "æĪĳå</w>": 2291,
      "##åĬĽ</w>": 2292,
      "īåħ</w>": 2293,
      "##èĬĤ": 2294,
      "##her</w>": 2295,
      "ĺæ</w>": 2296,
      "simulate</w>": 2297,
      "00</w>": 2298,
      "##éĢĤ": 2299,
      "prot": 2300,
      "§°</w>": 2301,
      "åģ": 2302,
      "ŀå</w>": 2303,
      "ĢæŃ</w>": 2304,
      "ªäºº": 2305,
      "do": 2306,
      "Ħç</w>": 2307,
      "lin": 2308,
      "patter": 2309,
      "##æľī</w>": 2310,
      "##hol": 2311,
      "len</w>": 2312,
      "##æİĴ": 2313,
      "Ĥç</w>": 2314,
      "have</w>": 2315,
      "##ayer</w>": 2316,
      "##de": 2317,
      "request</w>": 2318,
      "bin": 2319,
      "nth": 2320,
      "Ľä</w>": 2321,
      "sm": 2322,
      "predic": 2323,
      "info</w>": 2324,
      "ĢäºĽ": 2325,
      "curr": 2326,
      "priv": 2327,
      "##als</w>": 2328,
      "##éĿŀ": 2329,
      "¹¿</w>": 2330,
      "##ateg": 2331,
      "cra": 2332,
      "##abase</w>": 2333,
      "¼°</w>": 2334,
      "##æĺİç</w>": 2335,
      "bet": 2336,
      "red</w>": 2337,
      "âĪ": 2338,
      "##tic</w>": 2339,
      "##par": 2340,
      "domain</w>": 2341,
      "ĵæŀĦ</w>": 2342,
      "##æıĲåĪ</w>": 2343,
      "##ap</w>": 2344,
      "##oo": 2345,
      "##çļĦé</w>": 2346,
      "##els</w>": 2347,
      "decryp": 2348,
      "##éħ</w>": 2349,
      "##åĪĹ": 2350,
      "çļĦæĹ</w>": 2351,
      "ªæ</w>": 2352,
      "éħ": 2353,
      "##éĢīæĭ</w>": 2354,
      "Ŀè</w>": 2355,
      "##æīĭ": 2356,
      "ĭç</w>": 2357,
      "simp": 2358,
      "##ule</w>": 2359,
      "īå</w>": 2360,
      "´¢</w>": 2361,
      "differ": 2362,
      "¥³</w>": 2363,
      "##formation</w>": 2364,
      "implem": 2365,
      "dir": 2366,
      "èĥ": 2367,
      "åĮħæĭ</w>": 2368,
      "##hod</w>": 2369,
      "##åŀ": 2370,
      "åŀĭ</w>": 2371,
      "##çļĦåħ</w>": 2372,
      "##all</w>": 2373,
      "##åŃĺåľ</w>": 2374,
      "¥¿</w>": 2375,
      "publ": 2376,
      "##ons</w>": 2377,
      "eng": 2378,
      "##çľ": 2379,
      "®¸</w>": 2380,
      "wr": 2381,
      "çļĦéĹ</w>": 2382,
      "èº</w>": 2383,
      "##åī": 2384,
      "çŃĸ": 2385,
      "##ign</w>": 2386,
      "ĪåºĶè</w>": 2387,
      "19": 2388,
      "éĿŀ": 2389,
      "çļĦåħ</w>": 2390,
      "ref": 2391,
      "where</w>": 2392,
      "ĺå</w>": 2393,
      "åĿĩ": 2394,
      "çĸĹ": 2395,
      "##æĢĿ": 2396,
      "##åıĸ": 2397,
      "##èĢĮ": 2398,
      "##ev": 2399,
      "by": 2400,
      "éĶĻè</w>": 2401,
      "other</w>": 2402,
      "ĮæľĽ": 2403,
      "##åĮħ": 2404,
      "åĮ</w>": 2405,
      "##alu": 2406,
      "ħæ</w>": 2407,
      "##åıª": 2408,
      "sub</w>": 2409,
      "æīĭ": 2410,
      "##end": 2411,
      "įæĿ": 2412,
      "éĩĬ": 2413,
      "10": 2414,
      "įåı</w>": 2415,
      "##ish": 2416,
      "80</w>": 2417,
      "łç</w>": 2418,
      "false</w>": 2419,
      "ĺæľī": 2420,
      "2023</w>": 2421,
      "socket</w>": 2422,
      "##łä</w>": 2423,
      "##ssi": 2424,
      "##ling</w>": 2425,
      "##ator</w>": 2426,
      "date</w>": 2427,
      "18</w>": 2428,
      "éħ</w>": 2429,
      "hel": 2430,
      "##ty</w>": 2431,
      "åĵį</w>": 2432,
      "##åĲĮ</w>": 2433,
      "32</w>": 2434,
      "rate</w>": 2435,
      "##li": 2436,
      "ķç</w>": 2437,
      "database</w>": 2438,
      "execute</w>": 2439,
      "##æį</w>": 2440,
      "³¢</w>": 2441,
      "ĸè</w>": 2442,
      "##åĮ</w>": 2443,
      "price</w>": 2444,
      "ªæĸ</w>": 2445,
      "200</w>": 2446,
      "detail": 2447,
      "Łæĺ</w>": 2448,
      "orig": 2449,
      "param": 2450,
      "çĲĥ": 2451,
      "cs": 2452,
      "its</w>": 2453,
      "oper": 2454,
      "av": 2455,
      "##åĨħ": 2456,
      "fir": 2457,
      "##æķĻ": 2458,
      "##led</w>": 2459,
      "##Ĵä</w>": 2460,
      "åĩĨ": 2461,
      "##hout</w>": 2462,
      "##to": 2463,
      "nf": 2464,
      "##æľĢå</w>": 2465,
      "##åĲĪ</w>": 2466,
      "need</w>": 2467,
      "only</w>": 2468,
      "sin</w>": 2469,
      "äºº</w>": 2470,
      "define</w>": 2471,
      "ab": 2472,
      "comb": 2473,
      "head": 2474,
      "memory</w>": 2475,
      "##éħį": 2476,
      "##çİĩ</w>": 2477,
      "eff": 2478,
      "algorithm</w>": 2479,
      "##çļĦæĹ</w>": 2480,
      "æľīåı</w>": 2481,
      "åıĸ": 2482,
      "åĨĻ": 2483,
      "Ńç</w>": 2484,
      "##åºĶ</w>": 2485,
      "mul": 2486,
      "èµ</w>": 2487,
      "##éĻĲ": 2488,
      "num</w>": 2489,
      "çĶ": 2490,
      "##éĶ": 2491,
      "##åĨħå</w>": 2492,
      "method</w>": 2493,
      "lear": 2494,
      "èį": 2495,
      "report</w>": 2496,
      "cap": 2497,
      "ºæ</w>": 2498,
      "æľīå</w>": 2499,
      "emp": 2500,
      "techniques</w>": 2501,
      "actual</w>": 2502,
      "##gh": 2503,
      "there</w>": 2504,
      "score</w>": 2505,
      "car": 2506,
      "information</w>": 2507,
      "##Ľĭ": 2508,
      "##mis": 2509,
      "##angu": 2510,
      "lev": 2511,
      "product</w>": 2512,
      "pur": 2513,
      "while</w>": 2514,
      "item</w>": 2515,
      "service</w>": 2516,
      "any</w>": 2517,
      "##æł": 2518,
      "##ld</w>": 2519,
      "Ĩèĥŀ": 2520,
      "##code</w>": 2521,
      "##mm": 2522,
      "ļç</w>": 2523,
      "èį</w>": 2524,
      "çļĦé</w>": 2525,
      "##so</w>": 2526,
      "perform</w>": 2527,
      "##av": 2528,
      "æĪĳè</w>": 2529,
      "Ĺè</w>": 2530,
      "sequ": 2531,
      "sn": 2532,
      "ŃåĽ</w>": 2533,
      "##åĲĦ": 2534,
      "##ust</w>": 2535,
      "sin": 2536,
      "##ency</w>": 2537,
      "Ħå</w>": 2538,
      "##åİĭ": 2539,
      "##ely</w>": 2540,
      "##çŃīå</w>": 2541,
      "##ints</w>": 2542,
      "##İä</w>": 2543,
      "åĥ": 2544,
      "contro": 2545,
      "environment</w>": 2546,
      "åľº": 2547,
      "iss": 2548,
      "##èĲ</w>": 2549,
      "æİĴ": 2550,
      "«¯</w>": 2551,
      "##ured</w>": 2552,
      "mon": 2553,
      "##un</w>": 2554,
      "when</w>": 2555,
      "##ep</w>": 2556,
      "çĬ</w>": 2557,
      "ıæ</w>": 2558,
      "evalu": 2559,
      "##ort": 2560,
      "logging</w>": 2561,
      "client</w>": 2562,
      "åī": 2563,
      "ĠâĸģâĢ": 2564,
      "##ata</w>": 2565,
      "##æľĪ": 2566,
      "##åŁŁ": 2567,
      "ŀè</w>": 2568,
      "ra": 2569,
      "##log": 2570,
      "under": 2571,
      "command</w>": 2572,
      "æľĢå</w>": 2573,
      "update</w>": 2574,
      "addresses</w>": 2575,
      "fre": 2576,
      "total</w>": 2577,
      "åħī": 2578,
      "##tim": 2579,
      "14</w>": 2580,
      "vulnerabilities</w>": 2581,
      "cip": 2582,
      "æľīåħ</w>": 2583,
      "Ĭå</w>": 2584,
      "langu": 2585,
      "##åºı": 2586,
      "åĵª": 2587,
      "##inal</w>": 2588,
      "¡¡</w>": 2589,
      "key": 2590,
      "çĻ</w>": 2591,
      "##ration</w>": 2592,
      "##phic</w>": 2593,
      "##time</w>": 2594,
      "Ĥæŀľæĺ</w>": 2595,
      "ns": 2596,
      "gra": 2597,
      "##īĪ</w>": 2598,
      "æĦŁ": 2599,
      "scen": 2600,
      "##ud": 2601,
      "function": 2602,
      "åĢį</w>": 2603,
      "##éĽ</w>": 2604,
      "åĬłä</w>": 2605,
      "was</w>": 2606,
      "æıĲä</w>": 2607,
      "Ĩåı</w>": 2608,
      "##ound</w>": 2609,
      "##èº</w>": 2610,
      "https</w>": 2611,
      "įåĲĮ</w>": 2612,
      "cve</w>": 2613,
      "bre": 2614,
      "adv": 2615,
      "Ĺæ</w>": 2616,
      "åĩı": 2617,
      "make</w>": 2618,
      "##ession</w>": 2619,
      "##eri": 2620,
      "åĽĽ": 2621,
      "İè</w>": 2622,
      "features</w>": 2623,
      "real</w>": 2624,
      "¡«</w>": 2625,
      "##ym": 2626,
      "##ments</w>": 2627,
      "##entation</w>": 2628,
      "éĢŁ": 2629,
      "##çĽĸ": 2630,
      "bloc": 2631,
      "åıĤ": 2632,
      "remo": 2633,
      "£°</w>": 2634,
      "source</w>": 2635,
      "Ńæ</w>": 2636,
      "back": 2637,
      "ĸå</w>": 2638,
      "##éĴ</w>": 2639,
      "åĬĽ</w>": 2640,
      "##ength</w>": 2641,
      "encryption</w>": 2642,
      "has</w>": 2643,
      "valid": 2644,
      "proble": 2645,
      "##kes</w>": 2646,
      "##éĢļå</w>": 2647,
      "##ĺç</w>": 2648,
      "ŀåĬł": 2649,
      "also</w>": 2650,
      "##ĮĥåĽ</w>": 2651,
      "##æĿĲ": 2652,
      "fol": 2653,
      "25": 2654,
      "##çļĦæĸ</w>": 2655,
      "##Ĭå</w>": 2656,
      "çĹħ": 2657,
      "##80</w>": 2658,
      "lab": 2659,
      "##æºĲ": 2660,
      "##op": 2661,
      "explan": 2662,
      "requir": 2663,
      "task</w>": 2664,
      "¾¤</w>": 2665,
      "ensure</w>": 2666,
      "Ĺç</w>": 2667,
      "##process</w>": 2668,
      "##des</w>": 2669,
      "ĵæŀľ</w>": 2670,
      "clo": 2671,
      "´§</w>": 2672,
      "##åĪĨæŀĲ</w>": 2673,
      "90</w>": 2674,
      "##åŃĹ": 2675,
      "##ms</w>": 2676,
      "²¹</w>": 2677,
      "dist": 2678,
      "èĢĥèĻĳ": 2679,
      "##åĴĮå</w>": 2680,
      "##åıĳå</w>": 2681,
      "at</w>": 2682,
      "##æľīæ</w>": 2683,
      "##ŁŃ": 2684,
      "np": 2685,
      "##ese</w>": 2686,
      "##ically</w>": 2687,
      "token</w>": 2688,
      "Ļå</w>": 2689,
      "##éĶĻ": 2690,
      "##its</w>": 2691,
      "įæ</w>": 2692,
      "encod": 2693,
      "current</w>": 2694,
      "Ĵå</w>": 2695,
      "##roug": 2696,
      "įæķ</w>": 2697,
      "##low</w>": 2698,
      "scenari": 2699,
      "½»</w>": 2700,
      "run</w>": 2701,
      "malicious</w>": 2702,
      "īåıĬ": 2703,
      "implement</w>": 2704,
      "éĩĳ": 2705,
      "ĠâĸģâĢĶ</w>": 2706,
      "##èĭ</w>": 2707,
      "read</w>": 2708,
      "åĴĮå</w>": 2709,
      "encrypted</w>": 2710,
      "ŀçİ</w>": 2711,
      "throug": 2712,
      "įæĥħåĨµä</w>": 2713,
      "æľª": 2714,
      "application</w>": 2715,
      "##text</w>": 2716,
      "critical</w>": 2717,
      "éĴ": 2718,
      "æķĪ": 2719,
      "##æģ</w>": 2720,
      "##æĹ": 2721,
      "##elo": 2722,
      "»¼</w>": 2723,
      "original</w>": 2724,
      "action</w>": 2725,
      "##èĩªå</w>": 2726,
      "æĢģ": 2727,
      "shell": 2728,
      "13</w>": 2729,
      "æĪĳçİ</w>": 2730,
      "16": 2731,
      "éĢīæĭ</w>": 2732,
      "##ss</w>": 2733,
      "##br": 2734,
      "##įåĬ</w>": 2735,
      "¿½</w>": 2736,
      "conf": 2737,
      "find</w>": 2738,
      "problem</w>": 2739,
      "##åĽĽ": 2740,
      "æķĻ": 2741,
      "64</w>": 2742,
      "wind": 2743,
      "##action</w>": 2744,
      "##æı": 2745,
      "##ak</w>": 2746,
      "##Īå</w>": 2747,
      "cle": 2748,
      "over</w>": 2749,
      "ļæ</w>": 2750,
      "æĻ": 2751,
      "##åŃĺ": 2752,
      "##yn": 2753,
      "repl": 2754,
      "¶²</w>": 2755,
      "¯¦</w>": 2756,
      "¾¿</w>": 2757,
      "##ername</w>": 2758,
      "##åģ</w>": 2759,
      "##ļå</w>": 2760,
      "##arch</w>": 2761,
      "åĪĨéĴŁ</w>": 2762,
      "##loy": 2763,
      "load</w>": 2764,
      "##åĩº</w>": 2765,
      "compl": 2766,
      "post</w>": 2767,
      "èĤ": 2768,
      "æľĢç</w>": 2769,
      "##èĢĥ": 2770,
      "here</w>": 2771,
      "##äºº</w>": 2772,
      "status</w>": 2773,
      "##uring</w>": 2774,
      "##ann": 2775,
      "##èĬ</w>": 2776,
      "##ef": 2777,
      "ĺéľĢè</w>": 2778,
      "##sor</w>": 2779,
      "äºĮä</w>": 2780,
      "shellcode</w>": 2781,
      "inst": 2782,
      "ŀäºİ": 2783,
      "°§</w>": 2784,
      "purpo": 2785,
      "language</w>": 2786,
      "æĪĸèĢħæĺ</w>": 2787,
      "ĦçĲĨ</w>": 2788,
      "event</w>": 2789,
      "first</w>": 2790,
      "multi": 2791,
      "##æľª": 2792,
      "##éŁ</w>": 2793,
      "Ĩæ</w>": 2794,
      "æľĢåĲİ</w>": 2795,
      "##Ħå</w>": 2796,
      "vari": 2797,
      "##ics</w>": 2798,
      "##rt</w>": 2799,
      "åĩıå</w>": 2800,
      "¨³</w>": 2801,
      "integ": 2802,
      "åĻ</w>": 2803,
      "##çłĶç</w>": 2804,
      "skil": 2805,
      "consider": 2806,
      "set": 2807,
      "¡¶</w>": 2808,
      "##bers</w>": 2809,
      "ıæµ": 2810,
      "##error</w>": 2811,
      "##iven</w>": 2812,
      "##ining</w>": 2813,
      "abo": 2814,
      "end</w>": 2815,
      "develo": 2816,
      "ħå</w>": 2817,
      "functions</w>": 2818,
      "##ast</w>": 2819,
      "am": 2820,
      "Īæĺ</w>": 2821,
      "ªé</w>": 2822,
      "binary</w>": 2823,
      "determ": 2824,
      "underst": 2825,
      "èµĦ": 2826,
      "çĿĢ": 2827,
      "learning</w>": 2828,
      "posi": 2829,
      "åºĶçĶ</w>": 2830,
      "public</w>": 2831,
      "ŀä</w>": 2832,
      "°¢</w>": 2833,
      "ģæĽ</w>": 2834,
      "##ĵįä</w>": 2835,
      "##åĪĨä</w>": 2836,
      "åĪĹ": 2837,
      "##åįķä</w>": 2838,
      "systems</w>": 2839,
      "these</w>": 2840,
      "##æĤ</w>": 2841,
      "packets</w>": 2842,
      "##çŃĶ": 2843,
      "##çĹħ": 2844,
      "extract</w>": 2845,
      "éĽĨ": 2846,
      "direct": 2847,
      "èĦ": 2848,
      "¸´</w>": 2849,
      "host</w>": 2850,
      "##ber": 2851,
      "Ĭä</w>": 2852,
      "##Łĵ": 2853,
      "æľĪ</w>": 2854,
      "comput": 2855,
      "##ational</w>": 2856,
      "issue</w>": 2857,
      "next</w>": 2858,
      "¼¦</w>": 2859,
      "ļçļĦ": 2860,
      "length</w>": 2861,
      "cos</w>": 2862,
      "world</w>": 2863,
      "##fig</w>": 2864,
      "įåĲĮçļĦ": 2865,
      "łè</w>": 2866,
      "##anis": 2867,
      "æĺİ</w>": 2868,
      "##éĤ</w>": 2869,
      "1000</w>": 2870,
      "¸¥</w>": 2871,
      "##int": 2872,
      "##anced</w>": 2873,
      "##ences</w>": 2874,
      "åĵģ": 2875,
      "char": 2876,
      "¬¾</w>": 2877,
      "base</w>": 2878,
      "##æĪĺ": 2879,
      "##çħ</w>": 2880,
      "sqrt</w>": 2881,
      "##act": 2882,
      "addi": 2883,
      "åĴĮä</w>": 2884,
      "mech": 2885,
      "component</w>": 2886,
      "æĪĸèĢħåı</w>": 2887,
      "given</w>": 2888,
      "ĠâĸģâīĪ</w>": 2889,
      "201": 2890,
      "try</w>": 2891,
      "åģ</w>": 2892,
      "æĤ</w>": 2893,
      "æł": 2894,
      "custom": 2895,
      "##æµ</w>": 2896,
      "values</w>": 2897,
      "##assi": 2898,
      "username</w>": 2899,
      "éĿ": 2900,
      "éª": 2901,
      "##åĨĻ": 2902,
      "level</w>": 2903,
      "##ading</w>": 2904,
      "##æĬĢ": 2905,
      "ħæĻ</w>": 2906,
      "##per</w>": 2907,
      "åĪĨæŀĲ": 2908,
      "##Įä</w>": 2909,
      "skills</w>": 2910,
      "##ert</w>": 2911,
      "examples</w>": 2912,
      "åİ</w>": 2913,
      "åĬł</w>": 2914,
      "Ĥæĺ</w>": 2915,
      "##èı": 2916,
      "½´</w>": 2917,
      "##ices</w>": 2918,
      "sequence</w>": 2919,
      "##åĬŁèĥ</w>": 2920,
      "##çĭ</w>": 2921,
      "¾·</w>": 2922,
      "§¦</w>": 2923,
      "over": 2924,
      "hex</w>": 2925,
      "İç</w>": 2926,
      "##åİĨ": 2927,
      "##æľīå</w>": 2928,
      "appro": 2929,
      "çķ": 2930,
      "leverage</w>": 2931,
      "##åĲį": 2932,
      "##process": 2933,
      "##éģĵ": 2934,
      "ĭåīį": 2935,
      "æı": 2936,
      "version</w>": 2937,
      "##Ĵå</w>": 2938,
      "ŀæĺ</w>": 2939,
      "ris": 2940,
      "leg": 2941,
      "write</w>": 2942,
      "45</w>": 2943,
      "allow": 2944,
      "æĻ</w>": 2945,
      "int</w>": 2946,
      "##ings</w>": 2947,
      "conver": 2948,
      "įæĿĤ": 2949,
      "éĢĤåĲĪ": 2950,
      "scenario</w>": 2951,
      "dns</w>": 2952,
      "handle</w>": 2953,
      "##dge</w>": 2954,
      "##ads</w>": 2955,
      "nt": 2956,
      "èĬĤ": 2957,
      "##ĭè</w>": 2958,
      "##ify</w>": 2959,
      "except</w>": 2960,
      "##se": 2961,
      "invol": 2962,
      "çļĦæĸ</w>": 2963,
      "ĭåŃĲ</w>": 2964,
      "##omal": 2965,
      "max</w>": 2966,
      "##ĮæĻ</w>": 2967,
      "##ft": 2968,
      "nm": 2969,
      "##tes</w>": 2970,
      "åĸ": 2971,
      "datas": 2972,
      "çĲĨ</w>": 2973,
      "beh": 2974,
      "##İå</w>": 2975,
      "temp": 2976,
      "įæĸ</w>": 2977,
      "##ump": 2978,
      "one</w>": 2979,
      "##éĺ": 2980,
      "··</w>": 2981,
      "æĮĩçļĦæĺ</w>": 2982,
      "##ying</w>": 2983,
      "##çĥŃ": 2984,
      "åĪĨç</w>": 2985,
      "##åķĨ": 2986,
      "anomal": 2987,
      "ıæĺ</w>": 2988,
      "##ete</w>": 2989,
      "##edi": 2990,
      "transl": 2991,
      "##åĴĮä</w>": 2992,
      "Ļæĺ</w>": 2993,
      "åĲĳ</w>": 2994,
      "##ill</w>": 2995,
      "session</w>": 2996,
      "##ace": 2997,
      "order</w>": 2998,
      "syn</w>": 2999,
      "mechanis": 3000,
      "csv</w>": 3001,
      "èĬ</w>": 3002,
      "ĳåŃ</w>": 3003,
      "##çĹĩ": 3004,
      "##èĪ</w>": 3005,
      "ŃçļĦä</w>": 3006,
      "èĩªå</w>": 3007,
      "ĥçĲĨ": 3008,
      "##40</w>": 3009,
      "©¬</w>": 3010,
      "ĲåĬ</w>": 3011,
      "ĦåĪ": 3012,
      "count</w>": 3013,
      "##ties</w>": 3014,
      "##åħĥç</w>": 3015,
      "iter": 3016,
      "æĮī": 3017,
      "Ŀä</w>": 3018,
      "details</w>": 3019,
      "##æĿĥ": 3020,
      "##alize</w>": 3021,
      "plt</w>": 3022,
      "doc": 3023,
      "İæ</w>": 3024,
      "##æĦı": 3025,
      "°¤</w>": 3026,
      "const": 3027,
      "##éĨ": 3028,
      "##ĽĭçĻ</w>": 3029,
      "up</w>": 3030,
      "##con": 3031,
      "advanced</w>": 3032,
      "įèĥ</w>": 3033,
      "##éĵ</w>": 3034,
      "craft</w>": 3035,
      "what</w>": 3036,
      "structured</w>": 3037,
      "##ple</w>": 3038,
      "¸¾</w>": 3039,
      "èĻ</w>": 3040,
      "cryp": 3041,
      "##ishing</w>": 3042,
      "libr": 3043,
      "Ħæ</w>": 3044,
      "specific</w>": 3045,
      "str</w>": 3046,
      "hypothesis</w>": 3047,
      "betwe": 3048,
      "##æĪĲä</w>": 3049,
      "evaluate</w>": 3050,
      "åİŁæĿ</w>": 3051,
      "arg": 3052,
      "ĵåħ</w>": 3053,
      "åĲį": 3054,
      "##æį": 3055,
      "ĨçĶ</w>": 3056,
      "çłĶç</w>": 3057,
      "conc": 3058,
      "paramet": 3059,
      "##gn": 3060,
      "between</w>": 3061,
      "##ħè</w>": 3062,
      "dow": 3063,
      "##ult</w>": 3064,
      "çªģ": 3065,
      "##ler</w>": 3066,
      "##åľĨ": 3067,
      "perform": 3068,
      "scan</w>": 3069,
      "##åĳĺ": 3070,
      "##acy</w>": 3071,
      "##typ": 3072,
      "##out</w>": 3073,
      "Ģåį": 3074,
      "##ipp": 3075,
      "##orts</w>": 3076,
      "##gan": 3077,
      "word</w>": 3078,
      "åĪĨè</w>": 3079,
      "æĹłæ</w>": 3080,
      "ºéĹ</w>": 3081,
      "##sions</w>": 3082,
      "åİĺç</w>": 3083,
      "æĪĸèĢħå</w>": 3084,
      "ĿæĮģ": 3085,
      "tit": 3086,
      "usage</w>": 3087,
      "nor": 3088,
      "##åĶ</w>": 3089,
      "łå</w>": 3090,
      "##acking</w>": 3091,
      "##åĤ</w>": 3092,
      "çĸ</w>": 3093,
      "mach": 3094,
      "äºĨè</w>": 3095,
      "##ffer</w>": 3096,
      "##dex</w>": 3097,
      "##åĩı": 3098,
      "æľĢåĲİ": 3099,
      "##ur</w>": 3100,
      "##äºĶ": 3101,
      "##äºĮ": 3102,
      "ģçĶ</w>": 3103,
      "commun": 3104,
      "##ture</w>": 3105,
      "æµ</w>": 3106,
      "åĪĨå</w>": 3107,
      "Ĩç</w>": 3108,
      "##æµģ": 3109,
      "fully</w>": 3110,
      "åħĭ": 3111,
      "##sts</w>": 3112,
      "##ols</w>": 3113,
      "nif</w>": 3114,
      "èĢĮå</w>": 3115,
      "¼¤</w>": 3116,
      "pati": 3117,
      "##Ĺå</w>": 3118,
      "##ul</w>": 3119,
      "simulation</w>": 3120,
      "##ow</w>": 3121,
      "uses</w>": 3122,
      "search</w>": 3123,
      "ģæĢ</w>": 3124,
      "##os</w>": 3125,
      "åŃĲ</w>": 3126,
      "##inc": 3127,
      "dic": 3128,
      "ŀéªĮ": 3129,
      "format</w>": 3130,
      "##lot</w>": 3131,
      "employ": 3132,
      "æĮģ": 3133,
      "##åĬłä</w>": 3134,
      "##åĪĨå</w>": 3135,
      "ħä</w>": 3136,
      "##avi": 3137,
      "¯¢</w>": 3138,
      "éĽ</w>": 3139,
      "##her": 3140,
      "##ains</w>": 3141,
      "36</w>": 3142,
      "meas": 3143,
      "demonstrate</w>": 3144,
      "##ows</w>": 3145,
      "##åĵģ": 3146,
      "æĸŃ": 3147,
      "possi": 3148,
      "##tif": 3149,
      "çĪ</w>": 3150,
      "ĩæ</w>": 3151,
      "without</w>": 3152,
      "çģ</w>": 3153,
      "##ake</w>": 3154,
      "gap</w>": 3155,
      "èĲ</w>": 3156,
      "like</w>": 3157,
      "##emp": 3158,
      "##ºĲ</w>": 3159,
      "åĲĮæł</w>": 3160,
      "title</w>": 3161,
      "##ĬĤ</w>": 3162,
      "args</w>": 3163,
      "·¨</w>": 3164,
      "follow": 3165,
      "##aut": 3166,
      "purposes</w>": 3167,
      "łä</w>": 3168,
      "uti": 3169,
      "hypotheses</w>": 3170,
      "®½</w>": 3171,
      "##æŀľ</w>": 3172,
      "æĿĲ": 3173,
      "##çģ</w>": 3174,
      "##oid</w>": 3175,
      "##æĪĲç</w>": 3176,
      "##ulation</w>": 3177,
      "##åĽł</w>": 3178,
      "ģçļĦ": 3179,
      "##orphic</w>": 3180,
      "Ļè</w>": 3181,
      "##Łä</w>": 3182,
      "æŁ</w>": 3183,
      "logic</w>": 3184,
      "##ects</w>": 3185,
      "attacker</w>": 3186,
      "èİ</w>": 3187,
      "éĩĮ</w>": 3188,
      "ıæķ</w>": 3189,
      "thread</w>": 3190,
      "table</w>": 3191,
      "ĠâĸģãĢį</w>": 3192,
      "##apy</w>": 3193,
      "spl": 3194,
      "##æīĢæľī": 3195,
      "functioning</w>": 3196,
      "ĠâĸģãĢĮ</w>": 3197,
      "##tern": 3198,
      "ĭåŃĲ": 3199,
      "files</w>": 3200,
      "##çĪ</w>": 3201,
      "Ĳè</w>": 3202,
      "Łåı</w>": 3203,
      "##éĢī": 3204,
      "plain": 3205,
      "##çĸ": 3206,
      "filter</w>": 3207,
      "##éªĮè</w>": 3208,
      "known</w>": 3209,
      "##çł</w>": 3210,
      "¾§</w>": 3211,
      "will</w>": 3212,
      "01</w>": 3213,
      "tes": 3214,
      "way</w>": 3215,
      "##face</w>": 3216,
      "120</w>": 3217,
      "inj": 3218,
      "cr": 3219,
      "dataset</w>": 3220,
      "ĭæ</w>": 3221,
      "users</w>": 3222,
      "æµģ": 3223,
      "get": 3224,
      "##ument</w>": 3225,
      "ĵæ</w>": 3226,
      "module</w>": 3227,
      "##ray</w>": 3228,
      "patterns</w>": 3229,
      "##èĪ": 3230,
      "ĻéĩĮåı</w>": 3231,
      "ªçİ</w>": 3232,
      "##éĢŁåº</w>": 3233,
      "ĺçļĦ": 3234,
      "prof": 3235,
      "##ability</w>": 3236,
      "##æĻ": 3237,
      "scapy</w>": 3238,
      "index</w>": 3239,
      "¯¾</w>": 3240,
      "##äºĨä</w>": 3241,
      "Ĥåľº": 3242,
      "vulnerable</w>": 3243,
      "¼©</w>": 3244,
      "##omm": 3245,
      "Ġâĸģâī</w>": 3246,
      "ĠâĸģÃ</w>": 3247,
      "##ner</w>": 3248,
      "##af": 3249,
      "##ename</w>": 3250,
      "##éªĮ</w>": 3251,
      "they</w>": 3252,
      "frequ": 3253,
      "¶£</w>": 3254,
      "åľºæĻ</w>": 3255,
      "´£</w>": 3256,
      "##æıĲä</w>": 3257,
      "åĢĻåı</w>": 3258,
      "coll": 3259,
      "machine</w>": 3260,
      "items</w>": 3261,
      "##me": 3262,
      "##äºĨè</w>": 3263,
      "polym": 3264,
      "##lease</w>": 3265,
      "cons": 3266,
      "¡¬</w>": 3267,
      "returns</w>": 3268,
      "##ong</w>": 3269,
      "secr": 3270,
      "tw": 3271,
      "conn</w>": 3272,
      "about</w>": 3273,
      "##éĽĨ": 3274,
      "monit": 3275,
      "cos": 3276,
      "quan": 3277,
      "æĪĸèĢħè</w>": 3278,
      "½½</w>": 3279,
      "##æŀ</w>": 3280,
      "##éģ</w>": 3281,
      "ms": 3282,
      "detect</w>": 3283,
      "æĪĸèĢħä</w>": 3284,
      "##os": 3285,
      "behavi": 3286,
      "çļĦæĢ</w>": 3287,
      "##ision</w>": 3288,
      "##çļĦæĢ</w>": 3289,
      "##ified</w>": 3290,
      "¡£</w>": 3291,
      "##ŀį": 3292,
      "æīĵ": 3293,
      "right</w>": 3294,
      "##çªģ": 3295,
      "##ications</w>": 3296,
      "35</w>": 3297,
      "ŃéĹ</w>": 3298,
      "##æĸĻ</w>": 3299,
      "frame</w>": 3300,
      "æĹ": 3301,
      "##åĪĽ": 3302,
      "±±</w>": 3303,
      "nam": 3304,
      "åĥı": 3305,
      "aes</w>": 3306,
      "»¿</w>": 3307,
      "##èİ</w>": 3308,
      "Ĩæĺ</w>": 3309,
      "age</w>": 3310,
      "##ved</w>": 3311,
      "elif</w>": 3312,
      "Ħè</w>": 3313,
      "token": 3314,
      "replace</w>": 3315,
      "##ear</w>": 3316,
      "most</w>": 3317,
      "®¨</w>": 3318,
      "æıĲåĪ</w>": 3319,
      "signature</w>": 3320,
      "left</w>": 3321,
      "Ŀæ</w>": 3322,
      "##ded</w>": 3323,
      "##na": 3324,
      "##up</w>": 3325,
      "éĩıæĺ</w>": 3326,
      "åįĥ": 3327,
      "phishing</w>": 3328,
      "ĸç</w>": 3329,
      "indic": 3330,
      "corr": 3331,
      "##ml</w>": 3332,
      "åĲĦ": 3333,
      "common</w>": 3334,
      "##Ĳæłĩ": 3335,
      "training</w>": 3336,
      "##ke": 3337,
      "ĵçļĦ": 3338,
      "##çķĻ": 3339,
      "##py</w>": 3340,
      "options</w>": 3341,
      "##entic": 3342,
      "éªĮè</w>": 3343,
      "ĺåĮĸ": 3344,
      "success": 3345,
      "åĪĨæ</w>": 3346,
      "çĶŁçī</w>": 3347,
      "##åĬł</w>": 3348,
      "##åĽŀå</w>": 3349,
      "##ide": 3350,
      "»¤</w>": 3351,
      "well</w>": 3352,
      "ai": 3353,
      "çļĦæĥħåĨµ</w>": 3354,
      "##ard</w>": 3355,
      "dep": 3356,
      "çĶŁ</w>": 3357,
      "æĪĸè</w>": 3358,
      "äºİ</w>": 3359,
      "##æĪ</w>": 3360,
      "bytes</w>": 3361,
      "Ĵåº</w>": 3362,
      "##acehol": 3363,
      "##Ĭè</w>": 3364,
      "encrypt</w>": 3365,
      "##æŀĦ": 3366,
      "åĨħå</w>": 3367,
      "Ŀèµ": 3368,
      "block</w>": 3369,
      "placehol": 3370,
      "##ip</w>": 3371,
      "##ines</w>": 3372,
      "##åĽĽä</w>": 3373,
      "##ality</w>": 3374,
      "##çĿĢ": 3375,
      "protoc": 3376,
      "åĪĽ": 3377,
      "multiple</w>": 3378,
      "min": 3379,
      "æĥħåĨ": 3380,
      "ĳè</w>": 3381,
      "##åŁŁ</w>": 3382,
      "impro": 3383,
      "įéľĢè</w>": 3384,
      "75</w>": 3385,
      "loo": 3386,
      "ªæĹ</w>": 3387,
      "##éĵ": 3388,
      "##bil": 3389,
      "##pres": 3390,
      "break</w>": 3391,
      "éħį": 3392,
      "http</w>": 3393,
      "summ": 3394,
      "##æľºåĪ</w>": 3395,
      "##éĶĻäºĨ</w>": 3396,
      "##ves</w>": 3397,
      "db</w>": 3398,
      "æĭ</w>": 3399,
      "¥®</w>": 3400,
      "##anding</w>": 3401,
      "node</w>": 3402,
      "##åĲĹ</w>": 3403,
      "®±</w>": 3404,
      "ıæµİ": 3405,
      "##äºī": 3406,
      "samp": 3407,
      "syn": 3408,
      "strateg": 3409,
      "split</w>": 3410,
      "£«</w>": 3411,
      "educ": 3412,
      "##åĥ": 3413,
      "amount</w>": 3414,
      "polymorphic</w>": 3415,
      "is": 3416,
      "relev": 3417,
      "charac": 3418,
      "deli": 3419,
      "successf": 3420,
      "ndata</w>": 3421,
      "ķæĺ</w>": 3422,
      "##au": 3423,
      "words</w>": 3424,
      "##usc": 3425,
      "rece": 3426,
      "Ģæµĭ": 3427,
      "implementation</w>": 3428,
      "##ºå</w>": 3429,
      "##çı": 3430,
      "comments</w>": 3431,
      "sle": 3432,
      "300</w>": 3433,
      "ĺåĬ</w>": 3434,
      "ĺåı</w>": 3435,
      "pop": 3436,
      "çŃīäºİ": 3437,
      "initial</w>": 3438,
      "çİĩ": 3439,
      "simpl": 3440,
      "vide": 3441,
      "author": 3442,
      "æºĲ": 3443,
      "åĮĸ</w>": 3444,
      "##åģļ": 3445,
      "##åĴĮè</w>": 3446,
      "encode</w>": 3447,
      "##ĭä</w>": 3448,
      "##are</w>": 3449,
      "èĢĮæĺ</w>": 3450,
      "##æĸĩåĮĸ": 3451,
      "Ĩæł</w>": 3452,
      "åĲİä</w>": 3453,
      "testing</w>": 3454,
      "##åĸ": 3455,
      "Ġâĸģð": 3456,
      "##etime</w>": 3457,
      "##por": 3458,
      "##åĲĪä</w>": 3459,
      "but</w>": 3460,
      "config</w>": 3461,
      "åĪĨæŀĲ</w>": 3462,
      "##æĬķ": 3463,
      "##ods</w>": 3464,
      "èĻ": 3465,
      "##cept</w>": 3466,
      "connect</w>": 3467,
      "plaintext</w>": 3468,
      "joh": 3469,
      "Ľå</w>": 3470,
      "##åĪĨè</w>": 3471,
      "Ĭè</w>": 3472,
      "##åıĺåĮĸ</w>": 3473,
      "äºĶ": 3474,
      "attemp": 3475,
      "æĺİç</w>": 3476,
      "connection</w>": 3477,
      "cy": 3478,
      "patient</w>": 3479,
      "ıçļĦ": 3480,
      "exception</w>": 3481,
      "##tically</w>": 3482,
      "##60</w>": 3483,
      "##æµĭ</w>": 3484,
      "ĩé</w>": 3485,
      "Ĥé</w>": 3486,
      "activ": 3487,
      "mar": 3488,
      "feature</w>": 3489,
      "æĢģ</w>": 3490,
      "secret</w>": 3491,
      "##ledge</w>": 3492,
      "##verse</w>": 3493,
      "nthis</w>": 3494,
      "21</w>": 3495,
      "##fusc": 3496,
      "sum</w>": 3497,
      "##æĢģ": 3498,
      "web</w>": 3499,
      "ľå</w>": 3500,
      "Ļæ</w>": 3501,
      "##fil": 3502,
      "##til</w>": 3503,
      "##ģµ": 3504,
      "##ew</w>": 3505,
      "as": 3506,
      "##æĪĲæľ</w>": 3507,
      "##æīį": 3508,
      "®¿</w>": 3509,
      "then</w>": 3510,
      "plu": 3511,
      "##wer": 3512,
      "##åĵªéĩĮ": 3513,
      "knowledge</w>": 3514,
      "##æĸŃ": 3515,
      "placeholder</w>": 3516,
      "èįĲ": 3517,
      "##ĭåı": 3518,
      "īæ</w>": 3519,
      "parse</w>": 3520,
      "çĥŃ": 3521,
      "Įè</w>": 3522,
      "go": 3523,
      "æľīç</w>": 3524,
      "understanding</w>": 3525,
      "éļ</w>": 3526,
      "risk</w>": 3527,
      "åįķä</w>": 3528,
      "Ĥæŀľä</w>": 3529,
      "æĮģ</w>": 3530,
      "gu": 3531,
      "pd</w>": 3532,
      "execution</w>": 3533,
      "##son": 3534,
      "11": 3535,
      "princ": 3536,
      "éĽ": 3537,
      "¸¡</w>": 3538,
      "##éĢ</w>": 3539,
      "##istic": 3540,
      "500</w>": 3541,
      "ĵåīį": 3542,
      "##æııè</w>": 3543,
      "account</w>": 3544,
      "åĩıåİ</w>": 3545,
      "ĸåħĪ": 3546,
      "sleep</w>": 3547,
      "##ecess": 3548,
      "progra": 3549,
      "datetime</w>": 3550,
      "player</w>": 3551,
      "##åŁºç</w>": 3552,
      "éĢī": 3553,
      "##ination</w>": 3554,
      "æļ": 3555,
      "åķĨ": 3556,
      "##çĶŁçī</w>": 3557,
      "¢³</w>": 3558,
      "æĮģç</w>": 3559,
      "numbers</w>": 3560,
      "cursor</w>": 3561,
      "##ters</w>": 3562,
      "chann": 3563,
      "nl": 3564,
      "éĵ</w>": 3565,
      "äºĮ</w>": 3566,
      "authentic": 3567,
      "åĪĨä</w>": 3568,
      "##åĴĮç</w>": 3569,
      "no</w>": 3570,
      "manag": 3571,
      "following</w>": 3572,
      "##éĿ": 3573,
      "ele": 3574,
      "æĲ": 3575,
      "##lor</w>": 3576,
      "##ph</w>": 3577,
      "åĲĪå</w>": 3578,
      "allows</w>": 3579,
      "raise</w>": 3580,
      "##igh</w>": 3581,
      "##æĦŁ</w>": 3582,
      "##åıĤæķ</w>": 3583,
      "##Ŀå</w>": 3584,
      "off": 3585,
      "##ing": 3586,
      "éŁ</w>": 3587,
      "found</w>": 3588,
      "éļı": 3589,
      "éĵ": 3590,
      "sent": 3591,
      "app</w>": 3592,
      "åħįè</w>": 3593,
      "util": 3594,
      "vect": 3595,
      "28</w>": 3596,
      "game</w>": 3597,
      "æŀľ": 3598,
      "##tionally</w>": 3599,
      "åŃĹ</w>": 3600,
      "flow</w>": 3601,
      "##fore</w>": 3602,
      "##ser</w>": 3603,
      "object</w>": 3604,
      "##ru": 3605,
      "##åĩĨç</w>": 3606,
      "éľĢæ</w>": 3607,
      "##od</w>": 3608,
      "hat</w>": 3609,
      "attacks</w>": 3610,
      "17</w>": 3611,
      "sch": 3612,
      "åĢį": 3613,
      "library</w>": 3614,
      "sup": 3615,
      "##åĩłä</w>": 3616,
      "solution</w>": 3617,
      "fail": 3618,
      "èģĶ": 3619,
      "æĴ": 3620,
      "##çŃĸ": 3621,
      "70</w>": 3622,
      "help</w>": 3623,
      "behavior</w>": 3624,
      "organ": 3625,
      "##hert": 3626,
      "design</w>": 3627,
      "condi": 3628,
      "ĿæĬ</w>": 3629,
      "buffer</w>": 3630,
      "vis": 3631,
      "sensi": 3632,
      "æĪĸ</w>": 3633,
      "hash</w>": 3634,
      "lead</w>": 3635,
      "##istic</w>": 3636,
      "exploit": 3637,
      "22</w>": 3638,
      "åħĥ": 3639,
      "ªéĥ</w>": 3640,
      "##æŁĲä</w>": 3641,
      "##åĪĨç</w>": 3642,
      "ľè</w>": 3643,
      "join</w>": 3644,
      "run": 3645,
      "through</w>": 3646,
      "customer</w>": 3647,
      "##åĴĮ</w>": 3648,
      "Ģåıĳ": 3649,
      "different</w>": 3650,
      "them</w>": 3651,
      "cert": 3652,
      "##çĲĥ": 3653,
      "high</w>": 3654,
      "ªåħ</w>": 3655,
      "ĸæ</w>": 3656,
      "##lib</w>": 3657,
      "åºķ": 3658,
      "æĪĲä</w>": 3659,
      "ports</w>": 3660,
      "including</w>": 3661,
      "permis": 3662,
      "array</w>": 3663,
      "âĪļ</w>": 3664,
      "oc": 3665,
      "##ays</w>": 3666,
      "åĲİè</w>": 3667,
      "##çļĦéĹ</w>": 3668,
      "secure</w>": 3669,
      "##ecessary</w>": 3670,
      "cred": 3671,
      "Ĳå</w>": 3672,
      "point</w>": 3673,
      "13": 3674,
      "##ping</w>": 3675,
      "##erg": 3676,
      "##ish</w>": 3677,
      "star": 3678,
      "windows</w>": 3679,
      "##ound": 3680,
      "classi": 3681,
      "##éĩįå</w>": 3682,
      "ļæĢ</w>": 3683,
      "ģåħ</w>": 3684,
      "does</w>": 3685,
      "çīĩ": 3686,
      "¥¨</w>": 3687,
      "may</w>": 3688,
      "çļĦéľĢæ</w>": 3689,
      "äºĨä</w>": 3690,
      "ide": 3691,
      "repres": 3692,
      "headers</w>": 3693,
      "Ģéģ": 3694,
      "includes</w>": 3695,
      "obfusc": 3696,
      "##èĬĤ</w>": 3697,
      "æīĢæľī": 3698,
      "##åĨįä</w>": 3699,
      "ĨåĪ</w>": 3700,
      "±¼</w>": 3701,
      "æĪĲæľ</w>": 3702,
      "ļæĺ</w>": 3703,
      "ciphert": 3704,
      "##æĸĩä</w>": 3705,
      "##ger</w>": 3706,
      "åıĹ": 3707,
      "½¯</w>": 3708,
      "##çĶ": 3709,
      "īç</w>": 3710,
      "åĽĽä</w>": 3711,
      "##çŃĸçķ</w>": 3712,
      "##æĺŁ": 3713,
      "##line</w>": 3714,
      "çı": 3715,
      "##åĪĨæ</w>": 3716,
      "çľŁ": 3717,
      "ĠâĸģðŁ": 3718,
      "Ĳç</w>": 3719,
      "##æķħ": 3720,
      "##ked</w>": 3721,
      "éĩıä</w>": 3722,
      "åĬŁèĥ</w>": 3723,
      "mis": 3724,
      "##ľç</w>": 3725,
      "logs</w>": 3726,
      "##åĪĨ</w>": 3727,
      "##ody</w>": 3728,
      "pi</w>": 3729,
      "ids</w>": 3730,
      "susp": 3731,
      "keys</w>": 3732,
      "ĸçļĦ": 3733,
      "line</w>": 3734,
      "pattern</w>": 3735,
      "prev": 3736,
      "##ĭå</w>": 3737,
      "Ĥåľ</w>": 3738,
      "48</w>": 3739,
      "ĳæ</w>": 3740,
      "##umpy</w>": 3741,
      "##çĽĳ": 3742,
      "##ºèĥ</w>": 3743,
      "location</w>": 3744,
      "##erence</w>": 3745,
      "åĮĸä</w>": 3746,
      "2022</w>": 3747,
      "components</w>": 3748,
      "##ĽçĽ</w>": 3749,
      "##ual</w>": 3750,
      "prac": 3751,
      "åĩĨç</w>": 3752,
      "´¯</w>": 3753,
      "##ume</w>": 3754,
      "##tivi": 3755,
      "Ŀèµĸ": 3756,
      "Ģéĥ</w>": 3757,
      "our</w>": 3758,
      "categ": 3759,
      "æį": 3760,
      "filename</w>": 3761,
      "insi": 3762,
      "##tp</w>": 3763,
      "256</w>": 3764,
      "meth": 3765,
      "norm": 3766,
      "ĢèĪ</w>": 3767,
      "##itig": 3768,
      "##æīĵ": 3769,
      "sql</w>": 3770,
      "##äºĭä</w>": 3771,
      "Ģåįķ": 3772,
      "numpy</w>": 3773,
      "##ŁĽçĽ</w>": 3774,
      "demonstrates</w>": 3775,
      "core</w>": 3776,
      "Łæķ</w>": 3777,
      "##sist": 3778,
      "math": 3779,
      "ĬçļĦ": 3780,
      "complete</w>": 3781,
      "##èĩªçĦ</w>": 3782,
      "maint": 3783,
      "ĭåĲİ": 3784,
      "processing</w>": 3785,
      "integr": 3786,
      "åĴĮè</w>": 3787,
      "thin": 3788,
      "retri": 3789,
      "åıĳå</w>": 3790,
      "åĵģ</w>": 3791,
      "##ot": 3792,
      "ĭæĸ</w>": 3793,
      "æĬĹ": 3794,
      "##īº": 3795,
      "lim": 3796,
      "ĨåŁŁ": 3797,
      "åħħ": 3798,
      "snipp": 3799,
      "##çīĪ": 3800,
      "impl": 3801,
      "##all": 3802,
      "mitig": 3803,
      "summary</w>": 3804,
      "execut": 3805,
      "##åŁºæľ</w>": 3806,
      "æŁĲä</w>": 3807,
      "adj": 3808,
      "fiel": 3809,
      "certain</w>": 3810,
      "equ": 3811,
      "##gle</w>": 3812,
      "clear</w>": 3813,
      "##åĮħæĭ</w>": 3814,
      "éĺŁ": 3815,
      "##auth": 3816,
      "colum": 3817,
      "before</w>": 3818,
      "æıĲåįĩ": 3819,
      "##aining</w>": 3820,
      "äºİå</w>": 3821,
      "##ew": 3822,
      "æĪĳåºĶè</w>": 3823,
      "##20</w>": 3824,
      "fact": 3825,
      "red": 3826,
      "##ľæ</w>": 3827,
      "âī</w>": 3828,
      "comple": 3829,
      "ĨçĽĸ": 3830,
      "re</w>": 3831,
      "æĢİä</w>": 3832,
      "åĴĮç</w>": 3833,
      "##ular</w>": 3834,
      "injection</w>": 3835,
      "computer</w>": 3836,
      "ai</w>": 3837,
      "##ape</w>": 3838,
      "æľīéĹ</w>": 3839,
      "Įåħ</w>": 3840,
      "##éĽ": 3841,
      "Ģèĩ</w>": 3842,
      "##åıįåºĶ": 3843,
      "¯¸</w>": 3844,
      "two</w>": 3845,
      "involve</w>": 3846,
      "çĶŁæ</w>": 3847,
      "##rix</w>": 3848,
      "Īç</w>": 3849,
      "æľŁ</w>": 3850,
      "simple</w>": 3851,
      "##cl": 3852,
      "less</w>": 3853,
      "##åºķ": 3854,
      "##back</w>": 3855,
      "import": 3856,
      "##abl": 3857,
      "¼´</w>": 3858,
      "reduc": 3859,
      "150</w>": 3860,
      "##èĥĮæĻ</w>": 3861,
      "were</w>": 3862,
      "ĸåı</w>": 3863,
      "timing</w>": 3864,
      "##åĪĻ": 3865,
      "preprocess": 3866,
      "19</w>": 3867,
      "Ĵèī</w>": 3868,
      "##åºı</w>": 3869,
      "predict</w>": 3870,
      "ĵæŀľä</w>": 3871,
      "ss": 3872,
      "èĢĮ</w>": 3873,
      "##æħ</w>": 3874,
      "##uration</w>": 3875,
      "##åģĩè</w>": 3876,
      "encoded</w>": 3877,
      "nn": 3878,
      "web": 3879,
      "social</w>": 3880,
      "custom</w>": 3881,
      "##çĥ": 3882,
      "video</w>": 3883,
      "##types</w>": 3884,
      "stand": 3885,
      "educational</w>": 3886,
      "##çļĦåı</w>": 3887,
      "distrib": 3888,
      "##æľįåĬ</w>": 3889,
      "¿»</w>": 3890,
      "##try</w>": 3891,
      "ĨéľĢè</w>": 3892,
      "èĮĥåĽ</w>": 3893,
      "##éĶ</w>": 3894,
      "optim": 3895,
      "accur": 3896,
      "necessary</w>": 3897,
      "out</w>": 3898,
      "##åĪĨåŃĲ": 3899,
      "random": 3900,
      "constra": 3901,
      "##ness</w>": 3902,
      "processed</w>": 3903,
      "##ats</w>": 3904,
      "åıĮ": 3905,
      "çĭ</w>": 3906,
      "##reshol": 3907,
      "##éĢł": 3908,
      "Ĥçİĩ": 3909,
      "call</w>": 3910,
      "42</w>": 3911,
      "ĩåı</w>": 3912,
      "åıĪ": 3913,
      "##æĵįä</w>": 3914,
      "èĪ": 3915,
      "private</w>": 3916,
      "pres": 3917,
      "down</w>": 3918,
      "sal": 3919,
      "##ock</w>": 3920,
      "##æĳ": 3921,
      "ĭçļĦ</w>": 3922,
      "##åħĥ": 3923,
      "sensitive</w>": 3924,
      "##ective</w>": 3925,
      "ªæľĪ": 3926,
      "af": 3927,
      "##äººæķ</w>": 3928,
      "stron": 3929,
      "medi": 3930,
      "explore</w>": 3931,
      "æĿĥ": 3932,
      "##åıĮ": 3933,
      "##ering</w>": 3934,
      "##çĥ</w>": 3935,
      "##ural</w>": 3936,
      "rop</w>": 3937,
      "hash": 3938,
      "åºĶçļĦ": 3939,
      "device</w>": 3940,
      "persist": 3941,
      "page</w>": 3942,
      "çĸĹ</w>": 3943,
      "åİĭ": 3944,
      "##åľºæĻ</w>": 3945,
      "##ome</w>": 3946,
      "éĻįä</w>": 3947,
      "##æĮī": 3948,
      "Ķæ</w>": 3949,
      "åºŃ": 3950,
      "##ys": 3951,
      "##åĮĸåŃ</w>": 3952,
      "##ght</w>": 3953,
      "##çĤ": 3954,
      "ĮæĪĲ": 3955,
      "ºæĺ</w>": 3956,
      "##èĮĥåĽ</w>": 3957,
      "vi": 3958,
      "éĻħ": 3959,
      "body</w>": 3960,
      "çŁŃ": 3961,
      "chang": 3962,
      "au": 3963,
      "##da</w>": 3964,
      "##vers": 3965,
      "ent": 3966,
      "ªåı</w>": 3967,
      "please</w>": 3968,
      "avoid</w>": 3969,
      "##ªå</w>": 3970,
      "##ainst</w>": 3971,
      "##æĿĲæĸĻ": 3972,
      "##ild</w>": 3973,
      "contr": 3974,
      "additionally</w>": 3975,
      "nfor</w>": 3976,
      "label</w>": 3977,
      "against</w>": 3978,
      "close</w>": 3979,
      "prop": 3980,
      "ıåħ</w>": 3981,
      "tool</w>": 3982,
      "ªæŃ</w>": 3983,
      "shar": 3984,
      "##ghts</w>": 3985,
      "##äºĨå</w>": 3986,
      "color</w>": 3987,
      "##åĩºçİ</w>": 3988,
      "row</w>": 3989,
      "threshol": 3990,
      "messages</w>": 3991,
      "İåħĥ": 3992,
      "##eerror</w>": 3993,
      "reso": 3994,
      "john</w>": 3995,
      "##çŁŃ": 3996,
      "##ļä</w>": 3997,
      "##ľä</w>": 3998,
      "ģæıĲåĪ</w>": 3999,
      "calcul": 4000,
      "°¾</w>": 4001,
      "frame": 4002,
      "ĵæŀľæĺ</w>": 4003,
      "interface</w>": 4004,
      "##0000": 4005,
      "privil": 4006,
      "##æŀģ": 4007,
      "##ces</w>": 4008,
      "æĹłè</w>": 4009,
      "note</w>": 4010,
      "config": 4011,
      "stati": 4012,
      "©¿</w>": 4013,
      "##æĴ": 4014,
      "malware</w>": 4015,
      "alph": 4016,
      "sender</w>": 4017,
      "##plo": 4018,
      "select</w>": 4019,
      "##éļĲ": 4020,
      "cd": 4021,
      "my</w>": 4022,
      "ĻéĩĮçļĦ</w>": 4023,
      "hist": 4024,
      "nres": 4025,
      "ģæĺİç</w>": 4026,
      "##æĦıä</w>": 4027,
      "çļĦæŃ</w>": 4028,
      "might</w>": 4029,
      "threat</w>": 4030,
      "##ans</w>": 4031,
      "##ĵåº</w>": 4032,
      "protocol</w>": 4033,
      "snippet</w>": 4034,
      "ht": 4035,
      "altern": 4036,
      "åľĨ": 4037,
      "·§</w>": 4038,
      "root</w>": 4039,
      "recor": 4040,
      "##arn</w>": 4041,
      "constraints</w>": 4042,
      "control</w>": 4043,
      "##çĶŁæ</w>": 4044,
      "½©</w>": 4045,
      "##sive</w>": 4046,
      "æĬĬ": 4047,
      "##vid": 4048,
      "##æŁĵ": 4049,
      "power": 4050,
      "soft": 4051,
      "grou": 4052,
      "İåĽ</w>": 4053,
      "em": 4054,
      "##çº": 4055,
      "##oring</w>": 4056,
      "¥¼</w>": 4057,
      "cipher</w>": 4058,
      "ŃçļĦè</w>": 4059,
      "åĪĩ": 4060,
      "detected</w>": 4061,
      "Ĵä</w>": 4062,
      "##åĿĲæłĩ": 4063,
      "##åıĺ</w>": 4064,
      "gre": 4065,
      "nthe</w>": 4066,
      "design": 4067,
      "recomm": 4068,
      "plot</w>": 4069,
      "##ores</w>": 4070,
      "çĽĳ": 4071,
      "ins": 4072,
      "27</w>": 4073,
      "##alth</w>": 4074,
      "çļĦçŃĶæ</w>": 4075,
      "·»</w>": 4076,
      "ciphertext</w>": 4077,
      "##éĩĮ</w>": 4078,
      "Ĩåħ</w>": 4079,
      "##çĮ</w>": 4080,
      "åįĥåħ": 4081,
      "##min": 4082,
      "èħ": 4083,
      "channel</w>": 4084,
      "##izes</w>": 4085,
      "##åºĶå</w>": 4086,
      "ŀæİ</w>": 4087,
      "##urr": 4088,
      "æľĪ": 4089,
      "##èħ</w>": 4090,
      "secon": 4091,
      "##åĮºéĹ</w>": 4092,
      "##åıĹ": 4093,
      "éĻĲ": 4094,
      "##ull</w>": 4095,
      "thou": 4096,
      "æŀģ": 4097,
      "çļ</w>": 4098,
      "decode</w>": 4099,
      "##aries</w>": 4100,
      "æĪĲç</w>": 4101,
      "èĳ": 4102,
      "pa": 4103,
      "¥¶</w>": 4104,
      "##èĽĭçĻ</w>": 4105,
      "##ather</w>": 4106,
      "finally</w>": 4107,
      "strong</w>": 4108,
      "##ªæĸ</w>": 4109,
      "èĢħ</w>": 4110,
      "Ľåħ</w>": 4111,
      "structure</w>": 4112,
      "lat": 4113,
      "##æĪĺ</w>": 4114,
      "until</w>": 4115,
      "##çĨ": 4116,
      "äºĴ": 4117,
      "åĽŀçŃĶ": 4118,
      "180</w>": 4119,
      "some</w>": 4120,
      "åĲĮä</w>": 4121,
      "##ases</w>": 4122,
      "##ectiv": 4123,
      "cir": 4124,
      "##orized</w>": 4125,
      "rep": 4126,
      "æľºåĪ</w>": 4127,
      "artic": 4128,
      "##eve</w>": 4129,
      "consider</w>": 4130,
      "¸½</w>": 4131,
      "åĿĹ</w>": 4132,
      "ĠâĸģâĪĴ</w>": 4133,
      "åĲİç</w>": 4134,
      "ĺåº</w>": 4135,
      "matrix</w>": 4136,
      "##äºĴ": 4137,
      "éĩĬ</w>": 4138,
      "inval": 4139,
      "ķçĶ</w>": 4140,
      "convert</w>": 4141,
      "methods</w>": 4142,
      "##ented</w>": 4143,
      "##åŀĭ": 4144,
      "##æĪĸå</w>": 4145,
      "communication</w>": 4146,
      "insights</w>": 4147,
      "combination</w>": 4148,
      "header</w>": 4149,
      "##äººç</w>": 4150,
      "èĩªçĦ</w>": 4151,
      "»§</w>": 4152,
      "ļé</w>": 4153,
      "non</w>": 4154,
      "hacking</w>": 4155,
      "parameters</w>": 4156,
      "000</w>": 4157,
      "##ll</w>": 4158,
      "##æļ": 4159,
      "ºé</w>": 4160,
      "±½</w>": 4161,
      "##learn</w>": 4162,
      "fet": 4163,
      "apply</w>": 4164,
      "##ens": 4165,
      "ve": 4166,
      "400</w>": 4167,
      "Įç</w>": 4168,
      "manner</w>": 4169,
      "end": 4170,
      "spe": 4171,
      "¼¹</w>": 4172,
      "##æľīè</w>": 4173,
      "æĭī": 4174,
      "æĺŁ": 4175,
      "èĭ": 4176,
      "##åĪĨæķ</w>": 4177,
      "remove</w>": 4178,
      "defa": 4179,
      "##ĳåĪ</w>": 4180,
      "##orted</w>": 4181,
      "æĢĿ": 4182,
      "åĩºçİ</w>": 4183,
      "ensuring</w>": 4184,
      "14": 4185,
      "æĸĩåĮĸ": 4186,
      "sklearn</w>": 4187,
      "mechanism</w>": 4188,
      "çª": 4189,
      "time": 4190,
      "read": 4191,
      "employe": 4192,
      "position</w>": 4193,
      "ľèī</w>": 4194,
      "æĿĲæĸĻ": 4195,
      "##æķı": 4196,
      "byp": 4197,
      "##åĲĦä</w>": 4198,
      "##ags</w>": 4199,
      "stre": 4200,
      "çļĦåı</w>": 4201,
      "åĽĽ</w>": 4202,
      "¸²</w>": 4203,
      "ģæıĲ": 4204,
      "control": 4205,
      "åİŁé</w>": 4206,
      "decrypt</w>": 4207,
      "æķħ": 4208,
      "##çķĮ": 4209,
      "æĬķ": 4210,
      "assum": 4211,
      "##éĻĲ</w>": 4212,
      "15": 4213,
      "tx": 4214,
      "ben": 4215,
      "reco": 4216,
      "çĮ</w>": 4217,
      "##åĢį</w>": 4218,
      "software</w>": 4219,
      "·´</w>": 4220,
      "İé</w>": 4221,
      "##µå</w>": 4222,
      "reverse</w>": 4223,
      "##æĬĹ": 4224,
      "timest": 4225,
      "##æĥ": 4226,
      "har": 4227,
      "éķ": 4228,
      "##åĢį": 4229,
      "occ": 4230,
      "Įæķ</w>": 4231,
      "##ving</w>": 4232,
      "æīį": 4233,
      "ªæĿ</w>": 4234,
      "¶¦</w>": 4235,
      "éĩįå</w>": 4236,
      "##itt": 4237,
      "##åŃĹç</w>": 4238,
      "##èŀį": 4239,
      "##enting</w>": 4240,
      "wid": 4241,
      "Ģæł</w>": 4242,
      "recip": 4243,
      "##ask</w>": 4244,
      "##æĪĸè</w>": 4245,
      "tasks</w>": 4246,
      "##éĨĴ": 4247,
      "##éķ": 4248,
      "complex</w>": 4249,
      "construc": 4250,
      "##èĨ": 4251,
      "hell": 4252,
      "##ok</w>": 4253,
      "##tination</w>": 4254,
      "¬¢</w>": 4255,
      "Ľç</w>": 4256,
      "éĩĩ": 4257,
      "msg</w>": 4258,
      "threshold</w>": 4259,
      "##æĲ": 4260,
      "##åİĨåı</w>": 4261,
      "bal": 4262,
      "¼±</w>": 4263,
      "handling</w>": 4264,
      "Įå</w>": 4265,
      "html</w>": 4266,
      "##åīĤ": 4267,
      "##ples</w>": 4268,
      "helps</w>": 4269,
      "°½</w>": 4270,
      "Ħæµĭ": 4271,
      "äºİä</w>": 4272,
      "µçĽĸ": 4273,
      "initialize</w>": 4274,
      "la": 4275,
      "##æĮĳ": 4276,
      "æŁĲäºĽ": 4277,
      "directly</w>": 4278,
      "°¨</w>": 4279,
      "df</w>": 4280,
      "##çļĦåĢ</w>": 4281,
      "combined</w>": 4282,
      "åĵªéĩĮ": 4283,
      "ep": 4284,
      "æľįåĬ</w>": 4285,
      "##äººå</w>": 4286,
      "txt</w>": 4287,
      "ĥç</w>": 4288,
      "after</w>": 4289,
      "åĲİå</w>": 4290,
      "est": 4291,
      "nin</w>": 4292,
      "impact</w>": 4293,
      "framework</w>": 4294,
      "pe": 4295,
      "ķæ</w>": 4296,
      "why</w>": 4297,
      "##togra": 4298,
      "®²</w>": 4299,
      "considered</w>": 4300,
      "##ĺå</w>": 4301,
      "##åĪĩ": 4302,
      "°¿</w>": 4303,
      "##flow</w>": 4304,
      "æĦŁ</w>": 4305,
      "unauth": 4306,
      "frequency</w>": 4307,
      "®³</w>": 4308,
      "handsh": 4309,
      "change</w>": 4310,
      "ser": 4311,
      "åįĩ": 4312,
      "incre": 4313,
      "##amp</w>": 4314,
      "space</w>": 4315,
      "èħ</w>": 4316,
      "##åıĳ</w>": 4317,
      "##æķĪ</w>": 4318,
      "##æĪĳä</w>": 4319,
      "synth": 4320,
      "##ation": 4321,
      "##tity</w>": 4322,
      "##sed</w>": 4323,
      "##ernel</w>": 4324,
      "conduc": 4325,
      "##atory</w>": 4326,
      "##çŃīäºİ</w>": 4327,
      "both</w>": 4328,
      "ŀéĻħä</w>": 4329,
      "123": 4330,
      "failed</w>": 4331,
      "login</w>": 4332,
      "nb": 4333,
      "21": 4334,
      "åĪĨåĪ</w>": 4335,
      "23</w>": 4336,
      "part</w>": 4337,
      "##åŁºåĽł": 4338,
      "##ropy</w>": 4339,
      "##gg": 4340,
      "´´</w>": 4341,
      "İæł</w>": 4342,
      "exfil": 4343,
      "##ģĩåĪ</w>": 4344,
      "##æłĩåĩĨ": 4345,
      "##set</w>": 4346,
      "##åİŁæĿ</w>": 4347,
      "points</w>": 4348,
      "##very</w>": 4349,
      "Łæ</w>": 4350,
      "çŃīå</w>": 4351,
      "Ĩæĥ</w>": 4352,
      "##erc": 4353,
      "Ńæĸĩ": 4354,
      "kernel</w>": 4355,
      "names</w>": 4356,
      "require</w>": 4357,
      "¡¾</w>": 4358,
      "##æķĻèĤ</w>": 4359,
      "Īæ</w>": 4360,
      "unauthorized</w>": 4361,
      "makes</w>": 4362,
      "âĪĴ</w>": 4363,
      "##åĨįæ</w>": 4364,
      "çĥ": 4365,
      "##eue</w>": 4366,
      "do</w>": 4367,
      "cryptogra": 4368,
      "åĮħåĲ</w>": 4369,
      "èı": 4370,
      "çķĮ": 4371,
      "çĥ</w>": 4372,
      "æĥ": 4373,
      "ķåħ</w>": 4374,
      "##urces</w>": 4375,
      "##åĬŁ": 4376,
      "##olog": 4377,
      "##æĮ</w>": 4378,
      "åİĨ": 4379,
      "192</w>": 4380,
      "handshake</w>": 4381,
      "alpha</w>": 4382,
      "agent</w>": 4383,
      "ľåľ</w>": 4384,
      "sample</w>": 4385,
      "##efully</w>": 4386,
      "##åĸ</w>": 4387,
      "autom": 4388,
      "ģåħĪ": 4389,
      "##éĩįæĸ</w>": 4390,
      "frag": 4391,
      "ľç</w>": 4392,
      "éļĲ": 4393,
      "thought</w>": 4394,
      "31</w>": 4395,
      "determined</w>": 4396,
      "ĥçļĦ": 4397,
      "establ": 4398,
      "actions</w>": 4399,
      "##ine": 4400,
      "äºĮæ</w>": 4401,
      "Īéĩįè</w>": 4402,
      "âĨĴ</w>": 4403,
      "ŃçļĦç</w>": 4404,
      "##ward</w>": 4405,
      "##åįĩ</w>": 4406,
      "Ĩçľĭ": 4407,
      "destination</w>": 4408,
      "Ĺåĩº": 4409,
      "##adg": 4410,
      "##æĭī": 4411,
      "bl": 4412,
      "Ĩæŀ</w>": 4413,
      "must</w>": 4414,
      "##to</w>": 4415,
      "įçī</w>": 4416,
      "il": 4417,
      "dir</w>": 4418,
      "çĺ</w>": 4419,
      "ªçĤ</w>": 4420,
      "Ńåı</w>": 4421,
      "éĩįè</w>": 4422,
      "##sing</w>": 4423,
      "##åĮĸè</w>": 4424,
      "thinking</w>": 4425,
      "##entials</w>": 4426,
      "organization</w>": 4427,
      "decision</w>": 4428,
      "audi": 4429,
      "##æĹłæ</w>": 4430,
      "prevent</w>": 4431,
      "Ļéĥ</w>": 4432,
      "Ĥæŀľå</w>": 4433,
      "ıåĳ</w>": 4434,
      "ºåº</w>": 4435,
      "##æĬĬ": 4436,
      "##ĵĿ": 4437,
      "©±</w>": 4438,
      "ĳæĬĢ": 4439,
      "##tered</w>": 4440,
      "assess": 4441,
      "transpar": 4442,
      "##name</w>": 4443,
      "##æº</w>": 4444,
      "##rc</w>": 4445,
      "åİŁå</w>": 4446,
      "scal": 4447,
      "##ade</w>": 4448,
      "alternative</w>": 4449,
      "trig": 4450,
      "##tivities</w>": 4451,
      "##åĩıå</w>": 4452,
      "ķåıĳ": 4453,
      "ĦåĲĪ": 4454,
      "įçŃīå</w>": 4455,
      "##uts</w>": 4456,
      "çİĩ</w>": 4457,
      "sentence</w>": 4458,
      "ab</w>": 4459,
      "takes</w>": 4460,
      "bi": 4461,
      "åĪĨåŃĲ": 4462,
      "coher": 4463,
      "éĩıå</w>": 4464,
      "ps": 4465,
      "##serv": 4466,
      "įåĪ</w>": 4467,
      "##roun": 4468,
      "##çļ</w>": 4469,
      "polic": 4470,
      "##çīĮ": 4471,
      "ÃĹ</w>": 4472,
      "ºäºĨ": 4473,
      "been</w>": 4474,
      "æĦıä</w>": 4475,
      "engine</w>": 4476,
      "simplified</w>": 4477,
      "åĲĪ</w>": 4478,
      "activities</w>": 4479,
      "local": 4480,
      "##ze</w>": 4481,
      "ªéĢīé</w>": 4482,
      "##éļ</w>": 4483,
      "##scal": 4484,
      "##eline</w>": 4485,
      "population</w>": 4486,
      "##ive</w>": 4487,
      "##æľĭåı": 4488,
      "##ynam": 4489,
      "åĮº</w>": 4490,
      "##ĹŃ": 4491,
      "##èģĶç</w>": 4492,
      "åĨįä</w>": 4493,
      "æľªæĿ</w>": 4494,
      "indi": 4495,
      "measures</w>": 4496,
      "throughout</w>": 4497,
      "##Ĳĥ</w>": 4498,
      "performance</w>": 4499,
      "##èģĶ": 4500,
      "åĶ</w>": 4501,
      "##åĪĹ</w>": 4502,
      "##èĻ</w>": 4503,
      "##izer</w>": 4504,
      "æĪĸå</w>": 4505,
      "łçļĦ": 4506,
      "åĪĨéĴŁ": 4507,
      "##ick": 4508,
      "##Ĵç</w>": 4509,
      "##bilities</w>": 4510,
      "accuracy</w>": 4511,
      "tre": 4512,
      "æĪĳçļĦ": 4513,
      "åĲİæĺ</w>": 4514,
      "łæĥ</w>": 4515,
      "invalid</w>": 4516,
      "ªæĺ</w>": 4517,
      "åĦ</w>": 4518,
      "##åĴĮæ</w>": 4519,
      "ºæŃ</w>": 4520,
      "incid": 4521,
      "åĵ</w>": 4522,
      "directory</w>": 4523,
      "æķĻèĤ</w>": 4524,
      "anomalies</w>": 4525,
      "åĲĮ</w>": 4526,
      "##æĺĵ": 4527,
      "ĨåŁŁ</w>": 4528,
      "ĭåĬ</w>": 4529,
      "åŃĺ": 4530,
      "åĩı</w>": 4531,
      "hello</w>": 4532,
      "day</w>": 4533,
      "¢°</w>": 4534,
      "##alth": 4535,
      "åıĬå</w>": 4536,
      "##ections</w>": 4537,
      "nus": 4538,
      "åģļ": 4539,
      "##äºĭé</w>": 4540,
      "##äºİå</w>": 4541,
      "##Ĺç</w>": 4542,
      "mim": 4543,
      "¬§</w>": 4544,
      "åĲĪä</w>": 4545,
      "basic</w>": 4546,
      "craf": 4547,
      "éĢł": 4548,
      "įæĥħåĨµ</w>": 4549,
      "ĥæ</w>": 4550,
      "activity</w>": 4551,
      "##åĵªäºĽ": 4552,
      "##ĤçĽ</w>": 4553,
      "éĢĲ": 4554,
      "##ak": 4555,
      "##iples</w>": 4556,
      "168</w>": 4557,
      "principles</w>": 4558,
      "distribution</w>": 4559,
      "aim</w>": 4560,
      "°¼</w>": 4561,
      "param</w>": 4562,
      "##ear": 4563,
      "ŀéķ</w>": 4564,
      "uniqu": 4565,
      "##words</w>": 4566,
      "##įè</w>": 4567,
      "æłĩ</w>": 4568,
      "éĢĤçĶ</w>": 4569,
      "##æĦıè</w>": 4570,
      "ºåºı": 4571,
      "profile</w>": 4572,
      "ĺåħĪ": 4573,
      "ºçĤ</w>": 4574,
      "##ense</w>": 4575,
      "are": 4576,
      "æĵįä</w>": 4577,
      "carefully</w>": 4578,
      "çļĦæĿ</w>": 4579,
      "İèĢĮ": 4580,
      "##æŁ": 4581,
      "çłģ": 4582,
      "äººæķ</w>": 4583,
      "##æµĭè</w>": 4584,
      "timestamp</w>": 4585,
      "##çļĦæĥħåĨµ</w>": 4586,
      "##shell</w>": 4587,
      "³°</w>": 4588,
      "found": 4589,
      "##atch</w>": 4590,
      "åĳĬ": 4591,
      "diction": 4592,
      "designed</w>": 4593,
      "temper": 4594,
      "dynam": 4595,
      "##ªĴä</w>": 4596,
      "ŀåĬł</w>": 4597,
      "mean</w>": 4598,
      "Ģåı</w>": 4599,
      "avail": 4600,
      "##äºİä</w>": 4601,
      "##çŃ</w>": 4602,
      "inference</w>": 4603,
      "cost</w>": 4604,
      "##åĮĸä</w>": 4605,
      "suspicious</w>": 4606,
      "operations</w>": 4607,
      "addressed</w>": 4608,
      "éĢŁåº</w>": 4609,
      "Ģé</w>": 4610,
      "åŁºç</w>": 4611,
      "ļæľī": 4612,
      "##alized</w>": 4613,
      "credentials</w>": 4614,
      "discus": 4615,
      "ĢæĿ</w>": 4616,
      "being</w>": 4617,
      "controlled</w>": 4618,
      "##up": 4619,
      "sched": 4620,
      "ŃçļĦå</w>": 4621,
      "average</w>": 4622,
      "mode</w>": 4623,
      "domains</w>": 4624,
      "##åĲĳéĩı": 4625,
      "ģåĪĨ": 4626,
      "##çļĦæŃ</w>": 4627,
      "hum": 4628,
      "ģæī</w>": 4629,
      "subject</w>": 4630,
      "save</w>": 4631,
      "´¦</w>": 4632,
      "goo": 4633,
      "Ĩåľ</w>": 4634,
      "ncon": 4635,
      "##åĩĨ</w>": 4636,
      "person": 4637,
      "Ĺæĺ</w>": 4638,
      "relevance</w>": 4639,
      "123</w>": 4640,
      "gadg": 4641,
      "vol": 4642,
      "##dro": 4643,
      "concise</w>": 4644,
      "æĬĺ": 4645,
      "subprocess</w>": 4646,
      "##amb": 4647,
      "soph": 4648,
      "ĪçŃĶæ</w>": 4649,
      "displ": 4650,
      "determine</w>": 4651,
      "##itim": 4652,
      "so</w>": 4653,
      "develop</w>": 4654,
      "##wit": 4655,
      "æµĭ": 4656,
      "tools</w>": 4657,
      "##èĢĥ</w>": 4658,
      "##utes</w>": 4659,
      "åįĥç</w>": 4660,
      "åĢĻéľĢè</w>": 4661,
      "powershell</w>": 4662,
      "æŁ": 4663,
      "compro": 4664,
      "responses</w>": 4665,
      "validity</w>": 4666,
      "cm</w>": 4667,
      "tokens</w>": 4668,
      "##track</w>": 4669,
      "transaction</w>": 4670,
      "18": 4671,
      "##row": 4672,
      "labels</w>": 4673,
      "prime</w>": 4674,
      "distance</w>": 4675,
      "ŀæĹ</w>": 4676,
      "explanations</w>": 4677,
      "##æĪĲå</w>": 4678,
      "Ĩåº</w>": 4679,
      "sophistic": 4680,
      "heur": 4681,
      "transparent</w>": 4682,
      "##æºĲ</w>": 4683,
      "çĵ</w>": 4684,
      "sorted</w>": 4685,
      "´«</w>": 4686,
      "##äºĭ</w>": 4687,
      "iterative</w>": 4688,
      "çŃĸçķ</w>": 4689,
      "default</w>": 4690,
      "åĤ</w>": 4691,
      "stud": 4692,
      "ģèĢĥèĻĳçĶ</w>": 4693,
      "email": 4694,
      "åħŃ": 4695,
      "wa": 4696,
      "scores</w>": 4697,
      "obj": 4698,
      "æĦı</w>": 4699,
      "ideal</w>": 4700,
      "åĬłå</w>": 4701,
      "äººç</w>": 4702,
      "quantity</w>": 4703,
      "technique</w>": 4704,
      "Ĥæŀľæ</w>": 4705,
      "entropy</w>": 4706,
      "individ": 4707,
      "ĻéĩĮçļĦ": 4708,
      "çĹħ</w>": 4709,
      "æŀĦ": 4710,
      "legitim": 4711,
      "##åıįåºĶ</w>": 4712,
      "critically</w>": 4713,
      "smtp</w>": 4714,
      "##èıĮ": 4715,
      "##io</w>": 4716,
      "foundation</w>": 4717,
      "æĪĺ": 4718,
      "##äººä</w>": 4719,
      "##ĻĮ": 4720,
      "##eth": 4721,
      "synthes": 4722,
      "##ıç</w>": 4723,
      "##åĽŀçŃĶ": 4724,
      "Īåı</w>": 4725,
      "valueerror</w>": 4726,
      "form</w>": 4727,
      "æĻºèĥ</w>": 4728,
      "graph</w>": 4729,
      "çļĦçĽ</w>": 4730,
      "document</w>": 4731,
      "ıåĢ</w>": 4732,
      "çīĩ</w>": 4733,
      "çļĦåĢ</w>": 4734,
      "provided</w>": 4735,
      "##rics</w>": 4736,
      "pen": 4737,
      "##oice</w>": 4738,
      "72</w>": 4739,
      "##iting</w>": 4740,
      "making</w>": 4741,
      "capture</w>": 4742,
      "cosÎ</w>": 4743,
      "17": 4744,
      "##æĥħæĦŁ": 4745,
      "##inement</w>": 4746,
      "possibilities</w>": 4747,
      "Ĥæŀľè</w>": 4748,
      "##æŁĲäºĽ": 4749,
      "pand": 4750,
      "Ĥåı</w>": 4751,
      "åĲĪè</w>": 4752,
      "æŁĵ": 4753,
      "ļçĶ</w>": 4754,
      "Łç</w>": 4755,
      "##æłĩ</w>": 4756,
      "refinement</w>": 4757,
      "ĿçķĻ": 4758,
      "ĮåĬ</w>": 4759,
      "ind": 4760,
      "coherent</w>": 4761,
      "##çĹĩçĬ</w>": 4762,
      "solved</w>": 4763,
      "ħæĺ</w>": 4764,
      "##pri": 4765,
      "successful</w>": 4766,
      "sever": 4767,
      "tack": 4768,
      "deliber": 4769,
      "job</w>": 4770,
      "processes</w>": 4771,
      "queue</w>": 4772,
      "åĴĮæ</w>": 4773,
      "##ĥèĻĳ</w>": 4774,
      "éĴ</w>": 4775,
      "##çľŁ": 4776,
      "ĭé</w>": 4777,
      "contract</w>": 4778,
      "##seud": 4779,
      "ĥé</w>": 4780,
      "åĨįæ</w>": 4781,
      "running</w>": 4782,
      "lamb": 4783,
      "##åĿĩ": 4784,
      "600</w>": 4785,
      "backtrack</w>": 4786,
      "br": 4787,
      "unique</w>": 4788,
      "æĦıäºĭé</w>": 4789,
      "tex": 4790,
      "ĵæĿ": 4791,
      "deliberate</w>": 4792,
      "åıįåºĶ": 4793,
      "logically</w>": 4794,
      "lik": 4795,
      "æºĲ</w>": 4796,
      "çħ</w>": 4797,
      "##Ķå</w>": 4798,
      "åĲĪæĿ</w>": 4799,
      "##éģĹæ</w>": 4800,
      "synthesize</w>": 4801,
      "ĭéĻ": 4802,
      "sophisticated</w>": 4803,
      "lay": 4804,
      "plug</w>": 4805,
      "éĩĮè</w>": 4806,
      "##åħĭ": 4807,
      "ng": 4808,
      "##ry</w>": 4809,
      "legitimate</w>": 4810,
      "##æģ": 4811,
      "ĵx</w>": 4812,
      "develop": 4813,
      "Ŀæĺ</w>": 4814,
      "tackling</w>": 4815,
      "##omp": 4816,
      "##çīĩ": 4817,
      "ed": 4818,
      "sql": 4819,
      "remote</w>": 4820,
      "explanatory</w>": 4821,
      "ºåħ</w>": 4822,
      "ĢçĤ</w>": 4823,
      "##æµģç</w>": 4824,
      "compan": 4825,
      "¤¼</w>": 4826,
      "preprocess</w>": 4827,
      "##ants</w>": 4828,
      "åĲĳä</w>": 4829,
      "èĢĮéĿŀ": 4830,
      "##æĢĿè</w>": 4831,
      "##ľå</w>": 4832,
      "fit</w>": 4833,
      "exploitation</w>": 4834,
      "lambda</w>": 4835,
      "äººå</w>": 4836,
      "expected</w>": 4837,
      "åĨħ</w>": 4838,
      "įåħ</w>": 4839,
      "##æľīæķĪ": 4840,
      "ĦåĲĪ</w>": 4841,
      "éĶĢ": 4842,
      "æµĭè</w>": 4843,
      "mut": 4844,
      "##25</w>": 4845,
      "çĲĨä</w>": 4846,
      "æĮ</w>": 4847,
      "ĢæĶ</w>": 4848,
      "##rap": 4849,
      "##åľº</w>": 4850,
      "high": 4851,
      "ģæł</w>": 4852,
      "shape</w>": 4853,
      "çķ</w>": 4854,
      "Įé</w>": 4855,
      "åħįä</w>": 4856,
      "´¥</w>": 4857,
      "##bu": 4858,
      "##ules</w>": 4859,
      "evade</w>": 4860,
      "cro": 4861,
      "##ric</w>": 4862,
      "mac</w>": 4863,
      "##ights</w>": 4864,
      "hi": 4865,
      "pi": 4866,
      "receiv": 4867,
      "##ables</w>": 4868,
      "ĺæĸ</w>": 4869,
      "##eli": 4870,
      "threading</w>": 4871,
      "åŁºåĽł": 4872,
      "recommend": 4873,
      "##åĩºä</w>": 4874,
      "éĶĻ": 4875,
      "zer": 4876,
      "åİĨåı</w>": 4877,
      "##actions</w>": 4878,
      "Ļæķ</w>": 4879,
      "pseud": 4880,
      "store</w>": 4881,
      "æĸŃ</w>": 4882,
      "ĩåº</w>": 4883,
      "##sa</w>": 4884,
      "æĦıè</w>": 4885,
      "##èµĦæºĲ": 4886,
      "##æľŁ</w>": 4887,
      "mechanisms</w>": 4888,
      "Ħè": 4889,
      "##tics</w>": 4890,
      "energ": 4891,
      "ĤéľĢæ</w>": 4892,
      "ĵçİ</w>": 4893,
      "æº</w>": 4894,
      "##éĢĴ": 4895,
      "##ress</w>": 4896,
      "ķåı</w>": 4897,
      "åĿĹ": 4898,
      "threats</w>": 4899,
      "äººä</w>": 4900,
      "##èħ": 4901,
      "##çĶµåŃĲ": 4902,
      "æİĴéĻ</w>": 4903,
      "modify</w>": 4904,
      "##tices</w>": 4905,
      "monitor</w>": 4906,
      "ĭåı</w>": 4907,
      "strategy</w>": 4908,
      "aff": 4909,
      "webs": 4910,
      "ĺåĮĸ</w>": 4911,
      "åįĥåħĭ</w>": 4912,
      "ĤçĶ</w>": 4913,
      "äºĨå</w>": 4914,
      "dictionary</w>": 4915,
      "łæĴ": 4916,
      "exerc": 4917,
      "##çĿ</w>": 4918,
      "æĥħåĨµ": 4919,
      "##èĹ": 4920,
      "¥°</w>": 4921,
      "##åĮĸå</w>": 4922,
      "##etical</w>": 4923,
      "çĶµåŃĲ": 4924,
      "improve</w>": 4925,
      "##åĲĮæĹ</w>": 4926,
      "ĢåįĬ</w>": 4927,
      "·³</w>": 4928,
      "26</w>": 4929,
      "changes</w>": 4930,
      "ªéĺ</w>": 4931,
      "metrics</w>": 4932,
      "įé</w>": 4933,
      "cdot</w>": 4934,
      "##round</w>": 4935,
      "fur": 4936,
      "éĩıåŃĲ": 4937,
      "verify</w>": 4938,
      "stor": 4939,
      "«¥</w>": 4940,
      "char</w>": 4941,
      "åħģè</w>": 4942,
      "##umer": 4943,
      "validate</w>": 4944,
      "ĥæİ</w>": 4945,
      "##key</w>": 4946,
      "##åİŁé</w>": 4947,
      "´¾</w>": 4948,
      "ut": 4949,
      "ŀçĶ</w>": 4950,
      "##ecting</w>": 4951,
      "åĪĴ": 4952,
      "##rm</w>": 4953,
      "temperature</w>": 4954,
      "classif": 4955,
      "åıĤæķ</w>": 4956,
      "##den</w>": 4957,
      "Łçī</w>": 4958,
      "sending</w>": 4959,
      "engine": 4960,
      "timeout</w>": 4961,
      "çľĭæĿ</w>": 4962,
      "åįģä</w>": 4963,
      "minim": 4964,
      "äºİè</w>": 4965,
      "æĳ": 4966,
      "Ĺæĸ</w>": 4967,
      "##çľĭèµ</w>": 4968,
      "çĤ": 4969,
      "æĪı": 4970,
      "templ": 4971,
      "Łæľī": 4972,
      "æĮĳ": 4973,
      "ıåı</w>": 4974,
      "##çľ</w>": 4975,
      "ĵæŀĦæ</w>": 4976,
      "åĪĹ</w>": 4977,
      "äºĭä</w>": 4978,
      "explain</w>": 4979,
      "##24</w>": 4980,
      "operation</w>": 4981,
      "ļæł</w>": 4982,
      "##fier</w>": 4983,
      "vir": 4984,
      "es": 4985,
      "loss</w>": 4986,
      "bypass</w>": 4987,
      "İåħ</w>": 4988,
      "æłĩåĩĨ": 4989,
      "##ws</w>": 4990,
      "sinÎ</w>": 4991,
      "##Īè</w>": 4992,
      "##op</w>": 4993,
      "##arge</w>": 4994,
      "##ache</w>": 4995,
      "ĤçĤ</w>": 4996,
      "##ances</w>": 4997,
      "##éĻĲåĪ</w>": 4998,
      "##åİŁåĽł</w>": 4999,
      "bg": 5000,
      "ıçº</w>": 5001,
      "adap": 5002,
      "list": 5003,
      "implications</w>": 5004,
      "incor": 5005,
      "##īºæľ</w>": 5006,
      "byte</w>": 5007,
      "²³</w>": 5008,
      "legal</w>": 5009,
      "##of</w>": 5010,
      "flags</w>": 5011,
      "rad": 5012,
      "##çĵ</w>": 5013,
      "pandas</w>": 5014,
      "authorization</w>": 5015,
      "products</w>": 5016,
      "åİŁä</w>": 5017,
      "important</w>": 5018,
      "##ľè</w>": 5019,
      "##åĮħåĲ</w>": 5020,
      "ren": 5021,
      "##åıĤä</w>": 5022,
      "anomaly</w>": 5023,
      "##æĮģç</w>": 5024,
      "##èĦ</w>": 5025,
      "considerations</w>": 5026,
      "##ok": 5027,
      "##orical</w>": 5028,
      "heuristic</w>": 5029,
      "åħĪç</w>": 5030,
      "##éĶĢ": 5031,
      "decrypted</w>": 5032,
      "##Ľå</w>": 5033,
      "chun": 5034,
      "ħåĬ</w>": 5035,
      "nex": 5036,
      "æĪĲ</w>": 5037,
      "##tings</w>": 5038,
      "##net</w>": 5039,
      "##ility</w>": 5040,
      "##åĦ</w>": 5041,
      "##æľīåħ</w>": 5042,
      "Ĥæŀľé</w>": 5043,
      "ŀæĢ</w>": 5044,
      "ŃçļĦæ</w>": 5045,
      "##ta</w>": 5046,
      "##æĪĸä</w>": 5047,
      "normal</w>": 5048,
      "##45</w>": 5049,
      "æııè</w>": 5050,
      "prim": 5051,
      "senti": 5052,
      "##eness</w>": 5053,
      "##éļı": 5054,
      "åıĳçİ</w>": 5055,
      "##ific": 5056,
      "ic": 5057,
      "##çĭ": 5058,
      "##åŁ</w>": 5059,
      "local</w>": 5060,
      "ĻåĩºçļĦ": 5061,
      "dst</w>": 5062,
      "assume</w>": 5063,
      "vector</w>": 5064,
      "åĲİéĿ</w>": 5065,
      "##åĲİçļĦ": 5066,
      "sort</w>": 5067,
      "èĢĥ": 5068,
      "shared</w>": 5069,
      "experi": 5070,
      "##åĳĺ</w>": 5071,
      "energy</w>": 5072,
      "æĭŁ": 5073,
      "##åĩıåİ</w>": 5074,
      "2000</w>": 5075,
      "çŃĸ</w>": 5076,
      "¢¯</w>": 5077,
      "balance</w>": 5078,
      "##çıŃ": 5079,
      "ļæľŁ": 5080,
      "##äºĽ</w>": 5081,
      "99</w>": 5082,
      "##na</w>": 5083,
      "field</w>": 5084,
      "##éĩıåŃĲ": 5085,
      "åĽŀå</w>": 5086,
      "èĽĭçĻ</w>": 5087,
      "my": 5088,
      "éĢ</w>": 5089,
      "##essi": 5090,
      "ĨèĬĤ</w>": 5091,
      "dri": 5092,
      "##val</w>": 5093,
      "incident</w>": 5094,
      "##ĳå</w>": 5095,
      "èĢĮè</w>": 5096,
      "ŁçļĦ": 5097,
      "large</w>": 5098,
      "##éĩĳå</w>": 5099,
      "decryption</w>": 5100,
      "¤«</w>": 5101,
      "##99": 5102,
      "Ħæĺ</w>": 5103,
      "article</w>": 5104,
      "ext": 5105,
      "media</w>": 5106,
      "ĤéĿ</w>": 5107,
      "åĴĮæĺ</w>": 5108,
      "play": 5109,
      "effectiv": 5110,
      "éĴĪå</w>": 5111,
      "authentication</w>": 5112,
      "##åĲİä</w>": 5113,
      "best</w>": 5114,
      "privileg": 5115,
      "sym": 5116,
      "div</w>": 5117,
      "partic": 5118,
      "take</w>": 5119,
      "įæĿĤ</w>": 5120,
      "æľį": 5121,
      "emails</w>": 5122,
      "contin": 5123,
      "##odes</w>": 5124,
      "member</w>": 5125,
      "plan</w>": 5126,
      "recipient</w>": 5127,
      "äºĴä</w>": 5128,
      "»©</w>": 5129,
      "##rid</w>": 5130,
      "##ma</w>": 5131,
      "##ºæ</w>": 5132,
      "stream</w>": 5133,
      "æĪĸä</w>": 5134,
      "manip": 5135,
      "active</w>": 5136,
      "##oup</w>": 5137,
      "##çİĩä</w>": 5138,
      "##xim": 5139,
      "##åįĬå</w>": 5140,
      "##åĵģ</w>": 5141,
      "src</w>": 5142,
      "æıĲé</w>": 5143,
      "##çģµ": 5144,
      "##łå</w>": 5145,
      "group</w>": 5146,
      "##æĮĩå</w>": 5147,
      "##æľªæĿ</w>": 5148,
      "æĪĸèĢħæľīæ</w>": 5149,
      "during</w>": 5150,
      "ĩçĶ</w>": 5151,
      "##ently</w>": 5152,
      "£®</w>": 5153,
      "models</w>": 5154,
      "ĺæķĪ": 5155,
      "åıªæĺ</w>": 5156,
      "assi": 5157,
      "sugg": 5158,
      "success</w>": 5159,
      "ĹçļĦè</w>": 5160,
      "##ĩĥ": 5161,
      "effici": 5162,
      "²¿</w>": 5163,
      "èģĶç</w>": 5164,
      "paylo": 5165,
      "ctypes</w>": 5166,
      "##phy</w>": 5167,
      "work": 5168,
      "case</w>": 5169,
      "æħ</w>": 5170,
      "ģé</w>": 5171,
      "apt</w>": 5172,
      "##æĥħç</w>": 5173,
      "dig": 5174,
      "##īå</w>": 5175,
      "signific": 5176,
      "èĩªåĬ</w>": 5177,
      "specified</w>": 5178,
      "mathrm</w>": 5179,
      "##çĶŁäº</w>": 5180,
      "detailed</w>": 5181,
      "ıé</w>": 5182,
      "##åİŁä</w>": 5183,
      "##iff</w>": 5184,
      "æĮĩå</w>": 5185,
      "æĪĸèĢħçĶ</w>": 5186,
      "randint</w>": 5187,
      "##izing</w>": 5188,
      "łæ</w>": 5189,
      "##éĢĲ": 5190,
      "Ģéģį</w>": 5191,
      "generation</w>": 5192,
      "èµĦæºĲ": 5193,
      "Ħéĺ</w>": 5194,
      "##åįĬ": 5195,
      "jav": 5196,
      "sur": 5197,
      "##hs</w>": 5198,
      "##entially</w>": 5199,
      "ip": 5200,
      "err": 5201,
      "at": 5202,
      "post": 5203,
      "generator</w>": 5204,
      "payment</w>": 5205,
      "##åĪĿ": 5206,
      "çľ</w>": 5207,
      "ıæĿ</w>": 5208,
      "##host</w>": 5209,
      "##éĶĻ</w>": 5210,
      "##Ĺäº</w>": 5211,
      "column</w>": 5212,
      "encoding</w>": 5213,
      "checks</w>": 5214,
      "##mp</w>": 5215,
      "##ins</w>": 5216,
      "##bol</w>": 5217,
      "nre": 5218,
      "additional</w>": 5219,
      "##encies</w>": 5220,
      "##çª": 5221,
      "approach</w>": 5222,
      "responsi": 5223,
      "##tor</w>": 5224,
      "##point</w>": 5225,
      "äºĶ</w>": 5226,
      "##hand": 5227,
      "##anning</w>": 5228,
      "shell</w>": 5229,
      "##ements</w>": 5230,
      "ĵåĲĪ</w>": 5231,
      "åĽłç</w>": 5232,
      "çĲĨå</w>": 5233,
      "height</w>": 5234,
      "exc": 5235,
      "åıĤä</w>": 5236,
      "##éĩıä</w>": 5237,
      "ĤæŀľçĶ</w>": 5238,
      "##åĮºåĪ</w>": 5239,
      "extrac": 5240,
      "concept</w>": 5241,
      "##app</w>": 5242,
      "than</w>": 5243,
      "56</w>": 5244,
      "##ead</w>": 5245,
      "åŁ</w>": 5246,
      "##åĩºè</w>": 5247,
      "æĸĩä</w>": 5248,
      "Ģåħ</w>": 5249,
      "åĮºéĹ</w>": 5250,
      "##xx": 5251,
      "tri": 5252,
      "fut": 5253,
      "##èµĽ": 5254,
      "##acc": 5255,
      "Ĺé</w>": 5256,
      "##åĲĮä</w>": 5257,
      "##æµĵåº</w>": 5258,
      "##ders</w>": 5259,
      "åºĶå</w>": 5260,
      "spoo": 5261,
      "match</w>": 5262,
      "template</w>": 5263,
      "åīĤ": 5264,
      "##odel</w>": 5265,
      "ĩæķ</w>": 5266,
      "##åķ</w>": 5267,
      "possible</w>": 5268,
      "ge": 5269,
      "##æĩ": 5270,
      "pad": 5271,
      "company</w>": 5272,
      "ec": 5273,
      "åıªè</w>": 5274,
      "##eta</w>": 5275,
      "ÏĢ": 5276,
      "params</w>": 5277,
      "##åĪĨåĪ</w>": 5278,
      "çŁĽçĽ</w>": 5279,
      "äºİæ</w>": 5280,
      "##view</w>": 5281,
      "æīįèĥ</w>": 5282,
      "assuming</w>": 5283,
      "##puts</w>": 5284,
      "¢¨</w>": 5285,
      "##æıĲåįĩ": 5286,
      "åĪĴ</w>": 5287,
      "įåľ</w>": 5288,
      "nx</w>": 5289,
      "layer</w>": 5290,
      "valid</w>": 5291,
      "services</w>": 5292,
      "history</w>": 5293,
      "last</w>": 5294,
      "dict</w>": 5295,
      "##df</w>": 5296,
      "attrib": 5297,
      "events</w>": 5298,
      "èĦ</w>": 5299,
      "ŀäºī": 5300,
      "desc": 5301,
      "##åŃĹæ</w>": 5302,
      "ker": 5303,
      "##ental</w>": 5304,
      "æĥħåĨµ</w>": 5305,
      "##ensive</w>": 5306,
      "##æİī": 5307,
      "çģµ": 5308,
      "åĲĥ": 5309,
      "##éª</w>": 5310,
      "Ńæĺ</w>": 5311,
      "åħįçĸ</w>": 5312,
      "ĵåĬ</w>": 5313,
      "ºåı</w>": 5314,
      "¦¹</w>": 5315,
      "argument</w>": 5316,
      "##sec": 5317,
      "##åĴ</w>": 5318,
      "nuser</w>": 5319,
      "įçļĦ": 5320,
      "flask</w>": 5321,
      "ĭçļĦè</w>": 5322,
      "##æłĳ": 5323,
      "ªåŃ</w>": 5324,
      "æĥħç</w>": 5325,
      "##åįģ": 5326,
      "##åĪĽæĸ</w>": 5327,
      "¥¥</w>": 5328,
      "äºĮå</w>": 5329,
      "loop</w>": 5330,
      "##alization</w>": 5331,
      "sentiment</w>": 5332,
      "##uments</w>": 5333,
      "åĮĸåŃ</w>": 5334,
      "nin": 5335,
      "andro": 5336,
      "show</w>": 5337,
      "war": 5338,
      "ability</w>": 5339,
      "seg": 5340,
      "##ause</w>": 5341,
      "¼¸</w>": 5342,
      "æľº</w>": 5343,
      "simil": 5344,
      "identified</w>": 5345,
      "bob</w>": 5346,
      "ĭçļĦå</w>": 5347,
      "##īç</w>": 5348,
      "potentially</w>": 5349,
      "æĬĢ": 5350,
      "##çŃīäºİ": 5351,
      "įæĥħåĨµ": 5352,
      "##ve": 5353,
      "##éº</w>": 5354,
      "åĪĨæķ</w>": 5355,
      "##éĩį</w>": 5356,
      "##Ĳè</w>": 5357,
      "permission</w>": 5358,
      "æľīéģĹæ</w>": 5359,
      "chall": 5360,
      "prior": 5361,
      "reduce</w>": 5362,
      "##æľĪ</w>": 5363,
      "´²</w>": 5364,
      "##éĢĤ</w>": 5365,
      "##åĲİç</w>": 5366,
      "parser</w>": 5367,
      "łæĦŁ": 5368,
      "##ators</w>": 5369,
      "##ļèĩ</w>": 5370,
      "min</w>": 5371,
      "ow": 5372,
      "alice</w>": 5373,
      "ĦçļĦ": 5374,
      "feed": 5375,
      "##hi": 5376,
      "area</w>": 5377,
      "èĢģ": 5378,
      "refl": 5379,
      "lower</w>": 5380,
      "éľ": 5381,
      "ĸé</w>": 5382,
      "åıª</w>": 5383,
      "240</w>": 5384,
      "plat": 5385,
      "arp</w>": 5386,
      "åºĵ": 5387,
      "çļĦæł</w>": 5388,
      "monitoring</w>": 5389,
      "æĬĳåĪ</w>": 5390,
      "įåĲĪ": 5391,
      "éľ</w>": 5392,
      "ĺé</w>": 5393,
      "##æĪĸç</w>": 5394,
      "éģĵå</w>": 5395,
      "quad</w>": 5396,
      "##åħŃ": 5397,
      "math</w>": 5398,
      "æľīäºĽ": 5399,
      "åĳĬ</w>": 5400,
      "audio</w>": 5401,
      "##åĿĹ": 5402,
      "##éĩĩ": 5403,
      "##åĽłä</w>": 5404,
      "ĻäºĽä</w>": 5405,
      "##istr": 5406,
      "penet": 5407,
      "##åĴĮb": 5408,
      "width</w>": 5409,
      "##ump</w>": 5410,
      "Ĭæ</w>": 5411,
      "map</w>": 5412,
      "åĴ</w>": 5413,
      "provides</w>": 5414,
      "##do": 5415,
      "understand</w>": 5416,
      "åĪĨæĺ</w>": 5417,
      "æĪĸèĢħé</w>": 5418,
      "##ogra": 5419,
      "evas": 5420,
      "##æĦı</w>": 5421,
      "ln</w>": 5422,
      "assessment</w>": 5423,
      "īåıĬåĪ</w>": 5424,
      "##äºĴåĬ</w>": 5425,
      "çĶŁæĪĲ": 5426,
      "##æĪĳè</w>": 5427,
      "sqlite</w>": 5428,
      "npl": 5429,
      "##ff</w>": 5430,
      "requires</w>": 5431,
      "åĢĻå</w>": 5432,
      "##èģĮä</w>": 5433,
      "ĵæĹ</w>": 5434,
      "weather</w>": 5435,
      "##kit</w>": 5436,
      "##æĤ": 5437,
      "offset</w>": 5438,
      "penetration</w>": 5439,
      "##analy": 5440,
      "##ology</w>": 5441,
      "project</w>": 5442,
      "retrieve</w>": 5443,
      "##åıĺåĮĸ": 5444,
      "long</w>": 5445,
      "stock</w>": 5446,
      "members</w>": 5447,
      "äºļ": 5448,
      "åŃĲä</w>": 5449,
      "æŀĦå</w>": 5450,
      "##æľº</w>": 5451,
      "enumer": 5452,
      "employee</w>": 5453,
      "ter": 5454,
      "##arly</w>": 5455,
      "ļåĬ</w>": 5456,
      "##æĸĩ</w>": 5457,
      "##ai": 5458,
      "explanation</w>": 5459,
      "ķçļĦ": 5460,
      "##éĺŁ": 5461,
      "##æĬĺ": 5462,
      "##ind</w>": 5463,
      "##åıĺå</w>": 5464,
      "ĵåľ</w>": 5465,
      "redis</w>": 5466,
      "éĩįçĤ</w>": 5467,
      "strategies</w>": 5468,
      "available</w>": 5469,
      "æģ": 5470,
      "##stance</w>": 5471,
      "##list</w>": 5472,
      "##æŃ": 5473,
      "çľĭèµ</w>": 5474,
      "demonst": 5475,
      "åĨĻä</w>": 5476,
      "##ªè</w>": 5477,
      "##æĺİ</w>": 5478,
      "çłģ</w>": 5479,
      "µå</w>": 5480,
      "æĺİä</w>": 5481,
      "##éĨĴçĶ</w>": 5482,
      "##lan</w>": 5483,
      "ģæĺİ": 5484,
      "æľīæķĪ": 5485,
      "æľīæĺİç</w>": 5486,
      "simulates</w>": 5487,
      "signal</w>": 5488,
      "ªæĢ</w>": 5489,
      "éĻĦ": 5490,
      "éĺµ": 5491,
      "##ches</w>": 5492,
      "work</w>": 5493,
      "doe</w>": 5494,
      "route</w>": 5495,
      "saf": 5496,
      "top": 5497,
      "##ud</w>": 5498,
      "ĳåĳ</w>": 5499,
      "##ÏĢ</w>": 5500,
      "feedback</w>": 5501,
      "åıĺ</w>": 5502,
      "occurr": 5503,
      "##åıĳçİ</w>": 5504,
      "further</w>": 5505,
      "ºæł</w>": 5506,
      "management</w>": 5507,
      "ĤæĢ</w>": 5508,
      "dot</w>": 5509,
      "æĮīçħ</w>": 5510,
      "uni": 5511,
      "exercise</w>": 5512,
      "variable</w>": 5513,
      "##çĲĨæ</w>": 5514,
      "stack</w>": 5515,
      "seed</w>": 5516,
      "åĮĸç</w>": 5517,
      "##ex</w>": 5518,
      "due</w>": 5519,
      "æŀ</w>": 5520,
      "Ģæµĭ</w>": 5521,
      "æľīæıĲåĪ</w>": 5522,
      "##èį": 5523,
      "ŁéĢļ": 5524,
      "ship": 5525,
      "non": 5526,
      "##åĪĨéĴ": 5527,
      "radi": 5528,
      "exch": 5529,
      "intell": 5530,
      "generates</w>": 5531,
      "sock</w>": 5532,
      "successfully</w>": 5533,
      "800</w>": 5534,
      "weight</w>": 5535,
      "ĵa</w>": 5536,
      "pip": 5537,
      "visu": 5538,
      "parameter</w>": 5539,
      "nat": 5540,
      "delay</w>": 5541,
      "äºİç</w>": 5542,
      "fetch</w>": 5543,
      "algorithms</w>": 5544,
      "sys</w>": 5545,
      "attempt</w>": 5546,
      "ļæķ</w>": 5547,
      "ŀæķ</w>": 5548,
      "raw</w>": 5549,
      "networ": 5550,
      "##ton</w>": 5551,
      "##åĪĻ</w>": 5552,
      "func</w>": 5553,
      "hypothetical</w>": 5554,
      "standard</w>": 5555,
      "##åīĤ</w>": 5556,
      "program</w>": 5557,
      "##çĹĩ</w>": 5558,
      "27": 5559,
      "intru": 5560,
      "360</w>": 5561,
      "##łç</w>": 5562,
      "##æı</w>": 5563,
      "required</w>": 5564,
      "##åĲĥ": 5565,
      "errors</w>": 5566,
      "beta</w>": 5567,
      "³¡</w>": 5568,
      "##åıĺä</w>": 5569,
      "website</w>": 5570,
      "bæĺ</w>": 5571,
      "##çĶµè</w>": 5572,
      "estim": 5573,
      "##çĶµå</w>": 5574,
      "çļĦçī</w>": 5575,
      "##aus": 5576,
      "pref": 5577,
      "sent</w>": 5578,
      "record</w>": 5579,
      "æĪĸç</w>": 5580,
      "85</w>": 5581,
      "evasion</w>": 5582,
      "condition</w>": 5583,
      "##éĩĳé</w>": 5584,
      "åŁºäºİ": 5585,
      "benign</w>": 5586,
      "åįĸ": 5587,
      "05</w>": 5588,
      "##lab": 5589,
      "privileges</w>": 5590,
      "00": 5591,
      "##ken</w>": 5592,
      "##ti</w>": 5593,
      "assert</w>": 5594,
      "33</w>": 5595,
      "display</w>": 5596,
      "##æĮĳæĪĺ</w>": 5597,
      "ģçľĭ": 5598,
      "çļĦæĥħåĨµä</w>": 5599,
      "##çľŁå</w>": 5600,
      "filtered</w>": 5601,
      "##etic</w>": 5602,
      "ĤçļĦ": 5603,
      "attempts</w>": 5604,
      "ĸçķĮ": 5605,
      "##åĥı": 5606,
      "##åįĸ": 5607,
      "##ater</w>": 5608,
      "handler</w>": 5609,
      "èĥĮæĻ</w>": 5610,
      "down": 5611,
      "ĵéªĮ</w>": 5612,
      "æĪĸèĢħç</w>": 5613,
      "##åł": 5614,
      "##tice</w>": 5615,
      "nlog": 5616,
      "exist": 5617,
      "çł</w>": 5618,
      "æĪĲå</w>": 5619,
      "bgp</w>": 5620,
      "predictions</w>": 5621,
      "##äºĮæ</w>": 5622,
      "##yc": 5623,
      "##æļ</w>": 5624,
      "##çĶŁ</w>": 5625,
      "36": 5626,
      "##ath</w>": 5627,
      "now</w>": 5628,
      "65</w>": 5629,
      "grid</w>": 5630,
      "##åĩºå</w>": 5631,
      "##bly</w>": 5632,
      "åħĭ</w>": 5633,
      "½¨</w>": 5634,
      "##ands</w>": 5635,
      "intellig": 5636,
      "statis": 5637,
      "##ues</w>": 5638,
      "cour": 5639,
      "rem": 5640,
      "same</w>": 5641,
      "generated</w>": 5642,
      "entry</w>": 5643,
      "##åİŁå</w>": 5644,
      "conditions</w>": 5645,
      "åıªèĥ</w>": 5646,
      "##ocode</w>": 5647,
      "34</w>": 5648,
      "##īè</w>": 5649,
      "çļĦäº</w>": 5650,
      "resol": 5651,
      "functionality</w>": 5652,
      "compar": 5653,
      "ww": 5654,
      "##åıĪ": 5655,
      "¿¹</w>": 5656,
      "##äºļ": 5657,
      "##æľºä</w>": 5658,
      "##entr": 5659,
      "mi": 5660,
      "her</w>": 5661,
      "ĭåº</w>": 5662,
      "implementing</w>": 5663,
      "##åĬłå</w>": 5664,
      "incorpor": 5665,
      "##çĹħæ</w>": 5666,
      "regist": 5667,
      "##èģļ": 5668,
      "##åĢĻ": 5669,
      "2019</w>": 5670,
      "çĶŁäº</w>": 5671,
      "ĭåĲİ</w>": 5672,
      "çº": 5673,
      "æĪĸèĢħåħ</w>": 5674,
      "gam": 5675,
      "pk": 5676,
      "##åīį</w>": 5677,
      "integrity</w>": 5678,
      "he</w>": 5679,
      "ŀæ</w>": 5680,
      "received</w>": 5681,
      "ĸéĥ</w>": 5682,
      "##éħį</w>": 5683,
      "åĪĽæĸ</w>": 5684,
      "relevant</w>": 5685,
      "ĵæŀĦä</w>": 5686,
      "ĨçļĦ": 5687,
      "éģĩåĪ</w>": 5688,
      "##çŃĶ</w>": 5689,
      "¾¨</w>": 5690,
      "##ash</w>": 5691,
      "engineering</w>": 5692,
      "##ether</w>": 5693,
      "23": 5694,
      "åªĴä</w>": 5695,
      "æĺİå</w>": 5696,
      "æŀľ</w>": 5697,
      "ĺæľī</w>": 5698,
      "done</w>": 5699,
      "##layer</w>": 5700,
      "çļĦéķ</w>": 5701,
      "threads</w>": 5702,
      "įåĲĮçļĦè</w>": 5703,
      "box</w>": 5704,
      "instead</w>": 5705,
      "www</w>": 5706,
      "window</w>": 5707,
      "sensor</w>": 5708,
      "##althy</w>": 5709,
      "ĪèĢ": 5710,
      "03</w>": 5711,
      "##åħį": 5712,
      "##çłĶ": 5713,
      "describ": 5714,
      "çĿ</w>": 5715,
      "ºçļĦ": 5716,
      "łæĦŁåĻ</w>": 5717,
      "cæĺ</w>": 5718,
      "advers": 5719,
      "##ader</w>": 5720,
      "debu": 5721,
      "ĭåħ</w>": 5722,
      "calculates</w>": 5723,
      "##æĦ</w>": 5724,
      "ĳçļĦ": 5725,
      "correct</w>": 5726,
      "##rame</w>": 5727,
      "éĩĳé</w>": 5728,
      "but": 5729,
      "proper</w>": 5730,
      "åĪĿå</w>": 5731,
      "çļĦéĿ</w>": 5732,
      "ĵæĿŁ": 5733,
      "åĸĦ": 5734,
      "policy</w>": 5735,
      "##ant": 5736,
      "term": 5737,
      "##åĨĻä</w>": 5738,
      "reward</w>": 5739,
      "compromis": 5740,
      "##eds</w>": 5741,
      "çļĦæľĢå</w>": 5742,
      "intrusion</w>": 5743,
      "nresult</w>": 5744,
      "bec": 5745,
      "choice</w>": 5746,
      "##gre": 5747,
      "åĬłåħ</w>": 5748,
      "payloads</w>": 5749,
      "##åįĹ": 5750,
      "éĻĲåĪ</w>": 5751,
      "fri": 5752,
      "format": 5753,
      "veloc": 5754,
      "##leg": 5755,
      "åĪĻ</w>": 5756,
      "##ital</w>": 5757,
      "cp": 5758,
      "##ane</w>": 5759,
      "appropri": 5760,
      "##æĳ</w>": 5761,
      "##èĩªåĬ</w>": 5762,
      "cached</w>": 5763,
      "##åĵªä</w>": 5764,
      "theta</w>": 5765,
      "##irs</w>": 5766,
      "55</w>": 5767,
      "android</w>": 5768,
      "##åĭ": 5769,
      "development</w>": 5770,
      "##åħĥ</w>": 5771,
      "ĺæľīåħ</w>": 5772,
      "find": 5773,
      "proper": 5774,
      "çĶŁç</w>": 5775,
      "ĭéĻį</w>": 5776,
      "##ories</w>": 5777,
      "##ited</w>": 5778,
      "##ions</w>": 5779,
      "observ": 5780,
      "åł": 5781,
      "iv</w>": 5782,
      "persistence</w>": 5783,
      "open": 5784,
      "##erences</w>": 5785,
      "##read</w>": 5786,
      "##èĪį": 5787,
      "ģæĺ</w>": 5788,
      "simulated</w>": 5789,
      "##åĲĪå</w>": 5790,
      "pc": 5791,
      "##åĢįæķ</w>": 5792,
      "asyn": 5793,
      "##éĢı": 5794,
      "##éĩıæĺ</w>": 5795,
      "èĮ</w>": 5796,
      "ıåŃ</w>": 5797,
      "endpoint</w>": 5798,
      "Ĥåħ</w>": 5799,
      "##args</w>": 5800,
      "duration</w>": 5801,
      "æĭĨ": 5802,
      "##åĩĨå</w>": 5803,
      "éĩıè</w>": 5804,
      "lif": 5805,
      "åºĬ": 5806,
      "##åĵ</w>": 5807,
      "resources</w>": 5808,
      "īåĢį</w>": 5809,
      "##çĻĮ": 5810,
      "rou": 5811,
      "##90</w>": 5812,
      "subs": 5813,
      "Ģèµ</w>": 5814,
      "##æĢĿ</w>": 5815,
      "construct</w>": 5816,
      "èĻļ": 5817,
      "side</w>": 5818,
      "ll</w>": 5819,
      "utf</w>": 5820,
      "åĪĨçĤ</w>": 5821,
      "##åĲĪçī</w>": 5822,
      "cyber": 5823,
      "scanning</w>": 5824,
      "##éĻįä</w>": 5825,
      "ļæĽ</w>": 5826,
      "ģæį</w>": 5827,
      "##gu": 5828,
      "åħĪè</w>": 5829,
      "creating</w>": 5830,
      "fo": 5831,
      "ĬæĸŃ": 5832,
      "ģåľ</w>": 5833,
      "54</w>": 5834,
      "įæŃ</w>": 5835,
      "plug": 5836,
      "##rf</w>": 5837,
      "song</w>": 5838,
      "ĨèĬĤ": 5839,
      "ĵçļĦä</w>": 5840,
      "##æĿĲæĸĻ</w>": 5841,
      "role</w>": 5842,
      "##acker</w>": 5843,
      "wm": 5844,
      "èįĲ</w>": 5845,
      "29</w>": 5846,
      "çŃīçŃī</w>": 5847,
      "ķèµ</w>": 5848,
      "ĻäºĽéĥ</w>": 5849,
      "pseudocode</w>": 5850,
      "##ank</w>": 5851,
      "##ily</w>": 5852,
      "##ob": 5853,
      "åŁİå</w>": 5854,
      "èĲ": 5855,
      "##åĪĽä</w>": 5856,
      "¸£</w>": 5857,
      "åıĺåĮĸ</w>": 5858,
      "åºĶä</w>": 5859,
      "##enses</w>": 5860,
      "##æķĪæŀľ</w>": 5861,
      "çĶļèĩ</w>": 5862,
      "persistent</w>": 5863,
      "åĲİæ</w>": 5864,
      "ģæĹ</w>": 5865,
      "xor</w>": 5866,
      "##åŀĭ</w>": 5867,
      "permissions</w>": 5868,
      "cryptographic</w>": 5869,
      "èĨ": 5870,
      "Ġâĸģâĸ</w>": 5871,
      "##åįģä</w>": 5872,
      "##çŁĽçĽ</w>": 5873,
      "ħç</w>": 5874,
      "low</w>": 5875,
      "gadgets</w>": 5876,
      "##éħįç</w>": 5877,
      "overflow</w>": 5878,
      "zero</w>": 5879,
      "##ittest</w>": 5880,
      "ļåľ</w>": 5881,
      "£¤</w>": 5882,
      "Ŀé</w>": 5883,
      "Ĭæĺ</w>": 5884,
      "nst": 5885,
      "cover": 5886,
      "##çłģ": 5887,
      "transform</w>": 5888,
      "µè</w>": 5889,
      "¼¯</w>": 5890,
      "tax</w>": 5891,
      "arr</w>": 5892,
      "gr": 5893,
      "¡°</w>": 5894,
      "##Ńç</w>": 5895,
      "##aces</w>": 5896,
      "decod": 5897,
      "phys": 5898,
      "##ended</w>": 5899,
      "åįĬå</w>": 5900,
      "µä</w>": 5901,
      "ºåºı</w>": 5902,
      "éĨ": 5903,
      "aæĺ</w>": 5904,
      "éĩĩçĶ</w>": 5905,
      "selection</w>": 5906,
      "limit</w>": 5907,
      "capt": 5908,
      "peri": 5909,
      "dll</w>": 5910,
      "##yst": 5911,
      "##èĢģå</w>": 5912,
      "##icate</w>": 5913,
      "Ĭç</w>": 5914,
      "éľĢç</w>": 5915,
      "##esses</w>": 5916,
      "preprocessing</w>": 5917,
      "arch": 5918,
      "ĵåĲĪå</w>": 5919,
      "##0000</w>": 5920,
      "åħĥç</w>": 5921,
      "##éģĹä</w>": 5922,
      "çĭ": 5923,
      "regul": 5924,
      "##att": 5925,
      "2021</w>": 5926,
      "##åĪĹè</w>": 5927,
      "bit</w>": 5928,
      "##eted</w>": 5929,
      "æĪĳåı</w>": 5930,
      "ĵéªĮ": 5931,
      "unittest</w>": 5932,
      "##ta": 5933,
      "##éľ": 5934,
      "##èĤĮ": 5935,
      "##lob": 5936,
      "##Ģè</w>": 5937,
      "##Ĵĸ": 5938,
      "åĪļå</w>": 5939,
      "analyzing</w>": 5940,
      "125</w>": 5941,
      "ĮæľĽå</w>": 5942,
      "##ºä</w>": 5943,
      "future</w>": 5944,
      "##ard": 5945,
      "æľŁä</w>": 5946,
      "appropriate</w>": 5947,
      "exchange</w>": 5948,
      "##map</w>": 5949,
      "##entory</w>": 5950,
      "squ": 5951,
      "##éģĵ</w>": 5952,
      "##ord": 5953,
      "posts</w>": 5954,
      "åĵªä</w>": 5955,
      "¯«</w>": 5956,
      "åįģ": 5957,
      "æİªæĸ</w>": 5958,
      "##æĮĩæķ</w>": 5959,
      "åīįä</w>": 5960,
      "##ere": 5961,
      "ax": 5962,
      "discuss</w>": 5963,
      "##èĹı": 5964,
      "åĲİçļĦ": 5965,
      "åĬĽåŃ</w>": 5966,
      "emb": 5967,
      "images</w>": 5968,
      "logger</w>": 5969,
      "circ": 5970,
      "ĩäºİ": 5971,
      "èĵĿ": 5972,
      "52</w>": 5973,
      "##æŁĲç</w>": 5974,
      "character</w>": 5975,
      "##çīĪæľ</w>": 5976,
      "##çĶŁæĪĲ": 5977,
      "types</w>": 5978,
      "elements</w>": 5979,
      "proof</w>": 5980,
      "obfuscation</w>": 5981,
      "##åºĶä</w>": 5982,
      "nr": 5983,
      "##æķħäºĭ": 5984,
      "##ished</w>": 5985,
      "guid": 5986,
      "identifying</w>": 5987,
      "ĢçļĦ": 5988,
      "camp": 5989,
      "check": 5990,
      "sav": 5991,
      "##èĢ</w>": 5992,
      "##ick</w>": 5993,
      "èģĮä</w>": 5994,
      "èģļ": 5995,
      "category</w>": 5996,
      "health</w>": 5997,
      "åĭ": 5998,
      "ľæĹ</w>": 5999,
      "##éĢĤçĶ</w>": 6000,
      "##security</w>": 6001,
      "foo": 6002,
      "±¤</w>": 6003,
      "round</w>": 6004,
      "çĹĽ": 6005,
      "##çĤİ": 6006,
      "objects</w>": 6007,
      "æĥħæĦŁ": 6008,
      "ŀæĸ</w>": 6009,
      "##åŁİå</w>": 6010,
      "##row</w>": 6011,
      "ĠâĸģãĢĳ</w>": 6012,
      "##åĬłåħ</w>": 6013,
      "ĠâĸģãĢĲ</w>": 6014,
      "##ux</w>": 6015,
      "##ili": 6016,
      "gat": 6017,
      "##èĸ": 6018,
      "factor</w>": 6019,
      "schedule</w>": 6020,
      "##arity</w>": 6021,
      "°¸</w>": 6022,
      "##åįł": 6023,
      "circ</w>": 6024,
      "rsa</w>": 6025,
      "çĿ": 6026,
      "##èĢĲ": 6027,
      "##vel</w>": 6028,
      "##èĢĥèĻĳ</w>": 6029,
      "çĶµå</w>": 6030,
      "wait</w>": 6031,
      "prec": 6032,
      "ĥèĬĤ": 6033,
      "fr": 6034,
      "èŀį": 6035,
      "çĽĬ": 6036,
      "resource</w>": 6037,
      "èĢĮç</w>": 6038,
      "æµģç</w>": 6039,
      "illeg": 6040,
      "çļĦéĢīé</w>": 6041,
      "##isting</w>": 6042,
      "calls</w>": 6043,
      "²¸</w>": 6044,
      "¾£</w>": 6045,
      "##åºĵ": 6046,
      "èĢĮé</w>": 6047,
      "##çļĦçĽ</w>": 6048,
      "devices</w>": 6049,
      "##75</w>": 6050,
      "##æİªæĸ</w>": 6051,
      "łæĴŃ": 6052,
      "ĭçļĦä</w>": 6053,
      "ķåľ</w>": 6054,
      "##aster</w>": 6055,
      "##åĩı</w>": 6056,
      "®£</w>": 6057,
      "æľŁå</w>": 6058,
      "support</w>": 6059,
      "establish</w>": 6060,
      "##æľĭåıĭ": 6061,
      "##åįĥ": 6062,
      "img</w>": 6063,
      "##äºĶåħ</w>": 6064,
      "cybersecurity</w>": 6065,
      "##with</w>": 6066,
      "éĩĮå</w>": 6067,
      "##ier</w>": 6068,
      "æĦıåĳ</w>": 6069,
      "quant": 6070,
      "spoof": 6071,
      "åħįå</w>": 6072,
      "executed</w>": 6073,
      "åįł": 6074,
      "she</w>": 6075,
      "exfilt": 6076,
      "##oci": 6077,
      "top</w>": 6078,
      "batch</w>": 6079,
      "##ga</w>": 6080,
      "æŁĲç</w>": 6081,
      "åĽŃ": 6082,
      "®«</w>": 6083,
      "##èĪįäºĶåħ</w>": 6084,
      "asc": 6085,
      "illegal</w>": 6086,
      "ģèĢĥèĻĳä</w>": 6087,
      "åĢĻä</w>": 6088,
      "manager</w>": 6089,
      "ĦåĪĻ</w>": 6090,
      "##roduc": 6091,
      "who</w>": 6092,
      "çĶµè</w>": 6093,
      "ĺèĥ</w>": 6094,
      "ĩåħ</w>": 6095,
      "##aging</w>": 6096,
      "##ways</w>": 6097,
      "ľæ</w>": 6098,
      "åĩº</w>": 6099,
      "##type</w>": 6100,
      "Ŀåı</w>": 6101,
      "##åıįå</w>": 6102,
      "jp": 6103,
      "med": 6104,
      "éĩĳå</w>": 6105,
      "mitigate</w>": 6106,
      "èĢģå</w>": 6107,
      "intelligence</w>": 6108,
      "characters</w>": 6109,
      "writ": 6110,
      "seconds</w>": 6111,
      "´¡</w>": 6112,
      "maintain</w>": 6113,
      "related</w>": 6114,
      "éĿŀå</w>": 6115,
      "##çĨŁ": 6116,
      "oft": 6117,
      "¸°</w>": 6118,
      "ģéĩįæĸ</w>": 6119,
      "dataf": 6120,
      "éģĵ</w>": 6121,
      "often</w>": 6122,
      "##åĩºéĶĻäºĨ</w>": 6123,
      "##åŃĹ</w>": 6124,
      "child</w>": 6125,
      "differential</w>": 6126,
      "æĲŃ": 6127,
      "##ail</w>": 6128,
      "numer": 6129,
      "åĲĳéĩı": 6130,
      "py</w>": 6131,
      "½³</w>": 6132,
      "##ful</w>": 6133,
      "¤¹</w>": 6134,
      "##ill": 6135,
      "##ffici": 6136,
      "ĵæŀľå</w>": 6137,
      "##ching</w>": 6138,
      "Ļåĩºä</w>": 6139,
      "##tlib</w>": 6140,
      "##åīįä</w>": 6141,
      "##bility</w>": 6142,
      "åĪĿ": 6143,
      "éĿł": 6144,
      "##åĲį</w>": 6145,
      "ŃçļĦéĢīé</w>": 6146,
      "éĢĨ": 6147,
      "market</w>": 6148,
      "trigg": 6149,
      "rati": 6150,
      "static</w>": 6151,
      "##çļĦçī</w>": 6152,
      "Ĵè</w>": 6153,
      "##èĦĤ": 6154,
      "##åĨĽ": 6155,
      "##åŃĲå</w>": 6156,
      "##Ĵĸåķ</w>": 6157,
      "##tk</w>": 6158,
      "ŀéªĮå</w>": 6159,
      "translate</w>": 6160,
      "ģåĨįä</w>": 6161,
      "compromised</w>": 6162,
      "translation</w>": 6163,
      "##label</w>": 6164,
      "discount</w>": 6165,
      "çĹĩ": 6166,
      "human</w>": 6167,
      "npro": 6168,
      "åīį</w>": 6169,
      "disco": 6170,
      "trained</w>": 6171,
      "ĵåĩº": 6172,
      "##rimin": 6173,
      "##çļĦéķ</w>": 6174,
      "##çļĦæĿ</w>": 6175,
      "bus": 6176,
      "ĨéĹ</w>": 6177,
      "çļĦéĩįè</w>": 6178,
      "associ": 6179,
      "ıäºİ</w>": 6180,
      "##èİ": 6181,
      "128</w>": 6182,
      "åīĤ</w>": 6183,
      "##ous": 6184,
      "privacy</w>": 6185,
      "##åıĺéĩı": 6186,
      "##èĤī": 6187,
      "dra": 6188,
      "##get</w>": 6189,
      "åĩĨå</w>": 6190,
      "##åĬĽåŃ</w>": 6191,
      "##read": 6192,
      "Łæľīåı</w>": 6193,
      "##åħįçĸ</w>": 6194,
      "ĶåĽŀ": 6195,
      "37</w>": 6196,
      "Ĳä</w>": 6197,
      "cv</w>": 6198,
      "##ult": 6199,
      "##45": 6200,
      "æļ</w>": 6201,
      "modified</w>": 6202,
      "consum": 6203,
      "ŀéĻħåºĶçĶ</w>": 6204,
      "##ef</w>": 6205,
      "38</w>": 6206,
      "regular</w>": 6207,
      "various</w>": 6208,
      "96</w>": 6209,
      "33": 6210,
      "ack</w>": 6211,
      "natural</w>": 6212,
      "introduc": 6213,
      "##éĢļ</w>": 6214,
      "ĻéĩĮéľĢè</w>": 6215,
      "ģçĲĨè</w>": 6216,
      "##æĢģ</w>": 6217,
      "ŃçļĦåºĶçĶ</w>": 6218,
      "##èĭ": 6219,
      "åıĺæĪĲ</w>": 6220,
      "40": 6221,
      "##file</w>": 6222,
      "##ven": 6223,
      "##åħħ": 6224,
      "adjust</w>": 6225,
      "##æĺł": 6226,
      "åıĬä</w>": 6227,
      "city</w>": 6228,
      "##itor</w>": 6229,
      "stop</w>": 6230,
      "##10</w>": 6231,
      "achi": 6232,
      "vlan</w>": 6233,
      "æĪĸèĢħåľ</w>": 6234,
      "campa": 6235,
      "28": 6236,
      "ļåĪ</w>": 6237,
      "Ģåĳ</w>": 6238,
      "ŃæĢ</w>": 6239,
      "above</w>": 6240,
      "ĳé</w>": 6241,
      "insert</w>": 6242,
      "quantum</w>": 6243,
      "##ending</w>": 6244,
      "second</w>": 6245,
      "æľīçī</w>": 6246,
      "åĬłèµ</w>": 6247,
      "##éĽĨä</w>": 6248,
      "deep</w>": 6249,
      "validation</w>": 6250,
      "presence</w>": 6251,
      "##ub</w>": 6252,
      "##ose</w>": 6253,
      "ĸæĸ</w>": 6254,
      "stealth</w>": 6255,
      "tt": 6256,
      "´·</w>": 6257,
      "##çļĦéĩįè</w>": 6258,
      "æĢģè</w>": 6259,
      "##æŀĦå</w>": 6260,
      "##plotlib</w>": 6261,
      "term</w>": 6262,
      "æŃ": 6263,
      "ĽåºĶ": 6264,
      "##åįı": 6265,
      "68</w>": 6266,
      "1024</w>": 6267,
      "çļĦéĥ</w>": 6268,
      "##èĢĥè</w>": 6269,
      "åĩłä</w>": 6270,
      "ºçŃ": 6271,
      "æĦıå</w>": 6272,
      "160</w>": 6273,
      "##æĺİæĺ</w>": 6274,
      "queries</w>": 6275,
      "##éĢģ": 6276,
      "įçĽ</w>": 6277,
      "ĦçĲĨå</w>": 6278,
      "ĭæĹ</w>": 6279,
      "èĳĹ": 6280,
      "##ople</w>": 6281,
      "##box</w>": 6282,
      "Ķé</w>": 6283,
      "çļĦæĶ</w>": 6284,
      "##iness</w>": 6285,
      "platform</w>": 6286,
      "just</w>": 6287,
      "åĪĽä</w>": 6288,
      "always</w>": 6289,
      "##æĪĳå</w>": 6290,
      "¡¿</w>": 6291,
      "ðŁ": 6292,
      "##åıł": 6293,
      "verbo": 6294,
      "Ĵç</w>": 6295,
      "padding</w>": 6296,
      "èĸ": 6297,
      "hid": 6298,
      "gp": 6299,
      "åŃĲå</w>": 6300,
      "dt</w>": 6301,
      "ĭåį</w>": 6302,
      "##æĬĢå</w>": 6303,
      "##urs</w>": 6304,
      "åĲĪé</w>": 6305,
      "ĵé</w>": 6306,
      "mol</w>": 6307,
      "build</w>": 6308,
      "ĮæĪĲ</w>": 6309,
      "##pping</w>": 6310,
      "èĢĮæ</w>": 6311,
      "##arget</w>": 6312,
      "root": 6313,
      "##İåı</w>": 6314,
      "çĨ": 6315,
      "ĠâĸģâĢ</w>": 6316,
      "configuration</w>": 6317,
      "çļĦåĳ</w>": 6318,
      "nodes</w>": 6319,
      "nature</w>": 6320,
      "µæķ</w>": 6321,
      "null</w>": 6322,
      "shipment</w>": 6323,
      "able</w>": 6324,
      "##elines</w>": 6325,
      "##idity</w>": 6326,
      "##æĸĩç</w>": 6327,
      "##handler</w>": 6328,
      "250</w>": 6329,
      "##Ľçī</w>": 6330,
      "çļĦæĥħåĨµ": 6331,
      "##eded</w>": 6332,
      "çļĦåľ</w>": 6333,
      "##åĬĽä</w>": 6334,
      "matplotlib</w>": 6335,
      "##īł</w>": 6336,
      "enumerate</w>": 6337,
      "fire": 6338,
      "nop</w>": 6339,
      "##ole</w>": 6340,
      "hosts</w>": 6341,
      "pix": 6342,
      "sets</w>": 6343,
      "glob": 6344,
      "æľīåĵªéĩĮ": 6345,
      "symbol</w>": 6346,
      "53</w>": 6347,
      "ªåĳ</w>": 6348,
      "##æķĪçİĩ</w>": 6349,
      "specifically</w>": 6350,
      "exists</w>": 6351,
      "##çĶŁç</w>": 6352,
      "##adata</w>": 6353,
      "##ĳä</w>": 6354,
      "people</w>": 6355,
      "recon": 6356,
      "ļåħ</w>": 6357,
      "##çĶµæ</w>": 6358,
      "var</w>": 6359,
      "##wr": 6360,
      "##ounts</w>": 6361,
      "##cript</w>": 6362,
      "##vered</w>": 6363,
      "cm": 6364,
      "æľīæĽ</w>": 6365,
      "dataframe</w>": 6366,
      "Ĺåħ</w>": 6367,
      "per</w>": 6368,
      "extraction</w>": 6369,
      "åĴĮé</w>": 6370,
      "proc": 6371,
      "##instance</w>": 6372,
      "kw": 6373,
      "verbose</w>": 6374,
      "çĲĥ</w>": 6375,
      "exfiltration</w>": 6376,
      "##åĪļ": 6377,
      "track</w>": 6378,
      "##Ĺåı</w>": 6379,
      "nfile</w>": 6380,
      "link</w>": 6381,
      "dro": 6382,
      "escal": 6383,
      "##çļĦæł</w>": 6384,
      "struct</w>": 6385,
      "Ħçº</w>": 6386,
      "įçĦ</w>": 6387,
      "tf</w>": 6388,
      "çĶŁå</w>": 6389,
      "Ġâĸģâľ": 6390,
      "##æŁĵ</w>": 6391,
      "test": 6392,
      "his</w>": 6393,
      "foc": 6394,
      "princip": 6395,
      "åıªéľĢè</w>": 6396,
      "##åĮºåŁŁ": 6397,
      "##ct": 6398,
      "æıĲç</w>": 6399,
      "complex": 6400,
      "##éĢĤåºĶ": 6401,
      "##èĻļ": 6402,
      "95</w>": 6403,
      "åİŁçĲĨ</w>": 6404,
      "localhost</w>": 6405,
      "##ension</w>": 6406,
      "eas": 6407,
      "Ĺåı</w>": 6408,
      "std</w>": 6409,
      "us</w>": 6410,
      "occurred</w>": 6411,
      "beg": 6412,
      "##utions</w>": 6413,
      "##Įå</w>": 6414,
      "##uting</w>": 6415,
      "ĹæĢ</w>": 6416,
      "éĽĨä</w>": 6417,
      "nv": 6418,
      "Ŀéļ": 6419,
      "notif": 6420,
      "æĺĵè</w>": 6421,
      "sig": 6422,
      "layers</w>": 6423,
      "éº</w>": 6424,
      "##åİŁåĽł": 6425,
      "preprocessed</w>": 6426,
      "##äººåı</w>": 6427,
      "fla": 6428,
      "èĪ</w>": 6429,
      "##åĮĸç</w>": 6430,
      "discrimin": 6431,
      "##æĸŃ</w>": 6432,
      "éĿĻ": 6433,
      "##ie</w>": 6434,
      "ģåĪ</w>": 6435,
      "çĹĽ</w>": 6436,
      "inventory</w>": 6437,
      "taken</w>": 6438,
      "##ploit</w>": 6439,
      "enh": 6440,
      "èĤĿ": 6441,
      "recommendations</w>": 6442,
      "et": 6443,
      "##æĭŁ": 6444,
      "verif": 6445,
      "##abilities</w>": 6446,
      "##æĢİä</w>": 6447,
      "įçĶ</w>": 6448,
      "ĻåºĶè</w>": 6449,
      "pack</w>": 6450,
      "49</w>": 6451,
      "compare</w>": 6452,
      "##parser</w>": 6453,
      "éĹŃ": 6454,
      "linux</w>": 6455,
      "##essage</w>": 6456,
      "##angle</w>": 6457,
      "##assem": 6458,
      "##éĩĬ": 6459,
      "programm": 6460,
      "linear</w>": 6461,
      "##ries</w>": 6462,
      "##åĴĮé</w>": 6463,
      "##asses</w>": 6464,
      "ĥæĺ</w>": 6465,
      "##åıªæĺ</w>": 6466,
      "##åĬĽå</w>": 6467,
      "strings</w>": 6468,
      "åŀĤçĽ</w>": 6469,
      "èħº": 6470,
      "alloc": 6471,
      "##log</w>": 6472,
      "buc": 6473,
      "obt": 6474,
      "classification</w>": 6475,
      "##æłĩåĩĨ</w>": 6476,
      "ĿæĮģä</w>": 6477,
      "Ŀæį</w>": 6478,
      "##ide</w>": 6479,
      "pairs</w>": 6480,
      "çļĦåŃ</w>": 6481,
      "##etric</w>": 6482,
      "æĺİè</w>": 6483,
      "ĳæģ</w>": 6484,
      "recogn": 6485,
      "çŃīä</w>": 6486,
      "åıįå</w>": 6487,
      "adjust": 6488,
      "##ards</w>": 6489,
      "setup</w>": 6490,
      "significant</w>": 6491,
      "demonstration</w>": 6492,
      "concep": 6493,
      "çıŃ": 6494,
      "åĢĻè</w>": 6495,
      "jpg</w>": 6496,
      "45": 6497,
      "correl": 6498,
      "255</w>": 6499,
      "send": 6500,
      "mitigation</w>": 6501,
      "##ql</w>": 6502,
      "åĮĸè</w>": 6503,
      "button</w>": 6504,
      "force</w>": 6505,
      "##èľ": 6506,
      "tag</w>": 6507,
      "effectiveness</w>": 6508,
      "ºæķ</w>": 6509,
      "icmp</w>": 6510,
      "block": 6511,
      "ķæĿ</w>": 6512,
      "probability</w>": 6513,
      "##no": 6514,
      "##orizer</w>": 6515,
      "ªæľĪ</w>": 6516,
      "som": 6517,
      "exceptions</w>": 6518,
      "ĺæľīä</w>": 6519,
      "æĥħåĨµä</w>": 6520,
      "cloud</w>": 6521,
      "##ĳè</w>": 6522,
      "ĴæĢ</w>": 6523,
      "ķé</w>": 6524,
      "24": 6525,
      "##eting</w>": 6526,
      "element</w>": 6527,
      "##icity</w>": 6528,
      "##åĬłæ</w>": 6529,
      "ax</w>": 6530,
      "jw": 6531,
      "##ends</w>": 6532,
      "æĺİæĺ</w>": 6533,
      "##exts</w>": 6534,
      "##Ĵè</w>": 6535,
      "ssh</w>": 6536,
      "ĺçľĭèµ</w>": 6537,
      "exfiltr": 6538,
      "##çļĦåľ</w>": 6539,
      "libraries</w>": 6540,
      "ĵæķ</w>": 6541,
      "##åİĭåĬĽ</w>": 6542,
      "du": 6543,
      "##vement</w>": 6544,
      "##åıªèĥ</w>": 6545,
      "sales</w>": 6546,
      "reader</w>": 6547,
      "##other</w>": 6548,
      "dæĺ</w>": 6549,
      "dynamic</w>": 6550,
      "##ety</w>": 6551,
      "æĳ</w>": 6552,
      "##æĪĲéķ</w>": 6553,
      "##éŃ": 6554,
      "##æĪĸæ</w>": 6555,
      "##wever</w>": 6556,
      "åĪĨåı</w>": 6557,
      "##æľºæ</w>": 6558,
      "Įæ</w>": 6559,
      "çªģ</w>": 6560,
      "##67": 6561,
      "02</w>": 6562,
      "rules</w>": 6563,
      "ĢåįĬ": 6564,
      "åĨįåĬłä</w>": 6565,
      "##acts</w>": 6566,
      "çĶŁä</w>": 6567,
      "##åĲįç</w>": 6568,
      "fields</w>": 6569,
      "##İæł</w>": 6570,
      "ĪçļĦ": 6571,
      "chunk</w>": 6572,
      "##æĦŁæŁĵ": 6573,
      "archit": 6574,
      "##ately</w>": 6575,
      "addr</w>": 6576,
      "##çľģ": 6577,
      "44</w>": 6578,
      "##åĪĨéħį": 6579,
      "tic": 6580,
      "commands</w>": 6581,
      "power</w>": 6582,
      "200": 6583,
      "difference</w>": 6584,
      "ĥçĶ</w>": 6585,
      "##åįķè</w>": 6586,
      "##æĪĳçļĦ": 6587,
      "çĹħæ</w>": 6588,
      "įäºİ": 6589,
      "##bc</w>": 6590,
      "äºĮè</w>": 6591,
      "èĴ": 6592,
      "ĳçİĩ": 6593,
      "##éĹŃ": 6594,
      "new": 6595,
      "technology</w>": 6596,
      "practice</w>": 6597,
      "##12</w>": 6598,
      "##æķĪæŀľ": 6599,
      "tree</w>": 6600,
      "##éĩĳ</w>": 6601,
      "##Ĥå</w>": 6602,
      "##api</w>": 6603,
      "##èĢģ": 6604,
      "##ounds</w>": 6605,
      "¹±</w>": 6606,
      "velocity</w>": 6607,
      "interval</w>": 6608,
      "##åĲĮæł</w>": 6609,
      "įåŃĺåľ</w>": 6610,
      "##ªæ</w>": 6611,
      "##arial</w>": 6612,
      "ĻäºĽå</w>": 6613,
      "nplease</w>": 6614,
      "īé</w>": 6615,
      "##trans": 6616,
      "åŀĭä</w>": 6617,
      "individual</w>": 6618,
      "Ĩèĥŀ</w>": 6619,
      "tk</w>": 6620,
      "##åĪĨæŀĲä</w>": 6621,
      "ĨéĢļå</w>": 6622,
      "##sequ": 6623,
      "##åĽłæķ</w>": 6624,
      "risks</w>": 6625,
      "kwargs</w>": 6626,
      "compli": 6627,
      "##åĵį": 6628,
      "ºåĪ</w>": 6629,
      "##åĬŀ": 6630,
      "##istry</w>": 6631,
      "##éĿĻ": 6632,
      "caus": 6633,
      "sl": 6634,
      "èŃ</w>": 6635,
      "##aæĺ</w>": 6636,
      "ĶåĢĻ": 6637,
      "##çļĦéĥ</w>": 6638,
      "pid</w>": 6639,
      "##ang</w>": 6640,
      "ģèĢĥèĻĳå</w>": 6641,
      "èģĶ</w>": 6642,
      "settings</w>": 6643,
      "nh": 6644,
      "Ľæ</w>": 6645,
      "æľĭåı": 6646,
      "metas": 6647,
      "##00000000": 6648,
      "ģæĶ</w>": 6649,
      "allow</w>": 6650,
      "##åģĩ": 6651,
      "Ķåĸ</w>": 6652,
      "practices</w>": 6653,
      "##åıĳçĶŁ": 6654,
      "##èĨľ": 6655,
      "outc": 6656,
      "ªçĽ</w>": 6657,
      "updates</w>": 6658,
      "##åĪĿå</w>": 6659,
      "##ember</w>": 6660,
      "##åĵģçīĮ": 6661,
      "architect": 6662,
      "##åŃĲä</w>": 6663,
      "##æīĭæľ</w>": 6664,
      "hol": 6665,
      "##åĨħéĥ</w>": 6666,
      "##istics</w>": 6667,
      "æĪĸæ</w>": 6668,
      "crypto</w>": 6669,
      "instance</w>": 6670,
      "dump</w>": 6671,
      "implemented</w>": 6672,
      "##çĽĺ": 6673,
      "ĦçĲĨè</w>": 6674,
      "ĵçļĦè</w>": 6675,
      "¹»</w>": 6676,
      "##æĮīçħ</w>": 6677,
      "stealthy</w>": 6678,
      "columns</w>": 6679,
      "nonce</w>": 6680,
      "tests</w>": 6681,
      "ºéĽ</w>": 6682,
      "men": 6683,
      "##itu": 6684,
      "spear</w>": 6685,
      "##æīįèĥ</w>": 6686,
      "ĦçĲĨä</w>": 6687,
      "ģåĽŀå</w>": 6688,
      "¿·</w>": 6689,
      "##æīĭæ</w>": 6690,
      "conduct</w>": 6691,
      "##min</w>": 6692,
      "however</w>": 6693,
      "many</w>": 6694,
      "âīĪ</w>": 6695,
      "æķı": 6696,
      "£±</w>": 6697,
      "##æĦŁè</w>": 6698,
      "covert</w>": 6699,
      "nel": 6700,
      "Ļé</w>": 6701,
      "¯®</w>": 6702,
      "åıĺå</w>": 6703,
      "##tine</w>": 6704,
      "èĢ</w>": 6705,
      "åįĩ</w>": 6706,
      "ratio</w>": 6707,
      "éģį": 6708,
      "çĲĨæ</w>": 6709,
      "purpose</w>": 6710,
      "urls</w>": 6711,
      "##èĤĿ": 6712,
      "ĺçĤ</w>": 6713,
      "åįı": 6714,
      "noise</w>": 6715,
      "##æŀĦ</w>": 6716,
      "##çĸĳ": 6717,
      "##Ĺè</w>": 6718,
      "##yle</w>": 6719,
      "metadata</w>": 6720,
      "##æķĪåºĶ</w>": 6721,
      "obj</w>": 6722,
      "unit</w>": 6723,
      "adversarial</w>": 6724,
      "sha</w>": 6725,
      "##ging</w>": 6726,
      "åŃĹç</w>": 6727,
      "##åĮº</w>": 6728,
      "30": 6729,
      "guidelines</w>": 6730,
      "view</w>": 6731,
      "ģçĤ</w>": 6732,
      "tod": 6733,
      "##chain</w>": 6734,
      "ĪæŃ</w>": 6735,
      "##éĥ": 6736,
      "mit": 6737,
      "year</w>": 6738,
      "ĢäºĽå</w>": 6739,
      "##app": 6740,
      "ĹæŃ</w>": 6741,
      "æľīæĹ</w>": 6742,
      "updated</w>": 6743,
      "neg": 6744,
      "ĩåİ</w>": 6745,
      "##åįıä</w>": 6746,
      "##æıĲåįĩ</w>": 6747,
      "evol": 6748,
      "bin</w>": 6749,
      "æīĭ</w>": 6750,
      "##çĲĥ</w>": 6751,
      "fu": 6752,
      "##æĳĦ": 6753,
      "cases</w>": 6754,
      "associated</w>": 6755,
      "fit": 6756,
      "extern": 6757,
      "##ears</w>": 6758,
      "åĲĦä</w>": 6759,
      "agents</w>": 6760,
      "mic": 6761,
      "##æĵ": 6762,
      "åıįåºĶ</w>": 6763,
      "pipeline</w>": 6764,
      "åĿĲæłĩ": 6765,
      "jwt</w>": 6766,
      "##equ": 6767,
      "##ight": 6768,
      "éĢı": 6769,
      "##anag": 6770,
      "##éĿŀå</w>": 6771,
      "çľĭ</w>": 6772,
      "##éĢī</w>": 6773,
      "dport</w>": 6774,
      "dga</w>": 6775,
      "hacker</w>": 6776,
      "discriminator</w>": 6777,
      "##autif": 6778,
      "##ire": 6779,
      "##èµĦæºĲ</w>": 6780,
      "æħ": 6781,
      "pred</w>": 6782,
      "final</w>": 6783,
      "įæĪĲç</w>": 6784,
      "©¾</w>": 6785,
      "parent</w>": 6786,
      "hashlib</w>": 6787,
      "çīĪ": 6788,
      "##lback</w>": 6789,
      "ķçİ</w>": 6790,
      "ªåħĥç</w>": 6791,
      "Ĥçº</w>": 6792,
      "buil": 6793,
      "involves</w>": 6794,
      "commit</w>": 6795,
      "ticket</w>": 6796,
      "ıéªĮ": 6797,
      "clean": 6798,
      "éĢĲæŃ</w>": 6799,
      "dim": 6800,
      "¢±</w>": 6801,
      "ĵæŀľåºĶè</w>": 6802,
      "kg</w>": 6803,
      "radius</w>": 6804,
      "statement</w>": 6805,
      "åľŁ": 6806,
      "##éĢĢ": 6807,
      "beautif": 6808,
      "ĵæŀĦå</w>": 6809,
      "three</w>": 6810,
      "card</w>": 6811,
      "ĭåĴĮ": 6812,
      "tokenize</w>": 6813,
      "æŀĲ": 6814,
      "let</w>": 6815,
      "ĲèĲ</w>": 6816,
      "ļæĹ</w>": 6817,
      "##éĩıå</w>": 6818,
      "##æĺĵæĩ": 6819,
      "##æĹı": 6820,
      "cyber</w>": 6821,
      "22": 6822,
      "Ģåħī": 6823,
      "##æľīæĹ</w>": 6824,
      "##èĢĮè</w>": 6825,
      "éģĵè</w>": 6826,
      "##åıįé</w>": 6827,
      "##åİĭ</w>": 6828,
      "##éĩıè</w>": 6829,
      "checking</w>": 6830,
      "##èĢĮå</w>": 6831,
      "##åŀĤçĽ</w>": 6832,
      "expr": 6833,
      "nmodel</w>": 6834,
      "##åĿĲ": 6835,
      "çªģçł</w>": 6836,
      "æµĵåº</w>": 6837,
      "backup</w>": 6838,
      "##åĲĪçĲĨ": 6839,
      "contains</w>": 6840,
      "įåĲĮå</w>": 6841,
      "èĤĮ": 6842,
      "##ote</w>": 6843,
      "person</w>": 6844,
      "compute</w>": 6845,
      "æłĩè</w>": 6846,
      "##åħī</w>": 6847,
      "çľĭçľĭ": 6848,
      "10000</w>": 6849,
      "##èŃ</w>": 6850,
      "enter</w>": 6851,
      "Ĩçľĭçľĭ": 6852,
      "##èĩªçĶ</w>": 6853,
      "complexity</w>": 6854,
      "##èĩªä</w>": 6855,
      "##rup": 6856,
      "44": 6857,
      "intern": 6858,
      "##lish</w>": 6859,
      "engag": 6860,
      "unus": 6861,
      "åıĺä</w>": 6862,
      "ĦæĪĲ": 6863,
      "likely</w>": 6864,
      "stri": 6865,
      "##åıĸåĢ</w>": 6866,
      "##åĳĺå</w>": 6867,
      "firew": 6868,
      "samples</w>": 6869,
      "##ception</w>": 6870,
      "##ids</w>": 6871,
      "æłĳ": 6872,
      "phone</w>": 6873,
      "##èĩªè</w>": 6874,
      "exploiting</w>": 6875,
      "##æĪĳéľĢè</w>": 6876,
      "ģçļĦæĺ</w>": 6877,
      "ĥåľ</w>": 6878,
      "cook": 6879,
      "ĪæĢ</w>": 6880,
      "åĬŀ": 6881,
      "įäº</w>": 6882,
      "##hood</w>": 6883,
      "##string</w>": 6884,
      "ĵåĪ</w>": 6885,
      "Ĥc": 6886,
      "ģæıĲéĨĴçĶ</w>": 6887,
      "super</w>": 6888,
      "Ĵçº</w>": 6889,
      "##sition</w>": 6890,
      "crafted</w>": 6891,
      "åĨįè</w>": 6892,
      "ĭæŃ</w>": 6893,
      "æĮĩä</w>": 6894,
      "##åįİ": 6895,
      "sni": 6896,
      "rf": 6897,
      "##age": 6898,
      "©´</w>": 6899,
      "ĠâĸģâĪŀ</w>": 6900,
      "bc</w>": 6901,
      "##éĢĨ": 6902,
      "programming</w>": 6903,
      "įåıĺ</w>": 6904,
      "single</w>": 6905,
      "åĽºå</w>": 6906,
      "2020</w>": 6907,
      "##åķ": 6908,
      "wmi</w>": 6909,
      "crafting</w>": 6910,
      "transform": 6911,
      "ıåİĨ": 6912,
      "##respon": 6913,
      "##çĮ": 6914,
      "èĦĳ": 6915,
      "ĺåľ</w>": 6916,
      "##ĩå</w>": 6917,
      "##éľ</w>": 6918,
      "frequencies</w>": 6919,
      "ŁæĢ</w>": 6920,
      "##èĮ": 6921,
      "##11": 6922,
      "debug</w>": 6923,
      "Ģéģį": 6924,
      "¼§</w>": 6925,
      "éĢĢ": 6926,
      "ĺçº</w>": 6927,
      "##èĮ</w>": 6928,
      "needed</w>": 6929,
      "##ery</w>": 6930,
      "ŃçļĦåħ</w>": 6931,
      "course</w>": 6932,
      "factors</w>": 6933,
      "tan</w>": 6934,
      "missing</w>": 6935,
      "##ash": 6936,
      "ĨæŃ</w>": 6937,
      "dou": 6938,
      "ªçī</w>": 6939,
      "èģĮ": 6940,
      "ĵæĿ</w>": 6941,
      "èĹ": 6942,
      "ĨåĽ</w>": 6943,
      "receive</w>": 6944,
      "ĦåĪĻ": 6945,
      "##xy</w>": 6946,
      "ĻäºĽè</w>": 6947,
      "æľĢè</w>": 6948,
      "positive</w>": 6949,
      "63</w>": 6950,
      "ļæľīä</w>": 6951,
      "records</w>": 6952,
      "æĪĸèĢħæ</w>": 6953,
      "äºİé</w>": 6954,
      "¯±</w>": 6955,
      "##ark</w>": 6956,
      "pop</w>": 6957,
      "##vers</w>": 6958,
      "èĩªçĶ</w>": 6959,
      "prog": 6960,
      "èĢħçļĦ": 6961,
      "inputs</w>": 6962,
      "##eway</w>": 6963,
      "Ļåľ</w>": 6964,
      "alert</w>": 6965,
      "##åģļæ</w>": 6966,
      "īåĪĨä</w>": 6967,
      "ĽåĪ</w>": 6968,
      "##ression</w>": 6969,
      "æµģ</w>": 6970,
      "rootkit</w>": 6971,
      "åĨĽ": 6972,
      "counts</w>": 6973,
      "ģæŁ</w>": 6974,
      "æĮĳæĪĺ": 6975,
      "æŀĲ</w>": 6976,
      "haslayer</w>": 6977,
      "åĬłæ</w>": 6978,
      "äºĶä</w>": 6979,
      "ĸäºº": 6980,
      "åĨĻ</w>": 6981,
      "character": 6982,
      "##èĥĮ": 6983,
      "several</w>": 6984,
      "84</w>": 6985,
      "dx</w>": 6986,
      "##ross</w>": 6987,
      "pyp": 6988,
      "perc": 6989,
      "ºäºĨç</w>": 6990,
      "##Ĥè</w>": 6991,
      "æĪª": 6992,
      "##æľĢæĸ</w>": 6993,
      "Ĥæķ</w>": 6994,
      "##ground</w>": 6995,
      "global</w>": 6996,
      "##åŃĺ</w>": 6997,
      "3000</w>": 6998,
      "æĪĳåĨįä</w>": 6999,
      "ac</w>": 7000,
      "åĲİåĨį": 7001,
      "collect</w>": 7002,
      "##ĤæĹ</w>": 7003,
      "tun": 7004,
      "isinstance</w>": 7005,
      "Ĥæŀľæľī": 7006,
      "æľĢåĲİä</w>": 7007,
      "even</w>": 7008,
      "dupl": 7009,
      "ºéĻ</w>": 7010,
      "##Īçİ</w>": 7011,
      "full</w>": 7012,
      "states</w>": 7013,
      "##ition</w>": 7014,
      "èĢĥèĻĳåĪ</w>": 7015,
      "student</w>": 7016,
      "containing</w>": 7017,
      "çľŁå</w>": 7018,
      "transactions</w>": 7019,
      "##éĺħè</w>": 7020,
      "æĮĩæķ</w>": 7021,
      "maxim": 7022,
      "Ĩæĸ</w>": 7023,
      "sniff</w>": 7024,
      "install</w>": 7025,
      "çĴ": 7026,
      "dem": 7027,
      "implies</w>": 7028,
      "100": 7029,
      "prior</w>": 7030,
      "apk</w>": 7031,
      "ĭåį": 7032,
      "back</w>": 7033,
      "##ege</w>": 7034,
      "##fig": 7035,
      "æľŁè</w>": 7036,
      "ĩæł</w>": 7037,
      "integer</w>": 7038,
      "individu": 7039,
      "metasploit</w>": 7040,
      "challeng": 7041,
      "##assifier</w>": 7042,
      "##éĶĢåĶ</w>": 7043,
      "##ipping</w>": 7044,
      "##Ĵåħ</w>": 7045,
      "crit": 7046,
      "çļĦåĢįæķ</w>": 7047,
      "éĻĲ</w>": 7048,
      "blockchain</w>": 7049,
      "##emp</w>": 7050,
      "terms</w>": 7051,
      "bro": 7052,
      "éĩįæĸ</w>": 7053,
      "delta</w>": 7054,
      "weights</w>": 7055,
      "##æĬĢèĥ</w>": 7056,
      "performs</w>": 7057,
      "campaign</w>": 7058,
      "author</w>": 7059,
      "##åĲİéĿ</w>": 7060,
      "##re</w>": 7061,
      "obfuscated</w>": 7062,
      "##yth": 7063,
      "##æİĴåĪĹ": 7064,
      "home</w>": 7065,
      "çĸĹæĸ</w>": 7066,
      "nw": 7067,
      "##medi": 7068,
      "plugin</w>": 7069,
      "æĪĸèĢħéľĢè</w>": 7070,
      "įåĲĮç</w>": 7071,
      "external</w>": 7072,
      "ĭåīįçļĦ": 7073,
      "éĽĨ</w>": 7074,
      "çķĻ": 7075,
      "once</w>": 7076,
      "##ech</w>": 7077,
      "##pus</w>": 7078,
      "##gh</w>": 7079,
      "Ĥçİĩ</w>": 7080,
      "##truc": 7081,
      "review</w>": 7082,
      "##port": 7083,
      "package</w>": 7084,
      "aw": 7085,
      "##ker</w>": 7086,
      "åĮĸå</w>": 7087,
      "##bot</w>": 7088,
      "Ģçº</w>": 7089,
      "1200</w>": 7090,
      "sci": 7091,
      "place</w>": 7092,
      "èİ": 7093,
      "##èĵĿ": 7094,
      "åĲį</w>": 7095,
      "##case</w>": 7096,
      "employees</w>": 7097,
      "łæĺ</w>": 7098,
      "æľĢä</w>": 7099,
      "##ian</w>": 7100,
      "hidden</w>": 7101,
      "speed</w>": 7102,
      "Ģåįķ</w>": 7103,
      "##unc": 7104,
      "cryptography</w>": 7105,
      "##çīĻ": 7106,
      "åįĹ": 7107,
      "éĻį": 7108,
      "ĭåºı": 7109,
      "##èīºæľ</w>": 7110,
      "##ativ": 7111,
      "statistical</w>": 7112,
      "connections</w>": 7113,
      "effective</w>": 7114,
      "##çłģ</w>": 7115,
      "##éĢļä</w>": 7116,
      "good</w>": 7117,
      "privilege</w>": 7118,
      "them": 7119,
      "targets</w>": 7120,
      "éĩĬä</w>": 7121,
      "##åķĨä</w>": 7122,
      "sentences</w>": 7123,
      "12345</w>": 7124,
      "##ras": 7125,
      "äºĴåĬ</w>": 7126,
      "##æłĩé</w>": 7127,
      "##çªģçł</w>": 7128,
      "##ready</w>": 7129,
      "èĢħä</w>": 7130,
      "likeli": 7131,
      "##ector</w>": 7132,
      "findings</w>": 7133,
      "##æķĪçİĩ": 7134,
      "##æĻºèĥ</w>": 7135,
      "real": 7136,
      "ips</w>": 7137,
      "##æµģ</w>": 7138,
      "exploits</w>": 7139,
      "ºåľ</w>": 7140,
      "èĢĲ": 7141,
      "éĩĮæ</w>": 7142,
      "indicate</w>": 7143,
      "already</w>": 7144,
      "creation</w>": 7145,
      "##æľĢä</w>": 7146,
      "delete</w>": 7147,
      "39</w>": 7148,
      "ĤæŃ</w>": 7149,
      "43</w>": 7150,
      "Īé</w>": 7151,
      "ķåĽ</w>": 7152,
      "across</w>": 7153,
      "éĩĮçļĦ": 7154,
      "åĪĽå</w>": 7155,
      "¡·</w>": 7156,
      "ĸæĿ</w>": 7157,
      "ŁéĢļ</w>": 7158,
      "éĴĪ": 7159,
      "##ethical</w>": 7160,
      "##aded</w>": 7161,
      "åģĩ": 7162,
      "##èļ": 7163,
      "##icit</w>": 7164,
      "##æľŁå</w>": 7165,
      "architecture</w>": 7166,
      "ŁéĿ</w>": 7167,
      "instructions</w>": 7168,
      "##çĶŁåĳ</w>": 7169,
      "ĸåľ</w>": 7170,
      "åºĶ</w>": 7171,
      "nltk</w>": 7172,
      "åºĶéĢīé</w>": 7173,
      "##data</w>": 7174,
      "##çīĮ</w>": 7175,
      "##osen</w>": 7176,
      "issues</w>": 7177,
      "İåı</w>": 7178,
      "##åħģè</w>": 7179,
      "įåĲĮè</w>": 7180,
      "trigger</w>": 7181,
      "##īä</w>": 7182,
      "sends</w>": 7183,
      "versions</w>": 7184,
      "æłĩé</w>": 7185,
      "##åĪĹä</w>": 7186,
      "nto</w>": 7187,
      "æķħäºĭ": 7188,
      "ģæŃ</w>": 7189,
      "ķåĪ</w>": 7190,
      "bri": 7191,
      "axis</w>": 7192,
      "stegan": 7193,
      "delivery</w>": 7194,
      "##éģĩåĪ</w>": 7195,
      "interaction</w>": 7196,
      "scrap": 7197,
      "resp": 7198,
      "chosen</w>": 7199,
      "existing</w>": 7200,
      "another</w>": 7201,
      "ªäººä</w>": 7202,
      "åĮħ</w>": 7203,
      "æĭħå</w>": 7204,
      "napp</w>": 7205,
      "ªæł</w>": 7206,
      "keras</w>": 7207,
      "##éĴĪå</w>": 7208,
      "##Ŀè</w>": 7209,
      "æľºåĻ</w>": 7210,
      "ĵåĲĪä</w>": 7211,
      "pkt</w>": 7212,
      "ļæľ</w>": 7213,
      "æłĩå</w>": 7214,
      "##åĲĳä</w>": 7215,
      "ĢåĬ</w>": 7216,
      "##atch": 7217,
      "compliance</w>": 7218,
      "ļæĸ</w>": 7219,
      "likelihood</w>": 7220,
      "##èĬĤçĤ</w>": 7221,
      "better</w>": 7222,
      "ĵx": 7223,
      "åĲĳå</w>": 7224,
      "retriev": 7225,
      "english</w>": 7226,
      "çĩĥ": 7227,
      "ĻçļĦ": 7228,
      "##ism</w>": 7229,
      "gain</w>": 7230,
      "ŃåŃĺåľ</w>": 7231,
      "ĿéĻ</w>": 7232,
      "conducting</w>": 7233,
      "åĬĽä</w>": 7234,
      "èĢĮéĢīé</w>": 7235,
      "corpus</w>": 7236,
      "sources</w>": 7237,
      "èĬĤ</w>": 7238,
      "rema": 7239,
      "lever": 7240,
      "exit</w>": 7241,
      "port": 7242,
      "##æľĪä</w>": 7243,
      "##èĦĳ": 7244,
      "section</w>": 7245,
      "##bs</w>": 7246,
      "çŃīäºİå</w>": 7247,
      "maintaining</w>": 7248,
      "ĳéĴ</w>": 7249,
      "ŃçļĦæķ</w>": 7250,
      "5000</w>": 7251,
      "unethical</w>": 7252,
      "confid": 7253,
      "##forest": 7254,
      "ĻéĩĮ</w>": 7255,
      "ªçº</w>": 7256,
      "csrf</w>": 7257,
      "çĹĩçĬ</w>": 7258,
      "counter</w>": 7259,
      "##loy</w>": 7260,
      "utility</w>": 7261,
      "##erpr": 7262,
      "##eling</w>": 7263,
      "der": 7264,
      "##åįıè</w>": 7265,
      "##lr</w>": 7266,
      "life</w>": 7267,
      "åĵªäºĽ": 7268,
      "ģåĪĨæŀĲ": 7269,
      "exploited</w>": 7270,
      "æĪı</w>": 7271,
      "##åıĹä</w>": 7272,
      "##éħįä</w>": 7273,
      "dense</w>": 7274,
      "Ĩæķ</w>": 7275,
      "åĨħéĥ</w>": 7276,
      "##æĥħ</w>": 7277,
      "increase</w>": 7278,
      "##çĽĴ": 7279,
      "¾¡</w>": 7280,
      "##add": 7281,
      "secur": 7282,
      "åºľ": 7283,
      "åĲĪçĲĨ": 7284,
      "##æĬĳåĪ</w>": 7285,
      "income</w>": 7286,
      "##åľŁ": 7287,
      "##ļæĮ": 7288,
      "°·</w>": 7289,
      "prediction</w>": 7290,
      "temp</w>": 7291,
      "extracted</w>": 7292,
      "individuals</w>": 7293,
      "clust": 7294,
      "etc</w>": 7295,
      "åįĬ": 7296,
      "contrib": 7297,
      "æŀĹ": 7298,
      "çļĦåĽ</w>": 7299,
      "attach": 7300,
      "Ĥæŀľç</w>": 7301,
      "protocols</w>": 7302,
      "ģéģ</w>": 7303,
      "cä</w>": 7304,
      "variables</w>": 7305,
      "nelse</w>": 7306,
      "##ng</w>": 7307,
      "çļĦçĶ</w>": 7308,
      "transf": 7309,
      "##essed</w>": 7310,
      "anim": 7311,
      "çĳ": 7312,
      "affected</w>": 7313,
      "angle</w>": 7314,
      "##äºīè</w>": 7315,
      "åŃĹä</w>": 7316,
      "isol": 7317,
      "ģçļĦè</w>": 7318,
      "ļçļĦä</w>": 7319,
      "operating</w>": 7320,
      "water</w>": 7321,
      "##ensor": 7322,
      "46</w>": 7323,
      "##lines</w>": 7324,
      "##åŁºåĽłç</w>": 7325,
      "nar": 7326,
      "engagement</w>": 7327,
      "##size</w>": 7328,
      "##dom": 7329,
      "modif": 7330,
      "bucket</w>": 7331,
      "me</w>": 7332,
      "continu": 7333,
      "29": 7334,
      "##bit": 7335,
      "rest": 7336,
      "éŃ": 7337,
      "contain</w>": 7338,
      "fragment</w>": 7339,
      "##mware</w>": 7340,
      "##åĲĪè</w>": 7341,
      "¼«</w>": 7342,
      "åķĨä</w>": 7343,
      "##man</w>": 7344,
      "choo": 7345,
      "##zz": 7346,
      "tran": 7347,
      "Ĩçľĭä</w>": 7348,
      "##ib</w>": 7349,
      "rob": 7350,
      "ıéªĮ</w>": 7351,
      "åİŁæľ</w>": 7352,
      "tan": 7353,
      "lines</w>": 7354,
      "éħįç</w>": 7355,
      "fitness</w>": 7356,
      "require": 7357,
      "ªåĮºéĹ</w>": 7358,
      "##åıĺéĩı</w>": 7359,
      "īæĸ</w>": 7360,
      "executable</w>": 7361,
      "##éĽĨ</w>": 7362,
      "##æįŁä</w>": 7363,
      "##eld</w>": 7364,
      "ĮçļĦ": 7365,
      "½²</w>": 7366,
      "const</w>": 7367,
      "##itiz": 7368,
      "moder": 7369,
      "çĶµæ</w>": 7370,
      "##æĻº": 7371,
      "co</w>": 7372,
      "ļåı</w>": 7373,
      "ļæĶ</w>": 7374,
      "ĹèĢĥèĻĳ": 7375,
      "åºı": 7376,
      "ŃåľĨ": 7377,
      "had</w>": 7378,
      "made</w>": 7379,
      "##éĩįçĤ</w>": 7380,
      "##ystem</w>": 7381,
      "##ast": 7382,
      "##sel": 7383,
      "##bon": 7384,
      "##config": 7385,
      "ĵæŀľéĥ</w>": 7386,
      "##æľŁä</w>": 7387,
      "ĺåĪ</w>": 7388,
      "series</w>": 7389,
      "##åĽĽè</w>": 7390,
      "èĢħå</w>": 7391,
      "deriv": 7392,
      "can": 7393,
      "starting</w>": 7394,
      "èĽĭ": 7395,
      "İæĶ</w>": 7396,
      "bä</w>": 7397,
      "##ªä</w>": 7398,
      "##agra": 7399,
      "##ensity</w>": 7400,
      "åĸľæ</w>": 7401,
      "learn</w>": 7402,
      "##çĹħ</w>": 7403,
      "##äººæ</w>": 7404,
      "edge</w>": 7405,
      "describe</w>": 7406,
      "ıçļĦè</w>": 7407,
      "paths</w>": 7408,
      "##earch</w>": 7409,
      "ıæĺİ": 7410,
      "topic</w>": 7411,
      "##éģĵå</w>": 7412,
      "called</w>": 7413,
      "åŁºåĽłç</w>": 7414,
      "##äºĶä</w>": 7415,
      "Ļåĩºåħ</w>": 7416,
      "measure</w>": 7417,
      "volume</w>": 7418,
      "let": 7419,
      "ĵæŀĦæĺ</w>": 7420,
      "##eral</w>": 7421,
      "sep": 7422,
      "##ªç</w>": 7423,
      "èĥĮ": 7424,
      "Ģåıĳ</w>": 7425,
      "importance</w>": 7426,
      "small</w>": 7427,
      "##eless</w>": 7428,
      "##åįĹ</w>": 7429,
      "en</w>": 7430,
      "emo": 7431,
      "ssl</w>": 7432,
      "auth</w>": 7433,
      "åģı": 7434,
      "##ħç</w>": 7435,
      "customers</w>": 7436,
      "lon": 7437,
      "##ained</w>": 7438,
      "¹¡</w>": 7439,
      "##over</w>": 7440,
      "éĢļä</w>": 7441,
      "properties</w>": 7442,
      "move</w>": 7443,
      "##eter</w>": 7444,
      "preferences</w>": 7445,
      "multi</w>": 7446,
      "140</w>": 7447,
      "##åįķ</w>": 7448,
      "æľīçĽ</w>": 7449,
      "çİĭ": 7450,
      "įçŁ</w>": 7451,
      "consumer</w>": 7452,
      "¾½</w>": 7453,
      "åīįéĿ</w>": 7454,
      "val</w>": 7455,
      "typically</w>": 7456,
      "arguments</w>": 7457,
      "ķéĥ</w>": 7458,
      "cruc": 7459,
      "routine</w>": 7460,
      "epoc": 7461,
      "åĮĸåīĤ": 7462,
      "##ķå</w>": 7463,
      "##lin": 7464,
      "option</w>": 7465,
      "åıĳçĶŁ": 7466,
      "admin</w>": 7467,
      "explicit</w>": 7468,
      "crucial</w>": 7469,
      "##so": 7470,
      "crypt": 7471,
      "ĮæľĽè</w>": 7472,
      "clean</w>": 7473,
      "Ĵæ</w>": 7474,
      "ĺçļĦè</w>": 7475,
      "æĿĲæĸĻ</w>": 7476,
      "·¡</w>": 7477,
      "prefi": 7478,
      "ĢéĻĲ": 7479,
      "åĵįå</w>": 7480,
      "##30</w>": 7481,
      "##įå</w>": 7482,
      "assess</w>": 7483,
      "##çŃĽ": 7484,
      "##Ĩå</w>": 7485,
      "signatures</w>": 7486,
      "åĵįä</w>": 7487,
      "pyplot</w>": 7488,
      "levels</w>": 7489,
      "Ïĥ</w>": 7490,
      "##èĽĭ": 7491,
      "scop": 7492,
      "åĪĨäº</w>": 7493,
      "diffic": 7494,
      "ľçļĦ": 7495,
      "lock</w>": 7496,
      "hom": 7497,
      "ĸçº": 7498,
      "ĸçķ": 7499,
      "mys": 7500,
      "èĻĳ</w>": 7501,
      "##config</w>": 7502,
      "åĳĺ": 7503,
      "##pa</w>": 7504,
      "##pos": 7505,
      "éĶĢåĶ</w>": 7506,
      "render</w>": 7507,
      "##uls": 7508,
      "åģľ": 7509,
      "cross</w>": 7510,
      "rfid</w>": 7511,
      "ģåĨįæ</w>": 7512,
      "èīºæľ</w>": 7513,
      "##æİĴ</w>": 7514,
      "äºĭ": 7515,
      "ĹçļĦ": 7516,
      "##æľºåĻ</w>": 7517,
      "éľĢå</w>": 7518,
      "flight</w>": 7519,
      "oth": 7520,
      "uint</w>": 7521,
      "##ĵå</w>": 7522,
      "steganogra": 7523,
      "ıåºĶè</w>": 7524,
      "##Ĳæ</w>": 7525,
      "##åĲİå</w>": 7526,
      "åĲĪéĢĤ": 7527,
      "41</w>": 7528,
      "##ired</w>": 7529,
      "ģåı</w>": 7530,
      "æĪĳåĵªéĩĮ": 7531,
      "illu": 7532,
      "ear": 7533,
      "ªéĿ</w>": 7534,
      "wintypes</w>": 7535,
      "##æĬķèµĦ": 7536,
      "åĮĹ": 7537,
      "ncache</w>": 7538,
      "èĦĤ": 7539,
      "Īæł</w>": 7540,
      "sled</w>": 7541,
      "twe": 7542,
      "##ship</w>": 7543,
      "jane</w>": 7544,
      "æıĲåīį": 7545,
      "play</w>": 7546,
      "åħĪå</w>": 7547,
      "æķĻå</w>": 7548,
      "nlp</w>": 7549,
      "physical</w>": 7550,
      "ĭæķ</w>": 7551,
      "çļĦåĪ</w>": 7552,
      "©·</w>": 7553,
      "providing</w>": 7554,
      "networks</w>": 7555,
      "mass</w>": 7556,
      "Įæľ": 7557,
      "æĪĳæĥ</w>": 7558,
      "éĩĬæ</w>": 7559,
      "psyc": 7560,
      "##parse</w>": 7561,
      "##åĬłèµ</w>": 7562,
      "çĽİåı</w>": 7563,
      "##åĽºå</w>": 7564,
      "béĢīé</w>": 7565,
      "##åİĭåĬĽ": 7566,
      "flood</w>": 7567,
      "pdf</w>": 7568,
      "##åĩł": 7569,
      "##jo": 7570,
      "micro": 7571,
      "åŃĲçļĦ": 7572,
      "ess": 7573,
      "authorized</w>": 7574,
      "##esp": 7575,
      "##classifier</w>": 7576,
      "ĮæĢ</w>": 7577,
      "tradi": 7578,
      "éĩį</w>": 7579,
      "##æľīéĹ</w>": 7580,
      "Ńé</w>": 7581,
      "åĪĻè</w>": 7582,
      "ĵn</w>": 7583,
      "previ": 7584,
      "##55": 7585,
      "##åģľ": 7586,
      "##ulsoup</w>": 7587,
      "##gue</w>": 7588,
      "inet</w>": 7589,
      "##eria</w>": 7590,
      "representation</w>": 7591,
      "##çŃīä</w>": 7592,
      "##æīĢè</w>": 7593,
      "éľĢä</w>": 7594,
      "ĢåĮĸ": 7595,
      "smt": 7596,
      "asset</w>": 7597,
      "##åĸľæ</w>": 7598,
      "##ensorflow</w>": 7599,
      "âĸ</w>": 7600,
      "ĻäºĽæĸ</w>": 7601,
      "download</w>": 7602,
      "gan</w>": 7603,
      "##analysis</w>": 7604,
      "åĲĪçĲĨ</w>": 7605,
      "åıįé</w>": 7606,
      "suggest</w>": 7607,
      "##æľĢç</w>": 7608,
      "##ii</w>": 7609,
      "##æĪĲè</w>": 7610,
      "beautifulsoup</w>": 7611,
      "##èĦļ": 7612,
      "javas": 7613,
      "vs</w>": 7614,
      "łéĢĴ": 7615,
      "##ams</w>": 7616,
      "åĩºè</w>": 7617,
      "##ered</w>": 7618,
      "##anager</w>": 7619,
      "åĨĻæĪĲ</w>": 7620,
      "bits</w>": 7621,
      "##ored</w>": 7622,
      "##çĲĨå</w>": 7623,
      "éģĵä</w>": 7624,
      "gateway</w>": 7625,
      "##tering</w>": 7626,
      "ĻçĤ</w>": 7627,
      "åĿ</w>": 7628,
      "æľīçĤ</w>": 7629,
      "åıªæľī": 7630,
      "åĩºæĿ</w>": 7631,
      "ĳäºİ</w>": 7632,
      "éĩĮéĿ</w>": 7633,
      "Ĵæĺ</w>": 7634,
      "łé</w>": 7635,
      "ªåĩ</w>": 7636,
      "ĥçĲĨåŃ</w>": 7637,
      "æĬĬ</w>": 7638,
      "##æķħäºĭ</w>": 7639,
      "assert": 7640,
      "nur": 7641,
      "##know": 7642,
      "upload</w>": 7643,
      "listen": 7644,
      "##åºĹ": 7645,
      "console</w>": 7646,
      "##ild": 7647,
      "##æłĩè</w>": 7648,
      "##acci</w>": 7649,
      "##rating</w>": 7650,
      "åĿĩæ</w>": 7651,
      "book</w>": 7652,
      "##åĭ</w>": 7653,
      "firmware</w>": 7654,
      "deploy": 7655,
      "çľł": 7656,
      "look</w>": 7657,
      "least</w>": 7658,
      "éĿĴ": 7659,
      "¯¿</w>": 7660,
      "##table</w>": 7661,
      "ĩæĿ</w>": 7662,
      "##mise</w>": 7663,
      "weak": 7664,
      "ºåº": 7665,
      "ĵåĩº</w>": 7666,
      "ĻäºĽç</w>": 7667,
      "period</w>": 7668,
      "##plib</w>": 7669,
      "æĢİæł</w>": 7670,
      "62</w>": 7671,
      "grow": 7672,
      "æĪĳåľ</w>": 7673,
      "åħŃ</w>": 7674,
      "ļçļĦ</w>": 7675,
      "protection</w>": 7676,
      "compile</w>": 7677,
      "strip</w>": 7678,
      "İçİ</w>": 7679,
      "81</w>": 7680,
      "èĩªèº</w>": 7681,
      "blo": 7682,
      "##ession": 7683,
      "##åŃĺåĤ</w>": 7684,
      "##äººè</w>": 7685,
      "åĲĪæ</w>": 7686,
      "¼»</w>": 7687,
      "boo": 7688,
      "##æĲŃ": 7689,
      "aä</w>": 7690,
      "##ee": 7691,
      "##erty</w>": 7692,
      "currency</w>": 7693,
      "æĿİ": 7694,
      "78</w>": 7695,
      "Ķæĺ</w>": 7696,
      "åĽĽè</w>": 7697,
      "trade</w>": 7698,
      "éĩĬæĶ</w>": 7699,
      "##æĢĿèĢĥ": 7700,
      "tracking</w>": 7701,
      "¸¯</w>": 7702,
      "éļĶ": 7703,
      "åıĸ</w>": 7704,
      "fam": 7705,
      "##bonacci</w>": 7706,
      "##ey</w>": 7707,
      "éĺħè</w>": 7708,
      "æĪĸèĢħæĽ</w>": 7709,
      "af</w>": 7710,
      "storage</w>": 7711,
      "##åĴĮåħ</w>": 7712,
      "£·</w>": 7713,
      "allowing</w>": 7714,
      "mapping</w>": 7715,
      "tensorflow</w>": 7716,
      "asp": 7717,
      "35": 7718,
      "çĶµç</w>": 7719,
      "means</w>": 7720,
      "¹½</w>": 7721,
      "ľé</w>": 7722,
      "progress</w>": 7723,
      "##ħæ</w>": 7724,
      "admin": 7725,
      "įåĲĮçļĦç</w>": 7726,
      "èĽ": 7727,
      "randomforest": 7728,
      "##err": 7729,
      "##éĻį": 7730,
      "ºçĽ</w>": 7731,
      "reading</w>": 7732,
      "misconfig": 7733,
      "soup</w>": 7734,
      "classifier</w>": 7735,
      "ģçļĦ</w>": 7736,
      "çļĦçĲĨè</w>": 7737,
      "ĳæķ</w>": 7738,
      "ªçŃīå</w>": 7739,
      "ļçĲĨ</w>": 7740,
      "##åĽŀçŃĶ</w>": 7741,
      "çĮ": 7742,
      "##sil": 7743,
      "çļĦçİ</w>": 7744,
      "##æİĴéĻ</w>": 7745,
      "èĩªä</w>": 7746,
      "ģæĸ</w>": 7747,
      "ĽåĽ</w>": 7748,
      "æĸĻ": 7749,
      "åħļ": 7750,
      "register</w>": 7751,
      "tac": 7752,
      "financ": 7753,
      "##righ": 7754,
      "##çĶµç</w>": 7755,
      "correspon": 7756,
      "ĵçļĦå</w>": 7757,
      "æľīçļĦ": 7758,
      "needs</w>": 7759,
      "##åģıå</w>": 7760,
      "##aå</w>": 7761,
      "##çŃīçŃī</w>": 7762,
      "##èĬĤå</w>": 7763,
      "##èįī": 7764,
      "gender</w>": 7765,
      "ºçĶ</w>": 7766,
      "ĩçļĦ": 7767,
      "çļĦèĥĮæĻ</w>": 7768,
      "##çģ": 7769,
      "##01": 7770,
      "parti": 7771,
      "##æĸľ": 7772,
      "keywords</w>": 7773,
      "##aä</w>": 7774,
      "fibonacci</w>": 7775,
      "developing</w>": 7776,
      "##ously</w>": 7777,
      "experience</w>": 7778,
      "byt": 7779,
      "ļçĽ</w>": 7780,
      "åĥı</w>": 7781,
      "larg": 7782,
      "depend": 7783,
      "##itten</w>": 7784,
      "##éĢĴå</w>": 7785,
      "goal</w>": 7786,
      "##æķĻåŃ</w>": 7787,
      "bound": 7788,
      "ĹåħĪ": 7789,
      "##éĵģ": 7790,
      "parts</w>": 7791,
      "##ighb": 7792,
      "prices</w>": 7793,
      "##mmetric</w>": 7794,
      "light</w>": 7795,
      "åŁŁ": 7796,
      "setting</w>": 7797,
      "##åºķéĿ</w>": 7798,
      "uns": 7799,
      "ĵåı</w>": 7800,
      "##èĦı": 7801,
      "åĴĮåı</w>": 7802,
      "controls</w>": 7803,
      "äºĮç</w>": 7804,
      "##æĦıæĢĿ</w>": 7805,
      "##tructure</w>": 7806,
      "¤¸</w>": 7807,
      "simplicity</w>": 7808,
      "éĢĴ": 7809,
      "æĬĢèĥ</w>": 7810,
      "##éķľ": 7811,
      "ŀçļĦ": 7812,
      "##pc": 7813,
      "scope</w>": 7814,
      "åıĹä</w>": 7815,
      "##åĩºæĿ</w>": 7816,
      "interest</w>": 7817,
      "double</w>": 7818,
      "Łèĥ</w>": 7819,
      "##ik": 7820,
      "nch": 7821,
      "##iss": 7822,
      "åıĬæĹ</w>": 7823,
      "xml</w>": 7824,
      "âĪĪ</w>": 7825,
      "##ned</w>": 7826,
      "##æĪĸåħ</w>": 7827,
      "whether</w>": 7828,
      "##åıĺæĪĲ</w>": 7829,
      "movement</w>": 7830,
      "51</w>": 7831,
      "ensures</w>": 7832,
      "déĢīé</w>": 7833,
      "##åİŁåŃĲ": 7834,
      "nro": 7835,
      "void</w>": 7836,
      "ÏĨ</w>": 7837,
      "¢¦</w>": 7838,
      "##ease</w>": 7839,
      "##æŃĮ": 7840,
      "##ird</w>": 7841,
      "##æıĲé</w>": 7842,
      "ºåĮĸ": 7843,
      "##åĮĹ": 7844,
      "æķĳ": 7845,
      "æĺĵçĲĨè</w>": 7846,
      "scenarios</w>": 7847,
      "##mit</w>": 7848,
      "##actor</w>": 7849,
      "historical</w>": 7850,
      "åŃĺåĤ</w>": 7851,
      "##æĸĩæľ</w>": 7852,
      "numerical</w>": 7853,
      "##éļıæľº": 7854,
      "##pe</w>": 7855,
      "optimize</w>": 7856,
      "çĶŁè</w>": 7857,
      "smtplib</w>": 7858,
      "##image</w>": 7859,
      "registry</w>": 7860,
      "na": 7861,
      "##fol": 7862,
      "overall</w>": 7863,
      "vertices</w>": 7864,
      "hot": 7865,
      "criteria</w>": 7866,
      "##rus</w>": 7867,
      "empty</w>": 7868,
      "speech</w>": 7869,
      "éķľ": 7870,
      "##rna": 7871,
      "ĺæĥ": 7872,
      "assign": 7873,
      "##idd": 7874,
      "åŁºæľ</w>": 7875,
      "shipping</w>": 7876,
      "freq</w>": 7877,
      "åĲįç</w>": 7878,
      "##çīĩ</w>": 7879,
      "cen": 7880,
      "replac": 7881,
      "##silon</w>": 7882,
      "##ind": 7883,
      "çģµæ</w>": 7884,
      "##rapper</w>": 7885,
      "infras": 7886,
      "ĤæĹ</w>": 7887,
      "Ķæķ</w>": 7888,
      "åŀĭçļĦ": 7889,
      "stop": 7890,
      "Īåľ</w>": 7891,
      "##ale</w>": 7892,
      "old</w>": 7893,
      "ŀéªĮ</w>": 7894,
      "çŃĶ</w>": 7895,
      "square</w>": 7896,
      "ŃçļĦæĿ</w>": 7897,
      "##åīįéĿ</w>": 7898,
      "accounts</w>": 7899,
      "##omes</w>": 7900,
      "tu": 7901,
      "employs</w>": 7902,
      "īæİĴ": 7903,
[...]
