{
  "version": "1.0",
  "truncation": null,
  "padding": null,
  "added_tokens": [
    {
      "id": 0,
      "content": "<unk>",
      "single_word": false,
      "lstrip": false,
      "rstrip": false,
      "normalized": false,
      "special": true
    },
    {
      "id": 1,
      "content": "<s>",
      "single_word": false,
      "lstrip": false,
      "rstrip": false,
      "normalized": false,
      "special": true
    },
    {
      "id": 2,
      "content": "</s>",
      "single_word": false,
      "lstrip": false,
      "rstrip": false,
      "normalized": false,
      "special": true
    },
    {
      "id": 3,
      "content": "<|im_start|>",
      "single_word": false,
      "lstrip": false,
      "rstrip": false,
      "normalized": false,
      "special": true
    },
    {
      "id": 4,
      "content": "<|im_end|>",
      "single_word": false,
      "lstrip": false,
      "rstrip": false,
      "normalized": false,
      "special": true
    },
    {
      "id": 5,
      "content": "<|pad|>",
      "single_word": false,
      "lstrip": false,
      "rstrip": false,
      "normalized": false,
      "special": true
    },
    {
      "id": 6,
      "content": "<mask>",
      "single_word": false,
      "lstrip": false,
      "rstrip": false,
      "normalized": false,
      "special": true
    },
    {
      "id": 7,
      "content": "<|system|>",
      "single_word": false,
      "lstrip": false,
      "rstrip": false,
      "normalized": false,
      "special": true
    },
    {
      "id": 8,
      "content": "<|user|>",
      "single_word": false,
      "lstrip": false,
      "rstrip": false,
      "normalized": false,
      "special": true
    },
    {
      "id": 9,
      "content": "<|assistant|>",
      "single_word": false,
      "lstrip": false,
      "rstrip": false,
      "normalized": false,
      "special": true
    },
    {
      "id": 10,
      "content": "<|tool|>",
      "single_word": false,
      "lstrip": false,
      "rstrip": false,
      "normalized": false,
      "special": true
    },
    {
      "id": 11,
      "content": "<|function|>",
      "single_word": false,
      "lstrip": false,
      "rstrip": false,
      "normalized": false,
      "special": true
    },
    {
      "id": 12,
      "content": "<|observation|>",
      "single_word": false,
      "lstrip": false,
      "rstrip": false,
      "normalized": false,
      "special": true
    },
    {
      "id": 13,
      "content": "<|unknown|>",
      "single_word": false,
      "lstrip": false,
      "rstrip": false,
      "normalized": false,
      "special": true
    },
    {
      "id": 14,
      "content": "<|safe|>",
      "single_word": false,
      "lstrip": false,
      "rstrip": false,
      "normalized": false,
      "special": true
    },
    {
      "id": 15,
      "content": "<|unsafe|>",
      "single_word": false,
      "lstrip": false,
      "rstrip": false,
      "normalized": false,
      "special": true
    }
  ],
  "normalizer": {
    "type": "Sequence",
    "normalizers": [
      {
        "type": "NFC"
      },
      {
        "type": "Replace",
        "pattern": {
          "Regex": "\\r\\n?"
        },
        "content": "\n"
      },
      {
        "type": "Replace",
        "pattern": {
          "Regex": "[\\u0000-\\u0008\\u000B\\u000C\\u000E-\\u001F\\u007F]"
        },
        "content": ""
      },
      {
        "type": "Replace",
        "pattern": {
          "Regex": "[\\u2066-\\u2069]"
        },
        "content": ""
      },
      {
        "type": "Replace",
        "pattern": {
          "Regex": "[\\u3000\\u00A0\\u2007\\u202F]"
        },
        "content": " "
      },
      {
        "type": "Replace",
        "pattern": {
          "Regex": "[ ]{2,}"
        },
        "content": " "
      },
      {
        "type": "Replace",
        "pattern": {
          "Regex": "\\n{3,}"
        },
        "content": "\n\n"
      },
      {
        "type": "Replace",
        "pattern": {
          "Regex": "^[ \\t]+"
        },
        "content": ""
      },
      {
        "type": "Replace",
        "pattern": {
          "Regex": "[ \\t]+$"
        },
        "content": ""
      }
    ]
  },
  "pre_tokenizer": {
    "type": "Sequence",
    "pretokenizers": [
      {
        "type": "Split",
        "pattern": {
          "Regex": "([rubf]*(['\\\"]{3}.*?['\\\"]{3}|['\\\"].*?['\\\"]))"
        },
        "behavior": "Isolated",
        "invert": false
      },
      {
        "type": "Split",
        "pattern": {
          "Regex": "(#.*|//.*|/\\*[\\s\\S]*?\\*/)"
        },
        "behavior": "Isolated",
        "invert": false
      },
      {
        "type": "Split",
        "pattern": {
          "Regex": "https?://[^\\s]+"
        },
        "behavior": "Isolated",
        "invert": false
      },
      {
        "type": "Split",
        "pattern": {
          "Regex": "\\d+([._]\\d+)*([eE][+-]?\\d+)?"
        },
        "behavior": "Isolated",
        "invert": false
      },
      {
        "type": "Split",
        "pattern": {
          "Regex": "(===|!==|==|!=|<=|>=|\\+\\+|--|&&|\\|\\||->|=>|::|\\?\\?|\\.?)"
        },
        "behavior": "Isolated",
        "invert": false
      },
      {
        "type": "Punctuation",
        "behavior": "Isolated"
      },
      {
        "type": "Split",
        "pattern": {
          "Regex": "(\\p{Extended_Pictographic}(?:\\u200D\\p{Extended_Pictographic})*)"
        },
        "behavior": "Isolated",
        "invert": false
      },
      {
        "type": "Split",
        "pattern": {
          "Regex": "[\\p{L}_][\\p{L}\\p{N}_]*"
        },
        "behavior": "Isolated",
        "invert": false
      },
      {
        "type": "UnicodeScripts"
      },
      {
        "type": "ByteLevel",
        "add_prefix_space": false,
        "trim_offsets": true,
        "use_regex": true
      }
    ]
  },
  "post_processor": {
    "type": "TemplateProcessing",
    "single": [
      {
        "Sequence": {
          "id": "A",
          "type_id": 0
        }
      }
    ],
    "pair": [
      {
        "Sequence": {
          "id": "A",
          "type_id": 0
        }
      },
      {
        "Sequence": {
          "id": "B",
          "type_id": 0
        }
      }
    ],
    "special_tokens": {
      "</s>": {
        "id": "</s>",
        "ids": [
          2
        ],
        "tokens": [
          "</s>"
        ]
      },
      "<mask>": {
        "id": "<mask>",
        "ids": [
          6
        ],
        "tokens": [
          "<mask>"
        ]
      },
      "<s>": {
        "id": "<s>",
        "ids": [
          1
        ],
        "tokens": [
          "<s>"
        ]
      },
      "<unk>": {
        "id": "<unk>",
        "ids": [
          0
        ],
        "tokens": [
          "<unk>"
        ]
      },
      "<|assistant|>": {
        "id": "<|assistant|>",
        "ids": [
          9
        ],
        "tokens": [
          "<|assistant|>"
        ]
      },
      "<|function|>": {
        "id": "<|function|>",
        "ids": [
          11
        ],
        "tokens": [
          "<|function|>"
        ]
      },
      "<|im_end|>": {
        "id": "<|im_end|>",
        "ids": [
          4
        ],
        "tokens": [
          "<|im_end|>"
        ]
      },
      "<|im_start|>": {
        "id": "<|im_start|>",
        "ids": [
          3
        ],
        "tokens": [
          "<|im_start|>"
        ]
      },
      "<|observation|>": {
        "id": "<|observation|>",
        "ids": [
          12
        ],
        "tokens": [
          "<|observation|>"
        ]
      },
      "<|pad|>": {
        "id": "<|pad|>",
        "ids": [
          5
        ],
        "tokens": [
          "<|pad|>"
        ]
      },
      "<|safe|>": {
        "id": "<|safe|>",
        "ids": [
          14
        ],
        "tokens": [
          "<|safe|>"
        ]
      },
      "<|system|>": {
        "id": "<|system|>",
        "ids": [
          7
        ],
        "tokens": [
          "<|system|>"
        ]
      },
      "<|tool|>": {
        "id": "<|tool|>",
        "ids": [
          10
        ],
        "tokens": [
          "<|tool|>"
        ]
      },
      "<|unknown|>": {
        "id": "<|unknown|>",
        "ids": [
          13
        ],
        "tokens": [
          "<|unknown|>"
        ]
      },
      "<|unsafe|>": {
        "id": "<|unsafe|>",
        "ids": [
          15
        ],
        "tokens": [
          "<|unsafe|>"
        ]
      },
      "<|user|>": {
        "id": "<|user|>",
        "ids": [
          8
        ],
        "tokens": [
          "<|user|>"
        ]
      }
    }
  },
  "decoder": {
    "type": "ByteLevel",
    "add_prefix_space": true,
    "trim_offsets": true,
    "use_regex": true
  },
  "model": {
    "type": "BPE",
    "dropout": null,
    "unk_token": "<unk>",
    "continuing_subword_prefix": "",
    "end_of_word_suffix": "",
    "fuse_unk": true,
    "byte_fallback": true,
    "ignore_merges": false,
    "vocab": {
      "<unk>": 0,
      "<s>": 1,
      "</s>": 2,
      "<|im_start|>": 3,
      "<|im_end|>": 4,
      "<|pad|>": 5,
      "<mask>": 6,
      "<|system|>": 7,
      "<|user|>": 8,
      "<|assistant|>": 9,
      "<|tool|>": 10,
      "<|function|>": 11,
      "<|observation|>": 12,
      "<|unknown|>": 13,
      "<|safe|>": 14,
      "<|unsafe|>": 15,
      "!": 16,
      "\"": 17,
      "#": 18,
      "$": 19,
      "%": 20,
      "&": 21,
      "'": 22,
      "(": 23,
      ")": 24,
      "*": 25,
      "+": 26,
      ",": 27,
      "-": 28,
      ".": 29,
      "/": 30,
      "0": 31,
      "1": 32,
      "2": 33,
      "3": 34,
      "4": 35,
      "5": 36,
      "6": 37,
      "7": 38,
      "8": 39,
      "9": 40,
      ":": 41,
      ";": 42,
      "<": 43,
      "=": 44,
      ">": 45,
      "?": 46,
      "@": 47,
      "A": 48,
      "B": 49,
      "C": 50,
      "D": 51,
      "E": 52,
      "F": 53,
      "G": 54,
      "H": 55,
      "I": 56,
      "J": 57,
      "K": 58,
      "L": 59,
      "M": 60,
      "N": 61,
      "O": 62,
      "P": 63,
      "Q": 64,
      "R": 65,
      "S": 66,
      "T": 67,
      "U": 68,
      "V": 69,
      "W": 70,
      "X": 71,
      "Y": 72,
      "Z": 73,
      "[": 74,
      "\\": 75,
      "]": 76,
      "^": 77,
      "_": 78,
      "`": 79,
      "a": 80,
      "b": 81,
      "c": 82,
      "d": 83,
      "e": 84,
      "f": 85,
      "g": 86,
      "h": 87,
      "i": 88,
      "j": 89,
      "k": 90,
      "l": 91,
      "m": 92,
      "n": 93,
      "o": 94,
      "p": 95,
      "q": 96,
      "r": 97,
      "s": 98,
      "t": 99,
      "u": 100,
      "v": 101,
      "w": 102,
      "x": 103,
      "y": 104,
      "z": 105,
      "{": 106,
      "|": 107,
      "}": 108,
      "~": 109,
      "¡": 110,
      "¢": 111,
      "£": 112,
      "¤": 113,
      "¥": 114,
      "¦": 115,
      "§": 116,
      "¨": 117,
      "©": 118,
      "ª": 119,
      "«": 120,
      "¬": 121,
      "®": 122,
      "¯": 123,
      "°": 124,
      "±": 125,
      "²": 126,
      "³": 127,
      "´": 128,
      "µ": 129,
      "¶": 130,
      "·": 131,
      "¸": 132,
      "¹": 133,
      "º": 134,
      "»": 135,
      "¼": 136,
      "½": 137,
      "¾": 138,
      "¿": 139,
      "À": 140,
      "Á": 141,
      "Â": 142,
      "Ã": 143,
      "Ä": 144,
      "Å": 145,
      "Æ": 146,
      "Ç": 147,
      "È": 148,
      "É": 149,
      "Ê": 150,
      "Ë": 151,
      "Ì": 152,
      "Í": 153,
      "Î": 154,
      "Ï": 155,
      "Ð": 156,
      "Ñ": 157,
      "Ò": 158,
      "Ó": 159,
      "Ô": 160,
      "Õ": 161,
      "Ö": 162,
      "×": 163,
      "Ø": 164,
      "Ù": 165,
      "Ú": 166,
      "Û": 167,
      "Ü": 168,
      "Ý": 169,
      "Þ": 170,
      "ß": 171,
      "à": 172,
      "á": 173,
      "â": 174,
      "ã": 175,
      "ä": 176,
      "å": 177,
      "æ": 178,
      "ç": 179,
      "è": 180,
      "é": 181,
      "ê": 182,
      "ë": 183,
      "ì": 184,
      "í": 185,
      "î": 186,
      "ï": 187,
      "ð": 188,
      "ñ": 189,
      "ò": 190,
      "ó": 191,
      "ô": 192,
      "õ": 193,
      "ö": 194,
      "÷": 195,
      "ø": 196,
      "ù": 197,
      "ú": 198,
      "û": 199,
      "ü": 200,
      "ý": 201,
      "þ": 202,
      "ÿ": 203,
      "Ā": 204,
      "ā": 205,
      "Ă": 206,
      "ă": 207,
      "Ą": 208,
      "ą": 209,
      "Ć": 210,
      "ć": 211,
      "Ĉ": 212,
      "ĉ": 213,
      "Ċ": 214,
      "ċ": 215,
      "Č": 216,
      "č": 217,
      "Ď": 218,
      "ď": 219,
      "Đ": 220,
      "đ": 221,
      "Ē": 222,
      "ē": 223,
      "Ĕ": 224,
      "ĕ": 225,
      "Ė": 226,
      "ė": 227,
      "Ę": 228,
      "ę": 229,
      "Ě": 230,
      "ě": 231,
      "Ĝ": 232,
      "ĝ": 233,
      "Ğ": 234,
      "ğ": 235,
      "Ġ": 236,
      "ġ": 237,
      "Ģ": 238,
      "ģ": 239,
      "Ĥ": 240,
      "ĥ": 241,
      "Ħ": 242,
      "ħ": 243,
      "Ĩ": 244,
      "ĩ": 245,
      "Ī": 246,
      "ī": 247,
      "Ĭ": 248,
      "ĭ": 249,
      "Į": 250,
      "į": 251,
      "İ": 252,
      "ı": 253,
      "Ĳ": 254,
      "ĳ": 255,
      "Ĵ": 256,
      "ĵ": 257,
      "Ķ": 258,
      "ķ": 259,
      "ĸ": 260,
      "Ĺ": 261,
      "ĺ": 262,
      "Ļ": 263,
      "ļ": 264,
      "Ľ": 265,
      "ľ": 266,
      "Ŀ": 267,
      "ŀ": 268,
      "Ł": 269,
      "ł": 270,
      "Ń": 271,
      "ä¸": 272,
      "ï¼": 273,
      "çļ": 274,
      "çļĦ": 275,
      "ï¼Į": 276,
      "ãĢ": 277,
      "ãĢĤ": 278,
      "äº": 279,
      "ä»": 280,
      "åı": 281,
      "æľ": 282,
      "è¿": 283,
      "æĪ": 284,
      "åħ": 285,
      "ä½": 286,
      "æĺ": 287,
      "å¤": 288,
      "è¯": 289,
      "ä¸Ģ": 290,
      "æĸ": 291,
      "å®": 292,
      "çĶ": 293,
      "åĪ": 294,
      "åĴ": 295,
      "åľ": 296,
      "åĴĮ": 297,
      "åĲ": 298,
      "åĬ": 299,
      "ç»": 300,
      "ä¹": 301,
      "æĺ¯": 302,
      "å°": 303,
      "åŃ": 304,
      "ä¸ª": 305,
      "ä»¥": 306,
      "è®": 307,
      "ãĢģ": 308,
      "æĪĳ": 309,
      "åľ¨": 310,
      "äºº": 311,
      "ĥ½": 312,
      "æľī": 313,
      "ï¼ļ": 314,
      "æĹ": 315,
      "äºĨ": 316,
      "åı¯": 317,
      "è¿Ļ": 318,
      "åĽ": 319,
      "æĿ": 320,
      "åº": 321,
      "éĩ": 322,
      "å¹": 323,
      "å¸": 324,
      "ä¸Ń": 325,
      "ä¼": 326,
      "éĢ": 327,
      "è¡": 328,
      "èĥ½": 329,
      "åĩ": 330,
      "å·": 331,
      "æĸĩ": 332,
      "åĮ": 333,
      "è¦": 334,
      "è¦ģ": 335,
      "é¢": 336,
      "å¯": 337,
      "å¾": 338,
      "åĨ": 339,
      "æķ": 340,
      "ä¸º": 341,
      "è§": 342,
      "å¥": 343,
      "çī": 344,
      "ç§": 345,
      "ä»¬": 346,
      "éĹ": 347,
      "çİ": 348,
      "æĢ": 349,
      "å¼": 350,
      "ä¸į": 351,
      "çĶ¨": 352,
      "æī": 353,
      "æŃ": 354,
      "æŀ": 355,
      "èĢ": 356,
      "æı": 357,
      "å½": 358,
      "çĶŁ": 359,
      "æĬ": 360,
      "çŃ": 361,
      "æł": 362,
      "éĿ": 363,
      "åį": 364,
      "ä¿": 365,
      "æĦ": 366,
      "æ³": 367,
      "æĥ": 368,
      "çĽ": 369,
      "âĢ": 370,
      "æĿ¥": 371,
      "èĩ": 372,
      "æ°": 373,
      "åĵ": 374,
      "å¦": 375,
      "ä¸ĭ": 376,
      "çĲ": 377,
      "æĻ": 378,
      "æĪĲ": 379,
      "æıĲ": 380,
      "åİ": 381,
      "æĽ": 382,
      "åĪ°": 383,
      "ä»ĸ": 384,
      "åŃ¦": 385,
      "å¦Ĥ": 386,
      "è¡Į": 387,
      "æİ": 388,
      "åĩº": 389,
      "åĳ": 390,
      "å¿": 391,
      "æĭ": 392,
      "æĹ¶": 393,
      "å¯¹": 394,
      "ä½ł": 395,
      "æĶ": 396,
      "åŃĲ": 397,
      "ä¾": 398,
      "äºİ": 399,
      "åľ°": 400,
      "é¢ĺ": 401,
      "ä¸Ĭ": 402,
      "ç«": 403,
      "æµ": 404,
      "è´": 405,
      "å°ı": 406,
      "å¥½": 407,
      "æ¯": 408,
      "ä¼ļ": 409,
      "çŃī": 410,
      "æĸ¹": 411,
      "æľ¬": 412,
      "èĩª": 413,
      "æĽ´": 414,
      "åĪĨ": 415,
      "äºĽ": 416,
      "å¤ļ": 417,
      "èµ": 418,
      "å¤§": 419,
      "å±": 420,
      "æį": 421,
      "ï¼Ł": 422,
      "åĬ¨": 423,
      "ä½ľ": 424,
      "æĮ": 425,
      "å·¥": 426,
      "çī©": 427,
      "çº": 428,
      "åħ³": 429,
      "è¾": 430,
      "å¹¶": 431,
      "åıĳ": 432,
      "ç®": 433,
      "æ´": 434,
      "ç±": 435,
      "é£": 436,
      "éľ": 437,
      "éĿ¢": 438,
      "å®ļ": 439,
      "æ¸": 440,
      "æŀľ": 441,
      "æľĢ": 442,
      "åħ¶": 443,
      "æ¬": 444,
      "åŁ": 445,
      "ç§į": 446,
      "æ²": 447,
      "æ³ķ": 448,
      "çİ°": 449,
      "æĤ": 450,
      "è¿Ľ": 451,
      "éĻ": 452,
      "è¿ĩ": 453,
      "éĹ®": 454,
      "åģ": 455,
      "ä½ĵ": 456,
      "èī": 457,
      "å¤©": 458,
      "å®ĥ": 459,
      "æį®": 460,
      "ç»Ļ": 461,
      "åĬĽ": 462,
      "çĲĨ": 463,
      "æĺİ": 464,
      "éľĢ": 465,
      "å°Ĩ": 466,
      "åºĶ": 467,
      "åĬł": 468,
      "æĢ§": 469,
      "ç±»": 470,
      "çľ": 471,
      "æĦŁ": 472,
      "æĸ°": 473,
      "çĤ": 474,
      "æķ°": 475,
      "æĥħ": 476,
      "éģ": 477,
      "åĮĸ": 478,
      "çĦ": 479,
      "é«": 480,
      "åĲĮ": 481,
      "æĪĸ": 482,
      "ä½¿": 483,
      "åĽł": 484,
      "ä¿Ŀ": 485,
      "å¸¸": 486,
      "éĩį": 487,
      "é«ĺ": 488,
      "æ±": 489,
      "åı¥": 490,
      "è½": 491,
      "å®¶": 492,
      "æĬĢ": 493,
      "ä¹Ł": 494,
      "æľº": 495,
      "å½±": 496,
      "è¶": 497,
      "ä¸»": 498,
      "éĶ": 499,
      "éĺ": 500,
      "è¯Ń": 501,
      "ç³": 502,
      "çĦ¶": 503,
      "ç«ł": 504,
      "æĻº": 505,
      "å¾Ĺ": 506,
      "âĢĿ": 507,
      "éĢļ": 508,
      "çŁ": 509,
      "åĵģ": 510,
      "âĢľ": 511,
      "ç¾": 512,
      "çĶµ": 513,
      "è°": 514,
      "è§£": 515,
      "ä¹ĭ": 516,
      "æģ": 517,
      "ä¹Ī": 518,
      "æĤ¨": 519,
      "çĿ": 520,
      "åº¦": 521,
      "ç¤": 522,
      "èĢĮ": 523,
      "åī": 524,
      "è¡¨": 525,
      "ç»ı": 526,
      "è¯·": 527,
      "æĦı": 528,
      "å¾Ī": 529,
      "éĹ´": 530,
      "ç©": 531,
      "æŃ¤": 532,
      "èĬ": 533,
      "åĸ": 534,
      "æ°Ķ": 535,
      "åħ¬": 536,
      "å¢": 537,
      "éĩı": 538,
      "åĽ½": 539,
      "çĤ¹": 540,
      "æľ¯": 541,
      "èī²": 542,
      "ç¨": 543,
      "èĤ": 544,
      "èĢħ": 545,
      "è¯į": 546,
      "å¹´": 547,
      "å®ŀ": 548,
      "ç¾İ": 549,
      "å»": 550,
      "åĢ": 551,
      "åıĸ": 552,
      "ä¿¡": 553,
      "ä¹ł": 554,
      "åĲį": 555,
      "å¿ĥ": 556,
      "æ®": 557,
      "çĸ": 558,
      "ä½Ĩ": 559,
      "åĲĪ": 560,
      "æīĢ": 561,
      "è¯¥": 562,
      "ä¸ļ": 563,
      "ä¾Ľ": 564,
      "æ´»": 565,
      "ç¡": 566,
      "è®¡": 567,
      "åĲİ": 568,
      "éĤ": 569,
      "äºĭ": 570,
      "ä»İ": 571,
      "è¿ĺ": 572,
      "å»º": 573,
      "çĽ¸": 574,
      "çĿĢ": 575,
      "æŁ": 576,
      "çĲĥ": 577,
      "éĥ½": 578,
      "åĮħ": 579,
      "ç½": 580,
      "æ°´": 581,
      "æł¹": 582,
      "ä¸İ": 583,
      "æĥ³": 584,
      "æ®µ": 585,
      "å¼ı": 586,
      "ç´": 587,
      "é£Ł": 588,
      "çķ": 589,
      "åħ¥": 590,
      "å±ķ": 591,
      "åħ¨": 592,
      "éĩĮ": 593,
      "è¿°": 594,
      "æ¯Ķ": 595,
      "å¤ĸ": 596,
      "çİ¯": 597,
      "æ·": 598,
      "é¡": 599,
      "æŃ£": 600,
      "çī¹": 601,
      "ç¯": 602,
      "éĿŀ": 603,
      "èĲ": 604,
      "æ¡": 605,
      "é¦": 606,
      "åĨħ": 607,
      "è¢": 608,
      "éļ": 609,
      "å½ĵ": 610,
      "å¼Ģ": 611,
      "åİ»": 612,
      "éķ": 613,
      "æģ¯": 614,
      "åıĺ": 615,
      "ç¨ĭ": 616,
      "åĨĻ": 617,
      "ç³»": 618,
      "åŀ": 619,
      "çĥ": 620,
      "éĥ": 621,
      "è·": 622,
      "ç¡®": 623,
      "åĬ©": 624,
      "èģ": 625,
      "è¯´": 626,
      "åĪ¶": 627,
      "ç¼": 628,
      "åħ·": 629,
      "ç¬": 630,
      "å¸Ĥ": 631,
      "è®©": 632,
      "ä»Ģ": 633,
      "çľĭ": 634,
      "éĽ": 635,
      "æĮģ": 636,
      "éģĵ": 637,
      "åĿ": 638,
      "ç¯ĩ": 639,
      "äº§": 640,
      "çĭ": 641,
      "èµ·": 642,
      "çł": 643,
      "ç»ĵ": 644,
      "åķ": 645,
      "å¸®": 646,
      "èº": 647,
      "åıĬ": 648,
      "æ¯ı": 649,
      "è¯Ŀ": 650,
      "éĥ¨": 651,
      "çĽ®": 652,
      "éĤ£": 653,
      "èĭ": 654,
      "ä½ķ": 655,
      "éķ¿": 656,
      "çĪ": 657,
      "èį": 658,
      "åĬ¡": 659,
      "ç®Ĺ": 660,
      "èº«": 661,
      "è¢«": 662,
      "åģ¥": 663,
      "ç§ĳ": 664,
      "æĹ¥": 665,
      "å°ĳ": 666,
      "å·±": 667,
      "åīį": 668,
      "åĻ": 669,
      "æĭ¬": 670,
      "éħ": 671,
      "éĢĤ": 672,
      "åĸľ": 673,
      "æ¬¢": 674,
      "åľº": 675,
      "å®¹": 676,
      "åıĹ": 677,
      "æĹł": 678,
      "åĽŀ": 679,
      "æ¶": 680,
      "éĢī": 681,
      "åĻ¨": 682,
      "æīĭ": 683,
      "åĮ»": 684,
      "äº¤": 685,
      "çĹ": 686,
      "ä»£": 687,
      "æłĩ": 688,
      "åŀĭ": 689,
      "é¢Ĩ": 690,
      "åĪ«": 691,
      "èĻ": 692,
      "å¤Ħ": 693,
      "çŃĶ": 694,
      "è¨": 695,
      "æ»": 696,
      "é¥": 697,
      "éª": 698,
      "ä½į": 699,
      "åĪ©": 700,
      "è´¨": 701,
      "æ¡Ī": 702,
      "è®®": 703,
      "é£İ": 704,
      "å¢ĥ": 705,
      "å¹³": 706,
      "ä¸¤": 707,
      "æĳ": 708,
      "å§": 709,
      "çģ": 710,
      "ä¾ĭ": 711,
      "æİ¨": 712,
      "çĻ": 713,
      "éŁ": 714,
      "æ¸¸": 715,
      "ä»»": 716,
      "åĵį": 717,
      "ä»¶": 718,
      "æĢ»": 719,
      "çŁ¥": 720,
      "æµ·": 721,
      "ç¤¾": 722,
      "è®º": 723,
      "æıı": 724,
      "æĶ¹": 725,
      "åŃĹ": 726,
      "ç¥": 727,
      "åı¸": 728,
      "åŁŁ": 729,
      "è¨Ģ": 730,
      "æķĪ": 731,
      "å°±": 732,
      "æ±Ĥ": 733,
      "æ²¡": 734,
      "ç®Ģ": 735,
      "æĶ¾": 736,
      "åĪĽ": 737,
      "åįķ": 738,
      "åĨ³": 739,
      "è§Ĥ": 740,
      "èĪ": 741,
      "åıª": 742,
      "æľª": 743,
      "è®¾": 744,
      "æ¨": 745,
      "åº·": 746,
      "ç»Ł": 747,
      "ä¸ī": 748,
      "æ¼": 749,
      "æº": 750,
      "æľŁ": 751,
      "é»": 752,
      "å£": 753,
      "ä¹Ĳ": 754,
      "èĬĤ": 755,
      "è¯Ĩ": 756,
      "æ³¨": 757,
      "æ·±": 758,
      "æĻ¯": 759,
      "å¼º": 760,
      "å¤Ł": 761,
      "èĥ": 762,
      "æŃ¥": 763,
      "æŀģ": 764,
      "æĸŃ": 765,
      "åĩı": 766,
      "æµģ": 767,
      "å®ī": 768,
      "æł·": 769,
      "ç²": 770,
      "çĸĹ": 771,
      "æľį": 772,
      "è¾¾": 773,
      "çĶ±": 774,
      "æĺŁ": 775,
      "è±": 776,
      "èĦ": 777,
      "é©": 778,
      "éŁ³": 779,
      "å¤ª": 780,
      "çĮ": 781,
      "å½¢": 782,
      "åİŁ": 783,
      "åģļ": 784,
      "ä¸ĸ": 785,
      "æ¨¡": 786,
      "å·²": 787,
      "èİ": 788,
      "è½¦": 789,
      "æ¬¡": 790,
      "åıĭ": 791,
      "çĪ±": 792,
      "æĮĩ": 793,
      "å¸¦": 794,
      "æĪ·": 795,
      "å¯¼": 796,
      "è¿Ĳ": 797,
      "çłĶ": 798,
      "åĳĺ": 799,
      "éĴ": 800,
      "èı": 801,
      "æĸĻ": 802,
      "æĢĿ": 803,
      "éĶ®": 804,
      "è¯ķ": 805,
      "ç©º": 806,
      "æī¾": 807,
      "ãĢĭ": 808,
      "åŁº": 809,
      "ãĢĬ": 810,
      "è®¤": 811,
      "åİĨ": 812,
      "ä¹ī": 813,
      "åŁİ": 814,
      "æºĲ": 815,
      "å¥¹": 816,
      "ä¼ł": 817,
      "æĬ¤": 818,
      "ç½ĳ": 819,
      "ç¤º": 820,
      "æł¼": 821,
      "åĲĦ": 822,
      "çĬ": 823,
      "æĭ©": 824,
      "çķĮ": 825,
      "åĲĳ": 826,
      "éĢł": 827,
      "ç»Ħ": 828,
      "åħī": 829,
      "æĹħ": 830,
      "è¿ĳ": 831,
      "çĹħ": 832,
      "èĲ½": 833,
      "ç©¶": 834,
      "è£": 835,
      "è°ĥ": 836,
      "åı£": 837,
      "ï¼Ľ": 838,
      "è§Ĩ": 839,
      "åĳ³": 840,
      "çº¢": 841,
      "åĮº": 842,
      "èĢĥ": 843,
      "ä»·": 844,
      "åĲĹ": 845,
      "èĬ±": 846,
      "åĳĬ": 847,
      "çŁŃ": 848,
      "ç¦": 849,
      "é¤": 850,
      "å¿«": 851,
      "å¹¿": 852,
      "ç®¡": 853,
      "é¢Ħ": 854,
      "å¢ŀ": 855,
      "æ£": 856,
      "ï¼ī": 857,
      "åķĨ": 858,
      "éªĮ": 859,
      "é¤Ĳ": 860,
      "æ¸ħ": 861,
      "ä¹¦": 862,
      "ä¸Ķ": 863,
      "åĩĨ": 864,
      "å®Į": 865,
      "åĩł": 866,
      "é¦ĸ": 867,
      "æķĻ": 868,
      "æ¸©": 869,
      "éĵ": 870,
      "å®¢": 871,
      "éĶĻ": 872,
      "é¡¹": 873,
      "ä¼ĺ": 874,
      "æļ": 875,
      "è¶Ĭ": 876,
      "æĢģ": 877,
      "ç´ł": 878,
      "é¸": 879,
      "å¼ķ": 880,
      "éĩĳ": 881,
      "è®¸": 882,
      "è¯Ħ": 883,
      "åħĪ": 884,
      "åĬŁ": 885,
      "æķħ": 886,
      "æİ¥": 887,
      "ç¼ĸ": 888,
      "å¤ĩ": 889,
      "è½»": 890,
      "æĶ¯": 891,
      "ç¬¬": 892,
      "è§ī": 893,
      "åĪĹ": 894,
      "ï¼Ī": 895,
      "è¯»": 896,
      "èµĦ": 897,
      "æĪĺ": 898,
      "èĮ": 899,
      "æµĭ": 900,
      "å§ĭ": 901,
      "ä»Ĭ": 902,
      "éĺ³": 903,
      "æĳĺ": 904,
      "èĩ´": 905,
      "åŃĺ": 906,
      "åĵª": 907,
      "ç³ĸ": 908,
      "ç»Ń": 909,
      "åĢĻ": 910,
      "ï¼ģ": 911,
      "æľĭ": 912,
      "æŀĲ": 913,
      "åħ±": 914,
      "åĲ«": 915,
      "æľĪ": 916,
      "èıľ": 917,
      "ç¥ŀ": 918,
      "çº¦": 919,
      "åħĭ": 920,
      "ç§¯": 921,
      "ç«ĭ": 922,
      "çİĩ": 923,
      "æķ´": 924,
      "åı²": 925,
      "ç»Ĩ": 926,
      "çľŁ": 927,
      "æİ¢": 928,
      "çĭĹ": 929,
      "æ»¡": 930,
      "è±¡": 931,
      "å±±": 932,
      "è¶³": 933,
      "çĥŃ": 934,
      "åĲ¦": 935,
      "å¤į": 936,
      "åĪĻ": 937,
      "ç¿": 938,
      "åĨµ": 939,
      "èĳ": 940,
      "åħĥ": 941,
      "è§Ĵ": 942,
      "æİĴ": 943,
      "çħ": 944,
      "é¥®": 945,
      "åĥ": 946,
      "æĬ¥": 947,
      "æľĽ": 948,
      "éĩĩ": 949,
      "åıį": 950,
      "è°¢": 951,
      "èĢģ": 952,
      "çº¿": 953,
      "åĪĴ": 954,
      "æ¼Ķ": 955,
      "è¾ĵ": 956,
      "çĻ½": 957,
      "è§Ħ": 958,
      "å°½": 959,
      "éĢŁ": 960,
      "åĶ": 961,
      "è¶£": 962,
      "è·¯": 963,
      "éĻ©": 964,
      "å¥³": 965,
      "åıĤ": 966,
      "èģĶ": 967,
      "åĲĥ": 968,
      "ä»½": 969,
      "æĸ¯": 970,
      "è¥": 971,
      "æĺĵ": 972,
      "çĽ´": 973,
      "ç²¾": 974,
      "Â·": 975,
      "å¤´": 976,
      "åĢ¼": 977,
      "è¥¿": 978,
      "æĸ½": 979,
      "åĨį": 980,
      "æĲ": 981,
      "æ¦": 982,
      "æ¶Ī": 983,
      "åĥı": 984,
      "ä»ĭ": 985,
      "çĬ¶": 986,
      "åĽ¾": 987,
      "å²": 988,
      "æĶ¶": 989,
      "æŃĮ": 990,
      "æ²»": 991,
      "éļ¾": 992,
      "ä¹°": 993,
      "æŀĦ": 994,
      "ä¾¿": 995,
      "æŁ¥": 996,
      "åĳ¨": 997,
      "èİ·": 998,
      "è¾ĥ": 999,
      "èĻĳ": 1000,
      "æ¢": 1001,
      "æĿ¡": 1002,
      "è§ģ": 1003,
      "çīĩ": 1004,
      "åĲ¬": 1005,
      "æĶ¿": 1006,
      "æ¤": 1007,
      "è¯Ĺ": 1008,
      "æīĵ": 1009,
      "èĩ³": 1010,
      "éħį": 1011,
      "éļı": 1012,
      "çı": 1013,
      "çĮ«": 1014,
      "ç»ĥ": 1015,
      "æħ": 1016,
      "åºı": 1017,
      "çĭ¬": 1018,
      "ç´¢": 1019,
      "å¼ł": 1020,
      "èĤ²": 1021,
      "ä¸½": 1022,
      "åĳ½": 1023,
      "æĬĬ": 1024,
      "äº«": 1025,
      "ç¢": 1026,
      "è®°": 1027,
      "åħħ": 1028,
      "èĭ¹": 1029,
      "äºĮ": 1030,
      "åĲ¸": 1031,
      "æ¬¾": 1032,
      "åı¤": 1033,
      "çŃĸ": 1034,
      "å¡": 1035,
      "åĽŃ": 1036,
      "è´Ń": 1037,
      "åħ´": 1038,
      "éĺŁ": 1039,
      "å¸Ī": 1040,
      "ä½İ": 1041,
      "å¤±": 1042,
      "éĹ¨": 1043,
      "ç»´": 1044,
      "åį³": 1045,
      "æīį": 1046,
      "éĹ»": 1047,
      "ç§°": 1048,
      "å¸ĥ": 1049,
      "åħį": 1050,
      "è¯ī": 1051,
      "éĩĬ": 1052,
      "äºĴ": 1053,
      "èįĲ": 1054,
      "åĭ": 1055,
      "å°Ŀ": 1056,
      "æ¦Ĥ": 1057,
      "æĿĲ": 1058,
      "ç»į": 1059,
      "èĲ¥": 1060,
      "æĿ¾": 1061,
      "éĽĨ": 1062,
      "å¯Į": 1063,
      "è¯¯": 1064,
      "åŃ£": 1065,
      "å¿ħ": 1066,
      "å¨": 1067,
      "èĽ": 1068,
      "èĭ±": 1069,
      "çĶ·": 1070,
      "è½¬": 1071,
      "åı·": 1072,
      "æ°ĳ": 1073,
      "åįĩ": 1074,
      "åİĭ": 1075,
      "è®¨": 1076,
      "é¦Ļ": 1077,
      "éĻ¤": 1078,
      "èµĽ": 1079,
      "è®²": 1080,
      "åĬ¿": 1081,
      "ä¸ĵ": 1082,
      "æĻļ": 1083,
      "èĤī": 1084,
      "é²": 1085,
      "åĮĹ": 1086,
      "ä¿®": 1087,
      "æĿİ": 1088,
      "è´¹": 1089,
      "é»ĳ": 1090,
      "éĶĢ": 1091,
      "æĮĳ": 1092,
      "è£ħ": 1093,
      "çª": 1094,
      "åįİ": 1095,
      "æĪı": 1096,
      "åįģ": 1097,
      "è¯ģ": 1098,
      "æİ§": 1099,
      "æŁĵ": 1100,
      "åħ»": 1101,
      "æŁĲ": 1102,
      "é©¬": 1103,
      "èħ": 1104,
      "åĸĦ": 1105,
      "åĽ´": 1106,
      "ç¦»": 1107,
      "èīº": 1108,
      "ç»Ī": 1109,
      "å¯»": 1110,
      "å¤ı": 1111,
      "å¸Į": 1112,
      "æİª": 1113,
      "èĳĹ": 1114,
      "éĻħ": 1115,
      "å¾ĭ": 1116,
      "éĺ²": 1117,
      "è¶ħ": 1118,
      "åĽĽ": 1119,
      "æĴ": 1120,
      "è¿ľ": 1121,
      "åŃ©": 1122,
      "æŀĹ": 1123,
      "å°Ķ": 1124,
      "æ³Ľ": 1125,
      "å·§": 1126,
      "çģ«": 1127,
      "çħ§": 1128,
      "å£°": 1129,
      "èµ°": 1130,
      "æĭī": 1131,
      "åĳ¢": 1132,
      "åı¦": 1133,
      "ä»ħ": 1134,
      "è´Ł": 1135,
      "ç½®": 1136,
      "åįĹ": 1137,
      "çĨ": 1138,
      "å£«": 1139,
      "åİħ": 1140,
      "èģĮ": 1141,
      "å¾·": 1142,
      "è¾¹": 1143,
      "æĹ©": 1144,
      "éĻį": 1145,
      "èĽĭ": 1146,
      "æĺ¾": 1147,
      "åĦ": 1148,
      "æĪ¿": 1149,
      "èŀ": 1150,
      "ä¸ľ": 1151,
      "è¾ĳ": 1152,
      "æ½": 1153,
      "ä¼¼": 1154,
      "äºĶ": 1155,
      "æ¿": 1156,
      "å¯Ĩ": 1157,
      "çİ©": 1158,
      "ç±³": 1159,
      "æĭ¥": 1160,
      "çĶ»": 1161,
      "æĵ": 1162,
      "æļĸ": 1163,
      "çİĭ": 1164,
      "éģ¿": 1165,
      "åĴĸ": 1166,
      "è®Ń": 1167,
      "å®³": 1168,
      "æµİ": 1169,
      "åı°": 1170,
      "åĽ¢": 1171,
      "å¿µ": 1172,
      "ä¼ģ": 1173,
      "äºļ": 1174,
      "åķ¡": 1175,
      "èŀį": 1176,
      "äº¬": 1177,
      "éĻĲ": 1178,
      "æ´ģ": 1179,
      "æį¢": 1180,
      "å®¤": 1181,
      "èįī": 1182,
      "æ©": 1183,
      "åł": 1184,
      "éĽ¨": 1185,
      "ç»ľ": 1186,
      "æĢİ": 1187,
      "å·´": 1188,
      "æ±¡": 1189,
      "åĦ¿": 1190,
      "æłĳ": 1191,
      "å¹²": 1192,
      "æ¤į": 1193,
      "é»Ħ": 1194,
      "æĬķ": 1195,
      "ç©¿": 1196,
      "éħĴ": 1197,
      "è¡£": 1198,
      "é£ŀ": 1199,
      "æ¿Ģ": 1200,
      "ä¼Ĺ": 1201,
      "å¾ģ": 1202,
      "éĺħ": 1203,
      "çīĽ": 1204,
      "åºĹ": 1205,
      "å¾Ģ": 1206,
      "å±ŀ": 1207,
      "çĳ": 1208,
      "åºŃ": 1209,
      "çĸ¾": 1210,
      "æ²¹": 1211,
      "éº": 1212,
      "åĿĩ": 1213,
      "å±ħ": 1214,
      "çīĮ": 1215,
      "æ¹": 1216,
      "å¾®": 1217,
      "ä»¤": 1218,
      "äºī": 1219,
      "ä¸ĩ": 1220,
      "æ²Ļ": 1221,
      "åª": 1222,
      "é±": 1223,
      "é±¼": 1224,
      "åī§": 1225,
      "ç«Ļ": 1226,
      "ç»¿": 1227,
      "çĽĬ": 1228,
      "é¼": 1229,
      "ç¬¦": 1230,
      "èĵ": 1231,
      "èī¯": 1232,
      "åĪĩ": 1233,
      "é¾": 1234,
      "å¤ľ": 1235,
      "å¾ħ": 1236,
      "åĪ¤": 1237,
      "å®Ŀ": 1238,
      "ç¿»": 1239,
      "æķ£": 1240,
      "å¥¶": 1241,
      "çº§": 1242,
      "å¥ĩ": 1243,
      "ç»ĩ": 1244,
      "è¯Ĭ": 1245,
      "æ£Ģ": 1246,
      "åıĪ": 1247,
      "é¢ľ": 1248,
      "éģĩ": 1249,
      "åĬª": 1250,
      "ä¸¾": 1251,
      "åºľ": 1252,
      "åĿĹ": 1253,
      "é¦Ĩ": 1254,
      "æĻ®": 1255,
      "è¿ŀ": 1256,
      "ä¸°": 1257,
      "é¸¡": 1258,
      "çĿ¡": 1259,
      "åĪ»": 1260,
      "æĺ¥": 1261,
      "æµª": 1262,
      "åĶ®": 1263,
      "è½¯": 1264,
      "èĪĴ": 1265,
      "èį¯": 1266,
      "èĻ½": 1267,
      "éĿĻ": 1268,
      "çĥ¤": 1269,
      "è¿½": 1270,
      "çŁ³": 1271,
      "èĦĳ": 1272,
      "ç§ĭ": 1273,
      "æĤ£": 1274,
      "é¸Ł": 1275,
      "æ±½": 1276,
      "ä¸¥": 1277,
      "éŃ": 1278,
      "èŃ": 1279,
      "åħ¸": 1280,
      "å±Ĥ": 1281,
      "ç¼º": 1282,
      "å½Ĵ": 1283,
      "ç¦ı": 1284,
      "åģĩ": 1285,
      "äºĳ": 1286,
      "è¯¦": 1287,
      "èĮĥ": 1288,
      "èĶ": 1289,
      "æĽ²": 1290,
      "æĿ¯": 1291,
      "ç¬Ķ": 1292,
      "æĿĤ": 1293,
      "éĻ¢": 1294,
      "éĨ": 1295,
      "æĮī": 1296,
      "æ¥": 1297,
      "çĵ": 1298,
      "é²ľ": 1299,
      "æ´ĭ": 1300,
      "æł¡": 1301,
      "çķ¥": 1302,
      "åªĴ": 1303,
      "ä¸´": 1304,
      "åĽ°": 1305,
      "åį¡": 1306,
      "è·ĳ": 1307,
      "èĥĮ": 1308,
      "æ¢¦": 1309,
      "åı¶": 1310,
      "åĨ°": 1311,
      "çģµ": 1312,
      "å½©": 1313,
      "çªģ": 1314,
      "æĿĥ": 1315,
      "çľ¼": 1316,
      "åĿļ": 1317,
      "èĵĿ": 1318,
      "æ³¢": 1319,
      "åĳ¼": 1320,
      "äº²": 1321,
      "çĸ«": 1322,
      "èľ": 1323,
      "çĻ¾": 1324,
      "æĹı": 1325,
      "æĳĦ": 1326,
      "çł´": 1327,
      "åĬŀ": 1328,
      "å³": 1329,
      "ç¼ĵ": 1330,
      "èĴ": 1331,
      "ä½ı": 1332,
      "ä¿ĥ": 1333,
      "é¢Ĺ": 1334,
      "ç´§": 1335,
      "çķĻ": 1336,
      "çĽĳ": 1337,
      "éĴŁ": 1338,
      "è¿İ": 1339,
      "çĹĩ": 1340,
      "å°¼": 1341,
      "æ¯į": 1342,
      "ç½Ĺ": 1343,
      "çłģ": 1344,
      "äº®": 1345,
      "çĤ¼": 1346,
      "è¡¡": 1347,
      "å¼Ĥ": 1348,
      "æĭŁ": 1349,
      "éĿĴ": 1350,
      "æľ¨": 1351,
      "æ´²": 1352,
      "ç¾¤": 1353,
      "åĤ": 1354,
      "è´£": 1355,
      "çļ®": 1356,
      "åĲ§": 1357,
      "é¡»": 1358,
      "æĽ¿": 1359,
      "å¨ģ": 1360,
      "è¯ĳ": 1361,
      "åľ¾": 1362,
      "åŀĥ": 1363,
      "ä¼¤": 1364,
      "çĩ": 1365,
      "æ²³": 1366,
      "æ»©": 1367,
      "èĶ¬": 1368,
      "ä»į": 1369,
      "æ¼«": 1370,
      "åľŁ": 1371,
      "éĤ®": 1372,
      "éĩİ": 1373,
      "éĺ¿": 1374,
      "çľł": 1375,
      "ç§ĺ": 1376,
      "åº§": 1377,
      "æħ¢": 1378,
      "è¯¢": 1379,
      "åĩ»": 1380,
      "ç¤¼": 1381,
      "èĥľ": 1382,
      "çŃĳ": 1383,
      "éĢĲ": 1384,
      "å·ŀ": 1385,
      "è¶ĭ": 1386,
      "å·¨": 1387,
      "ä¼ĳ": 1388,
      "æ°§": 1389,
      "èģĬ": 1390,
      "éĢģ": 1391,
      "å½ķ": 1392,
      "æĩ": 1393,
      "èŃ¦": 1394,
      "åį°": 1395,
      "åĨĽ": 1396,
      "éĶ»": 1397,
      "åįı": 1398,
      "å·®": 1399,
      "åī©": 1400,
      "æ¸Ĳ": 1401,
      "æŃ¢": 1402,
      "éļĲ": 1403,
      "ä½³": 1404,
      "é©¶": 1405,
      "å°Ĭ": 1406,
      "çºª": 1407,
      "æĲŃ": 1408,
      "èª": 1409,
      "é¢ĳ": 1410,
      "æĺ¨": 1411,
      "éĴ±": 1412,
      "æĿ¿": 1413,
      "é©¾": 1414,
      "ç»ª": 1415,
      "ç§ģ": 1416,
      "ç¬ĳ": 1417,
      "æ¯Ľ": 1418,
      "çĸĳ": 1419,
      "æĥĬ": 1420,
      "åį«": 1421,
      "åĵĪ": 1422,
      "åĪĿ": 1423,
      "åĬ±": 1424,
      "ç²ī": 1425,
      "æ¶ī": 1426,
      "æĥ¯": 1427,
      "åĨľ": 1428,
      "è´¢": 1429,
      "æł¸": 1430,
      "å¿Ĺ": 1431,
      "è¡Ģ": 1432,
      "èĹ": 1433,
      "ä¼¦": 1434,
      "æ·»": 1435,
      "ä¾Ŀ": 1436,
      "åĨ·": 1437,
      "éĴĪ": 1438,
      "å°ļ": 1439,
      "å²ģ": 1440,
      "åºķ": 1441,
      "å©": 1442,
      "ç¹": 1443,
      "æ©Ļ": 1444,
      "çĽĸ": 1445,
      "æ±ĩ": 1446,
      "æĭħ": 1447,
      "æ½ľ": 1448,
      "ç»§": 1449,
      "åįļ": 1450,
      "çīĪ": 1451,
      "ç¥¨": 1452,
      "å¹¸": 1453,
      "åĪļ": 1454,
      "å°Ħ": 1455,
      "çĦ¦": 1456,
      "æĹ¨": 1457,
      "æī§": 1458,
      "ç¡Ģ": 1459,
      "åıĮ": 1460,
      "èĻļ": 1461,
      "ç§»": 1462,
      "èĪŀ": 1463,
      "éĵģ": 1464,
      "åį´": 1465,
      "åį±": 1466,
      "æ¯Ĵ": 1467,
      "å±Ģ": 1468,
      "å¡ĳ": 1469,
      "âĢĶ": 1470,
      "åįĪ": 1471,
      "èĮ¶": 1472,
      "å®ĩ": 1473,
      "æĦ¿": 1474,
      "å¯Ł": 1475,
      "å¹»": 1476,
      "æĬ½": 1477,
      "åı«": 1478,
      "çģ¾": 1479,
      "èķ": 1480,
      "åķĬ": 1481,
      "é¥Ń": 1482,
      "åįĥ": 1483,
      "åĸĿ": 1484,
      "å®£": 1485,
      "å³°": 1486,
      "çıŃ": 1487,
      "ç«ŀ": 1488,
      "è±Ĩ": 1489,
      "çº³": 1490,
      "èĸ": 1491,
      "éŀ": 1492,
      "ä»ĺ": 1493,
      "å¥¥": 1494,
      "åĿĲ": 1495,
      "ç¨³": 1496,
      "ç«¯": 1497,
      "ç»Ŀ": 1498,
      "éĢı": 1499,
      "èģļ": 1500,
      "è·Ł": 1501,
      "è¯¾": 1502,
      "ç¹ģ": 1503,
      "ä¹ħ": 1504,
      "ä½Ļ": 1505,
      "é¡º": 1506,
      "çĮ®": 1507,
      "æĲľ": 1508,
      "é¹": 1509,
      "ç¢³": 1510,
      "çĥĪ": 1511,
      "æķĳ": 1512,
      "æ´ŀ": 1513,
      "æ£®": 1514,
      "æĭ¿": 1515,
      "èĪ¬": 1516,
      "èĪª": 1517,
      "åįĬ": 1518,
      "é¾Ļ": 1519,
      "é¼ĵ": 1520,
      "çİĽ": 1521,
      "éĵ¾": 1522,
      "åĨ¬": 1523,
      "éĵ¶": 1524,
      "æ´Ĺ": 1525,
      "é¢Ŀ": 1526,
      "æŁĶ": 1527,
      "åħ°": 1528,
      "å®ĺ": 1529,
      "ä¼´": 1530,
      "éŀĭ": 1531,
      "æĬ±": 1532,
      "è¿·": 1533,
      "å®ł": 1534,
      "æĦī": 1535,
      "èĲ¨": 1536,
      "æ²ī": 1537,
      "é¡¾": 1538,
      "æľ«": 1539,
      "çĨŁ": 1540,
      "ä¼°": 1541,
      "çľģ": 1542,
      "éª¤": 1543,
      "æĽ¾": 1544,
      "æŃ»": 1545,
      "åĢĭ": 1546,
      "åĭĩ": 1547,
      "éĽª": 1548,
      "çºł": 1549,
      "èµı": 1550,
      "æľĹ": 1551,
      "æĵį": 1552,
      "çĨĬ": 1553,
      "åŃ¤": 1554,
      "åģı": 1555,
      "åĿı": 1556,
      "è¸": 1557,
      "çķħ": 1558,
      "æ³³": 1559,
      "æĭ¼": 1560,
      "éŃĶ": 1561,
      "æİĮ": 1562,
      "æ¬§": 1563,
      "è°Ī": 1564,
      "å§Ĩ": 1565,
      "çĶľ": 1566,
      "æ²Ł": 1567,
      "è·Ŀ": 1568,
      "åģľ": 1569,
      "è´µ": 1570,
      "éĢĶ": 1571,
      "æ··": 1572,
      "é¥°": 1573,
      "çģ¯": 1574,
      "éħ±": 1575,
      "èĤ¡": 1576,
      "è°ģ": 1577,
      "å²Ľ": 1578,
      "éħ¸": 1579,
      "æĴŃ": 1580,
      "éĻĪ": 1581,
      "æī¿": 1582,
      "æ±ī": 1583,
      "ä¼½": 1584,
      "ç³ķ": 1585,
      "ç£": 1586,
      "å¥ĸ": 1587,
      "éľ²": 1588,
      "å¤«": 1589,
      "éĿł": 1590,
      "å¿ĺ": 1591,
      "å®Ļ": 1592,
      "æĻ°": 1593,
      "èĨ": 1594,
      "åŁ¹": 1595,
      "çĳľ": 1596,
      "å¿Ĩ": 1597,
      "è´§": 1598,
      "å¥Ĺ": 1599,
      "æ¥¼": 1600,
      "ä¹³": 1601,
      "éĿ©": 1602,
      "æļĹ": 1603,
      "çĹĽ": 1604,
      "æļ´": 1605,
      "çĻ»": 1606,
      "æµĵ": 1607,
      "æĬĺ": 1608,
      "æĬĹ": 1609,
      "çº½": 1610,
      "æ±Ł": 1611,
      "éģĹ": 1612,
      "çĬ¯": 1613,
      "æı¡": 1614,
      "æ±¤": 1615,
      "åĨĴ": 1616,
      "è·³": 1617,
      "åĢĴ": 1618,
      "ç§Ģ": 1619,
      "èĹı": 1620,
      "åºĬ": 1621,
      "æ£Ĵ": 1622,
      "å·¦": 1623,
      "éĨĴ": 1624,
      "æįŁ": 1625,
      "å®Ī": 1626,
      "éļľ": 1627,
      "è¢ĭ": 1628,
      "æľĿ": 1629,
      "ç¥Ŀ": 1630,
      "é¡¿": 1631,
      "æŃ§": 1632,
      "åı³": 1633,
      "æ¹ĸ": 1634,
      "å°ģ": 1635,
      "åĹ": 1636,
      "æ½®": 1637,
      "è¡Ĺ": 1638,
      "ç®±": 1639,
      "æĮ¥": 1640,
      "åľĨ": 1641,
      "èĢĲ": 1642,
      "åĺ": 1643,
      "èĦĤ": 1644,
      "å¡Ķ": 1645,
      "åĨ²": 1646,
      "ä¹İ": 1647,
      "æ¬£": 1648,
      "è£¤": 1649,
      "æ°¸": 1650,
      "çº¸": 1651,
      "ç¯®": 1652,
      "èĦļ": 1653,
      "æģĲ": 1654,
      "ç«¥": 1655,
      "éĹ²": 1656,
      "ç±į": 1657,
      "çħ®": 1658,
      "é»İ": 1659,
      "æī©": 1660,
      "è¾Ĩ": 1661,
      "è´¡": 1662,
      "çĽĲ": 1663,
      "ç½ª": 1664,
      "æĶ»": 1665,
      "èĿ": 1666,
      "èĤ¤": 1667,
      "ä¸Ŀ": 1668,
      "è°·": 1669,
      "çĤº": 1670,
      "ä»¿": 1671,
      "éĶħ": 1672,
      "çĩĥ": 1673,
      "éĸ": 1674,
      "æ±ł": 1675,
      "ç»¼": 1676,
      "åĢĳ": 1677,
      "æ»ĳ": 1678,
      "å¸ģ": 1679,
      "æĿĳ": 1680,
      "éĵħ": 1681,
      "çĽĺ": 1682,
      "æ±ģ": 1683,
      "ä¹ĺ": 1684,
      "èµŀ": 1685,
      "å¿Ļ": 1686,
      "è²": 1687,
      "æģ¶": 1688,
      "åĬ³": 1689,
      "çıį": 1690,
      "å®«": 1691,
      "ç¼©": 1692,
      "åİļ": 1693,
      "æ´¾": 1694,
      "å¥ĭ": 1695,
      "åĤ¨": 1696,
      "åĲ¯": 1697,
      "æĺł": 1698,
      "æĢ¥": 1699,
      "å°į": 1700,
      "åħŃ": 1701,
      "çĥ§": 1702,
      "å¾Ħ": 1703,
      "æŀ¶": 1704,
      "å¦Ī": 1705,
      "åĨł": 1706,
      "çİī": 1707,
      "çĪ¶": 1708,
      "éĢĻ": 1709,
      "æĿ°": 1710,
      "çĤĴ": 1711,
      "éģį": 1712,
      "éº¦": 1713,
      "åĽº": 1714,
      "åĩī": 1715,
      "æŃī": 1716,
      "æĸĹ": 1717,
      "åĳĪ": 1718,
      "é¥¼": 1719,
      "åĪº": 1720,
      "å®½": 1721,
      "éĻĦ": 1722,
      "æ°Ľ": 1723,
      "ä½Ľ": 1724,
      "éľĩ": 1725,
      "æĿŁ": 1726,
      "åĶ±": 1727,
      "çµ": 1728,
      "åºŁ": 1729,
      "éĽħ": 1730,
      "ç»©": 1731,
      "æ¶¦": 1732,
      "æĤ¦": 1733,
      "å¯Ĵ": 1734,
      "çŃ¾": 1735,
      "è®¢": 1736,
      "å°¤": 1737,
      "å¹ħ": 1738,
      "åºĵ": 1739,
      "çīĻ": 1740,
      "ç»ĺ": 1741,
      "æİī": 1742,
      "çĥŁ": 1743,
      "æ¹¿": 1744,
      "èĤĮ": 1745,
      "èĭ¦": 1746,
      "çĽĽ": 1747,
      "æ¤Ĵ": 1748,
      "å¨±": 1749,
      "å¾ª": 1750,
      "éªĳ": 1751,
      "çıł": 1752,
      "å¼ĥ": 1753,
      "æĢĢ": 1754,
      "æĬ«": 1755,
      "èĤ¥": 1756,
      "èĭı": 1757,
      "å©ļ": 1758,
      "è©": 1759,
      "èĥ¡": 1760,
      "è·µ": 1761,
      "æ¶²": 1762,
      "å°¾": 1763,
      "æ³¡": 1764,
      "ç¿°": 1765,
      "èĥģ": 1766,
      "éĢ»": 1767,
      "åĿ¦": 1768,
      "å®ľ": 1769,
      "è®¿": 1770,
      "æķ¬": 1771,
      "èĪ¹": 1772,
      "æ³°": 1773,
      "é¾Ħ": 1774,
      "ä¾Ĩ": 1775,
      "æľµ": 1776,
      "è¯ļ": 1777,
      "çĶļ": 1778,
      "åĵº": 1779,
      "å¥ı": 1780,
      "è°±": 1781,
      "åĵ¥": 1782,
      "æ¡Į": 1783,
      "è¾£": 1784,
      "éĽ¶": 1785,
      "åŃ¸": 1786,
      "èķī": 1787,
      "çĤİ": 1788,
      "çĬ¬": 1789,
      "æĭį": 1790,
      "å¦Ļ": 1791,
      "æĭĽ": 1792,
      "è´Ŀ": 1793,
      "è½®": 1794,
      "èľľ": 1795,
      "åĩĢ": 1796,
      "éģµ": 1797,
      "åĢ¾": 1798,
      "å´": 1799,
      "ä¹¡": 1800,
      "äº¡": 1801,
      "è¡¥": 1802,
      "èĦ±": 1803,
      "èĤ¯": 1804,
      "çĶ³": 1805,
      "è´¥": 1806,
      "éĹŃ": 1807,
      "éº¼": 1808,
      "åį·": 1809,
      "æ¾": 1810,
      "èªī": 1811,
      "æĩĤ": 1812,
      "çĴ": 1813,
      "è¿¹": 1814,
      "åħ«": 1815,
      "åľ£": 1816,
      "ç¶": 1817,
      "å«": 1818,
      "éĥģ": 1819,
      "éķĩ": 1820,
      "çĻĮ": 1821,
      "ç¡¬": 1822,
      "èİĵ": 1823,
      "ä¹ı": 1824,
      "è§¦": 1825,
      "èĭĹ": 1826,
      "å»¶": 1827,
      "åºĨ": 1828,
      "æķı": 1829,
      "æŃ¦": 1830,
      "èĢ³": 1831,
      "éª¨": 1832,
      "åīĤ": 1833,
      "è³": 1834,
      "çªĹ": 1835,
      "å®Ĺ": 1836,
      "åĨ¥": 1837,
      "çķª": 1838,
      "æĹ§": 1839,
      "äº¿": 1840,
      "æħ§": 1841,
      "å£®": 1842,
      "å®ģ": 1843,
      "è½½": 1844,
      "ä¸ĥ": 1845,
      "åłĤ": 1846,
      "å¯¿": 1847,
      "åĮĢ": 1848,
      "èģª": 1849,
      "æĹĭ": 1850,
      "é¼ł": 1851,
      "æĿĢ": 1852,
      "æ®Ĭ": 1853,
      "æ¼Ĥ": 1854,
      "èĤª": 1855,
      "èĮĦ": 1856,
      "é»ĺ": 1857,
      "å®¾": 1858,
      "è¿ª": 1859,
      "æĭĮ": 1860,
      "è¯º": 1861,
      "èĳ±": 1862,
      "èļ": 1863,
      "åĢŁ": 1864,
      "çĸ²": 1865,
      "å½¼": 1866,
      "å¼¹": 1867,
      "èĦı": 1868,
      "éĢĢ": 1869,
      "ä¹Ŀ": 1870,
      "è°ĵ": 1871,
      "è¹": 1872,
      "æĹ¢": 1873,
      "å¸Ŀ": 1874,
      "æľĥ": 1875,
      "åĴ¨": 1876,
      "å·Ŀ": 1877,
      "èĢĹ": 1878,
      "éĢĴ": 1879,
      "è¾ħ": 1880,
      "è¿ħ": 1881,
      "çĵľ": 1882,
      "é¡¶": 1883,
      "æĻ¨": 1884,
      "æķ¢": 1885,
      "ç»ķ": 1886,
      "è§Ī": 1887,
      "æĥł": 1888,
      "æģĴ": 1889,
      "çĵ¶": 1890,
      "éĺ¶": 1891,
      "çŀ": 1892,
      "åĵ²": 1893,
      "éº»": 1894,
      "é½": 1895,
      "èį£": 1896,
      "çĺ": 1897,
      "æī¹": 1898,
      "æµ®": 1899,
      "éĻĨ": 1900,
      "èī¾": 1901,
      "æ·¡": 1902,
      "çĪĨ": 1903,
      "çº¯": 1904,
      "æģ©": 1905,
      "éķľ": 1906,
      "çĻ¼": 1907,
      "çĶ²": 1908,
      "å®¡": 1909,
      "éĽ·": 1910,
      "çĥ¹": 1911,
      "æĤ²": 1912,
      "è¸ª": 1913,
      "å¡«": 1914,
      "èĻ«": 1915,
      "æĻĤ": 1916,
      "æį·": 1917,
      "å±ĭ": 1918,
      "éĴ¢": 1919,
      "åĶĲ": 1920,
      "âĢ¦": 1921,
      "çĶ°": 1922,
      "æ´Ľ": 1923,
      "èħ¿": 1924,
      "åı¹": 1925,
      "å¹ķ": 1926,
      "æīĺ": 1927,
      "éĹª": 1928,
      "èĦ¸": 1929,
      "æ¶µ": 1930,
      "æ¡¥": 1931,
      "æĸ¼": 1932,
      "å¡ŀ": 1933,
      "è¿Ŀ": 1934,
      "èµ¢": 1935,
      "æĻ´": 1936,
      "éŁ©": 1937,
      "èĥŀ": 1938,
      "åł¡": 1939,
      "äºĪ": 1940,
      "æª": 1941,
      "åįł": 1942,
      "åįĸ": 1943,
      "çĿĽ": 1944,
      "æ·ĭ": 1945,
      "å°º": 1946,
      "éĢĥ": 1947,
      "ä»Ķ": 1948,
      "åĲī": 1949,
      "ä¼Ĭ": 1950,
      "ç´¯": 1951,
      "æ¸¯": 1952,
      "é¦Ī": 1953,
      "èĤº": 1954,
      "èľĤ": 1955,
      "æĪ´": 1956,
      "èĭ¥": 1957,
      "åī¯": 1958,
      "å¼±": 1959,
      "æĢķ": 1960,
      "çĿ£": 1961,
      "åĵ¦": 1962,
      "çĪ¬": 1963,
      "æ¡£": 1964,
      "èĸĦ": 1965,
      "åĲ¹": 1966,
      "å²¸": 1967,
      "éĽĦ": 1968,
      "ä»°": 1969,
      "åŁĥ": 1970,
      "æįķ": 1971,
      "ç²Ĵ": 1972,
      "é£ĺ": 1973,
      "çĤ¸": 1974,
      "å§ĵ": 1975,
      "ç¦ģ": 1976,
      "èİ«": 1977,
      "ç´«": 1978,
      "çı¾": 1979,
      "åİ¨": 1980,
      "éļĶ": 1981,
      "ç¨İ": 1982,
      "çĽĴ": 1983,
      "èĳ¡": 1984,
      "çĪ½": 1985,
      "å¿§": 1986,
      "æ°ı": 1987,
      "èĦī": 1988,
      "èĲĦ": 1989,
      "èµĸ": 1990,
      "çĮİ": 1991,
      "ä¼Ł": 1992,
      "åħĶ": 1993,
      "æĤł": 1994,
      "æķ¦": 1995,
      "éĺ´": 1996,
      "çģŃ": 1997,
      "ç¾Ĭ": 1998,
      "æĲħ": 1999,
      "æĤ¬": 2000,
      "æī°": 2001,
      "é¥ª": 2002,
      "éģŃ": 2003,
      "èı²": 2004,
      "æ¬²": 2005,
      "åĶ¯": 2006,
      "çļĩ": 2007,
      "ä¹±": 2008,
      "çº·": 2009,
      "æī¬": 2010,
      "è·¨": 2011,
      "åĭķ": 2012,
      "å¿ł": 2013,
      "è¿Ķ": 2014,
      "ä¹Ķ": 2015,
      "å¢Ļ": 2016,
      "è´´": 2017,
      "èĤ´": 2018,
      "è¦Ĩ": 2019,
      "è¢ĸ": 2020,
      "èĲĿ": 2021,
      "çģ°": 2022,
      "æī®": 2023,
      "æİĪ": 2024,
      "ç£¨": 2025,
      "èİī": 2026,
      "èĬ³": 2027,
      "èĴ¸": 2028,
      "åħµ": 2029,
      "ä¾µ": 2030,
      "æģĭ": 2031,
      "çŁ¿": 2032,
      "è²Į": 2033,
      "å¿½": 2034,
      "ç¢İ": 2035,
      "è´¦": 2036,
      "æ¯ķ": 2037,
      "æĳ©": 2038,
      "æĴ°": 2039,
      "åĸ»": 2040,
      "çº¤": 2041,
      "æĭĵ": 2042,
      "èĮ¨": 2043,
      "çĲ´": 2044,
      "é¡µ": 2045,
      "æĽ¼": 2046,
      "çĽ¾": 2047,
      "åĴª": 2048,
      "æ¢ħ": 2049,
      "éĢ²": 2050,
      "æ²¿": 2051,
      "éĺ»": 2052,
      "èį·": 2053,
      "çĳŀ": 2054,
      "æĳĨ": 2055,
      "èĢį": 2056,
      "æĢª": 2057,
      "çĶĺ": 2058,
      "éĺµ": 2059,
      "æŀĿ": 2060,
      "åĩ½": 2061,
      "è£Ļ": 2062,
      "æ£ī": 2063,
      "éł": 2064,
      "èıĮ": 2065,
      "æİĺ": 2066,
      "èģĺ": 2067,
      "è±ª": 2068,
      "åĲĽ": 2069,
      "è¯¸": 2070,
      "Ã·": 2071,
      "çº¹": 2072,
      "ä¼¯": 2073,
      "æĳĩ": 2074,
      "é²ģ": 2075,
      "æĻĴ": 2076,
      "èĻİ": 2077,
      "å§Ķ": 2078,
      "èİ±": 2079,
      "åľĪ": 2080,
      "ä»ª": 2081,
      "éĢĬ": 2082,
      "çŁĽ": 2083,
      "åį§": 2084,
      "æģ¢": 2085,
      "åīª": 2086,
      "é¸£": 2087,
      "å¹½": 2088,
      "ä¼Ļ": 2089,
      "æŁł": 2090,
      "ç¢į": 2091,
      "éĻ·": 2092,
      "èĬĿ": 2093,
      "éĤĢ": 2094,
      "å§¿": 2095,
      "æ¥ļ": 2096,
      "èħĲ": 2097,
      "åĩ¡": 2098,
      "è°Ĭ": 2099,
      "æª¬": 2100,
      "æĭĶ": 2101,
      "ç©Ĩ": 2102,
      "éĺĶ": 2103,
      "è°Ĳ": 2104,
      "è¡«": 2105,
      "éŃħ": 2106,
      "å±ı": 2107,
      "å²©": 2108,
      "èĴľ": 2109,
      "çĭ®": 2110,
      "ä¿Ĺ": 2111,
      "èĴĤ": 2112,
      "åİĺ": 2113,
      "ä¸ģ": 2114,
      "æĬĳ": 2115,
      "è£ģ": 2116,
      "æ´ª": 2117,
      "çĽŁ": 2118,
      "ç§Ł": 2119,
      "åĪĺ": 2120,
      "åĮ¹": 2121,
      "åĿĢ": 2122,
      "å¤®": 2123,
      "è¿«": 2124,
      "å°¿": 2125,
      "ä»Ļ": 2126,
      "è·ĥ": 2127,
      "ç«¹": 2128,
      "çĩķ": 2129,
      "å¢¨": 2130,
      "æ®ĸ": 2131,
      "æıŃ": 2132,
      "èİİ": 2133,
      "çĥ¦": 2134,
      "é²¸": 2135,
      "æĭľ": 2136,
      "æ®ĭ": 2137,
      "éľľ": 2138,
      "æ¡ĥ": 2139,
      "æĥľ": 2140,
      "é¸Ń": 2141,
      "ç¾½": 2142,
      "å¼Ł": 2143,
      "å¾Ĵ": 2144,
      "çĭĤ": 2145,
      "æĲº": 2146,
      "å¦ĩ": 2147,
      "èĤł": 2148,
      "æĮĤ": 2149,
      "èĤĸ": 2150,
      "æĤī": 2151,
      "éĨī": 2152,
      "åĪł": 2153,
      "è¿Ł": 2154,
      "éĻª": 2155,
      "éģİ": 2156,
      "èĴĻ": 2157,
      "æĬĵ": 2158,
      "è´¸": 2159,
      "åĢį": 2160,
      "åĭĴ": 2161,
      "çĬ¹": 2162,
      "èĬĴ": 2163,
      "æıĴ": 2164,
      "åĪĢ": 2165,
      "ç£ģ": 2166,
      "æ·ĩ": 2167,
      "èĥ¸": 2168,
      "æ¶Ĥ": 2169,
      "èĢĢ": 2170,
      "çĮª": 2171,
      "æı´": 2172,
      "æĬµ": 2173,
      "å£¤": 2174,
      "éĺĲ": 2175,
      "ä¸¦": 2176,
      "ç¨®": 2177,
      "åħļ": 2178,
      "ä¸²": 2179,
      "ä¸§": 2180,
      "åįľ": 2181,
      "å®¿": 2182,
      "åĪ·": 2183,
      "å°ĺ": 2184,
      "æĩī": 2185,
      "æ³Ĭ": 2186,
      "å¼Ĺ": 2187,
      "åĭ¤": 2188,
      "å«Į": 2189,
      "çĽĹ": 2190,
      "ä¾§": 2191,
      "å¯¸": 2192,
      "ç¶ĵ": 2193,
      "æ¤ħ": 2194,
      "ç½ļ": 2195,
      "æī£": 2196,
      "é¬": 2197,
      "æĵİ": 2198,
      "è½¨": 2199,
      "å¥Ķ": 2200,
      "æĹģ": 2201,
      "æ¯«": 2202,
      "ãĢĮ": 2203,
      "è´«": 2204,
      "ãĢį": 2205,
      "èĺ": 2206,
      "ç¢Ĺ": 2207,
      "åºĦ": 2208,
      "å¯Ĥ": 2209,
      "ä¹Į": 2210,
      "éħª": 2211,
      "æµ¸": 2212,
      "æ»¤": 2213,
      "ä¼¸": 2214,
      "åİĤ": 2215,
      "çĪ¸": 2216,
      "èį¡": 2217,
      "åŃĶ": 2218,
      "å£ģ": 2219,
      "èĬ¬": 2220,
      "åģ·": 2221,
      "æĴŀ": 2222,
      "é«Ķ": 2223,
      "è¾ŀ": 2224,
      "ç¼ĺ": 2225,
      "è´¯": 2226,
      "æĮĸ": 2227,
      "åİ¿": 2228,
      "åłµ": 2229,
      "é³": 2230,
      "èĪĩ": 2231,
      "é©±": 2232,
      "æłĸ": 2233,
      "é¦¨": 2234,
      "æĵħ": 2235,
      "æĴĴ": 2236,
      "å¦¹": 2237,
      "èµĭ": 2238,
      "è®¯": 2239,
      "èħ»": 2240,
      "éĸĭ": 2241,
      "æ¼ı": 2242,
      "ç»Ĵ": 2243,
      "å¸Ń": 2244,
      "é½Ĳ": 2245,
      "å¸½": 2246,
      "ä¸¹": 2247,
      "è¹Ī": 2248,
      "éĸĵ": 2249,
      "éŁµ": 2250,
      "è¡¬": 2251,
      "æħĪ": 2252,
      "æ¼ł": 2253,
      "åĩĿ": 2254,
      "çĳ°": 2255,
      "æ»´": 2256,
      "è°¨": 2257,
      "æĭĤ": 2258,
      "åªļ": 2259,
      "èĿ¶": 2260,
      "æļĤ": 2261,
      "æµħ": 2262,
      "èķ´": 2263,
      "åģ¶": 2264,
      "éĹľ": 2265,
      "åĩ¯": 2266,
      "ç©·": 2267,
      "çħİ": 2268,
      "æ¬º": 2269,
      "èįĴ": 2270,
      "ç¥ĸ": 2271,
      "è¡ĵ": 2272,
      "ç¿ħ": 2273,
      "çĮľ": 2274,
      "éĢĹ": 2275,
      "ç½©": 2276,
      "èıĩ": 2277,
      "æĢĸ": 2278,
      "éĶģ": 2279,
      "ç¨¿": 2280,
      "ç¨į": 2281,
      "é¢Ī": 2282,
      "æ©ĺ": 2283,
      "è£Ĥ": 2284,
      "è¼": 2285,
      "æħİ": 2286,
      "ä»ģ": 2287,
      "æķĮ": 2288,
      "èĦĨ": 2289,
      "éĵº": 2290,
      "å¨ľ": 2291,
      "åĹ¯": 2292,
      "æ³ī": 2293,
      "åį¢": 2294,
      "èī³": 2295,
      "åľĭ": 2296,
      "éī": 2297,
      "é¹ħ": 2298,
      "è°ľ": 2299,
      "çİ»": 2300,
      "æ¶¯": 2301,
      "çĸ¼": 2302,
      "ä½©": 2303,
      "åłĨ": 2304,
      "æĴĳ": 2305,
      "æ¯ģ": 2306,
      "éī´": 2307,
      "çĴĥ": 2308,
      "å¤¹": 2309,
      "æ£ĭ": 2310,
      "éĻ¶": 2311,
      "ä¾£": 2312,
      "èµİ": 2313,
      "æ¡Ĩ": 2314,
      "æ¢°": 2315,
      "æĦĪ": 2316,
      "èµ¶": 2317,
      "éģ¥": 2318,
      "æī«": 2319,
      "é¼»": 2320,
      "åŃĻ": 2321,
      "å¦Ĩ": 2322,
      "æµ´": 2323,
      "æ³¥": 2324,
      "æĻ¶": 2325,
      "éĻĮ": 2326,
      "åįĵ": 2327,
      "æ³Ħ": 2328,
      "è«": 2329,
      "çĽĪ": 2330,
      "æĭĸ": 2331,
      "è´¾": 2332,
      "ç·": 2333,
      "æĸĳ": 2334,
      "æĶĢ": 2335,
      "å¤·": 2336,
      "åħģ": 2337,
      "æ¢¨": 2338,
      "çĭ¼": 2339,
      "å§Ĳ": 2340,
      "è¾Ľ": 2341,
      "éĽ¾": 2342,
      "åĸ·": 2343,
      "æ³½": 2344,
      "æ³ª": 2345,
      "æ¥Ń": 2346,
      "å¯º": 2347,
      "ä¼ı": 2348,
      "ç³Ĭ": 2349,
      "ä¼ŀ": 2350,
      "åī²": 2351,
      "ä¹Ļ": 2352,
      "èħ°": 2353,
      "æ¸´": 2354,
      "éľį": 2355,
      "å¤ķ": 2356,
      "çĥĤ": 2357,
      "æ©Ł": 2358,
      "äº¦": 2359,
      "æŁľ": 2360,
      "å¤º": 2361,
      "æ©Ħ": 2362,
      "ç²®": 2363,
      "æĮ¯": 2364,
      "çĽĨ": 2365,
      "æĺĨ": 2366,
      "æĹ±": 2367,
      "åĲģ": 2368,
      "æ§": 2369,
      "è®ĵ": 2370,
      "æ¦Ħ": 2371,
      "åıł": 2372,
      "æ°¢": 2373,
      "æ»ļ": 2374,
      "åĬ£": 2375,
      "æºª": 2376,
      "éĤ¦": 2377,
      "æĥ§": 2378,
      "é¥±": 2379,
      "é¹¿": 2380,
      "å¼¦": 2381,
      "âĦ": 2382,
      "åıĻ": 2383,
      "æ¶¨": 2384,
      "å¯ĵ": 2385,
      "æĿ¨": 2386,
      "åļ": 2387,
      "éªĹ": 2388,
      "çĩ¥": 2389,
      "å¦»": 2390,
      "éĢĨ": 2391,
      "æĨ": 2392,
      "âĦĥ": 2393,
      "å°ĸ": 2394,
      "æĸľ": 2395,
      "é¡Į": 2396,
      "ç«Ł": 2397,
      "åĭĥ": 2398,
      "éŃĤ": 2399,
      "çŀ¬": 2400,
      "è¿Ī": 2401,
      "è°ĭ": 2402,
      "ä¿Ħ": 2403,
      "æŁ¿": 2404,
      "è³ĩ": 2405,
      "å£³": 2406,
      "èĨľ": 2407,
      "èħ¾": 2408,
      "èĸ¯": 2409,
      "çŃĽ": 2410,
      "æ¾³": 2411,
      "åł´": 2412,
      "æĿī": 2413,
      "èī°": 2414,
      "çİ«": 2415,
      "ç¢ĳ": 2416,
      "å°ĩ": 2417,
      "åºĻ": 2418,
      "æ´Ĵ": 2419,
      "æīİ": 2420,
      "æ¸ł": 2421,
      "ä¼Ĳ": 2422,
      "èĺĳ": 2423,
      "åĪĳ": 2424,
      "æĺĤ": 2425,
      "å©´": 2426,
      "æĥĳ": 2427,
      "çĺ¦": 2428,
      "ï¼ħ": 2429,
      "å¾Į": 2430,
      "èĥĥ": 2431,
      "åŀĤ": 2432,
      "ç¿Ķ": 2433,
      "é½¿": 2434,
      "çĭ±": 2435,
      "çĤī": 2436,
      "æ²ĥ": 2437,
      "èĿ´": 2438,
      "å²Ĺ": 2439,
      "æĭĴ": 2440,
      "æ¢ģ": 2441,
      "éĤ»": 2442,
      "æ»ĭ": 2443,
      "ç»³": 2444,
      "è¤": 2445,
      "ç§Ĵ": 2446,
      "èĥĸ": 2447,
      "çį": 2448,
      "æĪª": 2449,
      "æĦģ": 2450,
      "æĵ¦": 2451,
      "æģ°": 2452,
      "çŁ¶": 2453,
      "å½»": 2454,
      "å¹¼": 2455,
      "å¾¡": 2456,
      "èĥ¶": 2457,
      "çĸı": 2458,
      "èħĬ": 2459,
      "çĶ¢": 2460,
      "éĽķ": 2461,
      "åŀ«": 2462,
      "èħ¹": 2463,
      "å§ľ": 2464,
      "èĻ¾": 2465,
      "æº¯": 2466,
      "ç³Ł": 2467,
      "éŁ§": 2468,
      "è¸ı": 2469,
      "æ¡¶": 2470,
      "åħ½": 2471,
      "è¯Ī": 2472,
      "èĨĢ": 2473,
      "ç¿ł": 2474,
      "åīĳ": 2475,
      "æ¶Į": 2476,
      "èĥĨ": 2477,
      "èĪį": 2478,
      "ä¼į": 2479,
      "æĮº": 2480,
      "åķı": 2481,
      "å·¾": 2482,
      "åĻª": 2483,
      "ðŁ": 2484,
      "çĮ´": 2485,
      "åĳĢ": 2486,
      "åĺ´": 2487,
      "èĤ©": 2488,
      "æ¨ª": 2489,
      "è¿ģ": 2490,
      "å¯Ħ": 2491,
      "ç»µ": 2492,
      "çĵ¦": 2493,
      "éļĨ": 2494,
      "åĪ¸": 2495,
      "æĮ«": 2496,
      "èĮ«": 2497,
      "çĭĲ": 2498,
      "ç½²": 2499,
      "åĨĮ": 2500,
      "ç¿Ĵ": 2501,
      "çĲ³": 2502,
      "è¡°": 2503,
      "æĹĹ": 2504,
      "å¿į": 2505,
      "éŁ¿": 2506,
      "å®´": 2507,
      "é»Ľ": 2508,
      "ä»ĩ": 2509,
      "æ±Ĺ": 2510,
      "æµĨ": 2511,
      "æĢĴ": 2512,
      "è´·": 2513,
      "åĩĮ": 2514,
      "è¢Ń": 2515,
      "çĳŁ": 2516,
      "éĹ¹": 2517,
      "çĥĺ": 2518,
      "çıĬ": 2519,
      "åĿ¡": 2520,
      "ç°": 2521,
      "åķ¦": 2522,
      "åħ¼": 2523,
      "æĿľ": 2524,
      "å¸ħ": 2525,
      "æ¯ħ": 2526,
      "ä¿±": 2527,
      "éĽĩ": 2528,
      "æŀļ": 2529,
      "èĤĿ": 2530,
      "æ°£": 2531,
      "æ¹¾": 2532,
      "æ£ķ": 2533,
      "åĢ¡": 2534,
      "å¼¯": 2535,
      "æħ°": 2536,
      "å¯¦": 2537,
      "éĨĭ": 2538,
      "æķ¸": 2539,
      "æĬ¢": 2540,
      "æĬ¹": 2541,
      "ç¢§": 2542,
      "æĭ¯": 2543,
      "çµ±": 2544,
      "éĢĽ": 2545,
      "çķ¶": 2546,
      "éħ·": 2547,
      "ç¢°": 2548,
      "åİ¦": 2549,
      "ç¨Ģ": 2550,
      "è¾Ĳ": 2551,
      "æľ±": 2552,
      "èĽĩ": 2553,
      "è£¡": 2554,
      "æĤŁ": 2555,
      "çªĥ": 2556,
      "èĤ¿": 2557,
      "åĲĲ": 2558,
      "æ¢¯": 2559,
      "æĪĴ": 2560,
      "çĵ·": 2561,
      "åĮĻ": 2562,
      "åıī": 2563,
      "è·Į": 2564,
      "è¨Ī": 2565,
      "çģ£": 2566,
      "å¾ŀ": 2567,
      "æ²®": 2568,
      "å®ĭ": 2569,
      "åĿĽ": 2570,
      "æģ¨": 2571,
      "åĲ´": 2572,
      "éĴĵ": 2573,
      "æ¨£": 2574,
      "æĩĴ": 2575,
      "ç¿¼": 2576,
      "éĨĩ": 2577,
      "æļĳ": 2578,
      "ç²Ĺ": 2579,
      "æº¶": 2580,
      "è¨Ń": 2581,
      "èĥİ": 2582,
      "æĽ°": 2583,
      "éĢĿ": 2584,
      "æĵļ": 2585,
      "å®ı": 2586,
      "ç®Ń": 2587,
      "è±¹": 2588,
      "èĸª": 2589,
      "çĢ": 2590,
      "å±Ĭ": 2591,
      "ç¬¼": 2592,
      "æŁ³": 2593,
      "èµ«": 2594,
      "å«©": 2595,
      "çĮĽ": 2596,
      "èµł": 2597,
      "æĹ¦": 2598,
      "éĵĥ": 2599,
      "æ»¨": 2600,
      "çĴ°": 2601,
      "åĭĻ": 2602,
      "æĻĭ": 2603,
      "æ²¸": 2604,
      "è¾¨": 2605,
      "å¼¥": 2606,
      "åı¬": 2607,
      "è®Ĭ": 2608,
      "èªª": 2609,
      "æįī": 2610,
      "æ·Ģ": 2611,
      "ä¸Ľ": 2612,
      "çĵ£": 2613,
      "åħĦ": 2614,
      "é¬¼": 2615,
      "çĭ¸": 2616,
      "è»": 2617,
      "å§»": 2618,
      "èıł": 2619,
      "æĭĨ": 2620,
      "æµı": 2621,
      "æĺı": 2622,
      "åĮĨ": 2623,
      "è¯ŀ": 2624,
      "çļĨ": 2625,
      "æ±º": 2626,
      "èĻ¹": 2627,
      "èµµ": 2628,
      "æ©¡": 2629,
      "å£¶": 2630,
      "éģ®": 2631,
      "æľ´": 2632,
      "éĤª": 2633,
      "èħº": 2634,
      "æŀ¯": 2635,
      "æģ¤": 2636,
      "æŀ«": 2637,
      "å¨ĺ": 2638,
      "éĻµ": 2639,
      "çŁ©": 2640,
      "æĥ«": 2641,
      "éĤĦ": 2642,
      "åĴ³": 2643,
      "åĩŃ": 2644,
      "è¾ī": 2645,
      "éĵľ": 2646,
      "é¹°": 2647,
      "åĢº": 2648,
      "æŀª": 2649,
      "æĮ¤": 2650,
      "ãĢĳ": 2651,
      "ãĢĲ": 2652,
      "åºŀ": 2653,
      "èĤ¢": 2654,
      "åĸĤ": 2655,
      "æĩĪ": 2656,
      "åłª": 2657,
      "èŁ": 2658,
      "éĴ»": 2659,
      "å´ĩ": 2660,
      "çī§": 2661,
      "å¦®": 2662,
      "ç¢º": 2663,
      "ç§¦": 2664,
      "æĳ¸": 2665,
      "è©¹": 2666,
      "éĥİ": 2667,
      "éĽ»": 2668,
      "èĲ§": 2669,
      "æģ¼": 2670,
      "çµĲ": 2671,
      "ä¸ĺ": 2672,
      "ä¸¢": 2673,
      "çĪ·": 2674,
      "åŃķ": 2675,
      "âĢĻ": 2676,
      "èĩĤ": 2677,
      "èĩ£": 2678,
      "é»ŀ": 2679,
      "è©²": 2680,
      "é¢¨": 2681,
      "âĢĺ": 2682,
      "èĪŁ": 2683,
      "ç¿©": 2684,
      "æ·ĺ": 2685,
      "èĦĬ": 2686,
      "çºµ": 2687,
      "èĭį": 2688,
      "æ¡Ĥ": 2689,
      "éĴ¥": 2690,
      "æĲŀ": 2691,
      "çīµ": 2692,
      "åİī": 2693,
      "å¼·": 2694,
      "æīĳ": 2695,
      "éĶĲ": 2696,
      "æĻĵ": 2697,
      "éĶ¦": 2698,
      "äºķ": 2699,
      "åĤ³": 2700,
      "èĨ³": 2701,
      "æīĩ": 2702,
      "åĺī": 2703,
      "æĢ¨": 2704,
      "æº¢": 2705,
      "é¢ĸ": 2706,
      "åĤ¬": 2707,
      "ç¢Į": 2708,
      "ÃĹ": 2709,
      "èĬ¯": 2710,
      "å»·": 2711,
      "åħ§": 2712,
      "æ®¿": 2713,
      "åĵŃ": 2714,
      "æĥ©": 2715,
      "ä¾ł": 2716,
      "èļģ": 2717,
      "æ¹Ľ": 2718,
      "é¾Ł": 2719,
      "æħ¨": 2720,
      "æ¸¡": 2721,
      "åĶ¤": 2722,
      "çĺ¤": 2723,
      "æ¾Ī": 2724,
      "åħ¹": 2725,
      "åģ¿": 2726,
      "è¾©": 2727,
      "ç¼Ŀ": 2728,
      "é²¨": 2729,
      "åįī": 2730,
      "è³ª": 2731,
      "æ´¥": 2732,
      "æŁ±": 2733,
      "æ¡ĳ": 2734,
      "åįĢ": 2735,
      "åĩĳ": 2736,
      "éħµ": 2737,
      "éķ·": 2738,
      "ä¿¯": 2739,
      "è£Ķ": 2740,
      "çĪª": 2741,
      "åĤ²": 2742,
      "çĽ²": 2743,
      "éĢ¼": 2744,
      "éĶĭ": 2745,
      "èİ²": 2746,
      "å¸ķ": 2747,
      "å¾Ĳ": 2748,
      "åĵĩ": 2749,
      "æĪ°": 2750,
      "æĬļ": 2751,
      "å®ħ": 2752,
      "å¤¸": 2753,
      "èµ¤": 2754,
      "å©Ĩ": 2755,
      "ç¼Ģ": 2756,
      "å³¡": 2757,
      "åķ¤": 2758,
      "ç¶²": 2759,
      "èĻķ": 2760,
      "æ¨±": 2761,
      "æµĩ": 2762,
      "çıĤ": 2763,
      "åİĮ": 2764,
      "ç²ĺ": 2765,
      "å¤ł": 2766,
      "æĬ¼": 2767,
      "åĴ¬": 2768,
      "çĦ¡": 2769,
      "ä¹ĥ": 2770,
      "èħĶ": 2771,
      "èĥĢ": 2772,
      "æĸ¤": 2773,
      "å»ī": 2774,
      "ï¼ĳ": 2775,
      "åĩ¤": 2776,
      "å½¹": 2777,
      "åĵĢ": 2778,
      "çķı": 2779,
      "è½´": 2780,
      "æįĲ": 2781,
      "æī¶": 2782,
      "å´©": 2783,
      "å½°": 2784,
      "çłį": 2785,
      "éľ¸": 2786,
      "å±¿": 2787,
      "åĨ»": 2788,
      "å¸¶": 2789,
      "å¥ī": 2790,
      "é¥¿": 2791,
      "ï¼Ĳ": 2792,
      "æŀķ": 2793,
      "éĹ·": 2794,
      "æ¤İ": 2795,
      "é¥²": 2796,
      "æ»¿": 2797,
      "æĴ¼": 2798,
      "éľŀ": 2799,
      "èŃ°": 2800,
      "è£¹": 2801,
      "ç¢±": 2802,
      "è§Ģ": 2803,
      "åīĬ": 2804,
      "é¡ŀ": 2805,
      "ç¸": 2806,
      "çĳļ": 2807,
      "æĽ¹": 2808,
      "æ£µ": 2809,
      "å¥Ī": 2810,
      "æĤĦ": 2811,
      "åĳĨ": 2812,
      "èªŀ": 2813,
      "æ¨Ĥ": 2814,
      "ç©´": 2815,
      "æħķ": 2816,
      "ç¼ł": 2817,
      "çī¢": 2818,
      "æ²«": 2819,
      "èŀº": 2820,
      "èĮĤ": 2821,
      "èķ¾": 2822,
      "åĹ½": 2823,
      "èĪĮ": 2824,
      "æ¸Ķ": 2825,
      "å¼Ħ": 2826,
      "ä¾¦": 2827,
      "éģĭ": 2828,
      "åĲ¾": 2829,
      "çķĶ": 2830,
      "æĿĨ": 2831,
      "æ³¼": 2832,
      "æŁı": 2833,
      "èº²": 2834,
      "è±«": 2835,
      "çľī": 2836,
      "éĢ¢": 2837,
      "å¨ĥ": 2838,
      "çĸ¯": 2839,
      "çĦĻ": 2840,
      "æ¼Ĩ": 2841,
      "æĦ¤": 2842,
      "ç»½": 2843,
      "ç¥Ī": 2844,
      "ç½Ĳ": 2845,
      "èºº": 2846,
      "æĲ¬": 2847,
      "å¸Ĩ": 2848,
      "åĸī": 2849,
      "å§ĳ": 2850,
      "åĢ¦": 2851,
      "èļĤ": 2852,
      "åĵ¡": 2853,
      "åĲŀ": 2854,
      "åĬ²": 2855,
      "åµ": 2856,
      "åĬ«": 2857,
      "è¯±": 2858,
      "æĮļ": 2859,
      "ä¼ª": 2860,
      "æĿı": 2861,
      "çĢĳ": 2862,
      "æ¯¯": 2863,
      "çĪµ": 2864,
      "æĥķ": 2865,
      "å·«": 2866,
      "å¢ĵ": 2867,
      "è®¶": 2868,
      "æ»¥": 2869,
      "å·¢": 2870,
      "çĥģ": 2871,
      "èŃ·": 2872,
      "ç¥¥": 2873,
      "æĮ¡": 2874,
      "èµļ": 2875,
      "çłĤ": 2876,
      "æµ¦": 2877,
      "Â°": 2878,
      "å¸ĺ": 2879,
      "çĹķ": 2880,
      "ä¸ĳ": 2881,
      "å±Ī": 2882,
      "çŃĴ": 2883,
      "çº²": 2884,
      "æµ©": 2885,
      "è¸¢": 2886,
      "æ½º": 2887,
      "æ¦ľ": 2888,
      "éĥĬ": 2889,
      "å¥ĳ": 2890,
      "è±ļ": 2891,
      "å¸Ĳ": 2892,
      "èĵ¬": 2893,
      "æºĥ": 2894,
      "èĳ£": 2895,
      "èµĶ": 2896,
      "å±¥": 2897,
      "å¼Ĭ": 2898,
      "æļ®": 2899,
      "åĩ¸": 2900,
      "æĪ¶": 2901,
      "æĺĶ": 2902,
      "åĹ¨": 2903,
      "éĽĢ": 2904,
      "åŃŁ": 2905,
      "åĳµ": 2906,
      "å³»": 2907,
      "èīĩ": 2908,
      "æĭ³": 2909,
      "çŁ®": 2910,
      "çİĦ": 2911,
      "åĲ¨": 2912,
      "åĴ¸": 2913,
      "è«ĸ": 2914,
      "èīĺ": 2915,
      "çĭ©": 2916,
      "åıĥ": 2917,
      "éļĬ": 2918,
      "åľ³": 2919,
      "å¯ŀ": 2920,
      "çģĮ": 2921,
      "æī¼": 2922,
      "ç²¥": 2923,
      "åĭº": 2924,
      "ç»£": 2925,
      "ç¤ģ": 2926,
      "èĬ½": 2927,
      "å¸ĸ": 2928,
      "åıĶ": 2929,
      "åĲĬ": 2930,
      "éħ¥": 2931,
      "æ¢³": 2932,
      "æĻķ": 2933,
      "åīµ": 2934,
      "éģ£": 2935,
      "éĴ®": 2936,
      "å°İ": 2937,
      "é©Ĺ": 2938,
      "æłı": 2939,
      "æŃĩ": 2940,
      "é¥¥": 2941,
      "æł½": 2942,
      "çŃ¹": 2943,
      "è´º": 2944,
      "ç¥Ń": 2945,
      "åĩ¶": 2946,
      "æ¢µ": 2947,
      "è¡·": 2948,
      "é¢ł": 2949,
      "é£ĵ": 2950,
      "éĶĪ": 2951,
      "æ¾¡": 2952,
      "æĢ¡": 2953,
      "äºŃ": 2954,
      "èļĬ": 2955,
      "æ²Ĵ": 2956,
      "å¡ĺ": 2957,
      "æ¤°": 2958,
      "èĬ¹": 2959,
      "çĨ¬": 2960,
      "ä»ĵ": 2961,
      "æİ©": 2962,
      "èĨ¨": 2963,
      "è³½": 2964,
      "çĮ©": 2965,
      "å¥¢": 2966,
      "è´ª": 2967,
      "çĲĲ": 2968,
      "æĬ¬": 2969,
      "æ¶Ľ": 2970,
      "éģĶ": 2971,
      "ç¿ģ": 2972,
      "èĤĥ": 2973,
      "èģ²": 2974,
      "æĬĽ": 2975,
      "è«ĭ": 2976,
      "æĤļ": 2977,
      "æĿŃ": 2978,
      "ç¨»": 2979,
      "è¨±": 2980,
      "èĽĻ": 2981,
      "ç«Ń": 2982,
      "çħ¤": 2983,
      "æįŀ": 2984,
      "é¢ģ": 2985,
      "éª¼": 2986,
      "çģ¿": 2987,
      "çĨ±": 2988,
      "èĽĽ": 2989,
      "ç¥¸": 2990,
      "åĦĴ": 2991,
      "éĺģ": 2992,
      "åıĽ": 2993,
      "æ°®": 2994,
      "åĲŁ": 2995,
      "å¬": 2996,
      "æ¥µ": 2997,
      "æĹº": 2998,
      "èŃĺ": 2999,
      "æĳ§": 3000,
      "åĹħ": 3001,
      "æīŃ": 3002,
      "æĤĶ": 3003,
      "éĢ¸": 3004,
      "åĸ§": 3005,
      "æ¨Ļ": 3006,
      "åĭ¾": 3007,
      "å¦¥": 3008,
      "æŁ¯": 3009,
      "èĲĮ": 3010,
      "çĥĽ": 3011,
      "ä¾¯": 3012,
      "æ¸Ĺ": 3013,
      "è°£": 3014,
      "ç¯Ģ": 3015,
      "ä¸Ī": 3016,
      "é²į": 3017,
      "å¦¨": 3018,
      "èª¿": 3019,
      "åĸĬ": 3020,
      "éļª": 3021,
      "æĸ·": 3022,
      "é¥º": 3023,
      "æ¸¬": 3024,
      "åĿª": 3025,
      "åķ¸": 3026,
      "çµ¦": 3027,
      "æĳĶ": 3028,
      "åĺ¿": 3029,
      "è¦ĸ": 3030,
      "é¹¤": 3031,
      "è®¼": 3032,
      "æ¿Ĵ": 3033,
      "å··": 3034,
      "è¬": 3035,
      "åĦª": 3036,
      "è¼ķ": 3037,
      "å¹«": 3038,
      "æķŀ": 3039,
      "è¿Ń": 3040,
      "éŁ¦": 3041,
      "å»Ĭ": 3042,
      "ç»ļ": 3043,
      "èľ¡": 3044,
      "åĥ¹": 3045,
      "å¡Į": 3046,
      "æĹ·": 3047,
      "åĪ¥": 3048,
      "é³Ħ": 3049,
      "æ¢Ĺ": 3050,
      "åŁĭ": 3051,
      "å²Ń": 3052,
      "âĢ¢": 3053,
      "æķ²": 3054,
      "çŃĭ": 3055,
      "æħĮ": 3056,
      "èĨı": 3057,
      "æŃ·": 3058,
      "æ²Ĳ": 3059,
      "åħ©": 3060,
      "åĵĳ": 3061,
      "æīĶ": 3062,
      "åĿł": 3063,
      "æĸ¥": 3064,
      "å·¡": 3065,
      "åĽĬ": 3066,
      "çºĮ": 3067,
      "è´¤": 3068,
      "ç½ķ": 3069,
      "ç§©": 3070,
      "æŁ´": 3071,
      "èĮ¸": 3072,
      "éŃı": 3073,
      "ç¾©": 3074,
      "çĦ°": 3075,
      "éĴĻ": 3076,
      "æĢľ": 3077,
      "èľĺ": 3078,
      "èħĮ": 3079,
      "å¥ł": 3080,
      "çº±": 3081,
      "èıĬ": 3082,
      "æ±ª": 3083,
      "è¾Ī": 3084,
      "æĦĽ": 3085,
      "æĬĴ": 3086,
      "èĩŃ": 3087,
      "è©¦": 3088,
      "è©±": 3089,
      "æ³Į": 3090,
      "çĤĸ": 3091,
      "é©°": 3092,
      "èªį": 3093,
      "åĲĵ": 3094,
      "æĭ¨": 3095,
      "ï¼Ĵ": 3096,
      "èĵĦ": 3097,
      "èĤ¾": 3098,
      "çĤŃ": 3099,
      "åĥ§": 3100,
      "æµĻ": 3101,
      "å¬ī": 3102,
      "éĸĢ": 3103,
      "çĹ´": 3104,
      "éĽģ": 3105,
      "å²Ĥ": 3106,
      "æ¿Ł": 3107,
      "æĽĿ": 3108,
      "æ§ĭ": 3109,
      "èµ´": 3110,
      "é©»": 3111,
      "åŃĿ": 3112,
      "èļĢ": 3113,
      "éĴł": 3114,
      "éģĬ": 3115,
      "èį«": 3116,
      "éĥĳ": 3117,
      "éłĺ": 3118,
      "åĪĬ": 3119,
      "æ¢Ń": 3120,
      "åĲµ": 3121,
      "å¯¡": 3122,
      "èĳĽ": 3123,
      "åĤį": 3124,
      "éģ¸": 3125,
      "ç»ĳ": 3126,
      "åĶĩ": 3127,
      "è¾°": 3128,
      "èĬ¦": 3129,
      "éģ©": 3130,
      "å®ª": 3131,
      "æĺĮ": 3132,
      "èĢ¶": 3133,
      "ä½Ĳ": 3134,
      "æĭ¾": 3135,
      "æħĭ": 3136,
      "åīĩ": 3137,
      "é¦ħ": 3138,
      "è´¼": 3139,
      "åĴĻ": 3140,
      "çĥ·": 3141,
      "çī²": 3142,
      "èĸĽ": 3143,
      "çİ²": 3144,
      "æ·Į": 3145,
      "ä»²": 3146,
      "æĵĬ": 3147,
      "æĮ½": 3148,
      "åµĮ": 3149,
      "åī¥": 3150,
      "åĤĻ": 3151,
      "å¾½": 3152,
      "éĥŃ": 3153,
      "åĿĳ": 3154,
      "è¡į": 3155,
      "çłĸ": 3156,
      "èŁ¹": 3157,
      "æĴ¤": 3158,
      "èĤļ": 3159,
      "éħ¬": 3160,
      "èµĲ": 3161,
      "æ¸Ľ": 3162,
      "ç¡ħ": 3163,
      "æłĭ": 3164,
      "åĨĹ": 3165,
      "éĹ°": 3166,
      "ç¯¡": 3167,
      "åį¿": 3168,
      "å²³": 3169,
      "æĽ³": 3170,
      "ç¸½": 3171,
      "ä¹Ĵ": 3172,
      "é¸¦": 3173,
      "éħ¶": 3174,
      "çªĿ": 3175,
      "èĶĵ": 3176,
      "æĪĪ": 3177,
      "çĶ«": 3178,
      "ç¡«": 3179,
      "çķ´": 3180,
      "æĬĸ": 3181,
      "è°§": 3182,
      "ç´°": 3183,
      "æĮ£": 3184,
      "è¹²": 3185,
      "èĨĿ": 3186,
      "æĥ¨": 3187,
      "æ°¨": 3188,
      "èªĵ": 3189,
      "éĿ´": 3190,
      "ç¦½": 3191,
      "é¸¿": 3192,
      "æ¢Ŀ": 3193,
      "å´Ľ": 3194,
      "å¸«": 3195,
      "ä¹ĵ": 3196,
      "æħ·": 3197,
      "åįĳ": 3198,
      "åĮł": 3199,
      "èĢķ": 3200,
      "åĿĬ": 3201,
      "æ¬ł": 3202,
      "èĸĩ": 3203,
      "æºĸ": 3204,
      "èĿī": 3205,
      "è»Ĭ": 3206,
      "æ¤Ń": 3207,
      "å´ĸ": 3208,
      "éªĦ": 3209,
      "è¦ı": 3210,
      "èģĨ": 3211,
      "åĢļ": 3212,
      "ä¿Ĭ": 3213,
      "éĥ¡": 3214,
      "æ³ģ": 3215,
      "æŁļ": 3216,
      "æŃ¡": 3217,
      "æīģ": 3218,
      "è¦º": 3219,
      "ç¶Ń": 3220,
      "åĸ±": 3221,
      "çħĮ": 3222,
      "æĭĺ": 3223,
      "çħ¸": 3224,
      "è¯Ģ": 3225,
      "åķ¼": 3226,
      "çµĤ": 3227,
      "é¦Ģ": 3228,
      "åļ£": 3229,
      "é¢ĩ": 3230,
      "å·ħ": 3231,
      "å¥´": 3232,
      "ä¾į": 3233,
      "çºº": 3234,
      "è²»": 3235,
      "èĪ°": 3236,
      "çĤ®": 3237,
      "æĲı": 3238,
      "æ²Ī": 3239,
      "çľ¾": 3240,
      "å®µ": 3241,
      "å§¬": 3242,
      "æĨ¾": 3243,
      "çį²": 3244,
      "å½Ĺ": 3245,
      "çŃĿ": 3246,
      "çŀ©": 3247,
      "åįµ": 3248,
      "åĻ¬": 3249,
      "åĭ¿": 3250,
      "åľĸ": 3251,
      "èĹ¤": 3252,
      "å¯¨": 3253,
      "ç¦ħ": 3254,
      "ç»¸": 3255,
      "çĥ«": 3256,
      "ç²¹": 3257,
      "èĳµ": 3258,
      "ä½£": 3259,
      "æłª": 3260,
      "åĽļ": 3261,
      "å°ĭ": 3262,
      "å»ĵ": 3263,
      "èł": 3264,
      "èĹĿ": 3265,
      "è°¦": 3266,
      "éĵĿ": 3267,
      "åĪ¹": 3268,
      "èĢ¸": 3269,
      "è°İ": 3270,
      "çµĦ": 3271,
      "å»£": 3272,
      "éĵŃ": 3273,
      "èĿł": 3274,
      "æĻĸ": 3275,
      "æĽ¸": 3276,
      "éłħ": 3277,
      "éĢ®": 3278,
      "çīº": 3279,
      "åĭŁ": 3280,
      "ç½¢": 3281,
      "ç¼ļ": 3282,
      "çĭŃ": 3283,
      "åħ®": 3284,
      "å¨ĩ": 3285,
      "ç¾ŀ": 3286,
      "ï½": 3287,
      "æģŃ": 3288,
      "éĤĥ": 3289,
      "åĲ»": 3290,
      "å©ī": 3291,
      "éĬ": 3292,
      "çĨĻ": 3293,
      "æĦļ": 3294,
      "è¦ĭ": 3295,
      "çĺ¾": 3296,
      "åĿİ": 3297,
      "æ²¥": 3298,
      "ç¡ķ": 3299,
      "æ»ŀ": 3300,
      "èĿĻ": 3301,
      "çĻĤ": 3302,
      "ä¿©": 3303,
      "éļ¨": 3304,
      "æ§½": 3305,
      "é³ŀ": 3306,
      "ç¨ł": 3307,
      "æĻĥ": 3308,
      "æĳĬ": 3309,
      "è¼ĥ": 3310,
      "æ·¹": 3311,
      "èĻĲ": 3312,
      "ç£ħ": 3313,
      "åĮ¿": 3314,
      "éĮ": 3315,
      "éļĻ": 3316,
      "å¼µ": 3317,
      "åĺĽ": 3318,
      "æĥŁ": 3319,
      "ç³Ļ": 3320,
      "æĿĸ": 3321,
      "ç·ļ": 3322,
      "éłŃ": 3323,
      "å¿Į": 3324,
      "é¹¦": 3325,
      "åº¸": 3326,
      "åĿŀ": 3327,
      "èµĮ": 3328,
      "å°Ī": 3329,
      "çĽ¼": 3330,
      "æį§": 3331,
      "åĩĭ": 3332,
      "æ¼¾": 3333,
      "çļ±": 3334,
      "è¨İ": 3335,
      "çŁ£": 3336,
      "åĸ®": 3337,
      "æĬĦ": 3338,
      "éĴ©": 3339,
      "å°¸": 3340,
      "åį¸": 3341,
      "æ¶¤": 3342,
      "é¸¥": 3343,
      "æ¬Ĭ": 3344,
      "æ·®": 3345,
      "èĵī": 3346,
      "è¸©": 3347,
      "æ½ĺ": 3348,
      "é¹ī": 3349,
      "å´½": 3350,
      "è¡Ķ": 3351,
      "æ¶©": 3352,
      "å¦ĸ": 3353,
      "åĸĺ": 3354,
      "ç³¯": 3355,
      "æ°¯": 3356,
      "åĬį": 3357,
      "åĬĿ": 3358,
      "æ³£": 3359,
      "éĤĵ": 3360,
      "ç¯·": 3361,
      "å¯«": 3362,
      "å·©": 3363,
      "æ¸Ĭ": 3364,
      "é¸½": 3365,
      "åĪ®": 3366,
      "èĦ¾": 3367,
      "çĽİ": 3368,
      "çļĤ": 3369,
      "çĲ¼": 3370,
      "å®Ľ": 3371,
      "èĤĨ": 3372,
      "ç¬Ľ": 3373,
      "éĦ": 3374,
      "åĩĦ": 3375,
      "åł±": 3376,
      "åīĸ": 3377,
      "ç©į": 3378,
      "è¶Ł": 3379,
      "èĮİ": 3380,
      "è½ī": 3381,
      "åļ¼": 3382,
      "èºģ": 3383,
      "çį¨": 3384,
      "è®½": 3385,
      "ç´Ħ": 3386,
      "æ¹ĺ": 3387,
      "æį¡": 3388,
      "ç°¡": 3389,
      "èĹ»": 3390,
      "éĨ«": 3391,
      "æ£ĺ": 3392,
      "åĬĥ": 3393,
      "çĨĶ": 3394,
      "é©¯": 3395,
      "é¢Ĳ": 3396,
      "éĽ£": 3397,
      "è½¿": 3398,
      "è£ķ": 3399,
      "æĥ¬": 3400,
      "çĸĨ": 3401,
      "çķ°": 3402,
      "æİł": 3403,
      "æµĳ": 3404,
      "éŃĦ": 3405,
      "èĪ±": 3406,
      "ç¼¤": 3407,
      "é¢Ĥ": 3408,
      "èĮħ": 3409,
      "éļ§": 3410,
      "åĭ¢": 3411,
      "èĭĶ": 3412,
      "æ²§": 3413,
      "ç¼´": 3414,
      "é©³": 3415,
      "ä¸Ļ": 3416,
      "è©ķ": 3417,
      "çĴ¨": 3418,
      "çĭĢ": 3419,
      "åľĴ": 3420,
      "æĪ²": 3421,
      "åįĶ": 3422,
      "æĵģ": 3423,
      "çĪŃ": 3424,
      "çĴĢ": 3425,
      "é¡¯": 3426,
      "æŁĦ": 3427,
      "è¢į": 3428,
      "è»į": 3429,
      "æ£į": 3430,
      "å³¦": 3431,
      "éģĤ": 3432,
      "è¾½": 3433,
      "åĸµ": 3434,
      "æºľ": 3435,
      "è¯ı": 3436,
      "éĹ¯": 3437,
      "ç£·": 3438,
      "æ¾Ħ": 3439,
      "ç¼¸": 3440,
      "çªĦ": 3441,
      "éłĲ": 3442,
      "å¼§": 3443,
      "èĶ½": 3444,
      "éĶ¡": 3445,
      "èģ¯": 3446,
      "è§ħ": 3447,
      "å±¤": 3448,
      "ç»İ": 3449,
      "ä¿Ĥ": 3450,
      "æıī": 3451,
      "æº«": 3452,
      "åĵİ": 3453,
      "æ±Ģ": 3454,
      "çģ¶": 3455,
      "ç¼ķ": 3456,
      "éĴ¦": 3457,
      "ç·´": 3458,
      "æĿ±": 3459,
      "éĻķ": 3460,
      "æ³»": 3461,
      "è£Ŀ": 3462,
      "æ²¾": 3463,
      "çĳ¶": 3464,
      "åĥħ": 3465,
      "å£ĵ": 3466,
      "èģŀ": 3467,
      "è¨Ĭ": 3468,
      "å±ĳ": 3469,
      "ä¹¾": 3470,
      "éģı": 3471,
      "åĲı": 3472,
      "æª¢": 3473,
      "ä»Ĺ": 3474,
      "æŀ£": 3475,
      "èµģ": 3476,
      "è´©": 3477,
      "éļĽ": 3478,
      "çķľ": 3479,
      "æŁĳ": 3480,
      "éĴĹ": 3481,
      "ï¼ĵ": 3482,
      "é«ĵ": 3483,
      "åĵ®": 3484,
      "è©ŀ": 3485,
      "è¨ĺ": 3486,
      "åºĲ": 3487,
      "éĻ½": 3488,
      "åĴĴ": 3489,
      "è½°": 3490,
      "è°ļ": 3491,
      "ä¸¸": 3492,
      "æĺŃ": 3493,
      "èĩº": 3494,
      "æ¶¡": 3495,
      "åķ¥": 3496,
      "âĳ": 3497,
      "åĤħ": 3498,
      "ä»ĳ": 3499,
      "å¼ĵ": 3500,
      "äºı": 3501,
      "åĨĪ": 3502,
      "èĪĨ": 3503,
      "æĪļ": 3504,
      "æĺ¼": 3505,
      "âĨ": 3506,
      "å¾Ļ": 3507,
      "éľ¾": 3508,
      "éħ¿": 3509,
      "åį»": 3510,
      "æĸĲ": 3511,
      "é¼İ": 3512,
      "çĤ«": 3513,
      "æĥ°": 3514,
      "æĻ¤": 3515,
      "èĮµ": 3516,
      "å³Ń": 3517,
      "å®°": 3518,
      "åľį": 3519,
      "æĭŃ": 3520,
      "éĶ¤": 3521,
      "éĴ¾": 3522,
      "ï¼ķ": 3523,
      "éªļ": 3524,
      "èģ½": 3525,
      "è¾ĸ": 3526,
      "æ²Ľ": 3527,
      "ï¼İ": 3528,
      "èĲİ": 3529,
      "è¼¸": 3530,
      "é¡½": 3531,
      "èįĨ": 3532,
      "å¢ħ": 3533,
      "ï¼Ļ": 3534,
      "èŃī": 3535,
      "èĬĻ": 3536,
      "éĺ±": 3537,
      "èĥº": 3538,
      "çĦķ": 3539,
      "è¤Ĳ": 3540,
      "æĮª": 3541,
      "å¾Ĭ": 3542,
      "æĴ©": 3543,
      "æĵĩ": 3544,
      "èİº": 3545,
      "è¾±": 3546,
      "æĦ§": 3547,
      "æŀ¢": 3548,
      "èı¯": 3549,
      "è®Ģ": 3550,
      "å°¬": 3551,
      "æ¦¨": 3552,
      "æĸĵ": 3553,
      "æļĩ": 3554,
      "æ¸º": 3555,
      "éĴī": 3556,
      "éĸĴ": 3557,
      "è±Ĳ": 3558,
      "èĦĸ": 3559,
      "æ°¦": 3560,
      "åīĶ": 3561,
      "éĤĬ": 3562,
      "åľĺ": 3563,
      "èĪĪ": 3564,
      "Â²": 3565,
      "åĴ½": 3566,
      "èĥ°": 3567,
      "å¾ĺ": 3568,
      "çķ«": 3569,
      "èľĹ": 3570,
      "éļ¶": 3571,
      "çĥ¯": 3572,
      "éĴŀ": 3573,
      "åĴı": 3574,
      "è´¬": 3575,
      "éģł": 3576,
      "ï½ŀ": 3577,
      "è£½": 3578,
      "èħķ": 3579,
      "å«ģ": 3580,
      "è°ħ": 3581,
      "çµ¡": 3582,
      "å°´": 3583,
      "éĿľ": 3584,
      "çĮ¿": 3585,
      "ç¾¡": 3586,
      "èª°": 3587,
      "è²¬": 3588,
      "åļ´": 3589,
      "ç¿±": 3590,
      "è¤ĩ": 3591,
      "æ±Ŀ": 3592,
      "ç·Ĭ": 3593,
      "âĨĴ": 3594,
      "è¯µ": 3595,
      "çĽı": 3596,
      "æĴķ": 3597,
      "æĸ©": 3598,
      "ç´ħ": 3599,
      "æ¸£": 3600,
      "åĥµ": 3601,
      "é»ı": 3602,
      "åĮª": 3603,
      "çĭĦ": 3604,
      "èĶļ": 3605,
      "ç©©": 3606,
      "èĳ¬": 3607,
      "èĸ°": 3608,
      "åŀĴ": 3609,
      "ðŁĺ": 3610,
      "èľĢ": 3611,
      "åĲķ": 3612,
      "æ¸į": 3613,
      "æ¼¸": 3614,
      "è°Ľ": 3615,
      "éĽ¢": 3616,
      "è¶ģ": 3617,
      "åĨ¯": 3618,
      "äº©": 3619,
      "è½©": 3620,
      "è¥Ł": 3621,
      "æħ®": 3622,
      "åĴķ": 3623,
      "å¾µ": 3624,
      "èĴ²": 3625,
      "éĻ³": 3626,
      "åĳķ": 3627,
      "ç¥ī": 3628,
      "éłĪ": 3629,
      "åİķ": 3630,
      "ç«ĸ": 3631,
      "éºĹ": 3632,
      "å¼ĺ": 3633,
      "æ±°": 3634,
      "çĨı": 3635,
      "ç§ī": 3636,
      "è¹¦": 3637,
      "çº¬": 3638,
      "åĤ»": 3639,
      "æĭ±": 3640,
      "è¢ľ": 3641,
      "èĶ¡": 3642,
      "çŀ°": 3643,
      "åĩ³": 3644,
      "åĴ±": 3645,
      "éĩĭ": 3646,
      "é£Ľ": 3647,
      "ç¹Ķ": 3648,
      "éĿĪ": 3649,
      "ç²¼": 3650,
      "èĹī": 3651,
      "èĬŃ": 3652,
      "æ±²": 3653,
      "éĺ®": 3654,
      "è¹Ħ": 3655,
      "éŀŃ": 3656,
      "æĮł": 3657,
      "ç¯ī": 3658,
      "è¾Ł": 3659,
      "æ¨¹": 3660,
      "åħĨ": 3661,
      "è²ł": 3662,
      "åĿį": 3663,
      "éĢ¾": 3664,
      "è¤ª": 3665,
      "ç±½": 3666,
      "åİĦ": 3667,
      "é¬ĵ": 3668,
      "èĽ®": 3669,
      "è°´": 3670,
      "æİ¡": 3671,
      "çĶ¸": 3672,
      "ç¢Ł": 3673,
      "çħ²": 3674,
      "ç¼ħ": 3675,
      "äºŀ": 3676,
      "åįĴ": 3677,
      "å½Ń": 3678,
      "ðŁĮ": 3679,
      "ä¹ŀ": 3680,
      "å³¨": 3681,
      "åĺ²": 3682,
      "éľī": 3683,
      "é¢¤": 3684,
      "èľ¥": 3685,
      "çĬĢ": 3686,
      "éªĤ": 3687,
      "èİ¹": 3688,
      "æ¦´": 3689,
      "èĪī": 3690,
      "éĽľ": 3691,
      "ï¼Ķ": 3692,
      "è¨ĵ": 3693,
      "æ¼ĵ": 3694,
      "éĵ¸": 3695,
      "æĽ¦": 3696,
      "åŀ¢": 3697,
      "å©·": 3698,
      "å¦ĥ": 3699,
      "æ¡Ĳ": 3700,
      "èį§": 3701,
      "çĩŁ": 3702,
      "éħļ": 3703,
      "âĢĭ": 3704,
      "åĨ¤": 3705,
      "æķĽ": 3706,
      "æ¶Ŀ": 3707,
      "èģ·": 3708,
      "åł¤": 3709,
      "åĩ°": 3710,
      "ç¶ł": 3711,
      "æĻ¾": 3712,
      "åĭĺ": 3713,
      "åŃµ": 3714,
      "åĵŁ": 3715,
      "ä¾Ī": 3716,
      "çĿĲ": 3717,
      "æ·Ĩ": 3718,
      "æ¶Ł": 3719,
      "åĬĩ": 3720,
      "æ¢§": 3721,
      "äº¨": 3722,
      "åĺĪ": 3723,
      "çĦļ": 3724,
      "éĶ¥": 3725,
      "æ½Ń": 3726,
      "ç¾ģ": 3727,
      "åľŃ": 3728,
      "é©¼": 3729,
      "æłĪ": 3730,
      "æĿł": 3731,
      "æĹ¬": 3732,
      "é©ļ": 3733,
      "ç¬¨": 3734,
      "ç¥Ģ": 3735,
      "æĭ¦": 3736,
      "èĭ¯": 3737,
      "éħ¯": 3738,
      "é¸¢": 3739,
      "åĺ»": 3740,
      "èĬ¥": 3741,
      "æ½ĩ": 3742,
      "æİ·": 3743,
      "çĦī": 3744,
      "åħĳ": 3745,
      "æ¼±": 3746,
      "çĳķ": 3747,
      "è¯ł": 3748,
      "åĪĥ": 3749,
      "æ¶ķ": 3750,
      "è¬Ŀ": 3751,
      "éľĦ": 3752,
      "éĻĭ": 3753,
      "åİ¢": 3754,
      "èĩĢ": 3755,
      "è¾ľ": 3756,
      "æĵĢ": 3757,
      "å¹¾": 3758,
      "åĵī": 3759,
      "éĽĮ": 3760,
      "éĽĻ": 3761,
      "å§¨": 3762,
      "èĹ¥": 3763,
      "åĹĵ": 3764,
      "éĺĳ": 3765,
      "æĸĭ": 3766,
      "è¯¡": 3767,
      "è³¼": 3768,
      "è´ŀ": 3769,
      "å¤¢": 3770,
      "ç»ħ": 3771,
      "çĢļ": 3772,
      "éį": 3773,
      "ç¬ĭ": 3774,
      "é¾į": 3775,
      "éĻĢ": 3776,
      "çĽ¯": 3777,
      "æĭĲ": 3778,
      "é¸µ": 3779,
      "çĹĴ": 3780,
      "ç«¶": 3781,
      "çŃ·": 3782,
      "é²ĳ": 3783,
      "å±ī": 3784,
      "è°į": 3785,
      "æ±¹": 3786,
      "è¢ģ": 3787,
      "ç°ĩ": 3788,
      "å´İ": 3789,
      "èĩ¨": 3790,
      "å§ļ": 3791,
      "æºī": 3792,
      "çŁ«": 3793,
      "çŀ»": 3794,
      "åĥ»": 3795,
      "çĹĺ": 3796,
      "åĿĿ": 3797,
      "å®ķ": 3798,
      "åĭĿ": 3799,
      "å¯¶": 3800,
      "æ¢¢": 3801,
      "èł¢": 3802,
      "çĿ¹": 3803,
      "é¤Ĭ": 3804,
      "éĵ²": 3805,
      "åı®": 3806,
      "é«¦": 3807,
      "æłĹ": 3808,
      "æ¡Ķ": 3809,
      "ç¼Ĩ": 3810,
      "çľº": 3811,
      "å¯¥": 3812,
      "ÏĢ": 3813,
      "è¶¾": 3814,
      "ç²¤": 3815,
      "çĦ¯": 3816,
      "å´Ķ": 3817,
      "æİĢ": 3818,
      "çĭł": 3819,
      "æ¶İ": 3820,
      "éŃģ": 3821,
      "å±ł": 3822,
      "ç¨½": 3823,
      "æĢħ": 3824,
      "ç¹¼": 3825,
      "æµĬ": 3826,
      "èĳ«": 3827,
      "åŀĦ": 3828,
      "æīī": 3829,
      "éģĽ": 3830,
      "åºĩ": 3831,
      "åĹİ": 3832,
      "ðŁĳ": 3833,
      "æ©±": 3834,
      "éĻ¡": 3835,
      "åłħ": 3836,
      "éĿ¡": 3837,
      "åĩ¹": 3838,
      "å¼Ľ": 3839,
      "å±¡": 3840,
      "ä¹ĸ": 3841,
      "æŀī": 3842,
      "é§": 3843,
      "è±ģ": 3844,
      "åłķ": 3845,
      "ä»Ĩ": 3846,
      "è°¬": 3847,
      "çĽĶ": 3848,
      "åĭĭ": 3849,
      "æľĶ": 3850,
      "é¹ı": 3851,
      "è¨´": 3852,
      "èĭĳ": 3853,
      "éĶĮ": 3854,
      "é²Ī": 3855,
      "æ¼ª": 3856,
      "çªŁ": 3857,
      "çĨł": 3858,
      "è¦ª": 3859,
      "ç¼Ń": 3860,
      "åīĥ": 3861,
      "çĹ°": 3862,
      "å±¯": 3863,
      "è¿Ħ": 3864,
      "æī¯": 3865,
      "åĹ¡": 3866,
      "çªį": 3867,
      "éĻ¨": 3868,
      "è£³": 3869,
      "éľĵ": 3870,
      "éİ": 3871,
      "æºħ": 3872,
      "å½¦": 3873,
      "æªĲ": 3874,
      "æľ½": 3875,
      "èħ¦": 3876,
      "çĲª": 3877,
      "è¢¤": 3878,
      "èľ´": 3879,
      "æĲį": 3880,
      "ç¦Ħ": 3881,
      "æģį": 3882,
      "èħ¥": 3883,
      "èĲ¦": 3884,
      "ç¨±": 3885,
      "çī¡": 3886,
      "ç¡Ŀ": 3887,
      "ç´ļ": 3888,
      "çĸ¹": 3889,
      "åĺ±": 3890,
      "é¢Ĭ": 3891,
      "çľ¸": 3892,
      "æ³µ": 3893,
      "ç¥·": 3894,
      "ï¼ĸ": 3895,
      "åĿ¤": 3896,
      "æł©": 3897,
      "æ¦»": 3898,
      "ï¼ĺ": 3899,
      "æĥ¹": 3900,
      "éĨĽ": 3901,
      "ç¯±": 3902,
      "å¯Ĳ": 3903,
      "çĽ£": 3904,
      "éħ®": 3905,
      "åĴĢ": 3906,
      "å´Ń": 3907,
      "å°ī": 3908,
      "çĽ¡": 3909,
      "çµ®": 3910,
      "å¾©": 3911,
      "æ±Ĳ": 3912,
      "çĨµ": 3913,
      "è©©": 3914,
      "æ²ģ": 3915,
      "ä¿ı": 3916,
      "ï¼Ĥ": 3917,
      "èĬľ": 3918,
      "æ®·": 3919,
      "çļĳ": 3920,
      "å¶": 3921,
      "ï¼Ĺ": 3922,
      "è²·": 3923,
      "èĪĶ": 3924,
      "éĬ·": 3925,
      "åŀł": 3926,
      "çĪ¾": 3927,
      "èª²": 3928,
      "ç´¹": 3929,
      "åĭī": 3930,
      "æĶĺ": 3931,
      "æ¸ļ": 3932,
      "èº¯": 3933,
      "éĺĻ": 3934,
      "æ§Ľ": 3935,
      "å¦Ħ": 3936,
      "ä½¼": 3937,
      "æħµ": 3938,
      "èķĥ": 3939,
      "ä¸ŀ": 3940,
      "ç«¿": 3941,
      "é¦Ĵ": 3942,
      "æĵĶ": 3943,
      "å±¬": 3944,
      "æľ¦": 3945,
      "é©Ń": 3946,
      "éĩĿ": 3947,
      "æ´½": 3948,
      "éħĮ": 3949,
      "çıĢ": 3950,
      "çļİ": 3951,
      "èĻŁ": 3952,
      "é£²": 3953,
      "å¦Ĵ": 3954,
      "æ¶ħ": 3955,
      "èĲ¬": 3956,
      "åĭµ": 3957,
      "å¨ħ": 3958,
      "çª¥": 3959,
      "ç·Ĵ": 3960,
      "æı®": 3961,
      "éĶĤ": 3962,
      "é¡·": 3963,
      "éķģ": 3964,
      "å©ª": 3965,
      "è·¤": 3966,
      "å·į": 3967,
      "æķµ": 3968,
      "é¦¬": 3969,
      "éĲ": 3970,
      "æĭĻ": 3971,
      "åĤ·": 3972,
      "é¬¥": 3973,
      "è¾²": 3974,
      "æ¸²": 3975,
      "å¢Ł": 3976,
      "èĢ»": 3977,
      "çį»": 3978,
      "èļķ": 3979,
      "æ°Ł": 3980,
      "è¤¶": 3981,
      "èĲĥ": 3982,
      "ç°§": 3983,
      "æķĹ": 3984,
      "âĹ": 3985,
      "æ¡©": 3986,
      "ç¯Ħ": 3987,
      "è´¿": 3988,
      "åĹŁ": 3989,
      "è¾¦": 3990,
      "æ²¼": 3991,
      "é²¤": 3992,
      "å½·": 3993,
      "éªĨ": 3994,
      "çł¸": 3995,
      "è¢ħ": 3996,
      "è»Ł": 3997,
      "æįı": 3998,
      "èĥ§": 3999,
      "ï¼į": 4000,
      "åĹľ": 4001,
      "ç¯Ŀ": 4002,
      "æį£": 4003,
      "çĤ½": 4004,
      "èĲ¤": 4005,
      "âĪ": 4006,
      "ç£Ĭ": 4007,
      "é¥¶": 4008,
      "ä¿ĳ": 4009,
      "éºŁ": 4010,
      "æķ·": 4011,
      "åĵ¨": 4012,
      "åĩ¿": 4013,
      "åĳ¤": 4014,
      "ç»·": 4015,
      "ä¹į": 4016,
      "ç©Ĺ": 4017,
      "æ¨½": 4018,
      "çĭ¡": 4019,
      "æ¾ľ": 4020,
      "åŃľ": 4021,
      "æĨ§": 4022,
      "çĤĻ": 4023,
      "éĿĸ": 4024,
      "åĺĮ": 4025,
      "å¨¥": 4026,
      "æĶĿ": 4027,
      "ç¤İ": 4028,
      "æ¶§": 4029,
      "èĻŀ": 4030,
      "æĨ¬": 4031,
      "èĪ¶": 4032,
      "åĵĹ": 4033,
      "æĵ¬": 4034,
      "è¤Ĵ": 4035,
      "æĬī": 4036,
      "æıĽ": 4037,
      "åĲł": 4038,
      "æ£ļ": 4039,
      "èĿĩ": 4040,
      "ç´Ĭ": 4041,
      "çĲħ": 4042,
      "ç©¹": 4043,
      "æĸ§": 4044,
      "èĤĺ": 4045,
      "éĤĳ": 4046,
      "æ¨ĵ": 4047,
      "æ¾İ": 4048,
      "é»¯": 4049,
      "é©´": 4050,
      "ç·¨": 4051,
      "æ»Ķ": 4052,
      "èĭ·": 4053,
      "çľ·": 4054,
      "æĤį": 4055,
      "éĽ²": 4056,
      "æĤĸ": 4057,
      "çĨĦ": 4058,
      "æ½Ľ": 4059,
      "å£ĳ": 4060,
      "å¼Ī": 4061,
      "ç´Ģ": 4062,
      "åĨķ": 4063,
      "çŁ¢": 4064,
      "çŀª": 4065,
      "é¬Ĩ": 4066,
      "åĸĢ": 4067,
      "å¨Ł": 4068,
      "åĺ¶": 4069,
      "è±Į": 4070,
      "åĿ·": 4071,
      "å¸ľ": 4072,
      "æĶĴ": 4073,
      "é£Ļ": 4074,
      "çĺ«": 4075,
      "èĤ½": 4076,
      "åĻľ": 4077,
      "èįĶ": 4078,
      "çģ¼": 4079,
      "æĲĵ": 4080,
      "éª¸": 4081,
      "éĹº": 4082,
      "ç¿ĺ": 4083,
      "é¤¨": 4084,
      "å¯Ŀ": 4085,
      "èĤĭ": 4086,
      "éĸ±": 4087,
      "æĢ¯": 4088,
      "ç»®": 4089,
      "å¦į": 4090,
      "é¦ı": 4091,
      "åĸĩ": 4092,
      "ç½¹": 4093,
      "éĩī": 4094,
      "åŁ·": 4095,
      "çĿ¦": 4096,
      "åħĴ": 4097,
      "æī³": 4098,
      "èŀĥ": 4099,
      "ç¥ł": 4100,
      "éĻĽ": 4101,
      "è¶´": 4102,
      "åĨ¶": 4103,
      "é³ķ": 4104,
      "æĲģ": 4105,
      "è¡Ľ": 4106,
      "åĮĪ": 4107,
      "é¸¾": 4108,
      "èĴĭ": 4109,
      "çľ©": 4110,
      "éĮ¯": 4111,
      "éĢ£": 4112,
      "åĸ³": 4113,
      "æĥŃ": 4114,
      "èĭĽ": 4115,
      "ç¢¼": 4116,
      "çĮķ": 4117,
      "èĳī": 4118,
      "æ¹ĥ": 4119,
      "âĢĵ": 4120,
      "åĲ¼": 4121,
      "çĦĸ": 4122,
      "æĿŀ": 4123,
      "æĻ¦": 4124,
      "çº¶": 4125,
      "èĮģ": 4126,
      "æ²ª": 4127,
      "æ£±": 4128,
      "éĽį": 4129,
      "æĤ¼": 4130,
      "èĲį": 4131,
      "ç·©": 4132,
      "èĢ½": 4133,
      "ç¦®": 4134,
      "å»³": 4135,
      "äºŁ": 4136,
      "å°¹": 4137,
      "éķ¶": 4138,
      "èģĭ": 4139,
      "æ£ł": 4140,
      "çĸµ": 4141,
      "åĴĨ": 4142,
      "æ²¦": 4143,
      "åĻ¢": 4144,
      "æĪ³": 4145,
      "æºº": 4146,
      "çĦĹ": 4147,
      "âĸ": 4148,
      "éĭ": 4149,
      "è²¢": 4150,
      "éĶ¯": 4151,
      "æģ¬": 4152,
      "èľ¿": 4153,
      "éªı": 4154,
      "çģ½": 4155,
      "èı±": 4156,
      "èľĴ": 4157,
      "å«ī": 4158,
      "è²´": 4159,
      "è¬Ľ": 4160,
      "åķ¶": 4161,
      "é¹Ń": 4162,
      "éĸĥ": 4163,
      "è¥Ħ": 4164,
      "éĬĢ": 4165,
      "éı": 4166,
      "è´±": 4167,
      "é¹Ĭ": 4168,
      "æ·³": 4169,
      "æµĴ": 4170,
      "ç¼ª": 4171,
      "éģĲ": 4172,
      "ãĢİ": 4173,
      "é³į": 4174,
      "é¨": 4175,
      "éİ®": 4176,
      "âī": 4177,
      "åĳľ": 4178,
      "é®": 4179,
      "çŀĴ": 4180,
      "åį¦": 4181,
      "ç¦¹": 4182,
      "çŀ³": 4183,
      "éįµ": 4184,
      "éĺĢ": 4185,
      "è²¡": 4186,
      "éĴĽ": 4187,
      "ãĢı": 4188,
      "å¯ĩ": 4189,
      "å¥¸": 4190,
      "ä¿Ń": 4191,
      "æĵ´": 4192,
      "å£ŀ": 4193,
      "åļı": 4194,
      "èĺŃ": 4195,
      "åºµ": 4196,
      "éĢį": 4197,
      "ç®«": 4198,
      "çµ²": 4199,
      "èĺ¸": 4200,
      "çª¦": 4201,
      "åıŃ": 4202,
      "è½¼": 4203,
      "æİı": 4204,
      "é¸³": 4205,
      "èĹį": 4206,
      "æĭ¢": 4207,
      "åĺĹ": 4208,
      "é¢ħ": 4209,
      "çĤĬ": 4210,
      "ãĥ": 4211,
      "èĽ¤": 4212,
      "æºĿ": 4213,
      "çĮ¾": 4214,
      "æĨ¶": 4215,
      "èİ½": 4216,
      "èĭŁ": 4217,
      "åį¤": 4218,
      "åĩĽ": 4219,
      "èĢ¦": 4220,
      "èı©": 4221,
      "æĤ¸": 4222,
      "åĺ§": 4223,
      "æĺ§": 4224,
      "åĸĻ": 4225,
      "åĲĴ": 4226,
      "æ´¼": 4227,
      "å¥ķ": 4228,
      "éĿ¶": 4229,
      "éĳ": 4230,
      "åĴ¯": 4231,
      "ç¾ļ": 4232,
      "çģ¸": 4233,
      "éģº": 4234,
      "ç¹«": 4235,
      "åºļ": 4236,
      "åķŁ": 4237,
      "å³¶": 4238,
      "è¿¢": 4239,
      "è©³": 4240,
      "æ¼©": 4241,
      "å¹Ĥ": 4242,
      "åĨĢ": 4243,
      "ðŁį": 4244,
      "éĮĦ": 4245,
      "éĺª": 4246,
      "åĮ®": 4247,
      "åĶ¾": 4248,
      "çĿģ": 4249,
      "è£¸": 4250,
      "ç¨ļ": 4251,
      "çıĳ": 4252,
      "åĨī": 4253,
      "é»ĥ": 4254,
      "å°§": 4255,
      "æ²ĵ": 4256,
      "ç±ĥ": 4257,
      "æªĢ": 4258,
      "è°Ń": 4259,
      "èĮı": 4260,
      "ç§¤": 4261,
      "éĻ¸": 4262,
      "éļ±": 4263,
      "çŃĲ": 4264,
      "å²ļ": 4265,
      "æ¼ī": 4266,
      "çĶĦ": 4267,
      "çĦĬ": 4268,
      "æłĵ": 4269,
      "èĥļ": 4270,
      "ç°¿": 4271,
      "ãģ": 4272,
      "åİ¥": 4273,
      "çµķ": 4274,
      "æĽĻ": 4275,
      "æ¶£": 4276,
      "è¯Ľ": 4277,
      "å¾ī": 4278,
      "éº¸": 4279,
      "é¢ĵ": 4280,
      "èĲ¼": 4281,
      "å¾ľ": 4282,
      "ç¥ĩ": 4283,
      "æĩ·": 4284,
      "è²Ĥ": 4285,
      "å¥İ": 4286,
      "æŀ¸": 4287,
      "åĳĲ": 4288,
      "å¨ĳ": 4289,
      "èľĵ": 4290,
      "æ¦Ń": 4291,
      "èľ»": 4292,
      "æ¿ĥ": 4293,
      "é®®": 4294,
      "æģ³": 4295,
      "èĿİ": 4296,
      "åķ¾": 4297,
      "å®¦": 4298,
      "å¹¢": 4299,
      "æĪİ": 4300,
      "çĿ«": 4301,
      "è³ŀ": 4302,
      "æĥĨ": 4303,
      "åģİ": 4304,
      "åº«": 4305,
      "çĹª": 4306,
      "æµ£": 4307,
      "å¥®": 4308,
      "æħ£": 4309,
      "èĻı": 4310,
      "è¶¨": 4311,
      "è°ı": 4312,
      "ç´į": 4313,
      "ç¿¡": 4314,
      "çĸ®": 4315,
      "ï¸": 4316,
      "åĿŁ": 4317,
      "èĤĩ": 4318,
      "ç´Ľ": 4319,
      "éĻ£": 4320,
      "åĦ²": 4321,
      "è·ª": 4322,
      "èĢ¿": 4323,
      "çĲī": 4324,
      "æ·ĳ": 4325,
      "å¨¶": 4326,
      "çĤ¬": 4327,
      "çĲ¢": 4328,
      "çĿ¿": 4329,
      "âĸ¡": 4330,
      "æ½Ķ": 4331,
      "èłķ": 4332,
      "æĥ¡": 4333,
      "ç¨¼": 4334,
      "ç±ģ": 4335,
      "åº¶": 4336,
      "é©Ł": 4337,
      "çĶ©": 4338,
      "è¡Ŀ": 4339,
      "åīģ": 4340,
      "è·ĭ": 4341,
      "éĽĸ": 4342,
      "éĴ³": 4343,
      "è¿¥": 4344,
      "å²ĸ": 4345,
      "ä»ķ": 4346,
      "å¸·": 4347,
      "ä¾®": 4348,
      "çĻ«": 4349,
      "é¹ĥ": 4350,
      "ç¼İ": 4351,
      "éķĳ": 4352,
      "åĹ£": 4353,
      "éĻ°": 4354,
      "ç¬Ļ": 4355,
      "æ²Į": 4356,
      "åħľ": 4357,
      "ç¶ľ": 4358,
      "çŀŃ": 4359,
      "æ¦Ĩ": 4360,
      "é¥µ": 4361,
      "ï¸ı": 4362,
      "è¯«": 4363,
      "èľ·": 4364,
      "æĨİ": 4365,
      "éķĤ": 4366,
      "æłħ": 4367,
      "éŁ¶": 4368,
      "éĢħ": 4369,
      "ç¼Ķ": 4370,
      "è¨ª": 4371,
      "éĿĵ": 4372,
      "åĵĴ": 4373,
      "é©¿": 4374,
      "èĩī": 4375,
      "èª¤": 4376,
      "æı½": 4377,
      "ç¦¾": 4378,
      "åĥļ": 4379,
      "ä¾¬": 4380,
      "æ¦Ī": 4381,
      "è´®": 4382,
      "åĸĥ": 4383,
      "é³Ĺ": 4384,
      "ðŁĴ": 4385,
      "éĤĤ": 4386,
      "éĽı": 4387,
      "æĹŃ": 4388,
      "èĦħ": 4389,
      "èĶ·": 4390,
      "è§ŀ": 4391,
      "èµĺ": 4392,
      "èº¬": 4393,
      "ç²½": 4394,
      "ä¿ĺ": 4395,
      "ç²ª": 4396,
      "æŃĲ": 4397,
      "èĹķ": 4398,
      "ä¾ı": 4399,
      "åķĥ": 4400,
      "éħ°": 4401,
      "éķĢ": 4402,
      "é¸¯": 4403,
      "åµ©": 4404,
      "éļĭ": 4405,
      "èķ¨": 4406,
      "ä½ĳ": 4407,
      "é¡§": 4408,
      "èĻĽ": 4409,
      "åĢ©": 4410,
      "æ¦®": 4411,
      "é³ĥ": 4412,
      "çĲ¦": 4413,
      "æ¯ĭ": 4414,
      "è£´": 4415,
      "è¸Ŀ": 4416,
      "åŁĶ": 4417,
      "æ¸¤": 4418,
      "è£ĺ": 4419,
      "è²¨": 4420,
      "äº¢": 4421,
      "åħĢ": 4422,
      "è¯ħ": 4423,
      "æĺĬ": 4424,
      "çĸļ": 4425,
      "çĴ§": 4426,
      "çĹ«": 4427,
      "éģķ": 4428,
      "ç¸¾": 4429,
      "äº¥": 4430,
      "æ¡ĵ": 4431,
      "ç¾Ķ": 4432,
      "çķ¸": 4433,
      "æĭĩ": 4434,
      "å¯ħ": 4435,
      "æĹĮ": 4436,
      "èķĬ": 4437,
      "å«¦": 4438,
      "åŀ¦": 4439,
      "çĹŀ": 4440,
      "è¢Ĥ": 4441,
      "âĳł": 4442,
      "åķĦ": 4443,
      "å±İ": 4444,
      "èįŁ": 4445,
      "èĵĭ": 4446,
      "éŀį": 4447,
      "æĤ´": 4448,
      "æ£Ħ": 4449,
      "éħĹ": 4450,
      "åĶ§": 4451,
      "éĽ¯": 4452,
      "æ´±": 4453,
      "ç°ª": 4454,
      "æ¦Ľ": 4455,
      "çªĴ": 4456,
      "è´ı": 4457,
      "çĥ©": 4458,
      "éĺĪ": 4459,
      "éŃļ": 4460,
      "æŃ¸": 4461,
      "é³¥": 4462,
      "çĵ¢": 4463,
      "ç²Ł": 4464,
      "éĹ¸": 4465,
      "èĪħ": 4466,
      "è¼ī": 4467,
      "ç»Ľ": 4468,
      "å¾¨": 4469,
      "è¯£": 4470,
      "çĸ¡": 4471,
      "ç»ŀ": 4472,
      "æĻı": 4473,
      "éħĭ": 4474,
      "æŁ¬": 4475,
      "çŀĦ": 4476,
      "æ§Ł": 4477,
      "éĤµ": 4478,
      "è«ĩ": 4479,
      "åĦĢ": 4480,
      "èĹ©": 4481,
      "èħ³": 4482,
      "éĦĻ": 4483,
      "éĴĿ": 4484,
      "éł»": 4485,
      "ç¾ħ": 4486,
      "æ¼¢": 4487,
      "èĮľ": 4488,
      "èªł": 4489,
      "éĹ½": 4490,
      "èµ¦": 4491,
      "ä¿ļ": 4492,
      "éĻĩ": 4493,
      "çįİ": 4494,
      "æŃ²": 4495,
      "çĽ¹": 4496,
      "çĪ¹": 4497,
      "é¹³": 4498,
      "ä½Ī": 4499,
      "æ¡¨": 4500,
      "æļ¹": 4501,
      "çŀİ": 4502,
      "ä½¬": 4503,
      "èŁĴ": 4504,
      "éĽ¹": 4505,
      "å¡Ĭ": 4506,
      "é¡ĺ": 4507,
      "ç»°": 4508,
      "ä¾ĥ": 4509,
      "åĬĳ": 4510,
      "èĽ¾": 4511,
      "æĢł": 4512,
      "çłĮ": 4513,
      "æ·ħ": 4514,
      "è¢Ħ": 4515,
      "éļį": 4516,
      "åĻ©": 4517,
      "å½¬": 4518,
      "æŃª": 4519,
      "èĭĴ": 4520,
      "âĳ¡": 4521,
      "æ¨µ": 4522,
      "æĴĩ": 4523,
      "çĸŁ": 4524,
      "åĺŁ": 4525,
      "é¢Į": 4526,
      "çŃĨ": 4527,
      "åĳ¦": 4528,
      "ç¾¹": 4529,
      "æ¯Ĺ": 4530,
      "ç¥Ľ": 4531,
      "æı£": 4532,
      "å²Ĳ": 4533,
      "æ¹į": 4534,
      "èĮī": 4535,
      "èļĵ": 4536,
      "æĨĶ": 4537,
      "éħ£": 4538,
      "çĥ½": 4539,
      "åĬī": 4540,
      "åĲ±": 4541,
      "åĵ¼": 4542,
      "æ¸Ń": 4543,
      "èĬ¸": 4544,
      "ç¼®": 4545,
      "å¦¾": 4546,
      "çľ¶": 4547,
      "çħ¦": 4548,
      "è§¸": 4549,
      "åĵĦ": 4550,
      "èŃ¬": 4551,
      "çĩĪ": 4552,
      "ç¹ª": 4553,
      "éĪ": 4554,
      "èĶ¼": 4555,
      "ç¬ł": 4556,
      "åķ®": 4557,
      "èħĳ": 4558,
      "ä¾¨": 4559,
      "æįį": 4560,
      "èįĢ": 4561,
      "åŀ®": 4562,
      "æ·«": 4563,
      "çĺŁ": 4564,
      "çļĵ": 4565,
      "ç»Ĭ": 4566,
      "ç§ĥ": 4567,
      "èµĤ": 4568,
      "ç¾Į": 4569,
      "åĢ«": 4570,
      "åı½": 4571,
      "æįĨ": 4572,
      "èĲĭ": 4573,
      "å®®": 4574,
      "æĭ§": 4575,
      "æ¶ĵ": 4576,
      "æ¿Ľ": 4577,
      "åį¯": 4578,
      "æĮ¨": 4579,
      "åķ°": 4580,
      "æ»ķ": 4581,
      "çħ½": 4582,
      "âĹĩ": 4583,
      "çŃµ": 4584,
      "è¹¬": 4585,
      "éłĨ": 4586,
      "æģķ": 4587,
      "æ¥·": 4588,
      "éľĨ": 4589,
      "è¨Ĥ": 4590,
      "çł§": 4591,
      "èģĸ": 4592,
      "éĲµ": 4593,
      "å½¤": 4594,
      "èĭĩ": 4595,
      "è©¢": 4596,
      "æĸŁ": 4597,
      "åĴļ": 4598,
      "åĳĹ": 4599,
      "èļĿ": 4600,
      "åŃ°": 4601,
      "è¹¤": 4602,
      "åĺİ": 4603,
      "æĪĬ": 4604,
      "çīł": 4605,
      "ä¾Ħ": 4606,
      "èĻĶ": 4607,
      "é§Ľ": 4608,
      "åĢĺ": 4609,
      "è¨º": 4610,
      "ä¸Ĳ": 4611,
      "å¹Ķ": 4612,
      "çªĳ": 4613,
      "èļ¯": 4614,
      "Ã©": 4615,
      "æĸĮ": 4616,
      "æ½¦": 4617,
      "æĪį": 4618,
      "éľŃ": 4619,
      "æ£¹": 4620,
      "ä¼«": 4621,
      "åĴİ": 4622,
      "èĬĭ": 4623,
      "èįı": 4624,
      "åĮ¡": 4625,
      "ä¿Ĳ": 4626,
      "é£¾": 4627,
      "çŁĹ": 4628,
      "è°Ķ": 4629,
      "éľı": 4630,
      "æ®´": 4631,
      "èĪľ": 4632,
      "æļĿ": 4633,
      "æ©ĩ": 4634,
      "çĲ¶": 4635,
      "éļ»": 4636,
      "åĶī": 4637,
      "ç¼ī": 4638,
      "åľĥ": 4639,
      "ç¾²": 4640,
      "åĭŀ": 4641,
      "è®³": 4642,
      "å¾ĳ": 4643,
      "éĮ¢": 4644,
      "æĿ³": 4645,
      "è¼¯": 4646,
      "ðŁİ": 4647,
      "é§ķ": 4648,
      "èĶĹ": 4649,
      "éķį": 4650,
      "çłº": 4651,
      "éªĩ": 4652,
      "æ§Ĳ": 4653,
      "çĳª": 4654,
      "çļĭ": 4655,
      "åĬ¾": 4656,
      "åŀ£": 4657,
      "æ¢ĵ": 4658,
      "å¥Ĥ": 4659,
      "åĹ¦": 4660,
      "é£Ĵ": 4661,
      "éĲĺ": 4662,
      "çĺĢ": 4663,
      "æŃ¹": 4664,
      "æ¾¹": 4665,
      "è¾Ħ": 4666,
      "éĶļ": 4667,
      "åĸĶ": 4668,
      "çĥĥ": 4669,
      "çľ¨": 4670,
      "ðŁĳį": 4671,
      "éŁŃ": 4672,
      "æĨ¨": 4673,
      "çªľ": 4674,
      "å¹£": 4675,
      "è¾Ļ": 4676,
      "èĬª": 4677,
      "å±¹": 4678,
      "å±ģ": 4679,
      "æ¸Ŀ": 4680,
      "æĨ©": 4681,
      "ç®Ķ": 4682,
      "èĴ¿": 4683,
      "ç£ĭ": 4684,
      "å§¥": 4685,
      "åŃ¢": 4686,
      "å½Ļ": 4687,
      "èĶ»": 4688,
      "æĮŁ": 4689,
      "éĶĦ": 4690,
      "ç¬º": 4691,
      "æĳĴ": 4692,
      "æļ¨": 4693,
      "æªĶ": 4694,
      "è¯²": 4695,
      "å¢©": 4696,
      "å¨Ľ": 4697,
      "é¡į": 4698,
      "èĳ©": 4699,
      "æ«": 4700,
      "æ®Ĩ": 4701,
      "ç¦§": 4702,
      "æĩ¦": 4703,
      "èŁ¾": 4704,
      "åı¨": 4705,
      "éºĵ": 4706,
      "ä»Ħ": 4707,
      "ä¼¶": 4708,
      "çĲµ": 4709,
      "æ¥ł": 4710,
      "éĺĤ": 4711,
      "åģķ": 4712,
      "åīĽ": 4713,
      "èį¤": 4714,
      "çį¸": 4715,
      "è£ľ": 4716,
      "é¬ĥ": 4717,
      "æ¨Ĭ": 4718,
      "è¸Ĳ": 4719,
      "ç¤´": 4720,
      "ç¼¥": 4721,
      "çª®": 4722,
      "ç°¸": 4723,
      "èĦĪ": 4724,
      "åĴĭ": 4725,
      "èĺĭ": 4726,
      "æĨĤ": 4727,
      "ï¼ı": 4728,
      "åĳĥ": 4729,
      "è¹´": 4730,
      "éłĤ": 4731,
      "ï¿": 4732,
      "æ®º": 4733,
      "ç²±": 4734,
      "âīĪ": 4735,
      "ãĥ»": 4736,
      "éľģ": 4737,
      "åĺĺ": 4738,
      "ä½Ķ": 4739,
      "æ¶®": 4740,
      "é¡ı": 4741,
      "å¶Ĥ": 4742,
      "Î²": 4743,
      "èĮĹ": 4744,
      "è¯Ļ": 4745,
      "éĹ¾": 4746,
      "é±¿": 4747,
      "å¸§": 4748,
      "çŀ§": 4749,
      "åĨ½": 4750,
      "éľĸ": 4751,
      "å²ĳ": 4752,
      "çĨ¨": 4753,
      "éļħ": 4754,
      "æĩĬ": 4755,
      "ðŁĮ¹": 4756,
      "æĥ¶": 4757,
      "æ·º": 4758,
      "æ±¶": 4759,
      "èĽŁ": 4760,
      "è²¿": 4761,
      "æħ¶": 4762,
      "è¼Ľ": 4763,
      "è·¹": 4764,
      "å¥§": 4765,
      "ç¢¾": 4766,
      "æİº": 4767,
      "åı©": 4768,
      "èĹĵ": 4769,
      "æ²½": 4770,
      "èĹľ": 4771,
      "éŀł": 4772,
      "ä¸«": 4773,
      "å·³": 4774,
      "è½§": 4775,
      "è£ı": 4776,
      "âħ": 4777,
      "çĤ¯": 4778,
      "æĪŁ": 4779,
      "åĵ©": 4780,
      "å£¯": 4781,
      "çĨ¹": 4782,
      "æ·¤": 4783,
      "éĴ§": 4784,
      "èŀĤ": 4785,
      "çħŀ": 4786,
      "æģĨ": 4787,
      "èĪĬ": 4788,
      "éķĸ": 4789,
      "æ½¢": 4790,
      "ç¸®": 4791,
      "èĨº": 4792,
      "æľķ": 4793,
      "éĤ±": 4794,
      "èĭŀ": 4795,
      "éļİ": 4796,
      "çº«": 4797,
      "åļİ": 4798,
      "éģģ": 4799,
      "èıĸ": 4800,
      "èĮ§": 4801,
      "è°Ĵ": 4802,
      "åªĽ": 4803,
      "ç°½": 4804,
      "éĶ£": 4805,
      "æĴ®": 4806,
      "èĺĩ": 4807,
      "å»¢": 4808,
      "éĤ¸": 4809,
      "éĺľ": 4810,
      "æīĴ": 4811,
      "å½Ī": 4812,
      "åĵĨ": 4813,
      "å¨´": 4814,
      "è¹Ń": 4815,
      "åĴ«": 4816,
      "éĩľ": 4817,
      "æĪĢ": 4818,
      "è¦½": 4819,
      "å£¬": 4820,
      "éĵĽ": 4821,
      "æ¿ķ": 4822,
      "éłĵ": 4823,
      "ä¿ł": 4824,
      "éĤ¹": 4825,
      "åĬĪ": 4826,
      "ç¼Ī": 4827,
      "éłģ": 4828,
      "ç¯Ĩ": 4829,
      "æĮİ": 4830,
      "éļĺ": 4831,
      "åģī": 4832,
      "å¸Ľ": 4833,
      "è¾Ĺ": 4834,
      "æķķ": 4835,
      "é©¹": 4836,
      "èħ®": 4837,
      "èĲ±": 4838,
      "å³¥": 4839,
      "æģ£": 4840,
      "ç¥ģ": 4841,
      "æľŃ": 4842,
      "åģĥ": 4843,
      "çĲ¥": 4844,
      "çĹ¹": 4845,
      "æĵĴ": 4846,
      "çĴĭ": 4847,
      "åĮ£": 4848,
      "æ³ł": 4849,
      "è¡ħ": 4850,
      "èĬ·": 4851,
      "åŀ©": 4852,
      "ç´Ķ": 4853,
      "é¸ł": 4854,
      "åıŁ": 4855,
      "éª°": 4856,
      "èĦĵ": 4857,
      "èİĬ": 4858,
      "éºĴ": 4859,
      "æ±ķ": 4860,
      "å½Ŀ": 4861,
      "çĽ¤": 4862,
      "ç¨·": 4863,
      "èĦ«": 4864,
      "èľĬ": 4865,
      "çĺĻ": 4866,
      "çĥĻ": 4867,
      "æ¿¡": 4868,
      "éºµ": 4869,
      "æ¸¥": 4870,
      "éĢ±": 4871,
      "ä¿ŀ": 4872,
      "å¦Ĭ": 4873,
      "æ±ŀ": 4874,
      "è°©": 4875,
      "âĿ": 4876,
      "è¿¦": 4877,
      "å¿ı": 4878,
      "èĸ¦": 4879,
      "ä¼İ": 4880,
      "æĮŀ": 4881,
      "æĭ£": 4882,
      "çħĻ": 4883,
      "æ»ĩ": 4884,
      "è²ĵ": 4885,
      "æĪĽ": 4886,
      "å¥ļ": 4887,
      "é¥¯": 4888,
      "æĲĸ": 4889,
      "ç¹ŀ": 4890,
      "çĻ¸": 4891,
      "å¨ł": 4892,
      "æĵ¾": 4893,
      "é¾ļ": 4894,
      "å«£": 4895,
      "å¯§": 4896,
      "å¼¼": 4897,
      "æģĻ": 4898,
      "æ©ĭ": 4899,
      "âĪ¶": 4900,
      "èļ¤": 4901,
      "çīĨ": 4902,
      "ç¬ĥ": 4903,
      "éĦĤ": 4904,
      "å¯©": 4905,
      "èİŀ": 4906,
      "âĢį": 4907,
      "ðŁĲ": 4908,
      "æĪ®": 4909,
      "æ¯Ļ": 4910,
      "èĨĬ": 4911,
      "æĩ¼": 4912,
      "çĩĴ": 4913,
      "çļ¿": 4914,
      "éķŃ": 4915,
      "èŁł": 4916,
      "è±º": 4917,
      "ç¾Ł": 4918,
      "èĪµ": 4919,
      "åĳ±": 4920,
      "ç´¡": 4921,
      "é¾Ī": 4922,
      "å»ł": 4923,
      "è³´": 4924,
      "éĦī": 4925,
      "çĤ³": 4926,
      "ä¼º": 4927,
      "æį²": 4928,
      "è°¤": 4929,
      "é¦¥": 4930,
      "éªĭ": 4931,
      "åĨ¢": 4932,
      "æ¯¡": 4933,
      "åª²": 4934,
      "çĸ¤": 4935,
      "å¸ļ": 4936,
      "ãĤ": 4937,
      "æĥĺ": 4938,
      "çŁľ": 4939,
      "èĦĲ": 4940,
      "èŃ¯": 4941,
      "åª³": 4942,
      "ç¨£": 4943,
      "æ£º": 4944,
      "éħī": 4945,
      "éŁĵ": 4946,
      "äºĤ": 4947,
      "æĺµ": 4948,
      "èİ´": 4949,
      "çīŁ": 4950,
      "æ¿¯": 4951,
      "åĹ·": 4952,
      "æĭİ": 4953,
      "è¢Ĵ": 4954,
      "åķª": 4955,
      "èĥ³": 4956,
      "ä»ŀ": 4957,
      "éĢŀ": 4958,
      "èĢĺ": 4959,
      "èĥ¥": 4960,
      "ç¨ħ": 4961,
      "éģŀ": 4962,
      "å£¹": 4963,
      "åĦĺ": 4964,
      "ç´Ļ": 4965,
      "éı¡": 4966,
      "çłļ": 4967,
      "é»į": 4968,
      "ç£º": 4969,
      "ç»¯": 4970,
      "çł¾": 4971,
      "èŃ½": 4972,
      "å¦©": 4973,
      "âĳ¢": 4974,
      "âĺ": 4975,
      "åĪ¨": 4976,
      "èŀ¨": 4977,
      "å©Ģ": 4978,
      "çľ¯": 4979,
      "éºĭ": 4980,
      "å§Ĭ": 4981,
      "è´»": 4982,
      "è°Ļ": 4983,
      "åķģ": 4984,
      "èĩĥ": 4985,
      "èªĩ": 4986,
      "éķ¯": 4987,
      "èĦ¯": 4988,
      "èľķ": 4989,
      "è³£": 4990,
      "å¤Ń": 4991,
      "çĬģ": 4992,
      "åĴ¿": 4993,
      "è°ķ": 4994,
      "æ¨Ł": 4995,
      "é»Ķ": 4996,
      "âĿ¤": 4997,
      "è«§": 4998,
      "åĲĿ": 4999,
      "æķĿ": 5000,
      "è®ļ": 5001,
      "æĬ¨": 5002,
      "èµĥ": 5003,
      "éŁ¬": 5004,
      "èŁ²": 5005,
      "é¦ģ": 5006,
      "è·¡": 5007,
      "æ³ŀ": 5008,
      "åĢª": 5009,
      "èį¼": 5010,
      "æĸĽ": 5011,
      "èĩŁ": 5012,
      "ç²²": 5013,
      "é¬§": 5014,
      "è¿¸": 5015,
      "ç»¢": 5016,
      "ç´ĭ": 5017,
      "çħī": 5018,
      "åħ¢": 5019,
      "è°Ł": 5020,
      "éĹµ": 5021,
      "æĩµ": 5022,
      "åĿĤ": 5023,
      "é³Į": 5024,
      "ðŁı": 5025,
      "èĨĽ": 5026,
      "éĶ°": 5027,
      "çĥ¬": 5028,
      "èĵ®": 5029,
      "é¨İ": 5030,
      "æĩ¿": 5031,
      "åĺĨ": 5032,
      "ç³ľ": 5033,
      "ðŁĻ": 5034,
      "çļĻ": 5035,
      "è¯¬": 5036,
      "å±Ĳ": 5037,
      "æ§ĥ": 5038,
      "é¦į": 5039,
      "æħĳ": 5040,
      "ç¦Ģ": 5041,
      "éĵĢ": 5042,
      "å³Ļ": 5043,
      "Î±": 5044,
      "æĥļ": 5045,
      "ç¡¼": 5046,
      "åª½": 5047,
      "èĸ©": 5048,
      "é¹«": 5049,
      "åļ·": 5050,
      "çĲĽ": 5051,
      "æĽľ": 5052,
      "å©µ": 5053,
      "éĤ¢": 5054,
      "è¥²": 5055,
      "èĵĳ": 5056,
      "é¡Ĩ": 5057,
      "ç¢ĺ": 5058,
      "äºĺ": 5059,
      "æĤ¯": 5060,
      "çĢĽ": 5061,
      "âĪļ": 5062,
      "åº¾": 5063,
      "ç»»": 5064,
      "åĶĳ": 5065,
      "æ¯Ĥ": 5066,
      "èĽĢ": 5067,
      "é´": 5068,
      "ç¼±": 5069,
      "å©¿": 5070,
      "çŀ¥": 5071,
      "èĴ¼": 5072,
      "æĪĮ": 5073,
      "è§ĳ": 5074,
      "èºį": 5075,
      "èĦį": 5076,
      "è¬Ģ": 5077,
      "æİ¬": 5078,
      "é£¯": 5079,
      "å¤Ļ": 5080,
      "éĤ¯": 5081,
      "çĵ®": 5082,
      "èĬ¡": 5083,
      "èŁĢ": 5084,
      "éģ½": 5085,
      "èķĻ": 5086,
      "ç¸£": 5087,
      "ä¿¨": 5088,
      "çł¥": 5089,
      "æļ¢": 5090,
      "èŁĭ": 5091,
      "âĶ": 5092,
      "è¡¢": 5093,
      "çİº": 5094,
      "èĨł": 5095,
      "ç¼¨": 5096,
      "å²Ķ": 5097,
      "æ¹¯": 5098,
      "å¸³": 5099,
      "æĶ¸": 5100,
      "è¾į": 5101,
      "çĳĻ": 5102,
      "çĺł": 5103,
      "èŁĳ": 5104,
      "æµļ": 5105,
      "å»¿": 5106,
      "å¨ĵ": 5107,
      "éŃ¯": 5108,
      "éª¥": 5109,
      "æįĤ": 5110,
      "æ¶¼": 5111,
      "å¨Ħ": 5112,
      "éĦŃ": 5113,
      "åĴĶ": 5114,
      "é¹Ĥ": 5115,
      "å½ª": 5116,
      "åĺ¹": 5117,
      "çŀĮ": 5118,
      "å¤¥": 5119,
      "çĹĬ": 5120,
      "é³´": 5121,
      "ç°Į": 5122,
      "è½¶": 5123,
      "èĤ±": 5124,
      "é²«": 5125,
      "ï¿½": 5126,
      "éģ·": 5127,
      "æ»ħ": 5128,
      "æĭĪ": 5129,
      "éĸī": 5130,
      "éıĪ": 5131,
      "é½¡": 5132,
      "è«¾": 5133,
      "åĪį": 5134,
      "è¡®": 5135,
      "æīĽ": 5136,
      "åĮķ": 5137,
      "éĥµ": 5138,
      "èĭ£": 5139,
      "çĮ¬": 5140,
      "åĩ±": 5141,
      "ç®į": 5142,
      "æ±´": 5143,
      "ç´Ĳ": 5144,
      "çĪ²": 5145,
      "æĺķ": 5146,
      "ç½Ħ": 5147,
      "ç£ķ": 5148,
      "èıģ": 5149,
      "æĲĶ": 5150,
      "æ§İ": 5151,
      "å¯°": 5152,
      "åĦŁ": 5153,
      "èª¼": 5154,
      "è¼ª": 5155,
      "åİ®": 5156,
      "éĵĤ": 5157,
      "é¹Ħ": 5158,
      "è¯ĥ": 5159,
      "çŃı": 5160,
      "æĨĭ": 5161,
      "æĤħ": 5162,
      "è¸µ": 5163,
      "âĹı": 5164,
      "æĢ¦": 5165,
      "å¿±": 5166,
      "æ²Ĥ": 5167,
      "æ¥Ĭ": 5168,
      "è¤Ĥ": 5169,
      "æĥ®": 5170,
      "èģ°": 5171,
      "çĮ¶": 5172,
      "éĶµ": 5173,
      "åŃª": 5174,
      "èĥ±": 5175,
      "åł°": 5176,
      "çĶº": 5177,
      "èī±": 5178,
      "æģĥ": 5179,
      "å®¸": 5180,
      "éĥĿ": 5181,
      "é¹½": 5182,
      "èŁĨ": 5183,
      "æģª": 5184,
      "èĭľ": 5185,
      "æºŁ": 5186,
      "æ¥Ĥ": 5187,
      "åĩ«": 5188,
      "æ¶¸": 5189,
      "èħ©": 5190,
      "ç¤Ļ": 5191,
      "æ·Ļ": 5192,
      "èĿĹ": 5193,
      "å¿¡": 5194,
      "åĢĶ": 5195,
      "æĭ·": 5196,
      "é«»": 5197,
      "éĺİ": 5198,
      "ç¬Ĩ": 5199,
      "ç®ķ": 5200,
      "é½Ĭ": 5201,
      "æĽī": 5202,
      "é¥ĭ": 5203,
      "èĽ¹": 5204,
      "çĻĸ": 5205,
      "æĭ½": 5206,
      "é«®": 5207,
      "çªĪ": 5208,
      "çĽľ": 5209,
      "èĬĬ": 5210,
      "ç¥Ĺ": 5211,
      "æĢĨ": 5212,
      "é£Ħ": 5213,
      "ç³ł": 5214,
      "å»ĸ": 5215,
      "å²«": 5216,
      "èĶĳ": 5217,
      "åĴĦ": 5218,
      "æĦ£": 5219,
      "ç¼ľ": 5220,
      "æ¼³": 5221,
      "èĬį": 5222,
      "èĮ¹": 5223,
      "é·": 5224,
      "å¿Ĵ": 5225,
      "å²±": 5226,
      "éĳ«": 5227,
      "æĥĭ": 5228,
      "æ±¾": 5229,
      "æ»Ł": 5230,
      "ç§½": 5231,
      "çªĺ": 5232,
      "æĩ¸": 5233,
      "è®µ": 5234,
      "è¾ķ": 5235,
      "èĬ®": 5236,
      "ç½°": 5237,
      "é¥ķ": 5238,
      "èŃľ": 5239,
      "ç¦¦": 5240,
      "æļ§": 5241,
      "é¬Ł": 5242,
      "çįµ": 5243,
      "è¹ĳ": 5244,
      "åľĵ": 5245,
      "æ³¾": 5246,
      "è²§": 5247,
      "è¡Ļ": 5248,
      "è¹ī": 5249,
      "åµĺ": 5250,
      "è¡¾": 5251,
      "åĹĴ": 5252,
      "è¿Ĥ": 5253,
      "æıļ": 5254,
      "ç«º": 5255,
      "éĺĸ": 5256,
      "æ·¨": 5257,
      "æļ«": 5258,
      "æ°ĵ": 5259,
      "è°ª": 5260,
      "è·»": 5261,
      "èĿĮ": 5262,
      "çģĺ": 5263,
      "éĨ¬": 5264,
      "åĴ§": 5265,
      "ç§§": 5266,
      "éĽī": 5267,
      "éĵ¬": 5268,
      "æ½¤": 5269,
      "éº¥": 5270,
      "åĳĽ": 5271,
      "âĶĢ": 5272,
      "æĥ¦": 5273,
      "éº¾": 5274,
      "èļĮ": 5275,
      "éĭ¼": 5276,
      "ç¿Ł": 5277,
      "æ±Ľ": 5278,
      "è°¥": 5279,
      "é¤ĺ": 5280,
      "éķ°": 5281,
      "è·İ": 5282,
      "é¾ĭ": 5283,
      "æ²±": 5284,
      "å»Ł": 5285,
      "éĴµ": 5286,
      "çĺ´": 5287,
      "ç§Ĩ": 5288,
      "ç¶µ": 5289,
      "æĦ«": 5290,
      "èĩĨ": 5291,
      "é¢ļ": 5292,
      "åĽ§": 5293,
      "æĵº": 5294,
      "å©¦": 5295,
      "ç£¬": 5296,
      "è²Ŀ": 5297,
      "æ«»": 5298,
      "éĽŀ": 5299,
      "ç¿³": 5300,
      "ðŁĻı": 5301,
      "å¼©": 5302,
      "è¿©": 5303,
      "å¯¬": 5304,
      "è¶ķ": 5305,
      "éĵµ": 5306,
      "åĤĳ": 5307,
      "æķĸ": 5308,
      "æģº": 5309,
      "åĸļ": 5310,
      "èģĤ": 5311,
      "æĺĻ": 5312,
      "ç»¥": 5313,
      "èµ£": 5314,
      "çĮĸ": 5315,
      "èĵŁ": 5316,
      "ç»¶": 5317,
      "èµħ": 5318,
      "çħ©": 5319,
      "è³¦": 5320,
      "èļª": 5321,
      "åĺĢ": 5322,
      "è²¼": 5323,
      "ãĢī": 5324,
      "æ¯Ģ": 5325,
      "èī®": 5326,
      "éħĿ": 5327,
      "ä¿º": 5328,
      "éĨº": 5329,
      "æ°²": 5330,
      "æ»Ĥ": 5331,
      "åŃº": 5332,
      "åĢı": 5333,
      "åĶł": 5334,
      "ãĢĪ": 5335,
      "è¬Ĥ": 5336,
      "ç«£": 5337,
      "ç¥º": 5338,
      "æªĦ": 5339,
      "å¼ĭ": 5340,
      "éģ¨": 5341,
      "çĬĬ": 5342,
      "æ¦ķ": 5343,
      "å½¿": 5344,
      "åĴĲ": 5345,
      "é¬±": 5346,
      "æģ»": 5347,
      "ç¤¦": 5348,
      "åķ¬": 5349,
      "èĮĮ": 5350,
      "çĴĩ": 5351,
      "èĤ®": 5352,
      "å©¢": 5353,
      "ç½Ķ": 5354,
      "çĭĻ": 5355,
      "æĲĲ": 5356,
      "å¨©": 5357,
      "åģ´": 5358,
      "èĦ©": 5359,
      "èĢĨ": 5360,
      "çŃł": 5361,
      "é¦Ħ": 5362,
      "èĸı": 5363,
      "è³ł": 5364,
      "è¯½": 5365,
      "æŀ·": 5366,
      "æ°¤": 5367,
      "ðŁĳı": 5368,
      "æĥº": 5369,
      "éĻĤ": 5370,
      "èįŀ": 5371,
      "è£¨": 5372,
      "æ¹§": 5373,
      "ç»¡": 5374,
      "ç¥Ĳ": 5375,
      "çĴŀ": 5376,
      "è®´": 5377,
      "ç¬³": 5378,
      "çĳ¾": 5379,
      "é³ĸ": 5380,
      "åŃ½": 5381,
      "æ³¸": 5382,
      "èĩ¼": 5383,
      "çĸ±": 5384,
      "ä¿İ": 5385,
      "éĥ¢": 5386,
      "åĤ¾": 5387,
      "Â¥": 5388,
      "è¾ĩ": 5389,
      "é¥¨": 5390,
      "èĩ»": 5391,
      "çĻľ": 5392,
      "æĴ¬": 5393,
      "è¸ŀ": 5394,
      "ç¡Ĵ": 5395,
      "æıĸ": 5396,
      "è¹ĩ": 5397,
      "åļĲ": 5398,
      "é«¯": 5399,
      "èĨ½": 5400,
      "åĹĶ": 5401,
      "éļ¼": 5402,
      "æ¥«": 5403,
      "é³³": 5404,
      "ðŁĺŃ": 5405,
      "çºĤ": 5406,
      "éľ§": 5407,
      "åģĪ": 5408,
      "åī½": 5409,
      "å«Ĥ": 5410,
      "è¤¥": 5411,
      "å¥ª": 5412,
      "èĳŃ": 5413,
      "éŀĺ": 5414,
      "åĹĿ": 5415,
      "åĽ±": 5416,
      "ç±ł": 5417,
      "ç¾¯": 5418,
      "éĥ¸": 5419,
      "æĻĹ": 5420,
      "é¼¹": 5421,
      "èĨļ": 5422,
      "æ³Ĺ": 5423,
      "é¬£": 5424,
      "è®¥": 5425,
      "éĿĽ": 5426,
      "è¾«": 5427,
      "ç¼Ħ": 5428,
      "çªķ": 5429,
      "èµĬ": 5430,
      "èĥ¤": 5431,
      "æ¦«": 5432,
      "èĩ¾": 5433,
      "æ¡¦": 5434,
      "èĪĢ": 5435,
      "å¹¡": 5436,
      "éĤĪ": 5437,
      "å¦ĵ": 5438,
      "æĳ¹": 5439,
      "çĬ·": 5440,
      "å©§": 5441,
      "çĪį": 5442,
      "è¼Ķ": 5443,
      "åŃļ": 5444,
      "çķ¢": 5445,
      "éªģ": 5446,
      "éªĬ": 5447,
      "éĴ´": 5448,
      "çº¾": 5449,
      "åīĮ": 5450,
      "è¨Ŀ": 5451,
      "è¯ĭ": 5452,
      "âĳ£": 5453,
      "èĭĵ": 5454,
      "è£¾": 5455,
      "èĽ°": 5456,
      "èľĥ": 5457,
      "ç§¸": 5458,
      "æ±Ļ": 5459,
      "æ¥Ķ": 5460,
      "ï¼¡": 5461,
      "è¨»": 5462,
      "è¬İ": 5463,
      "éİĸ": 5464,
      "éĴ¨": 5465,
      "è·¶": 5466,
      "é¸ª": 5467,
      "æ¹Ħ": 5468,
      "âĻ": 5469,
      "å¤Ķ": 5470,
      "åĮĿ": 5471,
      "æŀŃ": 5472,
      "éģĻ": 5473,
      "æ®ĩ": 5474,
      "çĹĶ": 5475,
      "èħĭ": 5476,
      "çĹī": 5477,
      "çĴĲ": 5478,
      "ðŁĺĬ": 5479,
      "Î¼": 5480,
      "ç³į": 5481,
      "çĸ½": 5482,
      "æļĦ": 5483,
      "åĶĶ": 5484,
      "åŃ«": 5485,
      "ä¿¸": 5486,
      "é©ħ": 5487,
      "éĵł": 5488,
      "èªĮ": 5489,
      "æ¸İ": 5490,
      "éĴĭ": 5491,
      "çĵ¯": 5492,
      "åĽ¤": 5493,
      "éĹĬ": 5494,
      "åĶ¬": 5495,
      "èĩ§": 5496,
      "æ°°": 5497,
      "æĭĦ": 5498,
      "å¶¼": 5499,
      "å¹Į": 5500,
      "é»ľ": 5501,
      "æ£²": 5502,
      "å¥Ħ": 5503,
      "å£ĩ": 5504,
      "æ¦ī": 5505,
      "å¦ŀ": 5506,
      "çĳ©": 5507,
      "èĥŃ": 5508,
      "è±¬": 5509,
      "éĵİ": 5510,
      "éº½": 5511,
      "é¥·": 5512,
      "æĲĤ": 5513,
      "çº¨": 5514,
      "é¦ĭ": 5515,
      "éºĿ": 5516,
      "é¹§": 5517,
      "ï¼°": 5518,
      "åį®": 5519,
      "éľ¹": 5520,
      "æĵ¢": 5521,
      "åĤ¥": 5522,
      "ç£Ĳ": 5523,
      "è«¸": 5524,
      "æ®ĺ": 5525,
      "èĮ±": 5526,
      "èħ¸": 5527,
      "èł¹": 5528,
      "è¯ĺ": 5529,
      "ç»«": 5530,
      "èĻ¬": 5531,
      "å²Į": 5532,
      "é¹ľ": 5533,
      "çĪº": 5534,
      "æĵĤ": 5535,
      "èľĪ": 5536,
      "è¾ĺ": 5537,
      "æ©«": 5538,
      "å³ª": 5539,
      "çºĸ": 5540,
      "åģµ": 5541,
      "éĵ¿": 5542,
      "æĵĺ": 5543,
      "è¬¹": 5544,
      "é¢¦": 5545,
      "æĮĽ": 5546,
      "ç©İ": 5547,
      "å¡µ": 5548,
      "çįĴ": 5549,
      "çıĲ": 5550,
      "è¹Ł": 5551,
      "ä¿Ł": 5552,
      "çĲı": 5553,
      "éĵĨ": 5554,
      "åĪģ": 5555,
      "è¯§": 5556,
      "èĵ¦": 5557,
      "èľĩ": 5558,
      "åĮ¯": 5559,
      "çĽĤ": 5560,
      "æ²ĸ": 5561,
      "åķľ": 5562,
      "é»¨": 5563,
      "å¹¹": 5564,
      "çķ¿": 5565,
      "å³¤": 5566,
      "éĦ±": 5567,
      "å¥ĺ": 5568,
      "æ¼ķ": 5569,
      "éµ": 5570,
      "åı¢": 5571,
      "è®ª": 5572,
      "ç¥¢": 5573,
      "ç¥ļ": 5574,
      "è¹Ĭ": 5575,
      "è¼Ŀ": 5576,
      "è»Į": 5577,
      "ä¿¦": 5578,
      "èĥĦ": 5579,
      "éĨª": 5580,
      "è¸Ĭ": 5581,
      "âĹĭ": 5582,
      "çĭĴ": 5583,
      "ç¾§": 5584,
      "éĤº": 5585,
      "éĽ³": 5586,
      "ç°Ł": 5587,
      "èĵĵ": 5588,
      "çįŃ": 5589,
      "æ®ī": 5590,
      "æĵĭ": 5591,
      "çķ¦": 5592,
      "éķ«": 5593,
      "çĮ¥": 5594,
      "æ¤¿": 5595,
      "éĭª": 5596,
      "å»Ī": 5597,
      "å£½": 5598,
      "é²Ł": 5599,
      "åĦĦ": 5600,
      "é¢±": 5601,
      "é¢į": 5602,
      "çİĳ": 5603,
      "æĶ¤": 5604,
      "çł·": 5605,
      "åĶı": 5606,
      "æ§ģ": 5607,
      "æİĸ": 5608,
      "æĮĿ": 5609,
      "èī¦": 5610,
      "åĿ¯": 5611,
      "æĴĲ": 5612,
      "å´§": 5613,
      "æ¾¤": 5614,
      "æ³ĵ": 5615,
      "èĩĺ": 5616,
      "ç½¡": 5617,
      "éķķ": 5618,
      "èĸľ": 5619,
      "é¹ĳ": 5620,
      "ï¼£": 5621,
      "çīĸ": 5622,
      "éĻŁ": 5623,
      "æĨĳ": 5624,
      "ç¸±": 5625,
      "éĪ´": 5626,
      "Äģ": 5627,
      "è®¹": 5628,
      "æķĺ": 5629,
      "é£ķ": 5630,
      "ç©«": 5631,
      "èĽİ": 5632,
      "è¾Ķ": 5633,
      "çĥĬ": 5634,
      "âĢķ": 5635,
      "æµĥ": 5636,
      "çĸ¸": 5637,
      "èįļ": 5638,
      "éĴ¼": 5639,
      "é³Ł": 5640,
      "è¯°": 5641,
      "æīª": 5642,
      "æ±©": 5643,
      "Ã¨": 5644,
      "æĦķ": 5645,
      "é«ħ": 5646,
      "ï¼ĭ": 5647,
      "æİĥ": 5648,
      "èµ¡": 5649,
      "ç´Ĺ": 5650,
      "æº´": 5651,
      "ç²ĳ": 5652,
      "éĵ®": 5653,
      "èŀ¯": 5654,
      "éĢµ": 5655,
      "åĵĶ": 5656,
      "æĻŁ": 5657,
      "èĲĬ": 5658,
      "é¦Ķ": 5659,
      "çĭĪ": 5660,
      "æ»¾": 5661,
      "é¤ħ": 5662,
      "è¤ļ": 5663,
      "éĹ±": 5664,
      "èĪ«": 5665,
      "ðŁİī": 5666,
      "Ãł": 5667,
      "æŃ¼": 5668,
      "æĭ®": 5669,
      "èľį": 5670,
      "èĲ¸": 5671,
      "çº¡": 5672,
      "éķī": 5673,
      "çĮ·": 5674,
      "è£Ĩ": 5675,
      "æĴ·": 5676,
      "æ½¼": 5677,
      "åĴ²": 5678,
      "æĹĸ": 5679,
      "æ°©": 5680,
      "è´²": 5681,
      "ç±²": 5682,
      "æģģ": 5683,
      "è¿´": 5684,
      "æĹİ": 5685,
      "è¡²": 5686,
      "æ·ļ": 5687,
      "æĵł": 5688,
      "æ¥¹": 5689,
      "èķ©": 5690,
      "è²©": 5691,
      "ç·»": 5692,
      "äºµ": 5693,
      "è¿¤": 5694,
      "ç¥Ł": 5695,
      "çĮĿ": 5696,
      "éģ²": 5697,
      "éª·": 5698,
      "æ¨ĳ": 5699,
      "æĿµ": 5700,
      "åĨĬ": 5701,
      "å¿ĳ": 5702,
      "åķŃ": 5703,
      "å®¥": 5704,
      "å¦³": 5705,
      "éĵ¢": 5706,
      "è²ª": 5707,
      "æį»": 5708,
      "èĮ´": 5709,
      "ç¿İ": 5710,
      "å²ĺ": 5711,
      "æ§į": 5712,
      "å¿Ĳ": 5713,
      "ç®§": 5714,
      "çĿĳ": 5715,
      "æ¡Ģ": 5716,
      "éŁ»": 5717,
      "çįĹ": 5718,
      "é¨°": 5719,
      "æĮ¹": 5720,
      "çĪĽ": 5721,
      "é©·": 5722,
      "ç·£": 5723,
      "Ã¡": 5724,
      "å¹Ħ": 5725,
      "æįħ": 5726,
      "éª¢": 5727,
      "æ£Ĥ": 5728,
      "èĽ©": 5729,
      "åı±": 5730,
      "æİĽ": 5731,
      "æ·Ħ": 5732,
      "éķĲ": 5733,
      "åĿ³": 5734,
      "æº¥": 5735,
      "åĭģ": 5736,
      "èł¡": 5737,
      "âī¤": 5738,
      "Î¸": 5739,
      "æĲĢ": 5740,
      "èĨ©": 5741,
      "çīį": 5742,
      "ç®´": 5743,
      "éįĬ": 5744,
      "æ¯ĵ": 5745,
      "æ¡¡": 5746,
      "é¤®": 5747,
      "çĩİ": 5748,
      "è¸±": 5749,
      "è¹Ļ": 5750,
      "åļĩ": 5751,
      "ä¿¾": 5752,
      "è´Ĭ": 5753,
      "åī¿": 5754,
      "èĵ¿": 5755,
      "çįħ": 5756,
      "éĶ¢": 5757,
      "éĺ¡": 5758,
      "éªĪ": 5759,
      "æĲª": 5760,
      "æ¤½": 5761,
      "åļĵ": 5762,
      "ä¸ķ": 5763,
      "è°Ĺ": 5764,
      "éĤı": 5765,
      "ç¥¯": 5766,
      "æ¥ŀ": 5767,
      "ç¾¸": 5768,
      "çĸĻ": 5769,
      "é¼¾": 5770,
      "æīĥ": 5771,
      "è°ĳ": 5772,
      "éĨļ": 5773,
      "éĬ®": 5774,
      "æİĲ": 5775,
      "å§£": 5776,
      "å¨²": 5777,
      "ä¾¥": 5778,
      "è··": 5779,
      "éªĸ": 5780,
      "æ££": 5781,
      "èľļ": 5782,
      "çĺ©": 5783,
      "æĨ¤": 5784,
      "çºŃ": 5785,
      "ç¬Ī": 5786,
      "èĳĨ": 5787,
      "èķŃ": 5788,
      "éķĮ": 5789,
      "ðŁĺĺ": 5790,
      "è¯¶": 5791,
      "æĻģ": 5792,
      "å±¦": 5793,
      "å»ļ": 5794,
      "è·Ĩ": 5795,
      "æ¼²": 5796,
      "âĨĵ": 5797,
      "ÃŃ": 5798,
      "å¿¿": 5799,
      "é«ĭ": 5800,
      "ðŁĺĤ": 5801,
      "âħ¡": 5802,
      "æĭĹ": 5803,
      "çĿ¬": 5804,
      "æ¡§": 5805,
      "é¹Ĺ": 5806,
      "åĹĸ": 5807,
      "è©Ń": 5808,
      "åĴ©": 5809,
      "æ³¯": 5810,
      "çĿ¾": 5811,
      "éįĽ": 5812,
      "ä½°": 5813,
      "æĹĨ": 5814,
      "çĲĬ": 5815,
      "åİ²": 5816,
      "æģ¸": 5817,
      "èį»": 5818,
      "èļ£": 5819,
      "å¸ı": 5820,
      "æīĪ": 5821,
      "æ¬¹": 5822,
      "æ¼ģ": 5823,
      "è±ī": 5824,
      "ç®¸": 5825,
      "æ®¡": 5826,
      "çĪ°": 5827,
      "åĥĸ": 5828,
      "çªĸ": 5829,
      "éĨ´": 5830,
      "è©Ĳ": 5831,
      "çŀ¿": 5832,
      "æĪ¾": 5833,
      "èĢĴ": 5834,
      "ç¯ģ": 5835,
      "éĴ¿": 5836,
      "æİ£": 5837,
      "åłĳ": 5838,
      "ç£´": 5839,
      "ï¼ľ": 5840,
      "æ¡ī": 5841,
      "èĪĤ": 5842,
      "èİ¼": 5843,
      "æ¦Ķ": 5844,
      "é¾Ľ": 5845,
      "é¨Ļ": 5846,
      "ï¼³": 5847,
      "é¢ŀ": 5848,
      "æĭļ": 5849,
      "ç¯ĵ": 5850,
      "èĻ±": 5851,
      "ç¥ķ": 5852,
      "å²·": 5853,
      "æ¿ĳ": 5854,
      "åĹ¤": 5855,
      "åĹ³": 5856,
      "âī¥": 5857,
      "ï¼ŀ": 5858,
      "è®·": 5859,
      "æ·¬": 5860,
      "çł°": 5861,
      "åĺŀ": 5862,
      "è»Ĵ": 5863,
      "éĭĴ": 5864,
      "æĬł": 5865,
      "åĢŃ": 5866,
      "ç¿Į": 5867,
      "çħľ": 5868,
      "èħ±": 5869,
      "æ©¹": 5870,
      "å©¶": 5871,
      "è§Ĳ": 5872,
      "æĭ´": 5873,
      "ç¿®": 5874,
      "é²²": 5875,
      "å¾ĩ": 5876,
      "çŃĩ": 5877,
      "èµĪ": 5878,
      "å£ķ": 5879,
      "æĲ¶": 5880,
      "èħ«": 5881,
      "æ½ŀ": 5882,
      "ï¼¤": 5883,
      "å±Ĩ": 5884,
      "éļ½": 5885,
      "éľİ": 5886,
      "è½Ń": 5887,
      "æ¨¯": 5888,
      "èİĴ": 5889,
      "é¸±": 5890,
      "éł¸": 5891,
      "Â³": 5892,
      "åĴ¦": 5893,
      "éĹ¡": 5894,
      "èºĩ": 5895,
      "èĪ¸": 5896,
      "éĵĲ": 5897,
      "ç¶ģ": 5898,
      "å¬Ľ": 5899,
      "å½İ": 5900,
      "çĥ¨": 5901,
      "è¨Ł": 5902,
      "çĳĽ": 5903,
      "é¾Ĳ": 5904,
      "éĬ³": 5905,
      "é¯": 5906,
      "é»Ŀ": 5907,
      "æ¿ł": 5908,
      "åĤµ": 5909,
      "åĺ¤": 5910,
      "éĬħ": 5911,
      "åħĸ": 5912,
      "çĴľ": 5913,
      "ðŁĮº": 5914,
      "é·¹": 5915,
      "éľ°": 5916,
      "éĵĦ": 5917,
      "è³Ĭ": 5918,
      "ç»¾": 5919,
      "åĳ·": 5920,
      "èİħ": 5921,
      "èĽĬ": 5922,
      "èĺĬ": 5923,
      "åĸ½": 5924,
      "æ£Ł": 5925,
      "é¸®": 5926,
      "Ã¬": 5927,
      "çļĪ": 5928,
      "æĸ«": 5929,
      "æİ³": 5930,
      "å¿»": 5931,
      "æĶľ": 5932,
      "è´°": 5933,
      "èĴ¹": 5934,
      "éĦ°": 5935,
      "å¶Ļ": 5936,
      "å¯®": 5937,
      "è½²": 5938,
      "éĴ°": 5939,
      "èĮ¬": 5940,
      "èĵ¼": 5941,
      "è³ĵ": 5942,
      "æĨĬ": 5943,
      "æī¦": 5944,
      "èŀ³": 5945,
      "èªķ": 5946,
      "ï¼¯": 5947,
      "åĸª": 5948,
      "æ½¸": 5949,
      "å¤¯": 5950,
      "çĶ¥": 5951,
      "çº£": 5952,
      "è£±": 5953,
      "éĿ¥": 5954,
      "ç³¾": 5955,
      "åĶ·": 5956,
      "ðŁįİ": 5957,
      "åŃĳ": 5958,
      "æĭĭ": 5959,
      "éķ³": 5960,
      "éª§": 5961,
      "åµ¬": 5962,
      "ï¼Ń": 5963,
      "åĲ¡": 5964,
      "æİ°": 5965,
      "è¨Ĺ": 5966,
      "èħĵ": 5967,
      "å³½": 5968,
      "èĹ¿": 5969,
      "é¶": 5970,
      "æĺ±": 5971,
      "æµĶ": 5972,
      "é£ª": 5973,
      "çĸ£": 5974,
      "æĵŀ": 5975,
      "ðŁĵ": 5976,
      "ï¼»": 5977,
      "æ³®": 5978,
      "ï¼½": 5979,
      "ç¾¿": 5980,
      "èĬİ": 5981,
      "çĭİ": 5982,
      "çĹ¢": 5983,
      "éªŀ": 5984,
      "æħĺ": 5985,
      "å³ĭ": 5986,
      "ä½ŀ": 5987,
      "èĬ©": 5988,
      "å¢Ģ": 5989,
      "åĥ±": 5990,
      "è¸Į": 5991,
      "å«ĸ": 5992,
      "ðŁįĥ": 5993,
      "éĤķ": 5994,
      "åĻ¶": 5995,
      "èĪĽ": 5996,
      "åŁł": 5997,
      "èĤħ": 5998,
      "æ®¼": 5999,
      "æ·¼": 6000,
      "éĵ¨": 6001,
      "æĸ¡": 6002,
      "æĿª": 6003,
      "å¾¹": 6004,
      "çī½": 6005,
      "ç±¤": 6006,
      "èĭķ": 6007,
      "é²Ľ": 6008,
      "çĩ®": 6009,
      "éŀħ": 6010,
      "Çİ": 6011,
      "ï¼©": 6012,
      "æ®ĥ": 6013,
      "ç¦º": 6014,
      "éĴº": 6015,
      "åºĸ": 6016,
      "å¸Ļ": 6017,
      "æĻŀ": 6018,
      "åŀĨ": 6019,
      "ç¿Ľ": 6020,
      "å«¡": 6021,
      "ðŁļ": 6022,
      "ï¼´": 6023,
      "æłĬ": 6024,
      "æĮĪ": 6025,
      "æ©Ĳ": 6026,
      "ðŁĮŀ": 6027,
      "æł¾": 6028,
      "éºĤ": 6029,
      "æ¥¸": 6030,
      "èĴ»": 6031,
      "æĻĶ": 6032,
      "é£¨": 6033,
      "ç³ħ": 6034,
      "èĥ«": 6035,
      "éĮ¦": 6036,
      "æĸ¬": 6037,
      "éĢĭ": 6038,
      "çĻ£": 6039,
      "åĶ³": 6040,
      "èļ±": 6041,
      "âľ": 6042,
      "ä½¥": 6043,
      "éģĳ": 6044,
      "éĺĬ": 6045,
      "é»ł": 6046,
      "èħ¼": 6047,
      "ðŁĺģ": 6048,
      "çļĸ": 6049,
      "çĿĩ": 6050,
      "éĴľ": 6051,
      "ç¸«": 6052,
      "æĬŁ": 6053,
      "æ°ĸ": 6054,
      "ä¾¶": 6055,
      "è´½": 6056,
      "è¶Ļ": 6057,
      "éħ¹": 6058,
      "é¼¬": 6059,
      "ç¶»": 6060,
      "éĳ°": 6061,
      "éĺĨ": 6062,
      "ç¡ĥ": 6063,
      "éĴĬ": 6064,
      "æ½ĭ": 6065,
      "éĸ£": 6066,
      "éįĭ": 6067,
      "Ä«": 6068,
      "ï¼§": 6069,
      "åĮį": 6070,
      "å¾Ĥ": 6071,
      "æĮ²": 6072,
      "è·ļ": 6073,
      "çĭŀ": 6074,
      "çĹ£": 6075,
      "å¨Ĩ": 6076,
      "èĿ¦": 6077,
      "æĺĩ": 6078,
      "åĮĲ": 6079,
      "è¢±": 6080,
      "åĻ´": 6081,
      "çģĳ": 6082,
      "ç²³": 6083,
      "èħĨ": 6084,
      "æ½ĳ": 6085,
      "ä½Ĺ": 6086,
      "èµĵ": 6087,
      "æĤŃ": 6088,
      "æ¡ģ": 6089,
      "éħŀ": 6090,
      "èĪĲ": 6091,
      "èĦ¹": 6092,
      "æĴ«": 6093,
      "èĶ¥": 6094,
      "âĤ": 6095,
      "è¯©": 6096,
      "èį¨": 6097,
      "æ¿®": 6098,
      "æ¿¾": 6099,
      "è¹ĭ": 6100,
      "æĨ²": 6101,
      "æĻ·": 6102,
      "éªł": 6103,
      "çĺª": 6104,
      "åİĿ": 6105,
      "è°Ħ": 6106,
      "èıħ": 6107,
      "æ¹®": 6108,
      "å©º": 6109,
      "èķ¤": 6110,
      "é¹Į": 6111,
      "çŀł": 6112,
      "ðŁĲ¶": 6113,
      "è¾Ń": 6114,
      "èİĺ": 6115,
      "èĮ¯": 6116,
      "åłĩ": 6117,
      "èĴŁ": 6118,
      "è¹¼": 6119,
      "çīĴ": 6120,
      "æĥ±": 6121,
      "ä¾ª": 6122,
      "ç¬ı": 6123,
      "çĮŀ": 6124,
      "èĴĲ": 6125,
      "ç¶¿": 6126,
      "é½Ĵ": 6127,
      "è½Ħ": 6128,
      "åĸ¬": 6129,
      "éĵ°": 6130,
      "ç¢£": 6131,
      "è¯Ł": 6132,
      "æĻī": 6133,
      "å£ħ": 6134,
      "æ¿«": 6135,
      "çĩ¦": 6136,
      "ï¿¥": 6137,
      "çĮģ": 6138,
      "åĤ£": 6139,
      "æĩ²": 6140,
      "èª¬": 6141,
      "çĺģ": 6142,
      "âĳ¤": 6143,
      "ä½ļ": 6144,
      "çĶ¾": 6145,
      "æ¿Ĥ": 6146,
      "è¹Ĵ": 6147,
      "å¤¾": 6148,
      "ç»Ģ": 6149,
      "æĿ²": 6150,
      "æıĨ": 6151,
      "æİ¾": 6152,
      "å¿Ŀ": 6153,
      "ç±Į": 6154,
      "éĻ²": 6155,
      "ç²µ": 6156,
      "èħ´": 6157,
      "è»¸": 6158,
      "åµĩ": 6159,
      "çİ®": 6160,
      "æłī": 6161,
      "ç©Ģ": 6162,
      "åĻ¼": 6163,
      "æ¼¿": 6164,
      "ç²ķ": 6165,
      "åĥ®": 6166,
      "æ½į": 6167,
      "å´Ĥ": 6168,
      "ä¾Ĺ": 6169,
      "è°¯": 6170,
      "çĿ¨": 6171,
      "æ¶ª": 6172,
      "èı½": 6173,
      "é¹Ī": 6174,
      "èĺ¿": 6175,
      "æĿ¼": 6176,
      "çĤĢ": 6177,
      "è±ķ": 6178,
      "çĳ¤": 6179,
      "æ¹²": 6180,
      "ä½µ": 6181,
      "åĲ³": 6182,
      "çħ¨": 6183,
      "åĶĨ": 6184,
      "çıª": 6185,
      "é¹ĺ": 6186,
      "åĹĳ": 6187,
      "é³ħ": 6188,
      "çĢı": 6189,
      "éĹ«": 6190,
      "çĽħ": 6191,
      "ç¼ģ": 6192,
      "éĴĴ": 6193,
      "ðŁĳ©": 6194,
      "ãģ®": 6195,
      "æĿ·": 6196,
      "å¼Ń": 6197,
      "æĽ·": 6198,
      "æĤ½": 6199,
      "è°ĺ": 6200,
      "é¡«": 6201,
      "çı¥": 6202,
      "èĨĪ": 6203,
      "èļľ": 6204,
      "éĮ¶": 6205,
      "éĭģ": 6206,
      "æĹĦ": 6207,
      "ç¢Ľ": 6208,
      "åĹª": 6209,
      "æıª": 6210,
      "èī·": 6211,
      "å§Ĺ": 6212,
      "èİĨ": 6213,
      "çĩ§": 6214,
      "æ§Į": 6215,
      "æį¶": 6216,
      "éĽł": 6217,
      "ç¿Ĭ": 6218,
      "çª£": 6219,
      "æĴ²": 6220,
      "å´Ļ": 6221,
      "è³ĥ": 6222,
      "çļº": 6223,
      "åĮ¾": 6224,
      "æĶ«": 6225,
      "æ²ħ": 6226,
      "çľĩ": 6227,
      "ç¼°": 6228,
      "çĹĪ": 6229,
      "å¨¼": 6230,
      "æĴ¸": 6231,
      "è¼»": 6232,
      "éĬĺ": 6233,
      "âĻĢ": 6234,
      "ãĢĩ": 6235,
      "æ²ı": 6236,
      "è½¸": 6237,
      "éļĪ": 6238,
      "æŀĩ": 6239,
      "åĿ¨": 6240,
      "é©ķ": 6241,
      "æ¥£": 6242,
      "è²Ķ": 6243,
      "ç§£": 6244,
      "éĶĨ": 6245,
      "åķī": 6246,
      "èºħ": 6247,
      "âħł": 6248,
      "ï¹": 6249,
      "åķ§": 6250,
      "æ»ģ": 6251,
      "çģŀ": 6252,
      "èŀ¢": 6253,
      "è²«": 6254,
      "åī¡": 6255,
      "çĭ¹": 6256,
      "åĻ±": 6257,
      "è±Ķ": 6258,
      "åĭ»": 6259,
      "æ§¿": 6260,
      "æĺĢ": 6261,
      "é¢¢": 6262,
      "é£ı": 6263,
      "èĬ«": 6264,
      "æ¶ł": 6265,
      "é¹ķ": 6266,
      "å«Ķ": 6267,
      "éĹĨ": 6268,
      "åįŀ": 6269,
      "è¾¯": 6270,
      "ç¨¹": 6271,
      "çĭ°": 6272,
      "èįĥ": 6273,
      "å¯µ": 6274,
      "åİĵ": 6275,
      "è¾Ĭ": 6276,
      "è°Ĩ": 6277,
      "çĿ¢": 6278,
      "çĸĬ": 6279,
      "éªĽ": 6280,
      "èı°": 6281,
      "æ¦·": 6282,
      "çıĪ": 6283,
      "ðŁĮ¸": 6284,
      "ï¼¢": 6285,
      "å¾¼": 6286,
      "å¼ģ": 6287,
      "å½Į": 6288,
      "æİĩ": 6289,
      "æ¬¤": 6290,
      "éĶŃ": 6291,
      "æ¡¢": 6292,
      "éĵī": 6293,
      "è¦ĥ": 6294,
      "éĤģ": 6295,
      "ç¯Ļ": 6296,
      "çĹ¤": 6297,
      "éªĿ": 6298,
      "çħħ": 6299,
      "å¬´": 6300,
      "åħĩ": 6301,
      "çİķ": 6302,
      "çĲ®": 6303,
      "æįº": 6304,
      "æ´µ": 6305,
      "æŁĺ": 6306,
      "åĻĮ": 6307,
      "æŃĨ": 6308,
      "çŃ±": 6309,
      "è¾ĭ": 6310,
      "èį½": 6311,
      "é©º": 6312,
      "é¹ĵ": 6313,
      "çĺĭ": 6314,
      "åľľ": 6315,
      "å¯¤": 6316,
      "éĿ³": 6317,
      "æĦĶ": 6318,
      "çĸĩ": 6319,
      "çħĸ": 6320,
      "ï¼¥": 6321,
      "è°Ģ": 6322,
      "åĸĭ": 6323,
      "éĽİ": 6324,
      "çĬ§": 6325,
      "éºĪ": 6326,
      "ÎĶ": 6327,
      "åĲ©": 6328,
      "æĽĽ": 6329,
      "éĺķ": 6330,
      "éļĹ": 6331,
      "éŁĮ": 6332,
      "èĪĦ": 6333,
      "åĹ¥": 6334,
      "åĹ¬": 6335,
      "éĸŁ": 6336,
      "å´Ĺ": 6337,
      "åĲŃ": 6338,
      "è§¥": 6339,
      "æĽ¬": 6340,
      "åķĸ": 6341,
      "åłŀ": 6342,
      "åĺħ": 6343,
      "ðŁĮ³": 6344,
      "Î³": 6345,
      "æĭĬ": 6346,
      "è´Ī": 6347,
      "çŁ½": 6348,
      "éª¡": 6349,
      "å§Ŀ": 6350,
      "æħ¾": 6351,
      "æĺ¶": 6352,
      "éĢ¶": 6353,
      "é¢§": 6354,
      "åĵ½": 6355,
      "åĻİ": 6356,
      "å§¹": 6357,
      "é©½": 6358,
      "è¥¦": 6359,
      "çªł": 6360,
      "å¸¥": 6361,
      "èģ¿": 6362,
      "çĬĴ": 6363,
      "èħĪ": 6364,
      "å³Ĵ": 6365,
      "è¤Ľ": 6366,
      "âĺĢ": 6367,
      "æ·ŀ": 6368,
      "åĤĢ": 6369,
      "é¬»": 6370,
      "çĢ°": 6371,
      "èĬ¾": 6372,
      "ç¹½": 6373,
      "èļ©": 6374,
      "çįł": 6375,
      "å¥ģ": 6376,
      "çĽ±": 6377,
      "æĽĨ": 6378,
      "é£½": 6379,
      "èĦ²": 6380,
      "çĴĺ": 6381,
      "é¯¨": 6382,
      "è¡¹": 6383,
      "ç©°": 6384,
      "ç¥ľ": 6385,
      "èĪ·": 6386,
      "èĨ»": 6387,
      "è©®": 6388,
      "åµ¯": 6389,
      "æłİ": 6390,
      "æĦĨ": 6391,
      "èĬ°": 6392,
      "èģĴ": 6393,
      "è¸°": 6394,
      "è¼©": 6395,
      "è¤´": 6396,
      "éĳ½": 6397,
      "éĪķ": 6398,
      "æ«ĥ": 6399,
      "ï¼¬": 6400,
      "å·ĺ": 6401,
      "éĤĽ": 6402,
      "ç¼Ļ": 6403,
      "èĭ»": 6404,
      "æ»ĵ": 6405,
      "éªħ": 6406,
      "èı¸": 6407,
      "çĵł": 6408,
      "æ¬Ħ": 6409,
      "çŁļ": 6410,
      "çŀħ": 6411,
      "çŀĳ": 6412,
      "ç®ª": 6413,
      "ç¨Ķ": 6414,
      "èĳļ": 6415,
      "åĦ¡": 6416,
      "æĩĭ": 6417,
      "æŀ³": 6418,
      "åİ©": 6419,
      "çª¸": 6420,
      "èªĺ": 6421,
      "è¸¹": 6422,
      "âĺħ": 6423,
      "æĹ»": 6424,
      "åĩį": 6425,
      "æ´©": 6426,
      "çĤ·": 6427,
      "çĸĿ": 6428,
      "éħĲ": 6429,
      "æ¢ı": 6430,
      "èľ¢": 6431,
      "è³¢": 6432,
      "âĦī": 6433,
      "è¤°": 6434,
      "ä¿ª": 6435,
      "æ³±": 6436,
      "æ°«": 6437,
      "çĹĤ": 6438,
      "åı¼": 6439,
      "æĪ¢": 6440,
      "éĩĲ": 6441,
      "ä¾ĳ": 6442,
      "èµŃ": 6443,
      "æįİ": 6444,
      "çº¥": 6445,
      "è°¶": 6446,
      "åĸ¹": 6447,
      "æ¡İ": 6448,
      "çĹ¿": 6449,
      "æĲ´": 6450,
      "èĸ¨": 6451,
      "Â±": 6452,
      "ï¼Ŀ": 6453,
      "åĽĳ": 6454,
      "çĽį": 6455,
      "âĢ²": 6456,
      "ç½Ĥ": 6457,
      "ç¼Ł": 6458,
      "çıŀ": 6459,
      "èŀŃ": 6460,
      "è¹¶": 6461,
      "ðŁĴĶ": 6462,
      "äº³": 6463,
      "ä½Ł": 6464,
      "çİ·": 6465,
      "å¢ľ": 6466,
      "éªİ": 6467,
      "èĦĺ": 6468,
      "éŃĩ": 6469,
      "å³ĩ": 6470,
      "è«®": 6471,
      "ðŁĴª": 6472,
      "è¡¿": 6473,
      "æ´Ħ": 6474,
      "ç³§": 6475,
      "ç½ħ": 6476,
      "ç¼ĩ": 6477,
      "èįł": 6478,
      "èĥĽ": 6479,
      "ç¿¥": 6480,
      "èĽ³": 6481,
      "é¼Ļ": 6482,
      "ç¹³": 6483,
      "èĿķ": 6484,
      "åĴĽ": 6485,
      "æĹĴ": 6486,
      "çī¦": 6487,
      "çĤķ": 6488,
      "çŁį": 6489,
      "çĮĹ": 6490,
      "æ¹Ĭ": 6491,
      "èĹĲ": 6492,
      "ç¹ĩ": 6493,
      "éŀ£": 6494,
      "è¤ĵ": 6495,
      "çį¾": 6496,
      "åĲĨ": 6497,
      "åĬŃ": 6498,
      "è§ļ": 6499,
      "å¦Ŀ": 6500,
      "çĲ¬": 6501,
      "æĶ²": 6502,
      "æ²¤": 6503,
      "ç¥Ĥ": 6504,
      "éĴ¯": 6505,
      "åıĴ": 6506,
      "ä½¯": 6507,
      "åĲ®": 6508,
      "æ®ļ": 6509,
      "æ·©": 6510,
      "åĻ«": 6511,
      "æĳ¯": 6512,
      "èĳ³": 6513,
      "éĸ©": 6514,
      "é¢ī": 6515,
      "éģľ": 6516,
      "éĺĹ": 6517,
      "çĪĲ": 6518,
      "çĻĴ": 6519,
      "é²¶": 6520,
      "èĶŃ": 6521,
      "è©Ľ": 6522,
      "é³Ŀ": 6523,
      "ðŁ¤": 6524,
      "æıį": 6525,
      "èµį": 6526,
      "ç¯©": 6527,
      "å£ĺ": 6528,
      "åĭĸ": 6529,
      "æ¹Ł": 6530,
      "èĶ«": 6531,
      "èķĸ": 6532,
      "è³ľ": 6533,
      "æ°µ": 6534,
      "è°Į": 6535,
      "èį¥": 6536,
      "å²¬": 6537,
      "æ½°": 6538,
      "ðŁĳ¨": 6539,
      "ï¼Ĭ": 6540,
      "èĩ¥": 6541,
      "çĲ°": 6542,
      "æĤĮ": 6543,
      "éģ¢": 6544,
      "æ±İ": 6545,
      "èĥ¯": 6546,
      "è²ħ": 6547,
      "çįĦ": 6548,
      "ç°ĭ": 6549,
      "è¬Ĳ": 6550,
      "éıĸ": 6551,
      "Ã¹": 6552,
      "çİ³": 6553,
      "æĢĶ": 6554,
      "æ³·": 6555,
      "å¦²": 6556,
      "éĶº": 6557,
      "æ®Ĵ": 6558,
      "ç½į": 6559,
      "ç¥İ": 6560,
      "è²¸": 6561,
      "é½ĳ": 6562,
      "ï½ħ": 6563,
      "ðŁĺį": 6564,
      "Ã¼": 6565,
      "æ¬ĸ": 6566,
      "çĤľ": 6567,
      "æ¡ħ": 6568,
      "æºı": 6569,
      "çıĻ": 6570,
      "ç¢©": 6571,
      "è³¬": 6572,
      "è§Ĭ": 6573,
      "å¼ĳ": 6574,
      "ä¿³": 6575,
      "æĻĮ": 6576,
      "å¢¾": 6577,
      "å»ª": 6578,
      "éĥ¦": 6579,
      "èĭĭ": 6580,
      "èįĩ": 6581,
      "æ¶¿": 6582,
      "çĹį": 6583,
      "éĨħ": 6584,
      "âħ¢": 6585,
      "æĹĥ": 6586,
      "æĦł": 6587,
      "æ±¨": 6588,
      "çĿ½": 6589,
      "å¢ī": 6590,
      "è·ĸ": 6591,
      "éĽ©": 6592,
      "èĻ¢": 6593,
      "èıı": 6594,
      "å³£": 6595,
      "éĳĳ": 6596,
      "åĽ¿": 6597,
      "éĢ¡": 6598,
      "è¶¼": 6599,
      "ç¼Ĺ": 6600,
      "çĳģ": 6601,
      "èĸ®": 6602,
      "èĺ¼": 6603,
      "æĸĿ": 6604,
      "çĶ¬": 6605,
      "éĩ£": 6606,
      "æĢĤ": 6607,
      "æłĢ": 6608,
      "åĳĴ": 6609,
      "çłĿ": 6610,
      "çĪ¨": 6611,
      "çĬ¸": 6612,
      "çĽª": 6613,
      "çĲ¨": 6614,
      "æ¡ł": 6615,
      "éªĲ": 6616,
      "éĵ£": 6617,
      "èĳº": 6618,
      "è¥ģ": 6619,
      "é¹¢": 6620,
      "è¸Ł": 6621,
      "èĿ¼": 6622,
      "æª¸": 6623,
      "è¤²": 6624,
      "Î»": 6625,
      "ç»Ĥ": 6626,
      "æĹĤ": 6627,
      "é¢Ķ": 6628,
      "ç«Ĭ": 6629,
      "æĤ±": 6630,
      "åģ½": 6631,
      "æŁ°": 6632,
      "è·Ľ": 6633,
      "çĵĴ": 6634,
      "ç¹©": 6635,
      "è²ī": 6636,
      "æªł": 6637,
      "ÇĲ": 6638,
      "åĴ¤": 6639,
      "åŃ±": 6640,
      "æģĤ": 6641,
      "çĥı": 6642,
      "æ»¯": 6643,
      "æļĪ": 6644,
      "é²·": 6645,
      "âĺķ": 6646,
      "Îµ": 6647,
      "âģ": 6648,
      "ï¼ĥ": 6649,
      "è¡©": 6650,
      "è§Į": 6651,
      "æ³«": 6652,
      "åĵĿ": 6653,
      "å±£": 6654,
      "çŁ¾": 6655,
      "éĥ«": 6656,
      "éħĬ": 6657,
      "èĺ§": 6658,
      "ðŁĶ": 6659,
      "åŃ³": 6660,
      "åįħ": 6661,
      "çºı": 6662,
      "éģĴ": 6663,
      "æŁ©": 6664,
      "çł²": 6665,
      "é¼į": 6666,
      "ï¼®": 6667,
      "åĪª": 6668,
      "æĢ¼": 6669,
      "æ¸¾": 6670,
      "æģ¹": 6671,
      "åĻ»": 6672,
      "ç£¯": 6673,
      "å´´": 6674,
      "åļ¨": 6675,
      "å¹º": 6676,
      "æŃĻ": 6677,
      "èģ³": 6678,
      "éĵĹ": 6679,
      "èĮ²": 6680,
      "å¡Ĺ": 6681,
      "è¬Ļ": 6682,
      "æĿĵ": 6683,
      "æ®ģ": 6684,
      "éĤ¨": 6685,
      "èĮķ": 6686,
      "åĥŃ": 6687,
      "åĦĭ": 6688,
      "è³º": 6689,
      "çŃ®": 6690,
      "å¿ĸ": 6691,
      "æµ¥": 6692,
      "èĭİ": 6693,
      "æ»¦": 6694,
      "å³¯": 6695,
      "èķ²": 6696,
      "èĸ¤": 6697,
      "åĺ¯": 6698,
      "ç¶¾": 6699,
      "èļµ": 6700,
      "é³ľ": 6701,
      "åµĲ": 6702,
      "éĹ¼": 6703,
      "æİĻ": 6704,
      "é«Ń": 6705,
      "èĥª": 6706,
      "ç¦į": 6707,
      "çĳĦ": 6708,
      "è¹°": 6709,
      "âĤĤ": 6710,
      "åºł": 6711,
      "ç§¾": 6712,
      "éħ²": 6713,
      "éĴ¡": 6714,
      "èŀĪ": 6715,
      "ï½ī": 6716,
      "ðŁĺĦ": 6717,
      "é¢¡": 6718,
      "æ·²": 6719,
      "èĮĨ": 6720,
      "èŁ»": 6721,
      "å¶Ħ": 6722,
      "å¸»": 6723,
      "å¾Ń": 6724,
      "âĢ§": 6725,
      "æ¬¸": 6726,
      "åģ»": 6727,
      "åĢĸ": 6728,
      "è¥¯": 6729,
      "éĪī": 6730,
      "Ã³": 6731,
      "ä½ĥ": 6732,
      "è¾Ĥ": 6733,
      "æ´Ļ": 6734,
      "çľ¦": 6735,
      "çľĪ": 6736,
      "æŁĴ": 6737,
      "æ·µ": 6738,
      "ç¯ª": 6739,
      "ç¼£": 6740,
      "çĪ»": 6741,
      "æ¨¸": 6742,
      "é²¢": 6743,
      "æĴ¥": 6744,
      "èĶº": 6745,
      "éĨį": 6746,
      "èĨ¦": 6747,
      "é³Ĳ": 6748,
      "èł²": 6749,
      "éį¾": 6750,
      "é¨·": 6751,
      "ä¸Ł": 6752,
      "ç»Ĺ": 6753,
      "çİł": 6754,
      "æ³ļ": 6755,
      "æ°Ĳ": 6756,
      "åİŃ": 6757,
      "éģ´": 6758,
      "éĶĹ": 6759,
      "éĤ³": 6760,
      "æ·ĸ": 6761,
      "è±¸": 6762,
      "å¨ī": 6763,
      "çĺ¢": 6764,
      "æ§Ĭ": 6765,
      "ä»¨": 6766,
      "éĹĸ": 6767,
      "æĥ´": 6768,
      "æ±ľ": 6769,
      "éĶĳ": 6770,
      "å»Ľ": 6771,
      "åĿ¼": 6772,
      "é©®": 6773,
      "é¤ļ": 6774,
      "èĽĲ": 6775,
      "é²Ń": 6776,
      "é¾ľ": 6777,
      "èĺĸ": 6778,
      "å¬¤": 6779,
      "Ã¶": 6780,
      "çĶĳ": 6781,
      "é¢Ļ": 6782,
      "èĢĻ": 6783,
      "çĽĥ": 6784,
      "å¿¤": 6785,
      "ç©ĳ": 6786,
      "ç¦±": 6787,
      "çª¿": 6788,
      "éĦŀ": 6789,
      "Ïī": 6790,
      "ãĢĶ": 6791,
      "ç§«": 6792,
      "ç«½": 6793,
      "é£ļ": 6794,
      "éĶ²": 6795,
      "éĺĥ": 6796,
      "é¦³": 6797,
      "æ¨Ĺ": 6798,
      "éĴı": 6799,
      "åĶ»": 6800,
      "æ¾§": 6801,
      "è¹ģ": 6802,
      "ï½ģ": 6803,
      "âĸł": 6804,
      "éĭ°": 6805,
      "ä½ĺ": 6806,
      "åĪĪ": 6807,
      "éĶī": 6808,
      "åŀĵ": 6809,
      "å¡¾": 6810,
      "çįĲ": 6811,
      "ï½ı": 6812,
      "âĪŀ": 6813,
      "ãĥ¼": 6814,
      "ï¼±": 6815,
      "ï¼¶": 6816,
      "å½§": 6817,
      "å½Ĭ": 6818,
      "çĦĺ": 6819,
      "è½º": 6820,
      "éĤĭ": 6821,
      "èį¦": 6822,
      "èįª": 6823,
      "èĥį": 6824,
      "çı°": 6825,
      "åłĢ": 6826,
      "æ¥ĵ": 6827,
      "å´Ĩ": 6828,
      "çĺĺ": 6829,
      "ãĦ": 6830,
      "æĹ¸": 6831,
      "å¸¼": 6832,
      "å·ī": 6833,
      "çİĸ": 6834,
      "å±į": 6835,
      "æ´®": 6836,
      "åŁĻ": 6837,
      "åĸŁ": 6838,
      "çģı": 6839,
      "èħİ": 6840,
      "ç¶±": 6841,
      "è¹Ĥ": 6842,
      "èĺħ": 6843,
      "å¬Ĺ": 6844,
      "Äĵ": 6845,
      "éĢ¦": 6846,
      "ç§ª": 6847,
      "èĲĺ": 6848,
      "èİª": 6849,
      "åĭ°": 6850,
      "éĨĲ": 6851,
      "éĸ¤": 6852,
      "ç°¾": 6853,
      "äº¹": 6854,
      "èīĻ": 6855,
      "æº·": 6856,
      "é©¸": 6857,
      "çĬį": 6858,
      "æļī": 6859,
      "è©ł": 6860,
      "åıµ": 6861,
      "å·½": 6862,
      "å½«": 6863,
      "æĽ©": 6864,
      "çĤħ": 6865,
      "éĶ¶": 6866,
      "è°²": 6867,
      "åĸĨ": 6868,
      "çķ¹": 6869,
      "è£Ł": 6870,
      "éĵĮ": 6871,
      "ç¿¦": 6872,
      "æ¥®": 6873,
      "ï¼¦": 6874,
      "çļ¤": 6875,
      "æĬ¡": 6876,
      "è¶º": 6877,
      "é¦Ĳ": 6878,
      "éļ°": 6879,
      "é¥¬": 6880,
      "ç¸»": 6881,
      "ðŁĺĥ": 6882,
      "ðŁĺĶ": 6883,
      "å¶º": 6884,
      "ãĢķ": 6885,
      "æĺī": 6886,
      "åĲ½": 6887,
      "åŃĢ": 6888,
      "æŀ°": 6889,
      "çĲļ": 6890,
      "æĶª": 6891,
      "æĤ¶": 6892,
      "å¢»": 6893,
      "éĥ´": 6894,
      "èİł": 6895,
      "éŃĳ": 6896,
      "å©ķ": 6897,
      "éłĹ": 6898,
      "ç¸Ľ": 6899,
      "Åį": 6900,
      "ï¼«": 6901,
      "å®ĵ": 6902,
      "è®«": 6903,
      "æŀ¥": 6904,
      "æĬ¿": 6905,
      "éľĪ": 6906,
      "éĶ¹": 6907,
      "æģ½": 6908,
      "éķĬ": 6909,
      "æ¨¾": 6910,
      "é²µ": 6911,
      "çİŁ": 6912,
      "ç«¦": 6913,
      "æ¯½": 6914,
      "èµĢ": 6915,
      "æ¸Į": 6916,
      "éĻī": 6917,
      "è¶¸": 6918,
      "åĢī": 6919,
      "æŁĿ": 6920,
      "ç½´": 6921,
      "çĻ¯": 6922,
      "æĲ½": 6923,
      "æ¹«": 6924,
      "èľ±": 6925,
      "ç¸ł": 6926,
      "è¬ł": 6927,
      "éĳĦ": 6928,
      "å¾ķ": 6929,
      "çİ¥": 6930,
      "æĦį": 6931,
      "å¦ª": 6932,
      "æ¸¦": 6933,
      "æ²Ķ": 6934,
      "éĺį": 6935,
      "è¢Ī": 6936,
      "è·º": 6937,
      "åķ»": 6938,
      "é²Ķ": 6939,
      "åĤĺ": 6940,
      "çĩŃ": 6941,
      "åĺŃ": 6942,
      "èĿĪ": 6943,
      "ÇĴ": 6944,
      "ä¸¨": 6945,
      "åĽ·": 6946,
      "åįŁ": 6947,
      "æĽł": 6948,
      "ç®ĵ": 6949,
      "æ¸ĳ": 6950,
      "åŀĽ": 6951,
      "ç¬¥": 6952,
      "éĵĻ": 6953,
      "å²§": 6954,
      "çıī": 6955,
      "èħŃ": 6956,
      "çĳĭ": 6957,
      "é¾Ĭ": 6958,
      "è¸½": 6959,
      "ç£ļ": 6960,
      "èĿ¾": 6961,
      "çĴİ": 6962,
      "è¹¿": 6963,
      "ðŁĳ¦": 6964,
      "é§Ń": 6965,
      "ï¼¨": 6966,
      "ä»ĥ": 6967,
      "è¡Ĩ": 6968,
      "åĵ§": 6969,
      "èĬĪ": 6970,
      "åĢľ": 6971,
      "éĤ¬": 6972,
      "éªľ": 6973,
      "èĪ£": 6974,
      "é¼ĭ": 6975,
      "ä»Ł": 6976,
      "å½¥": 6977,
      "æ°ª": 6978,
      "é£§": 6979,
      "èĤĵ": 6980,
      "éĤĻ": 6981,
      "éĥħ": 6982,
      "çłĢ": 6983,
      "åĻģ": 6984,
      "çĹ§": 6985,
      "åĦĨ": 6986,
      "åĤŃ": 6987,
      "è¸®": 6988,
      "ç¶´": 6989,
      "ðŁĺī": 6990,
      "âĪĴ": 6991,
      "Ïģ": 6992,
      "çĶį": 6993,
      "åŃĽ": 6994,
      "æįĭ": 6995,
      "éĻ¬": 6996,
      "çĿľ": 6997,
      "èĭ¡": 6998,
      "æ»²": 6999,
      "å¶·": 7000,
      "é´»": 7001,
      "éµĿ": 7002,
      "Ãº": 7003,
      "æĹ°": 7004,
      "è·Ħ": 7005,
      "èĭ§": 7006,
      "æ¶Ķ": 7007,
      "é¥´": 7008,
      "æ¼¯": 7009,
      "èıŁ": 7010,
      "å²¡": 7011,
      "æ¤Ģ": 7012,
      "åľ©": 7013,
      "æĿĪ": 7014,
      "è´¶": 7015,
      "è°ł": 7016,
      "èºı": 7017,
      "æĳŀ": 7018,
      "éŁ«": 7019,
      "çĬĦ": 7020,
      "é¸°": 7021,
      "åĶģ": 7022,
      "èĶĶ": 7023,
      "åĽĶ": 7024,
      "éĢĳ": 7025,
      "çŃĮ": 7026,
      "æ®Ħ": 7027,
      "è·¸": 7028,
      "åĶ°": 7029,
      "åĶµ": 7030,
      "èĽŃ": 7031,
      "ç¹¹": 7032,
      "âĻĤ": 7033,
      "æĬĥ": 7034,
      "åĳĭ": 7035,
      "æ¯µ": 7036,
      "çº»": 7037,
      "çĦĵ": 7038,
      "æ¡¿": 7039,
      "é¹¬": 7040,
      "é³ı": 7041,
      "éĳĴ": 7042,
      "éµ¬": 7043,
      "åħĹ": 7044,
      "èĩŀ": 7045,
      "æ²Ĩ": 7046,
      "è¶µ": 7047,
      "ç³Ĺ": 7048,
      "åĻ¤": 7049,
      "é¥½": 7050,
      "æº§": 7051,
      "èĥĿ": 7052,
      "ç¦Ĭ": 7053,
      "èĴ¯": 7054,
      "å´¦": 7055,
      "çŀĭ": 7056,
      "ä»Ŀ": 7057,
      "æľħ": 7058,
      "è¯ľ": 7059,
      "åĮı": 7060,
      "ç¾°": 7061,
      "çĸ´": 7062,
      "çĭ³": 7063,
      "èĭ´": 7064,
      "éħ©": 7065,
      "æ¶´": 7066,
      "èı¡": 7067,
      "é¸¬": 7068,
      "èĽ±": 7069,
      "çªħ": 7070,
      "èķĪ": 7071,
      "æªĹ": 7072,
      "éīĨ": 7073,
      "å¬Į": 7074,
      "ï½İ": 7075,
      "é·º": 7076,
      "åħķ": 7077,
      "ä½Ŀ": 7078,
      "åĴ»": 7079,
      "æĢĽ": 7080,
      "å¼ĩ": 7081,
      "èĢĦ": 7082,
      "ä¿Ľ": 7083,
      "æİĤ": 7084,
      "å¿ª": 7085,
      "ä¾Ķ": 7086,
      "éķĹ": 7087,
      "éħ¢": 7088,
      "éªĢ": 7089,
      "å£º": 7090,
      "æ¿±": 7091,
      "çĩł": 7092,
      "ðŁĮ·": 7093,
      "ðŁĮĬ": 7094,
      "é§ģ": 7095,
      "Å«": 7096,
      "çĶŃ": 7097,
      "ç»¨": 7098,
      "æĢı": 7099,
      "çĤĶ": 7100,
      "éĤł": 7101,
      "ç¼ĥ": 7102,
      "çĬ°": 7103,
      "é¤ĵ": 7104,
      "èĵį": 7105,
      "èľī": 7106,
      "çĩī": 7107,
      "çĩĶ": 7108,
      "å©Ĭ": 7109,
      "é¹¹": 7110,
      "ä½¢": 7111,
      "ä½¶": 7112,
      "åĴĤ": 7113,
      "åľī": 7114,
      "ç»¦": 7115,
      "éĹĩ": 7116,
      "çĽ¥": 7117,
      "çłŃ": 7118,
      "æ¨ŀ": 7119,
      "ç¢ī": 7120,
      "é²±": 7121,
      "é²Ļ": 7122,
      "é¾Į": 7123,
      "é¹ŀ": 7124,
      "çĺĹ": 7125,
      "é³Ļ": 7126,
      "ðŁĮį": 7127,
      "é§Ĳ": 7128,
      "ðŁĴĿ": 7129,
      "ÏĨ": 7130,
      "è§İ": 7131,
      "æĥĩ": 7132,
      "è½Ł": 7133,
      "çĹ¨": 7134,
      "é¸©": 7135,
      "çĨ³": 7136,
      "æ¹İ": 7137,
      "è³Ģ": 7138,
      "è³Ī": 7139,
      "è«·": 7140,
      "ï¼²": 7141,
      "ï¼¸": 7142,
      "ï¼Ĩ": 7143,
      "æİ¸": 7144,
      "æĶ¥": 7145,
      "ç®¨": 7146,
      "é»¼": 7147,
      "æļ¾": 7148,
      "æ¤¹": 7149,
      "èĹģ": 7150,
      "è»Ģ": 7151,
      "å·Ķ": 7152,
      "åĳİ": 7153,
      "èµī": 7154,
      "æ²Ń": 7155,
      "çľĦ": 7156,
      "é«Ģ": 7157,
      "çĪĩ": 7158,
      "åĻĹ": 7159,
      "éħ¡": 7160,
      "æĳĪ": 7161,
      "èİ³": 7162,
      "éĵĭ": 7163,
      "éł«": 7164,
      "éĦ´": 7165,
      "âĳ¥": 7166,
      "ðŁĳ§": 7167,
      "é´ī": 7168,
      "è¯®": 7169,
      "åŃ¥": 7170,
      "é¢Ľ": 7171,
      "é«Ĥ": 7172,
      "è°µ": 7173,
      "åīĿ": 7174,
      "å¢Ĭ": 7175,
      "æĳģ": 7176,
      "çĻŀ": 7177,
      "éĵ¯": 7178,
      "åĭĲ": 7179,
      "éĨĥ": 7180,
      "é¹ļ": 7181,
      "ï¼·": 7182,
      "ç»ł": 7183,
      "éĹ³": 7184,
      "æį¨": 7185,
      "çºĽ": 7186,
      "ç±¼": 7187,
      "åŁ½": 7188,
      "ç³ģ": 7189,
      "çĿ¥": 7190,
      "æ®¢": 7191,
      "æŁģ": 7192,
      "èģĥ": 7193,
      "ç¼¬": 7194,
      "ç¼¯": 7195,
      "èįħ": 7196,
      "éĴķ": 7197,
      "é¸¸": 7198,
      "æĴĵ": 7199,
      "çĩĦ": 7200,
      "éŀı": 7201,
      "éŀĳ": 7202,
      "è¸¯": 7203,
      "è¸ī": 7204,
      "ç£Ķ": 7205,
      "åĹ²": 7206,
      "çĺ¿": 7207,
      "ðŁĺĮ": 7208,
      "ðŁĮ»": 7209,
      "è¿ĵ": 7210,
      "è¡Ħ": 7211,
      "éĶ·": 7212,
      "çŁ§": 7213,
      "åĸĳ": 7214,
      "åĢĨ": 7215,
      "ç¼¶": 7216,
      "ç¬ŀ": 7217,
      "æ¦¼": 7218,
      "åĤ¢": 7219,
      "æĩĩ": 7220,
      "èª¦": 7221,
      "çĢŁ": 7222,
      "ãģĹ": 7223,
      "ðŁĴĭ": 7224,
      "éĪ£": 7225,
      "ðŁİĵ": 7226,
      "çļ´": 7227,
      "å¤¤": 7228,
      "åĵĻ": 7229,
      "çĲ¯": 7230,
      "æĶ½": 7231,
      "å±§": 7232,
      "çĿŀ": 7233,
      "æ¡ĸ": 7234,
      "éĥĵ": 7235,
      "èģ©": 7236,
      "ç¿ķ": 7237,
      "çıı": 7238,
      "çĵ¤": 7239,
      "æ¾į": 7240,
      "èĺĨ": 7241,
      "éīĽ": 7242,
      "ðŁĩ": 7243,
      "ðŁĺı": 7244,
      "äº¸": 7245,
      "åĽĤ": 7246,
      "æį©": 7247,
      "ç±ĵ": 7248,
      "éľħ": 7249,
      "æĤ°": 7250,
      "çĸł": 7251,
      "èĲľ": 7252,
      "èĭĮ": 7253,
      "æ»Į": 7254,
      "éĵį": 7255,
      "èħł": 7256,
      "åªª": 7257,
      "ðŁ¦": 7258,
      "çĢ£": 7259,
      "åµĭ": 7260,
      "ðŁİĤ": 7261,
      "åľĦ": 7262,
      "ä¹Ĥ": 7263,
      "çīĿ": 7264,
      "æ°ħ": 7265,
      "èµª": 7266,
      "é««": 7267,
      "é«Į": 7268,
      "ç´ĵ": 7269,
      "éķĴ": 7270,
      "éķĽ": 7271,
      "çĥĿ": 7272,
      "éĽĴ": 7273,
      "éħ¤": 7274,
      "æ»¢": 7275,
      "éª¶": 7276,
      "å£©": 7277,
      "ç²¿": 7278,
      "æ¤Ł": 7279,
      "å¡į": 7280,
      "èĽĨ": 7281,
      "é¹ĭ": 7282,
      "è³Ń": 7283,
      "åµļ": 7284,
      "éĪ¦": 7285,
      "äº»": 7286,
      "æıĦ": 7287,
      "åĵŀ": 7288,
      "æĽĪ": 7289,
      "ç®Ĳ": 7290,
      "ç±´": 7291,
      "åģĮ": 7292,
      "èĬĥ": 7293,
      "éĴ¹": 7294,
      "éĵŁ": 7295,
      "æĲ¡": 7296,
      "æĲĨ": 7297,
      "é¹©": 7298,
      "é¹ª": 7299,
      "é¹¼": 7300,
      "ç¶¦": 7301,
      "éłĴ": 7302,
      "è«Ĵ": 7303,
      "æĨĲ": 7304,
      "ðŁĮ´": 7305,
      "éİĤ": 7306,
      "Î´": 7307,
      "Ïĥ": 7308,
      "åıģ": 7309,
      "å·Ĵ": 7310,
      "æĢµ": 7311,
      "æį±": 7312,
      "è°®": 7313,
      "éķĥ": 7314,
      "è·¬": 7315,
      "çĮĬ": 7316,
      "çħ¥": 7317,
      "åĭ³": 7318,
      "æ½´": 7319,
      "æ©¢": 7320,
      "çĵ´": 7321,
      "ç¹¡": 7322,
      "ðŁĵļ": 7323,
      "æĺĥ": 7324,
      "ç»ī": 7325,
      "åĽ¹": 7326,
      "éĩĢ": 7327,
      "æı©": 7328,
      "å½Ģ": 7329,
      "åĵĤ": 7330,
      "èµĿ": 7331,
      "æ¬·": 7332,
      "åŁĤ": 7333,
      "æ±Ĭ": 7334,
      "åĢħ": 7335,
      "æŁŀ": 7336,
      "ç½µ": 7337,
      "ç´®": 7338,
      "èĽĶ": 7339,
      "èĿĵ": 7340,
      "ðŁĮ¿": 7341,
      "âĪ©": 7342,
      "ï¹Ķ": 7343,
      "åĪİ": 7344,
      "åºĳ": 7345,
      "ä¼ī": 7346,
      "èĩĬ": 7347,
      "æĻ¡": 7348,
      "è´³": 7349,
      "è¾İ": 7350,
      "éģĺ": 7351,
      "éĥľ": 7352,
      "éħ´": 7353,
      "é¥«": 7354,
      "éĴ½": 7355,
      "éĴļ": 7356,
      "é¸·": 7357,
      "èĮĶ": 7358,
      "æħĦ": 7359,
      "é²ł": 7360,
      "çĨ¥": 7361,
      "çĳĹ": 7362,
      "æ¹ľ": 7363,
      "èŃļ": 7364,
      "åĺ£": 7365,
      "çĴŁ": 7366,
      "çĺ¸": 7367,
      "åļ¯": 7368,
      "éıĬ": 7369,
      "ÇĶ": 7370,
      "è¿¨": 7371,
      "å°·": 7372,
      "è®¬": 7373,
      "å½ĺ": 7374,
      "æµľ": 7375,
      "æĮ»": 7376,
      "æĤĽ": 7377,
      "éĶı": 7378,
      "è°¡": 7379,
      "éĤ¾": 7380,
      "çķ²": 7381,
      "åķķ": 7382,
      "è¨¾": 7383,
      "æĳº": 7384,
      "æ¼¬": 7385,
      "é»»": 7386,
      "å²¿": 7387,
      "èĽŀ": 7388,
      "é²Ĥ": 7389,
      "éĨ®": 7390,
      "ç¹ļ": 7391,
      "åĺļ": 7392,
      "çĴł": 7393,
      "è¬Ĭ": 7394,
      "éİ§": 7395,
      "ðŁĻĮ": 7396,
      "é´¨": 7397,
      "ÄĽ": 7398,
      "ä¸¼": 7399,
      "ï¼µ": 7400,
      "åı»": 7401,
      "çĶĻ": 7402,
      "åĲĭ": 7403,
      "éĩŃ": 7404,
      "éĹī": 7405,
      "æ°Ļ": 7406,
      "å¦¤": 7407,
      "ç®¬": 7408,
      "é¡¼": 7409,
      "èĻº": 7410,
      "è±³": 7411,
      "æ¤´": 7412,
      "æ¤ģ": 7413,
      "èŀŁ": 7414,
      "æ¹Ķ": 7415,
      "æ¥¦": 7416,
      "èĸ¹": 7417,
      "èĿ£": 7418,
      "çŀ½": 7419,
      "ðŁį³": 7420,
      "ðŁĴķ": 7421,
      "å°ķ": 7422,
      "è®£": 7423,
      "çº°": 7424,
      "é£ĸ": 7425,
      "è½³": 7426,
      "ç¾¨": 7427,
      "ç¼¢": 7428,
      "ç¼Ĭ": 7429,
      "ç¼ĳ": 7430,
      "é¥§": 7431,
      "èĪ»": 7432,
      "ç¦ª": 7433,
      "é¼Ĳ": 7434,
      "è¹©": 7435,
      "ç·ł": 7436,
      "ï½Ķ": 7437,
      "ðŁĮĪ": 7438,
      "âĸ³": 7439,
      "ãģĦ": 7440,
      "âķ": 7441,
      "æĸ¸": 7442,
      "çĶĥ": 7443,
      "åĩľ": 7444,
      "æ°¡": 7445,
      "é£¢": 7446,
      "éĺĴ": 7447,
      "èĬŁ": 7448,
      "é»¥": 7449,
      "é»¾": 7450,
      "ç²Ŀ": 7451,
      "èıĵ": 7452,
      "ç¿ļ": 7453,
      "çı©": 7454,
      "æ½Ł": 7455,
      "æ¿¤": 7456,
      "æ¿Ĩ": 7457,
      "çĵĺ": 7458,
      "ç¹ĥ": 7459,
      "èķ¡": 7460,
      "éŀ¯": 7461,
      "èĨĺ": 7462,
      "éĦ¯": 7463,
      "ðŁı»": 7464,
      "æĸ²": 7465,
      "çİ¦": 7466,
      "é£Ķ": 7467,
      "æģ«": 7468,
      "çĸ¥": 7469,
      "éļ¸": 7470,
      "è·Ĥ": 7471,
      "åĿ°": 7472,
      "æĳħ": 7473,
      "èıĢ": 7474,
      "éĵĪ": 7475,
      "æĵ·": 7476,
      "åłł": 7477,
      "éĨ¯": 7478,
      "æ¥Ŀ": 7479,
      "è¹Ģ": 7480,
      "æª»": 7481,
      "æ§©": 7482,
      "çĢķ": 7483,
      "ðŁĺĭ": 7484,
      "Ã²": 7485,
      "è¯³": 7486,
      "åĬ¬": 7487,
      "ç»Į": 7488,
      "åĨĩ": 7489,
      "è§ľ": 7490,
      "åĵĮ": 7491,
      "ç®ı": 7492,
      "é£Ĳ": 7493,
      "é«´": 7494,
      "èĤŁ": 7495,
      "ç½¥": 7496,
      "çķİ": 7497,
      "æ·Ŀ": 7498,
      "éķ¬": 7499,
      "éķŀ": 7500,
      "åķ«": 7501,
      "é¥Ĺ": 7502,
      "ç¦¿": 7503,
      "éĵ¤": 7504,
      "é²ĩ": 7505,
      "çĳŃ": 7506,
      "æ¾Į": 7507,
      "é´Ĥ": 7508,
      "ãİ": 7509,
      "é°": 7510,
      "æĺ´": 7511,
      "åľ»": 7512,
      "é«£": 7513,
      "è½«": 7514,
      "ç½·": 7515,
      "é¡Ľ": 7516,
      "èĲı": 7517,
      "éķĵ": 7518,
      "èºĶ": 7519,
      "æĳŃ": 7520,
      "è±¢": 7521,
      "çĮ±": 7522,
      "éĴ¤": 7523,
      "é¸²": 7524,
      "çª©": 7525,
      "éĨ£": 7526,
      "æ¾Ģ": 7527,
      "åļ®": 7528,
      "çĢ¹": 7529,
      "å¬·": 7530,
      "èłĸ": 7531,
      "ãģĻ": 7532,
      "âħ£": 7533,
      "é´³": 7534,
      "æĪ¡": 7535,
      "åľŀ": 7536,
      "æĢĻ": 7537,
      "æīĨ": 7538,
      "æı¶": 7539,
      "âĢ°": 7540,
      "ç®©": 7541,
      "åŁĴ": 7542,
      "åŁķ": 7543,
      "èĬĹ": 7544,
      "éļ³": 7545,
      "çłĴ": 7546,
      "èĭĦ": 7547,
      "çĹ¼": 7548,
      "çĬĩ": 7549,
      "æļĮ": 7550,
      "çĨ¾": 7551,
      "é±·": 7552,
      "æĩĳ": 7553,
      "é¹®": 7554,
      "çŀŁ": 7555,
      "é½§": 7556,
      "ï½į": 7557,
      "ðŁĮ±": 7558,
      "ðŁĮ²": 7559,
      "âľĮ": 7560,
      "âŀ": 7561,
      "æĢ¿": 7562,
      "èĢ·": 7563,
      "éĿ¼": 7564,
      "è¾Ģ": 7565,
      "ç®ľ": 7566,
      "çĸĭ": 7567,
      "çĸĶ": 7568,
      "èĲģ": 7569,
      "éķµ": 7570,
      "ç¼Ľ": 7571,
      "æ»¹": 7572,
      "å§®": 7573,
      "èıĳ": 7574,
      "æ¦§": 7575,
      "åĭ¸": 7576,
      "æĴļ": 7577,
      "åĦĹ": 7578,
      "éĨĳ": 7579,
      "æĩ¶": 7580,
      "å¬°": 7581,
      "éĮĺ": 7582,
      "éĦ¢": 7583,
      "ðŁıŀ": 7584,
      "ä½»": 7585,
      "è¯¿": 7586,
      "åĩĪ": 7587,
      "åĨ¼": 7588,
      "çŃļ": 7589,
      "é£¼": 7590,
      "æ²Ħ": 7591,
      "ç¾£": 7592,
      "ç¯Į": 7593,
      "éķĿ": 7594,
      "ç¼µ": 7595,
      "èĭģ": 7596,
      "èįľ": 7597,
      "èĥ¼": 7598,
      "æ£§": 7599,
      "åĶ¸": 7600,
      "çı£": 7601,
      "èŀ«": 7602,
      "èĵĬ": 7603,
      "éĨ¾": 7604,
      "æ¾¶": 7605,
      "ðŁĳĢ": 7606,
      "ðŁıĥ": 7607,
      "à¸": 7608,
      "åĴģ": 7609,
      "æŀĭ": 7610,
      "æŀŀ": 7611,
      "æİ´": 7612,
      "éĶ±": 7613,
      "éĶ¸": 7614,
      "å¢³": 7615,
      "ç½¨": 7616,
      "è¢¢": 7617,
      "éĥ¯": 7618,
      "çĻ®": 7619,
      "èĪł": 7620,
      "æ¤ĭ": 7621,
      "æ¿©": 7622,
      "èķª": 7623,
      "çĴļ": 7624,
      "éłĮ": 7625,
      "é¬ļ": 7626,
      "å¶ĩ": 7627,
      "âľ¨": 7628,
      "Î£": 7629,
      "ï¼ĩ": 7630,
      "ä½¾": 7631,
      "æĸĤ": 7632,
      "åĪ³": 7633,
      "åĲĸ": 7634,
      "å¸Ķ": 7635,
      "éĢĸ": 7636,
      "é¢¯": 7637,
      "æĬĶ": 7638,
      "æĶĶ": 7639,
      "çº®": 7640,
      "åģĵ": 7641,
      "çŁ¯": 7642,
      "æģ¿": 7643,
      "ç¨ŀ": 7644,
      "éĤĿ": 7645,
      "ç¯ĺ": 7646,
      "æ¡´": 7647,
      "éĥĹ": 7648,
      "çıħ": 7649,
      "èĽ¸": 7650,
      "æĴĤ": 7651,
      "èŀĢ": 7652,
      "çĳ£": 7653,
      "æ¥½": 7654,
      "çĩĻ": 7655,
      "è©Ķ": 7656,
      "æ¾±": 7657,
      "çĴģ": 7658,
      "è³Ħ": 7659,
      "ï½Į": 7660,
      "ðŁĺĿ": 7661,
      "ãĥ³": 7662,
      "ðŁĲ±": 7663,
      "çĶ¦": 7664,
      "è¦ĵ": 7665,
      "æŃĶ": 7666,
      "çĽ§": 7667,
      "çĽŀ": 7668,
      "æ¯¬": 7669,
      "æ¯³": 7670,
      "éĻĶ": 7671,
      "èī¹": 7672,
      "çĦ±": 7673,
      "éĺĩ": 7674,
      "æ®ĵ": 7675,
      "æ·ª": 7676,
      "æ¡Ħ": 7677,
      "ç¼«": 7678,
      "æ»ī": 7679,
      "éĴİ": 7680,
      "ç¦ĭ": 7681,
      "é¤¡": 7682,
      "é¤µ": 7683,
      "æ¢Ĩ": 7684,
      "æĴ¿": 7685,
      "æĴħ": 7686,
      "é¾ĥ": 7687,
      "é¹į": 7688,
      "é¹ĸ": 7689,
      "å´¤": 7690,
      "çĢī": 7691,
      "ï½ĵ": 7692,
      "ðŁĺľ": 7693,
      "âĪĳ": 7694,
      "æ«ľ": 7695,
      "é´¿": 7696,
      "ðŁļ¶": 7697,
      "ãİ¡": 7698,
      "ï¼¿": 7699,
      "è¿³": 7700,
      "è¯Ķ": 7701,
      "å°ª": 7702,
      "è¡½": 7703,
      "åĳ¸": 7704,
      "æ´¹": 7705,
      "åĸĪ": 7706,
      "çł»": 7707,
      "èĭ«": 7708,
      "åĻĶ": 7709,
      "èĻ»": 7710,
      "æ»·": 7711,
      "éŁĭ": 7712,
      "éĴ²": 7713,
      "ç¢²": 7714,
      "é²ħ": 7715,
      "æ¹ĵ": 7716,
      "èŃ´": 7717,
      "èľ©": 7718,
      "å³Ħ": 7719,
      "æªľ": 7720,
      "æ§Ń": 7721,
      "è»¿": 7722,
      "èłŁ": 7723,
      "ðŁĺļ": 7724,
      "ãģª": 7725,
      "ðŁĴĻ": 7726,
      "é·Ł": 7727,
      "Â§": 7728,
      "è¯¤": 7729,
      "è¯¨": 7730,
      "åĬµ": 7731,
      "åĽĹ": 7732,
      "è¡Ĵ": 7733,
      "åĵĭ": 7734,
      "åĳĤ": 7735,
      "ç½Ł": 7736,
      "çķ¬": 7737,
      "é¡Ĺ": 7738,
      "æ¡ľ": 7739,
      "é¦ĳ": 7740,
      "ç¬¾": 7741,
      "èºŀ": 7742,
      "èĪ²": 7743,
      "é²Ģ": 7744,
      "èĨĳ": 7745,
      "åĺ¬": 7746,
      "èļ¬": 7747,
      "ï½Ĳ": 7748,
      "éĦĴ": 7749,
      "âĳ¦": 7750,
      "ðŁĮ§": 7751,
      "éİı": 7752,
      "ðŁįĶ": 7753,
      "ãģŁ": 7754,
      "ðŁĴļ": 7755,
      "é¶´": 7756,
      "Ã¤": 7757,
      "Î©": 7758,
      "åį¬": 7759,
      "çĽ»": 7760,
      "èĩ¬": 7761,
      "ç±¥": 7762,
      "ç±Ģ": 7763,
      "é«ĳ": 7764,
      "è½ĵ": 7765,
      "éĺī": 7766,
      "åĸģ": 7767,
      "é¦Ĺ": 7768,
      "éĥ¤": 7769,
      "çĹ±": 7770,
      "èı¹": 7771,
      "èĮŃ": 7772,
      "çĳĢ": 7773,
      "åªµ": 7774,
      "å©Ń": 7775,
      "èĸĳ": 7776,
      "éŀ¦": 7777,
      "éŀ«": 7778,
      "é¹¡": 7779,
      "å´ļ": 7780,
      "å«ļ": 7781,
      "ðŁĮŁ": 7782,
      "ãģ¯": 7783,
      "ãĤĭ": 7784,
      "Ã±": 7785,
      "è¯Ĵ": 7786,
      "èĢ¨": 7787,
      "èĢĭ": 7788,
      "å¿¾": 7789,
      "å±¢": 7790,
      "è¾ļ": 7791,
      "åŁ¤": 7792,
      "åīİ": 7793,
      "åĸı": 7794,
      "ç¨Ĺ": 7795,
      "ç¯¦": 7796,
      "è¢·": 7797,
      "åķµ": 7798,
      "åķ·": 7799,
      "æ¶ĺ": 7800,
      "éĵ±": 7801,
      "éĵĵ": 7802,
      "ç¢´": 7803,
      "èĨĤ": 7804,
      "åĺĶ": 7805,
      "èĿ®": 7806,
      "è²ŀ": 7807,
      "çµ¢": 7808,
      "çµ¨": 7809,
      "çµ·": 7810,
      "è¹Ĳ": 7811,
      "è«¦": 7812,
      "æ§²": 7813,
      "çĢ¼": 7814,
      "èłħ": 7815,
      "ðŁĺ³": 7816,
      "ãģ¨": 7817,
      "âĺĨ": 7818,
      "ðŁı«": 7819,
      "ðŁĶ¥": 7820,
      "çļ¦": 7821,
      "æĪķ": 7822,
      "åĪ¿": 7823,
      "å·ĩ": 7824,
      "å¯Ķ": 7825,
      "åĳ´": 7826,
      "æµĪ": 7827,
      "èµ³": 7828,
      "çºĶ": 7829,
      "é£Ĩ": 7830,
      "åŁ´": 7831,
      "æ·Ĵ": 7832,
      "éķ£": 7833,
      "ç¬Ħ": 7834,
      "é©©": 7835,
      "é¤į": 7836,
      "æħĩ": 7837,
      "åª¾": 7838,
      "èĵĤ": 7839,
      "èĸĻ": 7840,
      "è²¶": 7841,
      "éī¤": 7842,
      "çį¼": 7843,
      "ðŁĺİ": 7844,
      "ðŁįĬ": 7845,
      "ãģ«": 7846,
      "ãĤĵ": 7847,
      "ðŁıł": 7848,
      "æľĲ": 7849,
      "åĪ¬": 7850,
      "å¥Ń": 7851,
      "æ´º": 7852,
      "æ¸Ł": 7853,
      "éģĦ": 7854,
      "æ±Ĩ": 7855,
      "ç¾ĥ": 7856,
      "æŁ¢": 7857,
      "çķĢ": 7858,
      "ç¯ĳ": 7859,
      "æ¡·": 7860,
      "èģ¶": 7861,
      "æ»ª": 7862,
      "æ»Ħ": 7863,
      "éªĺ": 7864,
      "èıĺ": 7865,
      "åĶ¢": 7866,
      "ç¢ĩ": 7867,
      "å¨£": 7868,
      "æĵ²": 7869,
      "çĳł": 7870,
      "é¾ī": 7871,
      "èĴ´": 7872,
      "åĺı": 7873,
      "éĸ¥": 7874,
      "éĸĳ": 7875,
      "çĺ¼": 7876,
      "è¼¿": 7877,
      "è¤Ĭ": 7878,
      "éĦľ": 7879,
      "ðŁįģ": 7880,
      "ðŁĴ»": 7881,
      "è¿º": 7882,
      "ä¼¥": 7883,
      "æķ§": 7884,
      "éĹ©": 7885,
      "æ°ĺ": 7886,
      "åŁŃ": 7887,
      "ç©Į": 7888,
      "æ®½": 7889,
      "éĤ¡": 7890,
      "èįĳ": 7891,
      "éŁĨ": 7892,
      "è±¨": 7893,
      "èİ¸": 7894,
      "è£Ĵ": 7895,
      "ç¦Ľ": 7896,
      "æ£Ĳ": 7897,
      "æħĿ": 7898,
      "å¡ļ": 7899,
      "é¼ķ": 7900,
      "éŃī": 7901,
      "èľ®": 7902,
      "èĴ½": 7903,
      "éŀ¬": 7904,
      "çĴ¿": 7905,
      "æ§Ķ": 7906,
      "åļ¬": 7907,
      "éĬľ": 7908,
      "ðŁıĬ": 7909,
      "ðŁļĢ": 7910,
      "Ø§": 7911,
      "ç»Ķ": 7912,
      "è®§": 7913,
      "è¦·": 7914,
      "åĨ±": 7915,
      "è§ĩ": 7916,
      "è§ı": 7917,
      "æŃİ": 7918,
      "åĵĲ": 7919,
      "è´ĸ": 7920,
      "æ´¸": 7921,
      "é«¡": 7922,
      "çķĭ": 7923,
      "èģ±": 7924,
      "ç¥ĵ": 7925,
      "é»©": 7926,
      "éĵĳ": 7927,
      "æĲ¢": 7928,
      "æĲ¦": 7929,
      "æ¤ł": 7930,
      "ç¢ĵ": 7931,
      "èĵģ": 7932,
      "éŃį": 7933,
      "çĩĲ": 7934,
      "ç¹»": 7935,
      "çµº": 7936,
      "æ¾Ĵ": 7937,
      "ç¶º": 7938,
      "åļħ": 7939,
      "çį¬": 7940,
      "ðŁĽ": 7941,
      "åµ²": 7942,
      "éĦ©": 7943,
      "å¶Ĵ": 7944,
      "ðŁįī": 7945,
      "åĴĿ": 7946,
      "é¢İ": 7947,
      "å¾¬": 7948,
      "æŀ¨": 7949,
      "åĳĵ": 7950,
      "èīĭ": 7951,
      "çľĻ": 7952,
      "çĭº": 7953,
      "èįĽ": 7954,
      "æº¼": 7955,
      "æº½": 7956,
      "èĳ¦": 7957,
      "çı½": 7958,
      "é²Ĩ": 7959,
      "æĵ¿": 7960,
      "é±Ĺ": 7961,
      "éĨģ": 7962,
      "èĴº": 7963,
      "çµĨ": 7964,
      "å´ģ": 7965,
      "çŀŀ": 7966,
      "é³¢": 7967,
      "ðŁķ": 7968,
      "èŁ¬": 7969,
      "ðŁĮħ": 7970,
      "ðŁĳĮ": 7971,
      "éĳ¼": 7972,
      "ðŁ¤Ķ": 7973,
      "âŃ": 7974,
      "å°»": 7975,
      "ç§Ń": 7976,
      "çŃ¼": 7977,
      "æ¬»": 7978,
      "æĤ«": 7979,
      "éĺļ": 7980,
      "é¦ĺ": 7981,
      "éķł": 7982,
      "éĥ§": 7983,
      "çł£": 7984,
      "åķ²": 7985,
      "èİ¢": 7986,
      "æļł": 7987,
      "çı¦": 7988,
      "é²ĭ": 7989,
      "èĵł": 7990,
      "èĶ£": 7991,
      "éĨľ": 7992,
      "é¹ĩ": 7993,
      "åĹ«": 7994,
      "è©Ī": 7995,
      "è¹ł": 7996,
      "éł°": 7997,
      "åµĬ": 7998,
      "å¬ĸ": 7999,
      "éĳ²": 8000,
      "ðŁĴĲ": 8001,
      "æ«ļ": 8002,
      "ãĦŁ": 8003,
      "Â®": 8004,
      "Â½": 8005,
      "çļ²": 8006,
      "äº¶": 8007,
      "æľ®": 8008,
      "çĶĵ": 8009,
      "åĴ£": 8010,
      "å·ĳ": 8011,
      "ç§ĸ": 8012,
      "æŃĺ": 8013,
      "æłĿ": 8014,
      "æ³¬": 8015,
      "æĥĿ": 8016,
      "æ´¶": 8017,
      "éĺĿ": 8018,
      "è°ĸ": 8019,
      "çĿŃ": 8020,
      "é¦Ń": 8021,
      "è·£": 8022,
      "èįĬ": 8023,
      "å§Ĵ": 8024,
      "æ¼Ļ": 8025,
      "çªŃ": 8026,
      "æĴĦ": 8027,
      "æ¿¬": 8028,
      "æ¿ģ": 8029,
      "é¼©": 8030,
      "èľº": 8031,
      "é¹£": 8032,
      "è©£": 8033,
      "çŀ¢": 8034,
      "çĺ³": 8035,
      "éłĶ": 8036,
      "åļķ": 8037,
      "æĨ«": 8038,
      "ç°¦": 8039,
      "ï½ĥ": 8040,
      "éİĹ": 8041,
      "å¶½": 8042,
      "ðŁį¬": 8043,
      "ä½¤": 8044,
      "é¢Ģ": 8045,
      "å¾³": 8046,
      "æĢĬ": 8047,
      "æŃ©": 8048,
      "çŃ²": 8049,
      "çĲ¤": 8050,
      "æĽĮ": 8051,
      "åŁ¸": 8052,
      "éĺı": 8053,
      "éĺĽ": 8054,
      "ç³Į": 8055,
      "èĤ¼": 8056,
      "åĢ¨": 8057,
      "çĸ°": 8058,
      "éĤħ": 8059,
      "çķ¤": 8060,
      "ç¯¾": 8061,
      "é¦®": 8062,
      "èĪ³": 8063,
      "æ¨¨": 8064,
      "å£ĸ": 8065,
      "èİĸ": 8066,
      "æ¦ĩ": 8067,
      "å²ı": 8068,
      "æ¿º": 8069,
      "æ©¼": 8070,
      "çĳ±": 8071,
      "åĤĪ": 8072,
      "éŀŀ": 8073,
      "é¹Ĩ": 8074,
      "åĺ©": 8075,
      "éĸ¡": 8076,
      "ç·ĭ": 8077,
      "ç·Ŀ": 8078,
      "èł»": 8079,
      "éµ©": 8080,
      "âŃĲ": 8081,
      "âĬ": 8082,
      "âĭ": 8083,
      "æľ§": 8084,
      "æĹĲ": 8085,
      "åĽĿ": 8086,
      "çīĤ": 8087,
      "æŀ»": 8088,
      "çŃľ": 8089,
      "ä¿ľ": 8090,
      "çĲį": 8091,
      "æĶ¬": 8092,
      "æĮ¼": 8093,
      "ç®ł": 8094,
      "æģļ": 8095,
      "å¢Ĵ": 8096,
      "æ®Ĥ": 8097,
      "ç½¾": 8098,
      "ç½ĺ": 8099,
      "è¨£": 8100,
      "è¨¼": 8101,
      "éªĵ": 8102,
      "æĳ½": 8103,
      "èĪĸ": 8104,
      "æ¨ģ": 8105,
      "æº²": 8106,
      "èĦĶ": 8107,
      "éĵ©": 8108,
      "é¸Ĥ": 8109,
      "æĵ¤": 8110,
      "é¼¯": 8111,
      "éĨ½": 8112,
      "è¸¬": 8113,
      "åĺģ": 8114,
      "èĿ¸": 8115,
      "å«ł": 8116,
      "èĺ©": 8117,
      "é³£": 8118,
      "é®Ń": 8119,
      "ðŁİ¶": 8120,
      "ðŁİģ": 8121,
      "ãĤĬ": 8122,
      "Â£": 8123,
      "Ã´": 8124,
      "âļ": 8125,
      "ï¼ª": 8126,
      "çļŀ": 8127,
      "è¯İ": 8128,
      "å¹°": 8129,
      "ç§ķ": 8130,
      "æŀĮ": 8131,
      "æŀĺ": 8132,
      "æıİ": 8133,
      "ä¿¶": 8134,
      "æ³ĸ": 8135,
      "çĽĮ": 8136,
      "æ°¾": 8137,
      "ç«ĩ": 8138,
      "æµį": 8139,
      "æ¯¹": 8140,
      "çº©": 8141,
      "æĤ¤": 8142,
      "é«ģ": 8143,
      "åīĲ": 8144,
      "éĤ¶": 8145,
      "çķļ": 8146,
      "éĥĥ": 8147,
      "è·«": 8148,
      "çł¦": 8149,
      "èĭ¾": 8150,
      "é¥Ĵ": 8151,
      "é¥Ķ": 8152,
      "çģº": 8153,
      "ç¥²": 8154,
      "é»ī": 8155,
      "é¤Ķ": 8156,
      "é¸«": 8157,
      "èĮĿ": 8158,
      "ç¿¹": 8159,
      "ç¢ľ": 8160,
      "èĽĦ": 8161,
      "èĽı": 8162,
      "çª¨": 8163,
      "èŀ½": 8164,
      "éºĩ": 8165,
      "èĴ¡": 8166,
      "ç£¡": 8167,
      "ç¶«": 8168,
      "çĺµ": 8169,
      "é¬²": 8170,
      "éī¬": 8171,
      "çĢ¾": 8172,
      "ï½Ī": 8173,
      "ï½ľ": 8174,
      "ðŁĳ»": 8175,
      "ãģį": 8176,
      "ðŁİ¤": 8177,
      "ðŁİµ": 8178,
      "ÉĻ": 8179,
      "äį": 8180,
      "å¸ĳ": 8181,
      "æŃĬ": 8182,
      "æĦ¬": 8183,
      "æ³ħ": 8184,
      "âĢ³": 8185,
      "æįŃ": 8186,
      "æ´§": 8187,
      "éľĳ": 8188,
      "æĤ»": 8189,
      "éĻ´": 8190,
      "åģª": 8191,
      "çľļ": 8192,
      "éĺ¼": 8193,
      "çĸĸ": 8194,
      "çĥ±": 8195,
      "åĿ»": 8196,
      "åķĵ": 8197,
      "çĹ¾": 8198,
      "æĳµ": 8199,
      "æĳĽ": 8200,
      "ç²ľ": 8201,
      "èĮ¼": 8202,
      "çħĬ": 8203,
      "åĥ³": 8204,
      "åĶĽ": 8205,
      "æ¦±": 8206,
      "å¨Ī": 8207,
      "èĶĮ": 8208,
      "åĤ©": 8209,
      "èªĬ": 8210,
      "å´Ĳ": 8211,
      "é³Ķ": 8212,
      "è¤«": 8213,
      "ç¸¢": 8214,
      "åµİ": 8215,
      "âīł": 8216,
      "ðŁįŁ": 8217,
      "æ«¥": 8218,
      "à½": 8219,
      "ã¶": 8220,
      "åĴ¾": 8221,
      "æ³Ĳ": 8222,
      "åĳ²": 8223,
      "ä¾Ĥ": 8224,
      "æ¯ĸ": 8225,
      "æ´İ": 8226,
      "æ¬½": 8227,
      "éĺ¨": 8228,
      "ç³°": 8229,
      "åīľ": 8230,
      "è·ı": 8231,
      "çĭį": 8232,
      "èįĦ": 8233,
      "è±ĩ": 8234,
      "è£Ľ": 8235,
      "æ£¼": 8236,
      "è¥ľ": 8237,
      "å¡¢": 8238,
      "åĭ£": 8239,
      "èĵĸ": 8240,
      "éŀ®": 8241,
      "é¹¥": 8242,
      "èĿ°": 8243,
      "èļ¶": 8244,
      "éīĢ": 8245,
      "ðŁĺ±": 8246,
      "éĭ¸": 8247,
      "ðŁĴ¦": 8248,
      "ï¿£": 8249,
      "Ã§": 8250,
      "è¯Į": 8251,
      "ç»ģ": 8252,
      "åĽŁ": 8253,
      "å¹Ł": 8254,
      "éĢŃ": 8255,
      "çİ¢": 8256,
      "æŀµ": 8257,
      "çŃ¦": 8258,
      "æĦİ": 8259,
      "æ°į": 8260,
      "åĵı": 8261,
      "å¦ģ": 8262,
      "åĳ»": 8263,
      "ç±ŀ": 8264,
      "é«ı": 8265,
      "çŁ¸": 8266,
      "å»ģ": 8267,
      "è¢ª": 8268,
      "ç¼¦": 8269,
      "èį¸": 8270,
      "èĻ§": 8271,
      "æ¼Ń": 8272,
      "æºĨ": 8273,
      "è±Ī": 8274,
      "çıº": 8275,
      "é²³": 8276,
      "æĴĪ": 8277,
      "åłĻ": 8278,
      "çµľ": 8279,
      "å´Ħ": 8280,
      "å´ĳ": 8281,
      "å´Ĵ": 8282,
      "çĺĸ": 8283,
      "âĦ¢": 8284,
      "ï½ĩ": 8285,
      "ãģ¾": 8286,
      "ãģĭ": 8287,
      "ãĤĴ": 8288,
      "âĭ¯": 8289,
      "ä¸¶": 8290,
      "æĸķ": 8291,
      "åĪĸ": 8292,
      "åĽī": 8293,
      "æĢį": 8294,
      "æł»": 8295,
      "æ³Ĥ": 8296,
      "å¦£": 8297,
      "æİİ": 8298,
      "ä¾·": 8299,
      "èµ§": 8300,
      "æ²´": 8301,
      "èīı": 8302,
      "åĸ«": 8303,
      "èĤĦ": 8304,
      "æ¡ķ": 8305,
      "çĭĸ": 8306,
      "çłī": 8307,
      "åķŀ": 8308,
      "éħ½": 8309,
      "ç¥¿": 8310,
      "å£Ł": 8311,
      "èİ©": 8312,
      "å²Ģ": 8313,
      "çı®": 8314,
      "çı²": 8315,
      "æĴĻ": 8316,
      "éĨ¨": 8317,
      "ç£¾": 8318,
      "è²ĺ": 8319,
      "éłĥ": 8320,
      "éłĳ": 8321,
      "éīħ": 8322,
      "è«ľ": 8323,
      "ï½ĭ": 8324,
      "ï½Ĵ": 8325,
      "éĮ«": 8326,
      "ðŁĺ¡": 8327,
      "ðŁĮ¼": 8328,
      "ãĥ¥": 8329,
      "ðŁį¦": 8330,
      "éĪĶ": 8331,
      "ðŁıĸ": 8332,
      "à½½": 8333,
      "Â¹": 8334,
      "ËĪ": 8335,
      "Îº": 8336,
      "åĥ½": 8337,
      "ä»¡": 8338,
      "æĸģ": 8339,
      "çĶ£": 8340,
      "åĪ½": 8341,
      "åĲ²": 8342,
      "å·¯": 8343,
      "éĹ¢": 8344,
      "éĹ¿": 8345,
      "èĢľ": 8346,
      "å¦«": 8347,
      "æĶı": 8348,
      "èµľ": 8349,
      "å±©": 8350,
      "æ´Į": 8351,
      "åŁ¼": 8352,
      "æ²£": 8353,
      "æ²ļ": 8354,
      "çŁ»": 8355,
      "åī¸": 8356,
      "éĤ´": 8357,
      "çķĽ": 8358,
      "æ·¦": 8359,
      "ç¯ļ": 8360,
      "çĥľ": 8361,
      "èģ¾": 8362,
      "çĭ·": 8363,
      "çĻĥ": 8364,
      "æ¼£": 8365,
      "èİ¨": 8366,
      "æ£¨": 8367,
      "å¡¬": 8368,
      "åłº": 8369,
      "èĵĲ": 8370,
      "æĩĶ": 8371,
      "çĺį": 8372,
      "é¬¯": 8373,
      "çį´": 8374,
      "ç¸·": 8375,
      "ï½Ģ": 8376,
      "ãģĮ": 8377,
      "éĪ·": 8378,
      "ðŁĲ¾": 8379,
      "ðŁĲ¿": 8380,
      "é¯Ĭ": 8381,
      "ÏĦ": 8382,
      "ÏĪ": 8383,
      "Ðµ": 8384,
      "æľĵ": 8385,
      "æĪ¬": 8386,
      "åħĮ": 8387,
      "æĸĥ": 8388,
      "åľ®": 8389,
      "åĲĶ": 8390,
      "ä¹ľ": 8391,
      "å¹Ľ": 8392,
      "ä¼¢": 8393,
      "æĬľ": 8394,
      "âĢĥ": 8395,
      "ç«Ħ": 8396,
      "æµ¯": 8397,
      "æµ¼": 8398,
      "ç³¬": 8399,
      "çĿļ": 8400,
      "å»ĳ": 8401,
      "åĢĮ": 8402,
      "åŀµ": 8403,
      "çĭ¨": 8404,
      "çĭ¯": 8405,
      "çłľ": 8406,
      "ç¥§": 8407,
      "éĴħ": 8408,
      "ç¦İ": 8409,
      "åĥĿ": 8410,
      "ç¢ģ": 8411,
      "é²£": 8412,
      "çªº": 8413,
      "èŀŀ": 8414,
      "çĳĬ": 8415,
      "åª¸": 8416,
      "é¾ĺ": 8417,
      "çĵĬ": 8418,
      "åĤĴ": 8419,
      "çĩļ": 8420,
      "ç¹Ħ": 8421,
      "éŀļ": 8422,
      "è¸Ķ": 8423,
      "å´ĥ": 8424,
      "é½ĭ": 8425,
      "æª¯": 8426,
      "è¼¶": 8427,
      "è«ł": 8428,
      "ðŁ¥": 8429,
      "å¬ħ": 8430,
      "è¬ĩ": 8431,
      "éĮł": 8432,
      "âĪł": 8433,
      "âĸ²": 8434,
      "é¨ĳ": 8435,
      "ðŁį´": 8436,
      "ðŁįĤ": 8437,
      "ãģĤ": 8438,
      "ï¸°": 8439,
      "ðŁĴ°": 8440,
      "é¶Ĵ": 8441,
      "ã¶ģ": 8442,
      "Âĵ": 8443,
      "åĴĹ": 8444,
      "è®¦": 8445,
      "çİĻ": 8446,
      "æŃĥ": 8447,
      "æ°ļ": 8448,
      "åĵ¢": 8449,
      "æĻ»": 8450,
      "ç«ĳ": 8451,
      "æĤĴ": 8452,
      "æ±Ń": 8453,
      "èĬĺ": 8454,
      "ç¨ľ": 8455,
      "å»Ĥ": 8456,
      "ç´¬": 8457,
      "åŀ¤": 8458,
      "éħ¾": 8459,
      "éħİ": 8460,
      "æ¶ŀ": 8461,
      "é¥ħ": 8462,
      "ç¥Ķ": 8463,
      "é»Ł": 8464,
      "ç²¢": 8465,
      "è£¯": 8466,
      "é¤ĥ": 8467,
      "èŀħ": 8468,
      "æ¿ŀ": 8469,
      "æĵĲ": 8470,
      "éĨ¢": 8471,
      "èĴĮ": 8472,
      "éĸĺ": 8473,
      "çĢ¨": 8474,
      "çĢĿ": 8475,
      "ï½Ĥ": 8476,
      "ðŁįº": 8477,
      "ãģĵ": 8478,
      "ðŁİĪ": 8479,
      "ãĤ¹": 8480,
      "âĺº": 8481,
      "Î·": 8482,
      "çļĽ": 8483,
      "æĺ¿": 8484,
      "è¯¹": 8485,
      "æĹ®": 8486,
      "åĩĩ": 8487,
      "å·ĸ": 8488,
      "é¢ĥ": 8489,
      "çī¯": 8490,
      "æıł": 8491,
      "æĦľ": 8492,
      "æĻĿ": 8493,
      "æ¯İ": 8494,
      "çºŁ": 8495,
      "éģ¼": 8496,
      "éģĿ": 8497,
      "éĶ¼": 8498,
      "çŁĩ": 8499,
      "çĿį": 8500,
      "èĤ«": 8501,
      "å»Į": 8502,
      "ç¡ģ": 8503,
      "è¢¸": 8504,
      "éķ§": 8505,
      "è·Ĺ": 8506,
      "åĻ¸": 8507,
      "çĻ¡": 8508,
      "é»§": 8509,
      "èİľ": 8510,
      "éĴį": 8511,
      "èıª": 8512,
      "é¸¶": 8513,
      "æĲĹ": 8514,
      "åĦī": 8515,
      "éĨŀ": 8516,
      "æ¥¯": 8517,
      "èķ»": 8518,
      "èĸĿ": 8519,
      "ç£Ī": 8520,
      "åĹļ": 8521,
      "æ¾¥": 8522,
      "åµ´": 8523,
      "ï½Ħ": 8524,
      "éĦĺ": 8525,
      "ðŁĳĬ": 8526,
      "é´¦": 8527,
      "é¶Ĺ": 8528,
      "âģ¿": 8529,
      "ÂĶ": 8530,
      "Ãī": 8531,
      "Î½": 8532,
      "âĩ": 8533,
      "ä½º": 8534,
      "ä¼§": 8535,
      "ä¼Ľ": 8536,
      "è¡ŀ": 8537,
      "å¯ĺ": 8538,
      "åĨı": 8539,
      "æĬ»": 8540,
      "åįį": 8541,
      "æ°Ĺ": 8542,
      "åĳĸ": 8543,
      "æĭı": 8544,
      "ç±¯": 8545,
      "åŁı": 8546,
      "éĶ´": 8547,
      "éĶľ": 8548,
      "çŁ°": 8549,
      "ç¾Ī": 8550,
      "ç¾Ŀ": 8551,
      "çĸ³": 8552,
      "é¥ĳ": 8553,
      "çĻ¥": 8554,
      "æ¨Ľ": 8555,
      "æº±": 8556,
      "è±İ": 8557,
      "éĴ¸": 8558,
      "èı¼": 8559,
      "èĳĳ": 8560,
      "é²½": 8561,
      "æĴµ": 8562,
      "åĦ¼": 8563,
      "é¹¯": 8564,
      "ç¶¢": 8565,
      "èļ§": 8566,
      "èļĭ": 8567,
      "è¤§": 8568,
      "ç°·": 8569,
      "ðŁĺĨ": 8570,
      "ðŁĮĻ": 8571,
      "éĭĭ": 8572,
      "ðŁĴ¼": 8573,
      "ãĤī": 8574,
      "é´Ľ": 8575,
      "ï¹ĳ": 8576,
      "Ð°": 8577,
      "ãĢľ": 8578,
      "æĪĨ": 8579,
      "å¤Ĳ": 8580,
      "ç»Ĳ": 8581,
      "æı¾": 8582,
      "æĥĶ": 8583,
      "çĲ²": 8584,
      "èµŁ": 8585,
      "è¾»": 8586,
      "éĻŀ": 8587,
      "éģ¹": 8588,
      "çĦľ": 8589,
      "é«Ĵ": 8590,
      "è¶Ħ": 8591,
      "èĤ¸": 8592,
      "æ®į": 8593,
      "ç¡İ": 8594,
      "çķĳ": 8595,
      "åŀļ": 8596,
      "ç¼§": 8597,
      "åĿŃ": 8598,
      "åĻĻ": 8599,
      "èĥĹ": 8600,
      "é¸¨": 8601,
      "èĮĳ": 8602,
      "ç¿Ģ": 8603,
      "çħĩ": 8604,
      "åĥķ": 8605,
      "å²µ": 8606,
      "æ¢Ī": 8607,
      "é²§": 8608,
      "é²Ĭ": 8609,
      "çĳ¯": 8610,
      "çĩ¹": 8611,
      "é¹ģ": 8612,
      "è©¼": 8613,
      "æ¾ª": 8614,
      "ç¶ĳ": 8615,
      "é½ģ": 8616,
      "é¬ĺ": 8617,
      "ç·Į": 8618,
      "æĨº": 8619,
      "è¤»": 8620,
      "ï½Ĩ": 8621,
      "ãĥĪ": 8622,
      "ãģĨ": 8623,
      "ðŁĴĵ": 8624,
      "ðŁ¤Ĺ": 8625,
      "ðŁĩ¨": 8626,
      "ðŁĩ³": 8627,
      "äį¦": 8628,
      "Ã¸": 8629,
      "à¤": 8630,
      "æĸ¿": 8631,
      "åľ¯": 8632,
      "åĲ¶": 8633,
      "æĹŁ": 8634,
      "éĩĺ": 8635,
      "éĢĦ": 8636,
      "åĩ¼": 8637,
      "åĮ±": 8638,
      "æĻ¼": 8639,
      "å¿Ħ": 8640,
      "å¿ī": 8641,
      "ä¾©": 8642,
      "æµĲ": 8643,
      "å±ľ": 8644,
      "æ¬ĥ": 8645,
      "æĤĥ": 8646,
      "æĤĨ": 8647,
      "éĶĩ": 8648,
      "éĶŁ": 8649,
      "çĿĨ": 8650,
      "ç¤«": 8651,
      "è·ķ": 8652,
      "åĿ©": 8653,
      "çł¢": 8654,
      "çłĳ": 8655,
      "åĻŃ": 8656,
      "éħº": 8657,
      "é¥¤": 8658,
      "èĪ´": 8659,
      "æºį": 8660,
      "é»Ĵ": 8661,
      "èĥĻ": 8662,
      "é©İ": 8663,
      "è£¥": 8664,
      "è£Ģ": 8665,
      "éĵ³": 8666,
      "æ¦¾": 8667,
      "ç¢ļ": 8668,
      "èª£": 8669,
      "èĸ·": 8670,
      "éŀ¨": 8671,
      "é¹Ģ": 8672,
      "è¸£": 8673,
      "åĹĦ": 8674,
      "åĹĩ": 8675,
      "å´¿": 8676,
      "å´Ł": 8677,
      "çĴĨ": 8678,
      "èļ¡": 8679,
      "çŀĩ": 8680,
      "æªİ": 8681,
      "é¬¨": 8682,
      "è¼Ĵ": 8683,
      "ç¸Ī": 8684,
      "è¬¬": 8685,
      "ðŁĳī": 8686,
      "å¶ª": 8687,
      "ãĥª": 8688,
      "ãģ¿": 8689,
      "ðŁĲ¦": 8690,
      "âľĪ": 8691,
      "ðŁ¦ĭ": 8692,
      "Ïĩ": 8693,
      "â¼": 8694,
      "ä¸±": 8695,
      "æĺ®": 8696,
      "æĺº": 8697,
      "æĺ½": 8698,
      "åľ¹": 8699,
      "åĬĦ": 8700,
      "ä¹©": 8701,
      "éĩģ": 8702,
      "å¸¨": 8703,
      "å·¿": 8704,
      "éĹ¬": 8705,
      "æŃł": 8706,
      "çŃį": 8707,
      "æł±": 8708,
      "éĿļ": 8709,
      "åĵļ": 8710,
      "å¿Ń": 8711,
      "è´Ħ": 8712,
      "æ¯ĺ": 8713,
      "å±º": 8714,
      "çºľ": 8715,
      "ç®ĭ": 8716,
      "éĻĿ": 8717,
      "åģģ": 8718,
      "çĤĿ": 8719,
      "éģ°": 8720,
      "è½¾": 8721,
      "èĬ¨": 8722,
      "å¢®": 8723,
      "ç¨Ł": 8724,
      "å»¨": 8725,
      "éĤĹ": 8726,
      "æŁĻ": 8727,
      "é¦ķ": 8728,
      "éļ¤": 8729,
      "éļķ": 8730,
      "åŀŃ": 8731,
      "ç¬¤": 8732,
      "èĻ¿": 8733,
      "è¨ĩ": 8734,
      "çģ¬": 8735,
      "é»´": 8736,
      "è±Ĺ": 8737,
      "éĵ·": 8738,
      "åĥ£": 8739,
      "åĶ¼": 8740,
      "è¥Ĩ": 8741,
      "æ¢Ł": 8742,
      "æ¤·": 8743,
      "æ½ı": 8744,
      "éŃĥ": 8745,
      "èŃİ": 8746,
      "èĶĺ": 8747,
      "éĨ²": 8748,
      "çĩĬ": 8749,
      "èĹĭ": 8750,
      "åĺĴ": 8751,
      "çĴĪ": 8752,
      "é½£": 8753,
      "é¬į": 8754,
      "æ§ļ": 8755,
      "ðŁĺĴ": 8756,
      "ðŁıĭ": 8757,
      "é¶¯": 8758,
      "âĤ¬": 8759,
      "âģ´": 8760,
      "Ã¦": 8761,
      "Î¶": 8762,
      "Ð½": 8763,
      "âĴ": 8764,
      "æĺ»": 8765,
      "æĺĿ": 8766,
      "åĬ´": 8767,
      "æĹ¯": 8768,
      "åº¥": 8769,
      "éĩĤ": 8770,
      "å¯Ģ": 8771,
      "çİĺ": 8772,
      "å½³": 8773,
      "æĦ·": 8774,
      "æ³º": 8775,
      "âĢ»": 8776,
      "åİĸ": 8777,
      "æĽĢ": 8778,
      "å±ĥ": 8779,
      "éľ¢": 8780,
      "æĤ¢": 8781,
      "éĺĵ": 8782,
      "è°³": 8783,
      "ç¨Ĭ": 8784,
      "æ®Ľ": 8785,
      "æ®Ń": 8786,
      "ç¡Į": 8787,
      "ç½½": 8788,
      "ç½Ŀ": 8789,
      "é¦Į": 8790,
      "èį©": 8791,
      "èĻ®": 8792,
      "çĻ¢": 8793,
      "ç¥ı": 8794,
      "èĦ°": 8795,
      "ç¦³": 8796,
      "éĵ¦": 8797,
      "æļį": 8798,
      "é¸ĳ": 8799,
      "è¥ª": 8800,
      "è¥ŀ": 8801,
      "æħĬ": 8802,
      "çª¯": 8803,
      "éĨĮ": 8804,
      "çĵ¿": 8805,
      "çĵĪ": 8806,
      "çĵŀ": 8807,
      "çĩ»": 8808,
      "çĩģ": 8809,
      "è©«": 8810,
      "è¹»": 8811,
      "éł¹": 8812,
      "é¬ĸ": 8813,
      "ç·¯": 8814,
      "è»¼": 8815,
      "ï½ķ": 8816,
      "éĦ£": 8817,
      "ðŁĺĵ": 8818,
      "ðŁĮ¾": 8819,
      "éįª": 8820,
      "é¨ķ": 8821,
      "ãĥ«": 8822,
      "ãģ§": 8823,
      "ðŁĵ±": 8824,
      "ðŁĵĸ": 8825,
      "Ãİ": 8826,
      "Éª": 8827,
      "Îĵ": 8828,
      "äºį": 8829,
      "åıĨ": 8830,
      "åĪĵ": 8831,
      "é¢ĭ": 8832,
      "æīŀ": 8833,
      "æĬº": 8834,
      "éĿº": 8835,
      "âĢĤ": 8836,
      "æİŀ": 8837,
      "èµĳ": 8838,
      "æĮĲ": 8839,
      "æ´³": 8840,
      "ç±Ł": 8841,
      "éľĻ": 8842,
      "çľĬ": 8843,
      "çľĮ": 8844,
      "éĶĥ": 8845,
      "éĶĴ": 8846,
      "è°ŀ": 8847,
      "å¢ĺ": 8848,
      "åĢ¥": 8849,
      "æŁ®": 8850,
      "æŁ½": 8851,
      "çķ¯": 8852,
      "é¦Ĭ": 8853,
      "åŀħ": 8854,
      "ç¼¡": 8855,
      "æ¶ĳ": 8856,
      "çĹº": 8857,
      "æ»ĥ": 8858,
      "çĬ´": 8859,
      "é¤Ĵ": 8860,
      "åĥ¦": 8861,
      "é²¥": 8862,
      "é²Ĳ": 8863,
      "çĨĴ": 8864,
      "æ½Ĩ": 8865,
      "æ©Ľ": 8866,
      "éº´": 8867,
      "èĶĢ": 8868,
      "åĤķ": 8869,
      "èķº": 8870,
      "èĸħ": 8871,
      "é¹´": 8872,
      "èĿ½": 8873,
      "é³·": 8874,
      "æĨĢ": 8875,
      "åµĤ": 8876,
      "ï½Ĺ": 8877,
      "éĦ§": 8878,
      "éĦĦ": 8879,
      "ðŁĺĸ": 8880,
      "âĪ¥": 8881,
      "é®°": 8882,
      "ðŁįķ": 8883,
      "ãģ¤": 8884,
      "æ«Ľ": 8885,
      "ðŁĲ»": 8886,
      "ï¹Ĳ": 8887,
      "Î¦": 8888,
      "Ð¸": 8889,
      "äĨ": 8890,
      "çļª": 8891,
      "åĴį": 8892,
      "åĬı": 8893,
      "ç»ĸ": 8894,
      "åĽ¡": 8895,
      "åĽį": 8896,
      "åºĥ": 8897,
      "ä¼ĭ": 8898,
      "å¥Ĳ": 8899,
      "æĢ«": 8900,
      "å½´": 8901,
      "çŃħ": 8902,
      "æĦ¦": 8903,
      "æĦĢ": 8904,
      "åĳ¶": 8905,
      "ç®ĳ": 8906,
      "ç®Ŀ": 8907,
      "åŁļ": 8908,
      "æ²¢": 8909,
      "æĤģ": 8910,
      "æĤĿ": 8911,
      "åģ¬": 8912,
      "çľµ": 8913,
      "è½ħ": 8914,
      "éĺĭ": 8915,
      "åĢ¬": 8916,
      "ç¡ļ": 8917,
      "éĤ½": 8918,
      "æŁĬ": 8919,
      "éĥ¾": 8920,
      "éĥĲ": 8921,
      "ç¼²": 8922,
      "åĻĢ": 8923,
      "çĹł": 8924,
      "éªº": 8925,
      "éŁ¡": 8926,
      "çĮ¢": 8927,
      "éĴĮ": 8928,
      "æ£°": 8929,
      "éĵ§": 8930,
      "æĲ¥": 8931,
      "æħŃ": 8932,
      "èĽī": 8933,
      "æĴº": 8934,
      "æ¥Ļ": 8935,
      "èĸĸ": 8936,
      "é¹Ķ": 8937,
      "ç£²": 8938,
      "ç£»": 8939,
      "éĸ¨": 8940,
      "çµª": 8941,
      "è©°": 8942,
      "æ¾Ĩ": 8943,
      "çĴ©": 8944,
      "èļ¨": 8945,
      "é¬Ĳ": 8946,
      "ç·¬": 8947,
      "è¤¡": 8948,
      "éĦĲ": 8949,
      "éĦł": 8950,
      "ðŁįĵ": 8951,
      "ãģ¦": 8952,
      "ãģķ": 8953,
      "éĪŀ": 8954,
      "ãĤĮ": 8955,
      "ðŁĻĪ": 8956,
      "é·ĩ": 8957,
      "é¶±": 8958,
      "âĬĻ": 8959,
      "Â¬": 8960,
      "Ã¢": 8961,
      "ãł": 8962,
      "ä¨": 8963,
      "ï¼¹": 8964,
      "åı¡": 8965,
      "æľĬ": 8966,
      "æľı": 8967,
      "çĶ¯": 8968,
      "åĴŃ": 8969,
      "å°Ĥ": 8970,
      "å·Ĥ": 8971,
      "å¾¯": 8972,
      "æŀĴ": 8973,
      "æ°¹": 8974,
      "æĻ¢": 8975,
      "å¿¸": 8976,
      "èµĻ": 8977,
      "å±¼": 8978,
      "é£Ĺ": 8979,
      "éľª": 8980,
      "æ¬¬": 8981,
      "åŁĹ": 8982,
      "èīİ": 8983,
      "è½±": 8984,
      "ç¤»": 8985,
      "èĬ£": 8986,
      "ç¡Ĳ": 8987,
      "ç¡ĸ": 8988,
      "èĲĳ": 8989,
      "çĭ»": 8990,
      "çłĹ": 8991,
      "èĻľ": 8992,
      "çĻĢ": 8993,
      "èĪº": 8994,
      "éĴĩ": 8995,
      "è£¼": 8996,
      "é¤Į": 8997,
      "æļķ": 8998,
      "åĭį": 8999,
      "çĨĩ": 9000,
      "åĦħ": 9001,
      "èķ¹": 9002,
      "çµŀ": 9003,
      "çĺ¡": 9004,
      "çĺ°": 9005,
      "éłł": 9006,
      "é¬Ĵ": 9007,
      "é³©": 9008,
      "è¤İ": 9009,
      "ç°ī": 9010,
      "èŁ«": 9011,
      "âĨĳ": 9012,
      "ðŁĺ¨": 9013,
      "éĭħ": 9014,
      "é®ĳ": 9015,
      "ãĥ©": 9016,
      "ðŁĴľ": 9017,
      "ðŁİĬ": 9018,
      "âħ¤": 9019,
      "ãĤģ": 9020,
      "âĻ¡": 9021,
      "ðŁĵĪ": 9022,
      "Â¼": 9023,
      "Ð¾": 9024,
      "à¹": 9025,
      "ï¼ł": 9026,
      "è¿į": 9027,
      "æĪ¸": 9028,
      "è¯Ĥ": 9029,
      "å®Ł": 9030,
      "ç»ĭ": 9031,
      "æĹ£": 9032,
      "æĿķ": 9033,
      "éĩĨ": 9034,
      "å¹µ": 9035,
      "é¢¶": 9036,
      "è§³": 9037,
      "è§¿": 9038,
      "éĹĳ": 9039,
      "èĢ°": 9040,
      "é£ĳ": 9041,
      "éľ¤": 9042,
      "èīŁ": 9043,
      "çĦĮ": 9044,
      "è½¹": 9045,
      "éĺĮ": 9046,
      "è°Ĥ": 9047,
      "ç©£": 9048,
      "èĬ»": 9049,
      "èĬ¼": 9050,
      "çĸ¬": 9051,
      "éĤ°": 9052,
      "é¦´": 9053,
      "éĽ°": 9054,
      "éĽĬ": 9055,
      "èįĪ": 9056,
      "æĳ°": 9057,
      "éŁª": 9058,
      "ç¥Ļ": 9059,
      "å£¸": 9060,
      "è£Ī": 9061,
      "æ£»": 9062,
      "é¸º": 9063,
      "ç¿Ļ": 9064,
      "è¥¶": 9065,
      "æ¦ĸ": 9066,
      "é²»": 9067,
      "çª³": 9068,
      "æĵ±": 9069,
      "èĵ£": 9070,
      "æ¥©": 9071,
      "èªħ": 9072,
      "èĸĶ": 9073,
      "éŀ¿": 9074,
      "é¹ł": 9075,
      "èĨ´": 9076,
      "çĴ¹": 9077,
      "èļ´": 9078,
      "èļĥ": 9079,
      "èļį": 9080,
      "è¹ļ": 9081,
      "çĺķ": 9082,
      "è«Ń": 9083,
      "è¤¦": 9084,
      "çįį": 9085,
      "èŁª": 9086,
      "åµ«": 9087,
      "ï½¡": 9088,
      "éĮĲ": 9089,
      "ðŁĳĭ": 9090,
      "é§¿": 9091,
      "å¶°": 9092,
      "âĹ¯": 9093,
      "ðŁį¹": 9094,
      "ðŁĴ¡": 9095,
      "ðŁĴĽ": 9096,
      "ðŁİ¨": 9097,
      "ðŁĲŁ": 9098,
      "ãĤ¤": 9099,
      "ãĤ¯": 9100,
      "ðŁĵĿ": 9101,
      "ðŁļĹ": 9102,
      "âŀ¡": 9103,
      "Ã£": 9104,
      "ÑĤ": 9105,
      "âŁ": 9106,
      "ìĿ": 9107,
      "çļļ": 9108,
      "ãĢħ": 9109,
      "å°¨": 9110,
      "åŃĸ": 9111,
      "è®ł": 9112,
      "åĽ«": 9113,
      "åĽµ": 9114,
      "å¹ª": 9115,
      "å·Ģ": 9116,
      "å·ĥ": 9117,
      "åĨĳ": 9118,
      "è§«": 9119,
      "æĢ©": 9120,
      "æŃĪ": 9121,
      "æĥĵ": 9122,
      "çĽ¬": 9123,
      "åĵĵ": 9124,
      "çĲĩ": 9125,
      "åĳ£": 9126,
      "å¿º": 9127,
      "æĮ¾": 9128,
      "æ´Ł": 9129,
      "ç±¬": 9130,
      "éľĤ": 9131,
      "æ¸«": 9132,
      "çĤ¤": 9133,
      "éĺ¯": 9134,
      "æģ¥": 9135,
      "ç©¢": 9136,
      "ç¨ı": 9137,
      "å»Ĩ": 9138,
      "çķĪ": 9139,
      "æ·Ĥ": 9140,
      "éĥı": 9141,
      "ç¬®": 9142,
      "éħĤ": 9143,
      "è¨ļ": 9144,
      "æĳŁ": 9145,
      "çĻ±": 9146,
      "çĮº": 9147,
      "èıī": 9148,
      "çĬŃ": 9149,
      "æļ¸": 9150,
      "æļĲ": 9151,
      "ç¿ĥ": 9152,
      "åĥĩ": 9153,
      "çıĿ": 9154,
      "æħľ": 9155,
      "é²ĥ": 9156,
      "é²Į": 9157,
      "çª¬": 9158,
      "çªĨ": 9159,
      "é¾ģ": 9160,
      "æĩ¾": 9161,
      "èĹ¹": 9162,
      "è©¶": 9163,
      "å´®": 9164,
      "ç¶į": 9165,
      "è³Ĥ": 9166,
      "èļº": 9167,
      "çŀĢ": 9168,
      "çĺħ": 9169,
      "éł¤": 9170,
      "é³Ĭ": 9171,
      "éī¥": 9172,
      "è«²": 9173,
      "æ§ł": 9174,
      "çĢ«": 9175,
      "èŁĬ": 9176,
      "èłį": 9177,
      "ï½Ļ": 9178,
      "ðŁĺĢ": 9179,
      "ðŁĮĦ": 9180,
      "éįį": 9181,
      "ðŁĳĻ": 9182,
      "âĸ½": 9183,
      "ãĥĥ": 9184,
      "ãģĬ": 9185,
      "ãģı": 9186,
      "ðŁĲ°": 9187,
      "ðŁĲĿ": 9188,
      "ðŁıĨ": 9189,
      "ðŁıĿ": 9190,
      "âĻ¥": 9191,
      "âĻª": 9192,
      "âģ°": 9193,
      "ÉĽ": 9194,
      "ÌĦ": 9195,
      "ÑĢ": 9196,
      "ä°": 9197,
      "ðĿ": 9198,
      "åħĲ": 9199,
      "ç»²": 9200,
      "åº¹": 9201,
      "å¹®": 9202,
      "å¹ŀ": 9203,
      "è¡İ": 9204,
      "åĩĬ": 9205,
      "æķ©": 9206,
      "çī¾": 9207,
      "æŃľ": 9208,
      "æĥ²": 9209,
      "æĥĻ": 9210,
      "èĩĪ": 9211,
      "æĻ¬": 9212,
      "æİĬ": 9213,
      "çºģ": 9214,
      "è¾ı": 9215,
      "åŁµ": 9216,
      "èī¨": 9217,
      "èīĦ": 9218,
      "èīī": 9219,
      "çľŃ": 9220,
      "é«İ": 9221,
      "é«Ļ": 9222,
      "æ±¸": 9223,
      "è¶į": 9224,
      "åīĭ": 9225,
      "ç¡Ļ": 9226,
      "ç¯¯": 9227,
      "æ¡¤": 9228,
      "éķ®": 9229,
      "éĽ«": 9230,
      "éĽĽ": 9231,
      "åĿĮ": 9232,
      "æ»Ļ": 9233,
      "å§ª": 9234,
      "éŁ¨": 9235,
      "éĵ¼": 9236,
      "éĵĸ": 9237,
      "ç¿£": 9238,
      "åĶ«": 9239,
      "æĲ°": 9240,
      "å¡¿": 9241,
      "èĽ»": 9242,
      "æĵª": 9243,
      "éĨĤ": 9244,
      "çĵı": 9245,
      "èĹŁ": 9246,
      "èĿ¥": 9247,
      "è²²": 9248,
      "è²Ĭ": 9249,
      "æ¾¨": 9250,
      "æª©": 9251,
      "è¤·": 9252,
      "åµ·": 9253,
      "è¬¦": 9254,
      "è¬ģ": 9255,
      "èłĵ": 9256,
      "èłĶ": 9257,
      "èłĻ": 9258,
      "èłĽ": 9259,
      "ï½¥": 9260,
      "âĳ§": 9261,
      "éĲ²": 9262,
      "âĪĤ": 9263,
      "ðŁįĿ": 9264,
      "ðŁĴ«": 9265,
      "ðŁĴĳ": 9266,
      "éĪº": 9267,
      "éĪĩ": 9268,
      "éĪį": 9269,
      "âħ§": 9270,
      "ãĤĪ": 9271,
      "âĺĲ": 9272,
      "ðŁı¡": 9273,
      "ðŁļ´": 9274,
      "ðŁĶį": 9275,
      "ãĦ§": 9276,
      "âĩĴ": 9277,
      "ÑĮ": 9278,
      "á»": 9279,
      "â½": 9280,
      "âĽ": 9281,
      "ãŁ": 9282,
      "ï¼¼": 9283,
      "åıķ": 9284,
      "æĪ¦": 9285,
      "æĺª": 9286,
      "å¤ī": 9287,
      "åĪ²": 9288,
      "æĹ´": 9289,
      "éĢ¯": 9290,
      "åĩ¦": 9291,
      "åĨĨ": 9292,
      "è§±": 9293,
      "çīģ": 9294,
      "çŃĺ": 9295,
      "æĦĴ": 9296,
      "æ°Ī": 9297,
      "æĽĸ": 9298,
      "èµĩ": 9299,
      "å±Ļ": 9300,
      "æįĮ": 9301,
      "çºļ": 9302,
      "æ´¿": 9303,
      "æ´ĳ": 9304,
      "éľ¶": 9305,
      "æ¸ĭ": 9306,
      "æ¬ī": 9307,
      "æ²©": 9308,
      "çľ¬": 9309,
      "è½İ": 9310,
      "éĶ«": 9311,
      "éĺĦ": 9312,
      "ç³¸": 9313,
      "åĸº": 9314,
      "åĸ¾": 9315,
      "ç¨Ĥ": 9316,
      "ç¨Į": 9317,
      "æ®³": 9318,
      "æ®»": 9319,
      "çĸĥ": 9320,
      "ç¡·": 9321,
      "æŁĪ": 9322,
      "ç´³": 9323,
      "ç¯´": 9324,
      "éķ¨": 9325,
      "éķ²": 9326,
      "åŀŀ": 9327,
      "éĥĩ": 9328,
      "ç¼Į": 9329,
      "ç¬«": 9330,
      "åĿ«": 9331,
      "çĭ²": 9332,
      "çĭĿ": 9333,
      "çł¼": 9334,
      "çĪĿ": 9335,
      "åĻĵ": 9336,
      "èĻĵ": 9337,
      "éªį": 9338,
      "éªķ": 9339,
      "å§±": 9340,
      "èĥł": 9341,
      "èıĶ": 9342,
      "ç¦Ĩ": 9343,
      "é¤Ĺ": 9344,
      "æ£Ĺ": 9345,
      "éĵ«": 9346,
      "éĵĬ": 9347,
      "éĵķ": 9348,
      "éĵļ": 9349,
      "èĮļ": 9350,
      "ç¿¾": 9351,
      "åĥ°": 9352,
      "åĥĳ": 9353,
      "å²Ļ": 9354,
      "èĽ´": 9355,
      "é²°": 9356,
      "é²ķ": 9357,
      "éº°": 9358,
      "æ¹³": 9359,
      "é¼·": 9360,
      "èĶµ": 9361,
      "èľĳ": 9362,
      "çĩ¼": 9363,
      "èķİ": 9364,
      "èķŀ": 9365,
      "è¸¦": 9366,
      "è¸Ĩ": 9367,
      "åĹ¶": 9368,
      "åĺ¢": 9369,
      "åĺĸ": 9370,
      "å«»": 9371,
      "çĺĿ": 9372,
      "ç·«": 9373,
      "æ§¤": 9374,
      "æ§³": 9375,
      "èŁ¥": 9376,
      "åµĵ": 9377,
      "ï½ĸ": 9378,
      "éİļ": 9379,
      "å¶ī": 9380,
      "éĲ¸": 9381,
      "âĪ§": 9382,
      "ãĥī": 9383,
      "ãĥŃ": 9384,
      "éĳ¿": 9385,
      "ðŁį»": 9386,
      "ãģ¡": 9387,
      "ðŁİĦ": 9388,
      "ãĤ«": 9389,
      "ãĤ¿": 9390,
      "ãĤĤ": 9391,
      "ðŁı¼": 9392,
      "éµģ": 9393,
      "âľĬ": 9394,
      "âļª": 9395,
      "Â¾": 9396,
      "Ãª": 9397,
      "âĮ": 9398,
      "è¿ķ": 9399,
      "åħ²": 9400,
      "å®Ħ": 9401,
      "åĴĪ": 9402,
      "åľª": 9403,
      "ç»¤": 9404,
      "åŃ¬": 9405,
      "æĿĮ": 9406,
      "æķį": 9407,
      "å¼İ": 9408,
      "æŀ±": 9409,
      "æ³Ķ": 9410,
      "æĥĽ": 9411,
      "âĢĸ": 9412,
      "æĻ©": 9413,
      "æĭµ": 9414,
      "è´ĵ": 9415,
      "èµĨ": 9416,
      "æ¸°": 9417,
      "è½į": 9418,
      "ç³ĩ": 9419,
      "ç³ŀ": 9420,
      "ç¾Ĩ": 9421,
      "æģĽ": 9422,
      "ç¤½": 9423,
      "åĸ£": 9424,
      "æ®ª": 9425,
      "æŁĤ": 9426,
      "ç¯¤": 9427,
      "éķ¥": 9428,
      "éķª": 9429,
      "ç¼ĭ": 9430,
      "ç¼Ĵ": 9431,
      "åĻĺ": 9432,
      "éħĨ": 9433,
      "çĹ¡": 9434,
      "é¥ĺ": 9435,
      "éŁĿ": 9436,
      "æºĺ": 9437,
      "è±Ĭ": 9438,
      "èĦĴ": 9439,
      "èİ¿": 9440,
      "èıŃ": 9441,
      "è£¢": 9442,
      "é¤¸": 9443,
      "æļ±": 9444,
      "æļµ": 9445,
      "èĮĽ": 9446,
      "åĥ¥": 9447,
      "æ¤ª": 9448,
      "åĭĶ": 9449,
      "é²İ": 9450,
      "èħ·": 9451,
      "æĴĿ": 9452,
      "çĨĺ": 9453,
      "æ¿°": 9454,
      "åł§": 9455,
      "åł¯": 9456,
      "åłĥ": 9457,
      "èĵĨ": 9458,
      "åĤī": 9459,
      "çĩĭ": 9460,
      "èĿĢ": 9461,
      "éĸ¢": 9462,
      "çµĵ": 9463,
      "ç¶®": 9464,
      "ç¶½": 9465,
      "å«±": 9466,
      "é¬ħ": 9467,
      "èĺ¤": 9468,
      "éīı": 9469,
      "åļ±": 9470,
      "ðŁĹ": 9471,
      "ï½ļ": 9472,
      "éĮ®": 9473,
      "ðŁĮĽ": 9474,
      "é§Ŀ": 9475,
      "å¶ĭ": 9476,
      "é¨§": 9477,
      "é¨Ħ": 9478,
      "ãĥł": 9479,
      "ãģ°": 9480,
      "ãģĳ": 9481,
      "ï¿¡": 9482,
      "ðŁĲĴ": 9483,
      "ãĤ·": 9484,
      "ãĤ¸": 9485,
      "ãĤĥ": 9486,
      "âĶĶ": 9487,
      "âĤħ": 9488,
      "ðŁ¤Ŀ": 9489,
      "ðŁķ¶": 9490,
      "É¡": 9491,
      "ÏĤ": 9492,
      "Ð²": 9493,
      "áº": 9494,
      "áł": 9495,
      "â¾": 9496,
      "ãķ": 9497,
      "ä²": 9498,
      "äĮ": 9499,
      "ãĢĿ": 9500,
      "äºĵ": 9501,
      "ä½®": 9502,
      "çĶĶ": 9503,
      "çĶķ": 9504,
      "åĴĺ": 9505,
      "åĬ¢": 9506,
      "åĬĵ": 9507,
      "åºĭ": 9508,
      "å¸¢": 9509,
      "åĮ¦": 9510,
      "é¢ı": 9511,
      "éĹĶ": 9512,
      "æĢĥ": 9513,
      "æīĮ": 9514,
      "å½¯": 9515,
      "æł²": 9516,
      "éĿĳ": 9517,
      "æ°·": 9518,
      "å¦ĺ": 9519,
      "æİ¼": 9520,
      "æĶµ": 9521,
      "æµ¬": 9522,
      "æµī": 9523,
      "ç®ĩ": 9524,
      "ç®Ļ": 9525,
      "çĦĭ": 9526,
      "é«Ī": 9527,
      "æ±į": 9528,
      "è½ĺ": 9529,
      "è¶Ķ": 9530,
      "çŁ¼": 9531,
      "ç¾ĳ": 9532,
      "ç¾ĸ": 9533,
      "çĿİ": 9534,
      "ç¤¡": 9535,
      "åĢķ": 9536,
      "æ®²": 9537,
      "æŁµ": 9538,
      "ç½³": 9539,
      "ç´ŀ": 9540,
      "ç¯¥": 9541,
      "éķĪ": 9542,
      "çĥ´": 9543,
      "éĥĽ": 9544,
      "ç¬±": 9545,
      "èį¬": 9546,
      "æĳ»": 9547,
      "å§ī": 9548,
      "ç¥¼": 9549,
      "èĪ¢": 9550,
      "æ¨«": 9551,
      "éĴĨ": 9552,
      "çĬŁ": 9553,
      "éĵ¥": 9554,
      "é¸ļ": 9555,
      "çħ³": 9556,
      "åĶ¶": 9557,
      "æ¤¤": 9558,
      "æħĨ": 9559,
      "é²ļ": 9560,
      "æ½¾": 9561,
      "æĵĦ": 9562,
      "æĵĹ": 9563,
      "åł®": 9564,
      "é±¸": 9565,
      "éŃŁ": 9566,
      "æĩĲ": 9567,
      "ç¹Ĩ": 9568,
      "ç¹ķ": 9569,
      "ç¹Ń": 9570,
      "éŀ²": 9571,
      "è¸§": 9572,
      "èĨ®": 9573,
      "éĸ¾": 9574,
      "å««": 9575,
      "è³¤": 9576,
      "çŀµ": 9577,
      "é³İ": 9578,
      "éīĹ": 9579,
      "æ§ľ": 9580,
      "èŁ¢": 9581,
      "èŁı": 9582,
      "å¬¿": 9583,
      "è¬Ķ": 9584,
      "è¬Ĺ": 9585,
      "éĬĵ": 9586,
      "ðŁĮİ": 9587,
      "âĪ«": 9588,
      "éı¢": 9589,
      "é®¨": 9590,
      "ãĥ¬": 9591,
      "ðŁįµ": 9592,
      "ðŁĴĥ": 9593,
      "ðŁĴĨ": 9594,
      "ðŁĴĹ": 9595,
      "éĪİ": 9596,
      "æ«Ĩ": 9597,
      "âħĵ": 9598,
      "ãĤĦ": 9599,
      "é¯Ī": 9600,
      "äĨī": 9601,
      "ãłł": 9602,
      "ÂŃ": 9603,
      "Ä§": 9604,
      "Ëĩ": 9605,
      "Î¿": 9606,
      "Ñģ": 9607,
      "âĥ": 9608,
      "ãħ": 9609,
      "ëĭ": 9610,
      "ï¼º": 9611,
      "ãĢŀ": 9612,
      "åıĩ": 9613,
      "çĶ¡": 9614,
      "åĴ®": 9615,
      "åľ¬": 9616,
      "åĬ¹": 9617,
      "å¸¡": 9618,
      "ä¼Ī": 9619,
      "å¯¢": 9620,
      "çİİ": 9621,
      "æīķ": 9622,
      "æŀ¹": 9623,
      "æłĦ": 9624,
      "åį£": 9625,
      "ä¿ħ": 9626,
      "æ°İ": 9627,
      "åĵķ": 9628,
      "çĲ¹": 9629,
      "æĻ«": 9630,
      "æĻĦ": 9631,
      "æ¯¸": 9632,
      "æįĥ": 9633,
      "çºķ": 9634,
      "æ²¨": 9635,
      "æ²¬": 9636,
      "éĻľ": 9637,
      "èīŃ": 9638,
      "çľ¢": 9639,
      "çĤ»": 9640,
      "è¶¯": 9641,
      "è¶ĳ": 9642,
      "ç³µ": 9643,
      "è°¿": 9644,
      "è°ĩ": 9645,
      "æģĿ": 9646,
      "ç©¸": 9647,
      "å¢Ĺ": 9648,
      "èĤľ": 9649,
      "å»ĭ": 9650,
      "åĢ®": 9651,
      "ç¡Ĺ": 9652,
      "é¡Ķ": 9653,
      "ç¯¸": 9654,
      "èĲļ": 9655,
      "è¢´": 9656,
      "éķ±": 9657,
      "éĥ¿": 9658,
      "éĥĦ": 9659,
      "éĥŀ": 9660,
      "è·½": 9661,
      "ç¬ķ": 9662,
      "éĽĺ": 9663,
      "åĿ±": 9664,
      "çĭ½": 9665,
      "çł½": 9666,
      "åķĲ": 9667,
      "èº¡": 9668,
      "èĻ¡": 9669,
      "æ»Ī": 9670,
      "æ»ı": 9671,
      "é¥©": 9672,
      "é¥Į": 9673,
      "æĳĲ": 9674,
      "å§¤": 9675,
      "èĪģ": 9676,
      "é»¦": 9677,
      "å£Ī": 9678,
      "é©²": 9679,
      "é©Ģ": 9680,
      "éĴ£": 9681,
      "æ£«": 9682,
      "åĥĽ": 9683,
      "è¥ķ": 9684,
      "æħį": 9685,
      "èħĻ": 9686,
      "åĦķ": 9687,
      "æĵ¡": 9688,
      "çĳ½": 9689,
      "éºĽ": 9690,
      "èĵ¥": 9691,
      "é¾ħ": 9692,
      "é¾ĩ": 9693,
      "éŃĭ": 9694,
      "çĵļ": 9695,
      "åĤ§": 9696,
      "çĩ¬": 9697,
      "çĩ¿": 9698,
      "ç¹Ĺ": 9699,
      "é¹İ": 9700,
      "é¹Ļ": 9701,
      "è¸¨": 9702,
      "è¸ł": 9703,
      "èĨ¾": 9704,
      "åĹĨ": 9705,
      "åĹī": 9706,
      "éĸ§": 9707,
      "è²İ": 9708,
      "æ¾Ĺ": 9709,
      "çĴ½": 9710,
      "ç¶İ": 9711,
      "çĺ§": 9712,
      "çĺĵ": 9713,
      "é¬Ī": 9714,
      "é³Ģ": 9715,
      "è¼¾": 9716,
      "è¼Ģ": 9717,
      "è«´": 9718,
      "æĨĻ": 9719,
      "åµĿ": 9720,
      "èłĥ": 9721,
      "ï½ĺ": 9722,
      "ðŁĺ¢": 9723,
      "ðŁĺ¥": 9724,
      "ðŁĺķ": 9725,
      "ðŁĮ°": 9726,
      "âĹİ": 9727,
      "âĪĪ": 9728,
      "éı½": 9729,
      "éıĺ": 9730,
      "ðŁį°": 9731,
      "ðŁį²": 9732,
      "ðŁįĹ": 9733,
      "ðŁĴ¬": 9734,
      "ðŁĴĸ": 9735,
      "ðŁİ¬": 9736,
      "âĿ¶": 9737,
      "âĿ·": 9738,
      "âĿ¸": 9739,
      "ðŁĲ¼": 9740,
      "ðŁĲķ": 9741,
      "ãĤ°": 9742,
      "âĶĤ": 9743,
      "é·Ħ": 9744,
      "éµ¡": 9745,
      "é¶Ħ": 9746,
      "ðŁĵ·": 9747,
      "âľĶ": 9748,
      "âĤģ": 9749,
      "ðŁĶ¬": 9750,
      "é°»": 9751,
      "é°Ń": 9752,
      "ðŁĽį": 9753,
      "âĥ£": 9754,
      "»¿": 9755,
      "Ã¥": 9756,
      "ÉĶ": 9757,
      "Ê°": 9758,
      "Îł": 9759,
      "Ð»": 9760,
      "ä´": 9761,
      "ï»¿": 9762,
      "ä¸ħ": 9763,
      "ä¸ı": 9764,
      "äºĢ": 9765,
      "ä»³": 9766,
      "åıİ": 9767,
      "ä½§": 9768,
      "ä½¹": 9769,
      "è¯¼": 9770,
      "è¯ĵ": 9771,
      "çĶĹ": 9772,
      "è®Ł": 9773,
      "åºģ": 9774,
      "ä¼·": 9775,
      "ä¼Ŀ": 9776,
      "å·»": 9777,
      "å¯¾": 9778,
      "å¾§": 9779,
      "åĨ¨": 9780,
      "å¼Ķ": 9781,
      "æīħ": 9782,
      "æīĬ": 9783,
      "å½ĸ": 9784,
      "çŃĪ": 9785,
      "åįĲ": 9786,
      "æ°½": 9787,
      "åĵ³": 9788,
      "åĵ¿": 9789,
      "å¦Ĺ": 9790,
      "æĽļ": 9791,
      "æİ®": 9792,
      "åĳ¿": 9793,
      "æĶŀ": 9794,
      "ç«ħ": 9795,
      "æµŁ": 9796,
      "æ¯°": 9797,
      "æ´ĩ": 9798,
      "æ²ĩ": 9799,
      "åģ¾": 9800,
      "èīĳ": 9801,
      "çĦ®": 9802,
      "é«½": 9803,
      "è½µ": 9804,
      "ç³Ī": 9805,
      "ç¾¥": 9806,
      "è°º": 9807,
      "æģĬ": 9808,
      "ç¤ª": 9809,
      "å¢ģ": 9810,
      "å¢Ħ": 9811,
      "å»Ļ": 9812,
      "å»Ŀ": 9813,
      "æ®£": 9814,
      "çĸİ": 9815,
      "ç¡ī": 9816,
      "æŁ»": 9817,
      "çķĿ": 9818,
      "æ¡«": 9819,
      "æ¡Ĭ": 9820,
      "éķĨ": 9821,
      "è·©": 9822,
      "åĿµ": 9823,
      "èº¥": 9824,
      "åĻı": 9825,
      "è¨¶": 9826,
      "é¥¾": 9827,
      "éª¦": 9828,
      "å§«": 9829,
      "å§ŀ": 9830,
      "é»¡": 9831,
      "é»®": 9832,
      "å£Ĵ": 9833,
      "çĮĭ": 9834,
      "èİĽ": 9835,
      "éĴª": 9836,
      "èı«": 9837,
      "ç¦ĩ": 9838,
      "ç¦ĺ": 9839,
      "èĮĩ": 9840,
      "æĲµ": 9841,
      "å²¢": 9842,
      "å²£": 9843,
      "å²Ī": 9844,
      "å¨Ń": 9845,
      "é²®": 9846,
      "èħĺ": 9847,
      "æĴĥ": 9848,
      "åĦĩ": 9849,
      "æ¿ĺ": 9850,
      "æ¹ĭ": 9851,
      "é±Ī": 9852,
      "é¼Ĺ": 9853,
      "èĵ§": 9854,
      "é¾Ģ": 9855,
      "é¾Ĩ": 9856,
      "èĶŁ": 9857,
      "éĨµ": 9858,
      "åĤļ": 9859,
      "éŀ¶": 9860,
      "èĨ°": 9861,
      "åĹ®": 9862,
      "èĿ¤": 9863,
      "è²¯": 9864,
      "çµĥ": 9865,
      "è©§": 9866,
      "çŀį": 9867,
      "éłµ": 9868,
      "é¬Ļ": 9869,
      "è««": 9870,
      "ç·²": 9871,
      "ç·ŀ": 9872,
      "æĨĿ": 9873,
      "çį°": 9874,
      "ç°ı": 9875,
      "çĢģ": 9876,
      "çĢİ": 9877,
      "èŁľ": 9878,
      "ç¸¹": 9879,
      "ç¸Ĩ": 9880,
      "èłµ": 9881,
      "ï½¢": 9882,
      "éĬ¹": 9883,
      "éĬĥ": 9884,
      "éĮ¨": 9885,
      "éĮ²": 9886,
      "éĮĵ": 9887,
      "ðŁĺ´": 9888,
      "ðŁĺµ": 9889,
      "ðŁĮ¤": 9890,
      "ðŁĮ¬": 9891,
      "ðŁĳĪ": 9892,
      "éİĮ": 9893,
      "âĪª": 9894,
      "âĪĢ": 9895,
      "âĸĪ": 9896,
      "éı»": 9897,
      "é¨£": 9898,
      "é¨ĥ": 9899,
      "ðŁį½": 9900,
      "ðŁįĩ": 9901,
      "ãģ£": 9902,
      "ãģł": 9903,
      "ðŁİ¥": 9904,
      "ðŁİ¸": 9905,
      "ðŁİ¾": 9906,
      "ðŁĲ¥": 9907,
      "ðŁĲ¬": 9908,
      "ãĤı": 9909,
      "âĺĶ": 9910,
      "ðŁıĢ": 9911,
      "é´ĥ": 9912,
      "éµ°": 9913,
      "ðŁļª": 9914,
      "âľĸ": 9915,
      "ãĦł": 9916,
      "Âº": 9917,
      "Ã«": 9918,
      "Ãĺ": 9919,
      "ÅĤ": 9920,
      "Î¨": 9921,
      "áµ": 9922,
      "äĶ": 9923,
      "ä¸¡": 9924,
      "ï¼¾": 9925,
      "ä½½": 9926,
      "ä½ĩ": 9927,
      "å¤Ĥ": 9928,
      "éĩļ": 9929,
      "ä¼£": 9930,
      "è¦³": 9931,
      "å¯Ľ": 9932,
      "åĨª": 9933,
      "æķĶ": 9934,
      "çī´": 9935,
      "å¼®": 9936,
      "æī±": 9937,
      "æŃŁ": 9938,
      "èĢµ": 9939,
      "çŃ´": 9940,
      "èĩį": 9941,
      "æ°³": 9942,
      "æ°Ĥ": 9943,
      "æĽĩ": 9944,
      "åĳ«": 9945,
      "æĭ¶": 9946,
      "æĶ¢": 9947,
      "ä¾ģ": 9948,
      "ä¾ĸ": 9949,
      "æµ¹": 9950,
      "æµĦ": 9951,
      "æĮ¢": 9952,
      "è¾º": 9953,
      "ç®¦": 9954,
      "ç®¯": 9955,
      "é«¹": 9956,
      "éĶĶ": 9957,
      "çŁī": 9958,
      "è°«": 9959,
      "çĿı": 9960,
      "ç¤§": 9961,
      "ç¤Į": 9962,
      "èĬĳ": 9963,
      "åĸ¤": 9964,
      "åĸ¶": 9965,
      "å¢¦": 9966,
      "çĸ¢": 9967,
      "éĤĩ": 9968,
      "è¢Ĩ": 9969,
      "éļ©": 9970,
      "éļ®": 9971,
      "åŀ¸": 9972,
      "è·§": 9973,
      "èģį": 9974,
      "åĿľ": 9975,
      "çĭģ": 9976,
      "çĭĥ": 9977,
      "åķħ": 9978,
      "èºĬ": 9979,
      "èºĲ": 9980,
      "èĭĺ": 9981,
      "èįĺ": 9982,
      "çĹĦ": 9983,
      "çĹľ": 9984,
      "éªŃ": 9985,
      "æ¼»": 9986,
      "é»ģ": 9987,
      "èĥĤ": 9988,
      "èĦ£": 9989,
      "èı¶": 9990,
      "èı»": 9991,
      "è£²": 9992,
      "è£ĭ": 9993,
      "éĵı": 9994,
      "éĵĺ": 9995,
      "é¸§": 9996,
      "èĮĢ": 9997,
      "ç¿¯": 9998,
      "çħķ": 9999,
      "åĶĥ": 10000,
      "æ¦ĳ": 10001,
      "å²¨": 10002,
      "é²¡": 10003,
      "é²¼": 10004,
      "é²¿": 10005,
      "çª±": 10006,
      "èħ§": 10007,
      "åĦ¦": 10008,
      "èŀĵ": 10009,
      "æ¿ī": 10010,
      "åłĮ": 10011,
      "éºĳ": 10012,
      "åª®": 10013,
      "é¼½": 10014,
      "é¼Ī": 10015,
      "é¾¢": 10016,
      "éŃ·": 10017,
      "èŃģ": 10018,
      "èŃĬ": 10019,
      "æ¥Ĺ": 10020,
      "çĵĥ": 10021,
      "åĤŀ": 10022,
      "çĩľ": 10023,
      "çĩĿ": 10024,
      "æĩ½": 10025,
      "èª¡": 10026,
      "èª¹": 10027,
      "èªŃ": 10028,
      "èĸ¶": 10029,
      "é¹Ł": 10030,
      "è¸¶": 10031,
      "åĹĮ": 10032,
      "èĿ»": 10033,
      "è©Ł": 10034,
      "å´±": 10035,
      "çĴĽ": 10036,
      "ç¶¸": 10037,
      "ç¶Ļ": 10038,
      "é½¦": 10039,
      "çĺı": 10040,
      "æª«": 10041,
      "è¼ĵ": 10042,
      "è«¤": 10043,
      "è«º": 10044,
      "âĦı": 10045,
      "åļ¥": 10046,
      "åļŁ": 10047,
      "è¤Ķ": 10048,
      "è¤ķ": 10049,
      "è¤Ļ": 10050,
      "çįº": 10051,
      "çĢ§": 10052,
      "ç¸¯": 10053,
      "èłĭ": 10054,
      "éĮ³": 10055,
      "éĦ«": 10056,
      "âĳ´": 10057,
      "âĳµ": 10058,
      "âĨĶ": 10059,
      "ðŁĺĩ": 10060,
      "ðŁĺŀ": 10061,
      "ðŁĮĥ": 10062,
      "ðŁĮĮ": 10063,
      "ðŁĮļ": 10064,
      "ðŁĳĳ": 10065,
      "å¶ķ": 10066,
      "âĪ´": 10067,
      "âĪĨ": 10068,
      "ãĥķ": 10069,
      "éĳ£": 10070,
      "ðŁįľ": 10071,
      "ãģ©": 10072,
      "ãģĪ": 10073,
      "ï¿¼": 10074,
      "ðŁĲ¸": 10075,
      "ðŁĲŃ": 10076,
      "ãĤ¢": 10077,
      "ðŁĻĤ": 10078,
      "ðŁĻĥ": 10079,
      "é·Ĺ": 10080,
      "éµĬ": 10081,
      "ï¹£": 10082,
      "ï¹Ĵ": 10083,
      "ðŁ¦Ĩ": 10084,
      "âķ¯": 10085,
      "âķ³": 10086,
      "ìĿ´": 10087,
      "ÃŁ": 10088,
      "Ä±": 10089,
      "Äĥ": 10090,
      "Åļ": 10091,
      "ÊĮ": 10092,
      "Ñĥ": 10093,
      "âº": 10094,
      "ã¡": 10095,
      "ãĹ": 10096,
      "äĵ": 10097,
      "ëı": 10098,
      "ìĦ": 10099,
      "çļĿ": 10100,
      "ãĢĹ": 10101,
      "ä»«": 10102,
      "æľ¶": 10103,
      "æĺĲ": 10104,
      "å®¬": 10105,
      "å®Ģ": 10106,
      "åĲ·": 10107,
      "åĬ»": 10108,
      "ç»º": 10109,
      "å¸±": 10110,
      "åĮ¼": 10111,
      "è¦©": 10112,
      "è¦Ī": 10113,
      "é¢³": 10114,
      "æķī": 10115,
      "å¥¬": 10116,
      "çīĢ": 10117,
      "éĹĮ": 10118,
      "æĢĦ": 10119,
      "å¼¢": 10120,
      "æŃ³": 10121,
      "æŃ´": 10122,
      "æŀ§": 10123,
      "èĢ§": 10124,
      "æı¿": 10125,
      "å½¡": 10126,
      "æł´": 10127,
      "æłĮ": 10128,
      "éĿ¦": 10129,
      "åį¨": 10130,
      "åįĮ": 10131,
      "æ³Ļ": 10132,
      "æĥĦ": 10133,
      "âĢ¨": 10134,
      "èĩĮ": 10135,
      "å¦º": 10136,
      "æĻ¸": 10137,
      "æĻĽ": 10138,
[...]
